#version: 0.2
Ġ a
i n
Ġ t
Ġ o
Ġ s
in g
i t
Ġ w
Ġ b
e r
a n
Ġ p
Ġ c
l e
h e
r e
Ġo f
Ġo n
a t
r o
a r
Ġ f
Ġ in
Ġ m
i s
Ġt he
Ġt o
Ġw it
Ġwit h
Ġ h
Ġ g
e n
d ing
Ġ d
Ġ l
Ġs t
a l
Ġan d
r a
o m
n e
c k
o w
e d
e s
u n
e t
o r
t ing
l a
Ġ is
Ġm an
i r
o n
Ġs it
Ġ ne
u p
o p
i l
Ġsit ting
a s
r i
al l
c h
Ġc o
Ġw h
e l
Ġst an
o t
i d
u t
o o
x t
Ġne xt
g e
it e
Ġstan ding
Ġt h
u s
er s
a b
o l
ar d
u r
Ġt ra
w o
k ing
y ing
i g
i c
id e
Ġb e
Ġwh ite
e op
eop le
Ġs k
e b
o ard
Ġh ol
Ġ k
Ġp eople
Ġwom an
Ġ v
Ġhol ding
Ġt ab
f f
Ġ it
un d
a d
Ġd o
Ġtab le
re et
Ġg ro
Ġst reet
Ġ e
Ġp la
l o
Ġ y
Ġth at
Ġp ar
Ġb o
o un
T wo
c e
Ġs h
om e
Ġf i
Ġlar ge
Ġgro up
ers on
el d
Ġdow n
Ġs m
Ġ riding
Ġfi eld
Ġb at
Ġp erson
Ġc at
a ch
Ġc lo
v e
Ġdo g
Ġ up
u m
Ġt en
n is
Ġp i
Ġtra in
a m
Ġs n
Ġw at
Ġten nis
k e
Ġw al
Ġs ide
T he
an d
Ġsn ow
la ck
ron t
Ġb u
Ġf ront
s e
Ġc ar
oun g
u g
ig n
Ġne ar
Ġs ur
Ġo ut
re en
Ġplat e
Ġb lack
Ġsm all
Ġy oung
Ġ room
Ġ red
u e
Ġs ign
i on
re e
Ġb a
h t
Ġbu il
Ġs ome
in d
u l
Ġbuil ding
Ġg ras
Ġgras s
b oard
Ġ ra
Ġ ro
Ġh is
v ing
Ġg reen
Ġsur f
oo d
s ide
Ġsk at
Ġwal king
a y
Ġp h
Ġwat er
Ġ re
Ġbat h
a ir
Ġb l
Ġwh ile
r u
Ġt wo
Ġb y
p h
z z
p t
Ġbl ue
Ġbaseb all
Ġf ood
i m
an t
Ġk it
y c
A n
up le
Ġco uple
Ġbath room
Ġpi zz
Ġot her
ig ht
Ġf l
a in
Ġpar ked
Ġkit chen
Ġh or
Ġh as
t er
Ġba ck
Ġm ot
Ġclo ck
um b
Ġskat eboard
Ġpizz a
ir t
Ġ j
Ġl i
Ġto ilet
ira ff
Ġo ver
Ġ n
Ġfil led
e e
Ġcom p
Ġro ad
ug h
Ġmot or
Ġg iraff
Ġf or
c t
Ġwood en
i e
Ġc a
Ġbe ach
Ġbe ar
Ġfl ying
Ġco vered
ph ant
row n
Ġw e
Ġbo y
Ġ z
Ġele phant
t le
Ġ umb
Ġw a
Ġumb rel
it y
a ge
c yc
Ġm en
ir l
p ed
pt op
Ġd es
Ġb rown
Ġla ptop
Ġmotor cyc
il d
d y
am e
Ġwe aring
Ġg irl
ro ugh
Ġc ity
Ġw ind
Ġ und
Ġcomp uter
Ġund er
Ġp as
Ġth rough
in k
Ġloo king
el low
Ġben ch
Ġe ach
Ġg ame
ir d
Ġs ink
Ġd is
Ġy ellow
Ġplay er
Ġz eb
ck s
Ġwind ow
u b
ro s
Ġdes k
Ġch air
Ġb ird
ris b
Ġg las
ur t
Ġch ild
Ġf rom
Ġsurf board
Ġgiraff e
s t
Ġbo at
Ġhor se
T h
risb ee
Ġca ke
Ġt ru
Ġph one
Ġp o
Ġe ating
Ġpict ure
Ġli ving
Ġh and
' s
Ġmotorcyc le
Ġumbrel la
Ġst op
p ing
ros s
Ġare a
Ġco urt
Ġm o
Ġair p
Ġt a
Ġsit s
Ġs and
Ġtru ck
Ġt ree
Ġclo se
o ve
il l
or t
Ġs p
Ġsh ow
k s
Ġd e
w ay
Ġout side
t o
ul l
Ġlit tle
Ġthe ir
Ġol d
u it
Ġbe h
Ġbeh ind
Ġs w
Ġcon t
Ġop en
p p
Ġsk y
Ġpar k
Ġver y
Ġ A
Ġph oto
Ġsk is
Ġban an
Ġin side
Ġsk i
Ġmoun t
u ch
Ġg ra
Ġs o
ff ic
Ġf risbee
Ġbow l
r y
Ġc ut
Ġf en
i f
Ġcel l
Ġs c
g round
Ġb i
Ġtra ffic
Ġ T
Ġst at
en t
Ġcoun ter
Ġto get
Ġtoget her
Ġm ir
a p
Ġs uit
Ġmir ror
ce an
Ġo cean
Th ree
Ġd ri
Ġzeb ra
Ġsand w
Ġco uch
Ġsh irt
ct ion
Ġback ground
al k
Ġh y
Ġwa ve
Ġtow er
ed dy
Ġ W
d le
Ġhy d
Ġtra vel
g ing
Ġa c
Ġin to
Ġfen ce
Ġhyd rant
Ġshee p
w alk
s ing
iff erent
Ġt eddy
Ġs l
Ġh ot
Ġit s
Ġoran ge
Ġra c
Ġglas s
Ġre f
Ġm id
h ing
Ġbun ch
Ġd ifferent
Ġdis p
Ġ run
Ġtra cks
Ġflow ers
Ġside walk
l y
ie w
Ġve get
Ġd irt
q uet
Ġh an
Ġv ase
Ġsandw ich
m ent
Ġt ie
Ġbab y
Ġac ross
Ġveget ab
Ġtravel ing
u ff
P eople
Ġh ill
Ġrac quet
Ġgra z
ot her
Ġmount ain
Ġalon g
Ġv iew
Ġan other
d s
Ġlot s
Ġher d
Ġslop e
M an
Ġdri ving
im al
Ġdisp lay
Ġg o
Ġm e
a ce
Ġ ri
ug g
Ġmid dle
Ġvegetab les
i p
Ġhan ging
Ġ S
us h
Ġcar s
Ġan imal
Ġf ruit
ugg age
Ġbi ke
S e
Ġpie ce
Ġta king
t here
Ġman y
Ġairp lane
Ġl uggage
Se veral
Ġhe ad
Ġbanan as
Ġelephant s
Ġd res
Ġj um
il ing
Ġf e
Ġstat ion
Ġf ull
Ġc up
a ve
Ġc row
Ġh it
Ġb ro
t wo
ul t
Ġlon g
Ġgraz ing
Ġab ove
Ġcrow d
Ġcont rol
Ġbo x
o us
Ġsnow board
Ġgrass y
Ġref rigerator
ut s
Ġ F
i i
c c
or m
Ġdog s
Ġbuilding s
o ur
n ing
Ġh at
Ġst uff
Ġd ay
Ġ im
Ġbe ing
g s
I N
Ġ B
Ġp re
ol i
Ġ un
Ġs a
Ġe m
cc oli
Ġthe m
Ġbro ccoli
Ġke y
Ġri ver
Ġw ine
ap er
Ġs un
Ġmet al
Ġstuff ed
S ome
Ġtra ck
Ġm a
Ġpre p
at h
d er
Ġl ush
Ġpas sen
Ġg u
rid ge
Ġso ccer
Ġcut ting
Ġ C
Ġp air
Ġsign s
t en
q u
Ġth ree
Ġse veral
Ġim age
Ġb rick
Ġkey board
Ġde c
Ġchild ren
t h
Ġp an
Ġt ele
Ġc le
ur n
Ġp aper
Ġ using
Ġj et
ĠW ii
Ġairp ort
Ġcow s
m s
Ġdo ing
pt y
Ġre m
Ġboat s
f ul
ari ous
Ġd uring
Ġbo dy
Ġre ady
Ġem pty
ig h
d o
Ġgu y
H E
Ġp er
Ġcar rying
v is
ub le
Ġra il
vis ion
Ġchair s
Ġse at
Ġtele vision
Ġn ight
Ġsw inging
Ġdec orat
Ġ O
Ġwat ching
Ġdo uble
Ġrem ot
Ġsnow y
Ġgo ing
t ed
u d
Ġa g
Ġcolor ful
Ġb re
Ġhol ds
Ġcor ner
o ut
ain st
Ġag ainst
Ġt rick
Ġwh o
Ġh igh
Ġpo sing
Ġbear s
i ve
Ġk n
Ġp ain
Ġanimal s
Th is
Ġsuit c
Ġbanan a
Ġmon itor
R E
Ġme at
Ġshow er
Ġpassen ger
Ġjum ping
Ġ P
s ome
Ġb ridge
Ġloo ks
ar t
is s
Ġlight s
Ġv arious
Ġskat e
Ġf ace
Ġv ide
Ġsm iling
a c
Ġvide o
Ġbed room
Ġco ff
Ġcoff ee
Ġp ur
Ġremot e
Ġsc reen
Ġt ub
Ġ N
o c
Ġth row
Ġba g
Ġdon uts
Ġslee ping
ĠF risbee
Ġite ms
i an
Ġh ome
a urant
Ġout door
p le
Ġbe a
Ġp ull
terse ction
Ġrest aurant
al f
Ġm ic
Ġwa iting
l ing
f orm
Ġin tersection
Ġrun ning
Ġh ouse
Ġboo k
Ġf urn
w een
Ġsur round
it ure
Ġfurn iture
Ġbet ween
Ġcab inet
ĠT V
Ġla ke
IN G
Ġsl ice
Ġbas ket
Ġsurround ed
Ġat t
Ġbea ut
Ġbicyc le
Ġget ting
Ġsh o
ar k
g g
Ġc ur
Ġrun way
Ġh alf
Ġt y
Ġbeaut iful
Ġram p
Ġdres sed
Ġh air
Ġp e
if e
or s
Ġcar rot
ar s
Ġad ult
Ġbus y
Ġto y
Ġprep aring
Ġcontrol ler
Ġab out
Ġsurf er
Ġ I
Ġc l
Ġbot tle
f t
Ġj acket
Ġk ids
ugh n
ra w
Ġmic row
h ic
Ġkn ife
Ġwindow s
Ġdo ughn
Ġli ke
iss ors
Ġty p
u ce
Ġth is
Man y
Ġp ro
Ġmicrow ave
Ġblan ket
p s
c lo
Ġpur ple
Ġg re
Ġve hic
in ten
inten do
Ġk id
Ġs il
Ġmad e
Ġsuitc ase
Ġsc issors
Ġshow ing
Ġclo udy
Ġdis h
Ġfe w
Ġh im
Ġsurf ing
Ġb ran
c l
Ġst e
Ġphoto g
t ry
Ġ M
ne ath
Ġunder neath
Ġf our
Ġd ark
Ġt e
oc olat
Ġloo k
Ġshel f
Ġsil ver
I T
ocolat e
Ġen clo
n y
Ġshow n
Ġ L
Ġn o
Ġc ross
Ġon to
Ġd ry
l ic
Ġbre ad
Ġcoun try
Ġch ocolate
Ġh ave
ĠT HE
Ġn umb
Ġfor k
t y
Ġin cl
e ct
ĠN intendo
Ġgre y
F our
Ġz oo
at s
Ġbat ter
Ġstat ue
at e
Ġ "
Ġcabinet s
Ġgirl s
Ġma king
a k
Ġper ched
Ġthrow ing
Ġboy s
Ġcom ing
Ġphotog raph
Ġle aning
s ure
Ġdres s
Ġd in
Ġcarrot s
A T
i al
ub lic
im e
res h
i z
at ion
as h
Ġ D
Ġenclo sure
Ġtow ards
Ġhit ting
Ġt v
Ġplast ic
Ġflow er
d ay
Ġnumb er
th is
Ġtyp es
Ġne ck
m ale
Ġb right
Ġdon ut
Ġcle ar
Ġo b
Ġp ublic
Ġme al
Ġen g
Ġ H
ph one
om an
ĠI S
N D
Ġsw ing
L E
Ġe x
Ġf ries
Ġbran ch
Ġg iant
Ġf resh
Ġp ad
Ġtrain s
Ġpo st
Ġbirth day
Ġtooth b
Ġsho es
Ġpas sing
W oman
ato es
j o
m et
Ġp at
Ġdin ner
Ġpo in
Ġen jo
Ġlam p
Ġflo ating
a ving
m ing
Ġatt ached
Ġdisplay ed
Ġar m
ad e
Ġplant s
Ġv an
um p
Ġp ut
Ġsun ny
Ġfe male
Ġpain ted
Ġhel met
Ġcle an
Ġsm art
Ġwall s
Ġpret ty
Ġed ge
ĠO N
Ġapp l
Ġplat form
ff it
Ġs qu
b y
der n
s p
Ġpillow s
Ġt ime
Ġhill side
Ġcom m
Ġn ice
Ġmo ving
Ġle aves
Ġappl ian
i x
Ġas s
ffit i
Ġtow el
an ce
Ġsw im
al s
Ġm ult
Ġd raw
a g
Ġcat ch
Ġe at
Ġpit cher
Ġcat tle
an s
Ġsurf ace
Ġ G
Ġy ard
re am
Ġfruit s
b le
Ġcar ri
Ġm il
Ġcl ut
Ġgra ffiti
Ġcoo king
Ġun iform
Ġen d
Ġw ild
Ġwat ch
Ġsa il
Ġmo dern
Ġve gg
Ġge ar
Ġpit ch
Ġf am
Ġeng ine
Ġdoughn ut
Ġcur b
in i
Ġch ur
Ġchur ch
Ġf oot
Ġt iled
ar b
Ġtoothb rush
Ġsome one
B lack
Ġmountain s
d e
T HE
Ġar ran
A N
Ġb rushing
Some one
Ġthe y
S m
Ġsa uce
Ġcont aining
Ġvegg ies
Ġe y
ĠO F
Ġcell phone
ro ad
Y oung
Ġd u
Ġs ub
Ġle ft
Ġswim ming
Ġw ire
Ġcut e
Ġcarri age
Ġ urin
Ġwor king
j ect
Ġfam ily
Ġtow n
Ġenjo ying
b o
Ġce ment
Ġrail road
Ġne w
s ion
Ġdesk top
ar ge
Ġpe pp
Ġbatht ub
a f
Ġcont ainer
Ġbowl s
Ġh aving
he ad
L arge
Ġst icking
Ġset ting
m ac
Ġe qu
Sm all
Ġsp oon
Ġbox es
Ġsm o
Ġcurt ain
Ġsing le
Ġhot do
Ġb rush
Ġtar mac
E R
e m
Ġob ject
it ion
Ġincl uding
Ġ E
Ġf ree
Ġre ading
Ġput ting
S t
th ree
Ġt ile
ur ry
Ġsp e
in t
ĠC h
Ġf ar
Ġj ust
ser t
ro up
Ġhot el
Ġf o
Ġst all
Ġh ard
Ġrest room
Ġg athered
Ġv ariety
A R
Ġmat ch
iz ed
Ġcoo k
Ġdes sert
Ġf ridge
Ġtra il
ron ic
Ġf an
i v
Ġsh aped
Ġre aching
Ġshow s
G roup
Ġback p
. .
Ġ R
ren ch
Ġref lection
Ġguy s
IT H
ĠW ITH
Ġcon c
Ġser ving
Ġequ ip
Ġequip ment
Ġc ream
Ġh ay
Ġclut tered
Ġdraw n
ret e
Ġconc rete
Ġmes s
Ġfl ies
ver t
Ġdist ance
Ġelect ronic
p lace
Ġso f
Ġfe at
Ġw ii
Ġser ve
Ġst riped
Ġshort s
Ġ .
v y
Ġon ion
b all
Ġwed ding
Ġsp ace
Ġtrun k
ar row
Ġp a
Ġsel f
Ġpo ses
Ġpot atoes
rist m
ristm as
Ġ rug
Ġf rien
Ġprep ares
Ġper forming
Ġfire place
Ġbackp ack
Ġh uge
Ġ rural
ic al
Ġn arrow
l ight
Ġ ice
Ġad vert
c ial
Ġkit ten
Ġpad dle
Ġre ads
Ġh o
Ġsch ool
Ġwa it
ic ing
Ġbe f
z er
g las
int age
Ġbre ak
Ġbef ore
Ġblen der
Ġsof a
f es
fes sion
st ru
Ġso up
Ġhotdo g
Ġst air
il s
ort ment
Ġjet l
P erson
Ġst aring
res s
b er
un ch
c y
Ġfar m
Ġsqu are
Ġey es
Ġsh ip
Ġle gs
b an
Ġdis c
Ġout f
Ġpot s
fession al
Ġce iling
Ġor n
Ġdo es
g o
les s
Ġm ini
i que
Ġe ar
glas ses
Ġam on
C lo
w n
Ġa way
ĠT H
Ġst raw
Ġv intage
Ġle af
Ġwalk way
Ġstru ct
s uit
Ġpast ure
re ad
Ġwel l
Ġf rench
Ġk icking
O P
is h
Ġpro d
f ast
Ġm ust
er cial
Ġsp ort
it al
Ġle ather
Ġlo ading
Ġass ortment
Ġjetl iner
Ġapp ro
Ġtow ard
Clo se
Ġsay s
L A
ĠCh ristmas
Ġurin als
Z eb
S k
ur ban
Ġle ash
Ġfree zer
Ġste ps
n ic
Ġwet suit
Ġcar p
Ġrip e
Ġpal m
Ġhigh way
Ġrol l
b ing
s h
Ġbreak fast
Ġst ain
Ġco at
i um
Ġsh ade
Ġincl udes
Ġn ap
Ġdoor way
Ġsun glasses
Ġse a
Ġover head
p eople
Ġgraz e
Ġpast a
D o
Ġwor k
Ġsm iles
Ġlay s
t e
Ġclo uds
Ġoutf it
h ite
on s
Ġde v
R O
Ġh arbor
w ing
Ġself ie
Ġ U
Ġmess y
ĠS T
Ġpon d
Ġj u
Ġe ggs
Ġm ix
Ġmult iple
ines s
c akes
Ġgol d
k in
Ġg love
Ġstruct ure
Ġhol d
Ġsub way
O ne
Ġled ge
Ġla wn
Ġg ate
eron i
Ġ ump
Ġpant s
art ment
Ġstain less
Ġs upp
i o
Ġphoto s
ur f
Ġrock y
Ġmil k
Ġapp e
Ġg arden
Ġst acked
Ġf ac
le y
Ġt urn
Ġf rosting
O R
Ġpic nic
Ġm it
st um
Ġpepp eroni
Ġte am
Ġex p
I S
Ġst ack
Ġroo f
Ġdol l
Ġf un
Ġsho ul
B o
Ġfan cy
Ġf rame
Ġdecorat ive
Ġh am
ap e
Ġbl urry
Ġtoilet s
ĠTH AT
Ġco stum
C K
Ġump ire
Ġadult s
m any
Ġcomm ercial
Ġben ding
Ġbar n
Ġbus iness
Ġ V
Ġis land
a z
Ġsp rink
Ġtrans it
Ġplay s
Ġcarp et
Ġpro fessional
Ġfrien ds
u al
Ġsmo ke
O M
Ġt w
Ġmach ine
L D
Ġg arage
ain s
C at
Ġsty le
b s
C h
Ġsign al
Ġw rapped
Ġarran ged
V arious
Ġblon de
B aseball
St reet
Ġfore ground
Ġmit t
Ġ qu
Ġgreen s
Ġf ried
uten s
Ġ utens
Ġorn ate
Ġl unch
L L
Ġtom atoes
I n
l ies
Ġfac ing
Ġ urban
Ġclas s
M en
uff in
Ġde p
Ġsuit s
Ġrac ing
Ġtyp e
Ġpow er
ke y
ĠA m
it ary
n s
a il
c o
Ġpart ially
Ġe gg
t ain
Ġprod uce
Ġne at
o s
Ġarran gement
Ġ J
Ġf ake
Ġs im
Ġju ice
Ġsa us
Ġdu cks
Ġf ash
Ġsem i
Ġle ading
Ġw ide
i ble
Ġsheet s
Ġbe ige
Ġfeat ures
Ġamon g
s ian
Ġpa w
Ġover loo
Ġ used
Ġmo del
Ġbot tom
i ke
OP LE
E OPLE
Ġmil itary
Ġst ick
E S
G E
Ġrest s
R A
Ġbro ken
Ġcol lection
Ġp ract
Ġe vent
Ġf allen
Ġpick up
o u
Ġm ush
Ġche f
Ġmust ard
Ġre ar
Ġconstru ction
ĠA sian
Ġg ar
Ġmult i
Ġstair s
Ġutens ils
Ġto d
un t
Ġst rip
Ġsport s
Ġpet ting
i b
Ġstreet s
E N
Ġtom ato
Ġsupp lies
Ġroad way
Ġget s
Ġst ill
Ġvan ity
il i
ĠL on
Ġst unt
Ġc ir
O N
Ġsh aring
Ġhosp ital
Ġ icing
A d
Ġsprink les
Ġg laz
Ġpas s
Ġbut ter
Ġh um
Ġprop el
l d
Ġsel ling
Ġp l
Ġpat ch
Ġ use
Ġlet t
Ġball s
Ġj e
Ġle ans
bo at
Ġcostum e
Ġli qu
O T
Ġracket s
Ġpot ted
Ġjet s
Ġtod dler
Ġh app
Ġshel ves
m an
Ġdu ck
Ġdee p
Ġsh allow
R ed
O W
Ġprep ared
Ġdev ice
Ġnap kin
at ure
iv id
Ġt ur
Ġlett uce
Ġsw e
Ġlo aded
Ġ K
Ġw riting
Ġhimsel f
Ġlo g
Ġs y
Ġpur se
Ġch ili
Ġcomp et
ĠP EOPLE
ĠLon don
Ġhead phones
um in
Ġap artment
B l
Ġmas s
Ġbuil t
Ġc ig
Zeb ras
ul pt
t ress
Ġbasket s
Ad ult
in al
Ġtos sing
Ġon ly
Ch ild
c ing
ult iple
Ġg rill
Ġant ique
Ġt rol
W hite
Ġas lee
Ġaslee p
Ġitsel f
w ard
Ġtan k
c ape
e ar
d ling
Ġm ud
Ġbe verage
ĠB en
Ġadvert isement
Ġstraw ber
Ġtowel s
Ġcook ies
Ġste am
Ġre p
Ġwait s
F ive
Ġche ckered
d d
Ġsc ulpt
Ġw inter
Ġmat tress
un g
Ġter m
C om
Ġsp ot
M ultiple
Ġpick le
Ġattem pting
Ġpip e
Ġle g
Ġlad ies
I C
Ġcur led
Ġsp read
Ġf alling
Ġrop e
Ġcountry side
Ġobject s
Ġ rusted
Ġcomm uter
Ġm issing
Ġm ug
Ġad j
Ġst ret
ist s
Ġfoc us
Ġstop light
Close up
Ġde ad
ow s
Ġass orted
Ġrain bow
Ġpat io
Ġrela x
Ġcig aret
Ġwith out
Ġblanket s
Ġfash ioned
Ġwh at
Ġt re
Ġtray s
Ġind ivid
Ġnew sp
Ġtravel s
Ġcon d
Ġse p
O U
Ġw rit
Ġappro aching
Ġmush rooms
Ġket ch
Ġketch up
Ġin f
l s
Ġp upp
Ġoverloo king
ĠAm eric
LA Y
Ġcl im
Ġclose up
E D
g an
Ġsaus age
c ake
Ġ 3
Ġmass ive
Ġsl iding
Ġ rusty
Ġtoy s
Ġj ar
G u
Ġterm inal
Ġperson al
Ġdry er
Ġmotor b
Ġne on
Ġcom f
g ue
Ġton gue
Ġref lecting
Ġg iving
C ars
Ġpedest rians
Ġst ad
Ġstad ium
Ġh all
Ġsm ile
Ġdish w
Ġdishw asher
Ġwrit ten
Ġ Y
Ġk ick
A B
Ġchees y
Ġpupp y
Ġshirt s
Ġc ub
ĠAmeric an
Ġcompet ition
a vy
ĠB O
Do g
Ġt un
y ard
Ġplat ter
Ġo dd
Ġelectronic s
Gu y
Ġglaz ed
Ġpract icing
Ġpepp ers
ur ger
Ġta x
Ġnewsp aper
uff y
S E
Ġn um
Ġm us
Ġey e
IT T
n ow
V iew
Ġch ain
Ġche cking
Ġtun nel
Ġt iny
Ġgo at
Ġloc ated
usp en
Ġs uspen
Ġs ized
Ġelder ly
m er
Bo y
Ġbright ly
Ġmix ed
O ld
on d
Ġf rosted
Ġb ride
Ġg as
ĠT O
Ġenjo y
Ġvis ible
Ġran ge
' t
Ġd irections
Ġn ame
Ġpast ries
u ck
Ġresident ial
Ġs iz
Ġe ither
Ġhit s
P h
ĠB ig
Ġleaf y
Ġcigaret te
ot ive
Ġboot s
a v
iraff e
f our
sh irt
Ġhor ns
Ġsim ple
ĠW A
I R
Ġpropel ler
Ġ 1
Child ren
Ġtrol ley
Ġ 2
Ġbasket ball
Ġm uffin
ĠS U
Ġtax i
Ġadvert ising
p y
Ġliqu id
Ġswe ater
Ġmas k
Ġfl ip
Ġsn iff
i a
Ġste ak
Ġacces s
Ġlands cape
Ġform ation
Ġche wing
Ġlib rary
Ġje ans
Ġmic rophone
Ġf ro
Ġst ir
L oo
Ġ if
Ġc ush
m ade
l ish
Ġclim bing
Ġt in
Ġsh iny
Ġcar go
Ġf urry
b ed
E le
Ġun f
Ġsmo king
Ġto ast
d a
Ġ 6
Ġpair s
Ġhan g
Ġspe akers
n a
re w
Y ellow
Ġham b
. "
ĠB A
Ġmuse um
Ġgarb age
Ġa head
Ġsculpt ure
Ġh ugging
Ġneat ly
Ġtooth p
Ġfo il
co h
Ġal coh
Ġt rop
Ġtrop ical
Bl ue
Ġte a
u zz
Ġc rust
Ġguit ar
Ġst age
Ġhersel f
LD ING
Loo king
Ġdelic ious
RE E
Ġclut ter
Ġst ares
gan ized
Ġbat ting
Ġlocom otive
Ġre aches
Ġp ushing
Ġun rip
Ġch andel
Ġcard board
Ġst ring
ab it
Ġh abit
Ġracquet s
Ġg athering
Ġ ill
Ġf ather
Ġ rub
Ġy ou
Ġch asing
Ġkn ives
Ġpedest rian
ĠM AN
Ġwor ds
Ġtur key
b ile
Ġlem ons
Ġsho e
W e
Ġelect ric
Ġk ay
udent s
Ġcross walk
l it
Ġopp os
Ġoppos ite
Ġcol lar
Ġdessert s
Ġch ips
Ġindivid ual
B rown
Ġaccess ories
Ġback yard
Ġgo es
Ġbal cony
Ġgol f
Ġmot ion
O O
izz a
ĠW H
h ouse
S now
C ows
Ġun made
ĠP LAY
se veral
Ġbi kini
ITT ING
Ġgre at
S hee
Shee p
Ġmar ried
Zeb ra
Ġsuspen ded
Ġcour se
ug ar
Ġup right
Ġcup cakes
G iraffes
low ers
Ġgo gg
Ġw rapp
way s
Ġso da
Ġhabit at
S ix
Ġt iger
Ġmotorb ike
" .
C H
Ġfrien d
Ġpan cakes
ĠB U
Ġex h
T raffic
g u
Ġcon f
Ġt ries
Ġt us
S urf
Ġcond iment
Ġcondiment s
Ġtoothp aste
ient s
red ients
H ot
Ġc ru
Ġhall way
Ġtele phone
Ġalcoh ol
Ġfl uffy
Ġwar ning
Ġ iron
Ġa ud
Ġpor ch
Ġbam boo
Ġret urn
Ġent rance
Ġappro aches
Ġe very
Ġdel ivery
Ġco ach
Ġn intendo
K ING
Ġsail boat
ath room
B athroom
IT E
k y
ĠS K
ĠS ITTING
M otor
Ele phant
Ġnat ural
Ġals o
bo y
w are
Ġs ugar
o d
G iraffe
Ġpos ition
Ġcir c
Ġsh adow
Ġprep are
Ġill uminated
k a
c ase
W O
Ġdisp enser
T rain
Ġexh ib
Ġexhib it
Ġfixt ures
Ġal m
Ġla id
t i
Ġst ream
Ġven dor
Ġpat ter
Ġing redients
Ġdes ign
Ġ i
Ġcor n
Ġfo am
e w
Ġfeat uring
Ġst udents
AB LE
as s
Ġst uck
Ġsy stem
ien ce
Ġjerse y
Ġcal m
Ġclass room
Ġth in
Ġele v
T H
Ġc rane
ĠWH ITE
Ġd irection
ĠPLAY ING
m y
F ood
Ġor ganized
Ġwindows ill
Ġwildernes s
Ġcup cake
en nis
urf ing
Ġser v
Ġch an
Ġhel ping
Ġcan o
Ġgogg les
Ġra ised
A s
Ġim p
Ġf all
Ġobst acle
ĠST AND
RA S
L ot
Ġc ree
I D
Ġso ap
Ġbee f
Ġcon nected
Ġg ather
Ġcl iff
Ġ r
in o
Ġf a
Ġcab in
Ġmo bile
Ġjung le
Ġunrip e
Ġan g
Ġper forms
Ġres ort
Ġchandel ier
Ġpla id
Ġsaf ety
Ġadj usting
Ġor der
Ġpla que
uff ed
Ġle aving
Ġch rome
z en
Ġmus ic
G irl
Ġg l
Ph oto
AR D
ĠE n
Ġs ix
Ġfir st
L it
Ġstrawber ries
Ġch opped
Ġkit ty
f o
Ġflat bed
l ine
Ġfun ny
u c
Ġbugg y
ran ge
Ġh ipster
Ġg az
Ġwrapp er
C ouple
Ġthemsel ves
Ġdus k
Ġmo v
Ġcons isting
Ġpe an
at tered
Ġtab by
Ġbou quet
Ġhamb urger
Ġcur vy
j am
Ġpa jam
Ġlo ad
T S
E AR
I E
S c
Ġpian o
Ġle ads
W omen
g in
Ġkay ak
Ġador ned
u x
Ġpee king
ĠT ABLE
Ġme an
Ġbre ast
Ġpar rot
Ġlem on
Ġh a
Ġsurf s
Ġdown town
Ġaud ience
Ġle ague
Ġdisplay s
Bo ats
Ġfresh ly
Ġbel l
H orses
Ġpot ato
Ġpaw s
Ġsiz e
Ġf ry
P izza
Ġcush ion
ĠA ir
A GE
Ġter rain
Ġrelax ing
Ġg ives
ar p
Ġsh arp
Ġk issing
Ġne igh
Ġneigh bor
Ġmag az
M e
ip e
Ġber ries
Ġla ughing
Ġcano e
Ġp ump
Ġtravel ling
th y
Ġcart s
Ġset s
net s
Ġh us
Ġpige ons
L O
b e
Ġtransp ort
Ġpean ut
Ġt rim
Ġ 4
Ġcook ie
ĠW I
As s
Ġcow boy
Ġin j
ĠP ER
RAS S
ĠG RASS
Ġchef s
A M
Ġcree py
Ġw ill
Ġskin ny
Ġhard wood
x y
Ġpow dered
Ġstrawber ry
Ġbalan cing
gg y
c ast
ĠCh inese
D ifferent
Ġhelmet s
Ġhorseb ack
Ġspect ators
Ġn ur
Sk iers
Adult s
c raft
Ġair craft
ant a
Ġwith in
i king
Ġ ,
Ġsep arate
Ġsniff ing
Ġsh ut
Ġfor ward
Ġre cor
Ġdown h
Ġdownh ill
Ġsh rub
Ġst ar
Ġfa ucet
Ġv ol
at ula
Ġsp atula
Ġfol lowing
Ġfab ric
Ġbookshel f
Ġ Q
Ġst rol
Lot s
Ġsl ide
Ġlod ge
I t
Ġqu iet
Ġsh aking
Ġform al
Ġm uch
Ġhe avy
REE T
ĠST REET
Ġe vening
ĠEn g
z e
P air
umin um
Ġal uminum
Ġfoot ball
Ġsh apes
Elephant s
Ġcounter top
S h
B irds
Ġunf inished
Ġsold iers
Ġt rough
h ood
Ġneighbor hood
Ġmagaz ine
Ġsc rat
Ġparach ute
F lowers
Ġport ra
Ġportra it
Ġmag nets
Ġpor celain
I G
n oon
Ġc rate
Ġpine apple
Ġpol ka
Ġsc attered
m ed
ĠWI I
Ġopp onent
Ġport able
Ġban k
Ġon loo
h at
Ġtw in
Ġrib bon
Ġf re
Ġalm ost
Ġslee ps
Ġav ailable
Ġse xy
ro fessional
P rofessional
Ġun us
P ict
H orse
Ġover cast
T eddy
Ġco b
Ġre ach
Ġsqu at
Ġcon vers
Ġsh ines
Ġ us
ĠN ew
Ġcom b
ĠS anta
Ġche cks
Ġbl ur
Ġjel ly
Ġc ry
st al
Ġcry stal
S igns
Ġ utility
Ġh iking
Ġele gant
Ġlam bs
L aptop
Ġg aming
Ġwe ather
Ġrub bing
Ġup on
Ġcol lage
Ġbut ton
Ġkn it
Ġproces s
and w
C E
Ġre ally
C ity
St uffed
Ġ Zebras
ch air
Lit tle
Ġwinds urfing
K ites
Ġceram ic
Ġh ung
Ġstret ching
Ġinf ant
Ġpe ace
ĠH O
U RE
ĠEng lish
Ġgo al
cen ding
Ġmix ing
Ġbill board
Ġhoo ked
Ġnew ly
ant s
Ġext ra
Ġcaf e
an ning
Ġsilver ware
Me at
Ġc uc
b it
Ġrab bit
Ġw rap
Ġhum ming
ĠC LO
ĠCLO CK
Ġte ch
Ġth rew
Ġafter noon
Sk ier
L iving
Ġam ount
L uggage
Ġdist ant
Ġpajam as
ĠBO Y
T ennis
ab ly
Ġmost ly
Ġonloo kers
ĠE LE
Ġbun k
de cker
Ġle ave
Ġrep air
Ġtus ks
Ġre ce
am p
Ġle aping
o v
Ġben d
t s
Ġlam b
Ġunus ual
B unches
ar f
b lack
Ġlay er
s c
ig ital
Ġr h
Ġcomm ode
Ġbus ses
Ġsn ugg
Ġconvers ation
A LL
Ġen v
Ġlear ning
h ouet
Ġd raped
Ġcere al
K E
Ġtre y
Ġp uddle
O n
Ġsh ining
Ġserv ice
Ġphotograph s
Ġobser ving
Ġalar m
Ġun ique
Ġa erial
w ear
A l
Ġind ic
Ġcl uster
Ġd iam
Ġdiam ond
w hite
P lates
Ġche ck
low er
ra ight
Ġvol ley
Ġs uch
P assen
uzz y
Ġplaz a
ID E
Ġcathed ral
p ass
Ġex c
Ġcut ter
Ġbedsp read
ĠF or
Ġstee p
Ġqu ick
Ġsw ans
Ġgar nish
Ġmotorcycl ists
T all
Ġe as
Ġsh rim
Ġshrim p
d rop
Ġback drop
Ġfro zen
U L
Ġmon key
Ġtoilet ries
ĠP H
ĠHO LDING
H e
Ġfo g
ĠU n
Ġcub icle
on g
ĠS p
Ġc re
Ġslow ly
Ġv arieties
Ġh ind
ĠWAT ER
Ġpod ium
Ġslight ly
Ġcapt ured
Ġhead board
Ġcomple x
Ġher bs
Ġdin ning
g nant
Ġcell ular
al thy
Ġhe althy
Ġwaff le
Ġcam ou
Ġcamou f
Ġmov ie
g ie
Ġc ustomers
Ġjun k
Ġh iding
Ġinj ured
Ġg rinding
ĠPER S
ĠPERS ON
a w
Ġex am
ĠSTAND ING
ĠBU I
ĠBUI LDING
Ġch ristmas
ĠS H
Ġd rain
ĠAT V
Ġfre ight
Ġcirc ular
Ġren ov
A ir
Ġn uts
T o
Ġt rio
Ġun lo
Pict ure
Ġd im
Ġdim ly
Ġpro g
Ġcher ry
Ġbl inds
Ġsky sc
Ġun it
Ġd igital
Ġem p
Ġw re
Ġjee p
V e
Ġtiss ue
Ġcomp act
ĠM OU
iron ment
Ġenv ironment
olor ful
C olorful
Ġsil houet
t rak
Ġth ough
Ġblur red
Ġenter tain
Ġsun light
B us
o ad
Ġspe aking
eren ce
l ife
Ġclass ic
Ġlan gu
ĠD IS
Ġair bor
Ġairbor ne
Ġc rib
Ġun coo
Ġuncoo ked
Ġorient al
A r
ul ips
Ġt ulips
Ġo il
Ġbar rel
Ġmon ument
Ġbuff alo
Ġbagg age
Ġrail way
Ġview ed
Ġwindsh ield
F emale
H alf
Ġst raight
Ġincl ude
Ġop erating
R U
C ar
Ġrect an
ĠSU V
A t
B ananas
Ġmam a
Ġwater way
Ġad m
P late
Ġcur ved
Ġp rint
Ġstrol ler
an na
Ġmel ted
Ġsp raying
U E
g reen
Ġcru ise
bo x
il t
Ġgar lic
Ġt ug
Ġeas y
Ġelev ated
c ar
OM E
Ġgl iding
Ġliqu or
LA CK
ĠWOM AN
U R
Ġcur ve
Ġflav ors
Ġsp ray
Ġprod ucts
Ġmust ache
Ġsne akers
U G
Ġbean ie
Ġst able
Ġdash board
nes s
Ġlo b
Ġlob by
Ġth ru
Ġdraw er
Ġsub urban
Ġg ive
Ġso aked
Ġpige on
Ġslee p
Ġpre gnant
Ġem o
Ġsp anning
Ġrad ishes
rop olit
ropolit an
Ġsky line
Com m
Ġcamouf lage
Ġboo gie
Ġro be
Ġem b
Com p
ĠE AT
ĠM ac
Ass orted
f ive
ve y
Ġbel t
T I
Ġa qu
Ġh uddled
rie f
Ġb rief
T WO
IE LD
Ġbip lane
N IS
Ġcar ved
Ġs um
Ġoverloo ks
Ġcycl ist
Ġpo king
Ġt rian
Air p
Ġv alley
al ian
Ġpath way
Ġsp lit
Ġlim b
Ġflav ored
ĠP IC
Ġexten ding
lo y
Ġap ron
het ti
ag hetti
Ġsp aghetti
ĠH IS
ĠC O
Ġban ner
Ġnur sing
P ink
Ġfol low
Ġre g
B en
ĠC la
a ur
Ġpow der
Ġda ughter
Ġhang ar
Cat tle
Ġwild life
Ġlangu age
R ows
Ġch aracters
F F
Ġme adow
Ġcup board
LAT E
ĠP LATE
S p
Ġshrub bery
Ġgu iding
Surf er
Ġd igging
Ġvandal ized
Ġsc ale
ĠU S
ro fo
rofo am
Ġbe gin
am a
S andw
Ġth ird
Ġbuff et
ĠHOR SE
Ġspot ted
Ġpatter ned
Ġfore ign
D e
Ġv illage
Ġdep icting
Ġgu ard
K it
Kit chen
Ġcomp any
Ġbas in
Ġgrab bing
Ġwheel chair
Ġrectan gular
Ġsh ape
Ġtrash c
Ġtrashc an
Ġf uzzy
ry er
Ġle vel
b rush
E L
Ġover pass
R oad
Ġvan illa
Ġpe as
anna h
Ġatt ractive
Ġhood ie
Ġware house
Ġme as
Ġmeas uring
Ġplay ed
Ġloc al
L UE
Ġe ver
Ġpo ised
at ter
B atter
Ġquick ly
Ġy o
Ġsh ark
Ġz one
ĠS OME
Ġeng aged
AT E
ĠUn ited
lay er
Ġswor d
TH IS
S T
in ning
C l
ps i
Ġke pt
Ġhapp ily
Ġch ar
Ġparas ailing
Ġ Zebra
Ġch oppy
Ġo x
Ġmed ium
Ġcoles law
Ġra ising
nam on
Ġc in
Ġcin namon
Ġsmart phone
Ġsomew here
Ġsw ung
Ġdon key
Ġste p
A pples
Ġla ugh
Ġtre at
Ġgazel le
Ġhus ky
Boy s
Ġap art
Ġdan cing
Ġveget ation
Ġrelax es
Ġbe y
Ġbey ond
Ġmush room
I Z
b ably
Ġar chitect
B e
ROU ND
Ġpro jector
ĠD O
A L
ĠF IELD
Ġdep ot
EN NIS
ĠG AM
Ġsp ire
Ġmet ropolitan
Sc issors
Ġro ast
Ġnoteboo k
Ġflo at
Ġc rashing
Ġpl ush
Ġmacaron i
ix ed
b read
An imals
ĠIt alian
Ġc rouching
Ġprog ress
Ġ 7
Ġost rich
el ling
IT Y
Ġa utom
ĠPIC T
Ġso aring
Ġsp inach
Ġemp loy
p ark
Ġy et
Ġth umbs
Ġsniff s
Ġstair case
Ġfer ry
Ġsnugg ling
Ġelev ator
M odern
Ġsk ull
A D
Ġacc ident
Ġst rapped
o y
Ġpor k
Ben ches
w here
Ġket tle
Ġnear ly
Ġ '
ux edo
K ids
Ġhor ned
Ġsomew hat
Ġentertain ment
Ġscrat ching
Ġconf erence
Ġtow ed
IN K
I LE
Ġback wards
el l
ĠAm trak
Ġ &
tow er
ĠF OO
ĠFOO D
ag le
Ġe agle
Ġs up
boo k
Ġday time
G re
Ġmed ical
Ġcons ole
Ġfol ks
Ġma jor
Al l
Ġhit ter
i h
Ġle aned
Ġcocon ut
y m
Ġg ym
Ġme ch
Ġf ur
Ġsoft ball
Ġsim ilar
ro iss
Ġc roiss
Ġnightst and
Ġtech n
Ġw icker
if lower
ul iflower
Ġartwor k
Ġch alk
Ġtable cloth
al t
Ġper f
Ġrasp ber
Ġfash ion
Passen gers
Ġlo af
ĠD ES
ne y
iz ing
Ġse cond
B aby
Ġsp ac
Ġspac ious
Ġtrol ly
ĠV E
ĠA ve
g y
Ġcuc umbers
b ama
Ġneck lace
Ġunder wear
Ġrode o
Ġwed ge
Ġoutst ret
Ġoutstret ched
B ig
F resh
Ġexc ited
Ġtransport ation
Ġhand b
Ġhandb ag
Door way
Ġst range
P LAY
ĠDIS PLAY
Ġdep icts
Ġch opsticks
Ġpot tery
Ġclear ly
ĠB LUE
Ġpit a
p en
Ġever green
Ġash ore
Ġpur ch
Ġsquat ting
Ġhand ic
Ġtrad itional
Ġam id
Ġyo gurt
Ġwheel ie
Ġre c
Ġc raw
Ġchew s
Ġmixt ure
Ġbar rier
Ġneck tie
Ġtw igs
OT O
ĠPH OTO
v iew
l ike
ĠJ ap
S liced
Ġsandw hich
ĠSK ATE
ĠBO ARD
Ġcar ry
ĠF rench
G AGE
ĠB E
ĠT RA
Ġtin fo
Ġtinfo il
Motor cycle
ĠS iamese
Ġh ut
Cl ut
Ġ 5
L ong
Ġd iving
p an
Ġber ry
Ġse c
Ġox en
Ġte xting
E ight
ĠU ND
ĠUND ER
ipp ers
Ġint ric
Ġcur ls
Ġbush y
m pty
E mpty
Ġcirc us
Ġd irecting
O range
Ġbutter f
Ġbo b
id th
Ġw idth
mer ged
Ġmotorcycl ist
IG H
Ġc rackers
Ġex er
on t
Ġmed ic
Ġmedic ine
Ġpass an
Ġnight time
Ġslee k
V ase
Ġrub ber
ĠN o
Comp uter
Ġpro bably
Ġdem onic
Ġot toman
Ġtw enty
Ġhal ves
Ġch op
Ġcon vey
M AN
ĠB Y
Ġcomfort able
Ġexam ines
C T
AR T
M EN
ĠN EAR
ĠR V
ĠBA CK
E P
Ġp ushed
ilap idated
Ġd ilapidated
ĠS N
ĠSN OW
ĠDOW N
Ġornament al
Ġcons ists
Ġd ip
a u
air s
Ġst rewn
A S
Ġceleb ration
Ġt rip
Ġprov ide
Ġpen n
Ġwh ipped
ir gin
Ġbor der
Ġaqu arium
ash ioned
f ashioned
ĠC ITY
ĠL IN
Ġj ack
ĠPICT URE
ĠW ay
Ġp uffy
Ġlit ter
Ġrh ino
Ġattem pts
Ġemploy ee
O ARD
Ġcob blestone
le ge
Ġc ust
Ġcust ard
Ġcor d
Ġwor d
B ALL
an g
ĠBATH ROOM
Ġwater f
P P
Ġsp lashing
Ġth an
f lowers
Ġp ristine
Ġspe cial
Ġpen c
In d
e an
A Y
ĠOU T
Ġexp osed
Ġth umb
Ġsp arse
Ġsprink led
Ġgran ite
Ġang le
iff el
Ġe ven
Ġpl unger
Ġune aten
Ġco ast
p ad
Ġequest rian
Ġrecor d
Ġfiret ruck
F ast
Snow boarder
Ġhed ge
Ġc rab
Do zens
Ġst rap
Ġper ches
Ġcheeseb urger
Y ING
M AGE
ĠI MAGE
er m
Ġcred it
gen cy
Ġhy r
Ġpatter n
Gre y
Ġle ad
I V
Ġan ch
Ġanch ored
Ġt ucked
Ġburn t
Ġindic ating
Ġsym bol
ĠU P
Ġcab b
ip ating
Ġsold ier
l i
Ġbrocol li
Ġintent ly
Ġsh aggy
Ġinf lat
Ġinflat able
Ġc racker
ĠT ENNIS
Ġasph alt
Ġear ly
ĠST OP
ĠS P
Ġsh aving
Ġraspber ries
Ġrad io
Ġar ch
Ġskysc raper
ĠDES K
n uts
Ġt uxedo
Ġp riv
Ġplay ground
Ġsw an
Ġthem e
Ġpo kes
Ġin coming
Ġstret ch
Ġb rings
Ġhor n
C row
Ġc rouched
Ġcomb ination
L one
Ġ 9
ust rial
Ġind ustrial
ĠQ ueen
Ġsc rub
Ġadm iring
Ġsilhouet te
Ġh ip
Ġ ug
Ġug ly
Ġfro g
Ġantelop e
Se p
ĠELEP H
ĠELEPH AN
Ġwonder ful
Ġmet ro
Ġro aming
Ġcheese cake
Ġsqu ash
Ġknit ted
Ġjo b
Ġdoes n
Ġevery thing
Ġnew s
Ġn uzz
Ġdis k
Ġt roop
Ġfl ush
Ġtoilet te
Ġang ry
Ġcur ly
Ġrow boat
Ġhead band
Ġsy rup
t ail
Ġref lected
Ġpepp er
L ady
Ġbookshel ves
Ġfollow ed
Ġ -
Ġst ud
f ric
ĠA fric
ĠAfric an
ĠB B
ĠBB Q
Ġfix ing
Ġble achers
ĠWAL KING
P arking
ĠR oman
Ġameric an
v arious
Ġpon ies
Ġcraw ling
Ġliz ard
Ġp ug
ĠC AT
V intage
W ater
Ġboard walk
Ġgran ola
UG GAGE
ĠL UGGAGE
Ġstair way
Ġper ch
Ġsp inning
Clut tered
P ark
Ġparas ail
F ans
s ib
sib ly
Ġpos sibly
Ġra ises
Ġcomp artments
ĠV W
av ily
Ġpop ulated
ten ded
Ġunat tended
Ġrec ipe
Ġlovese at
Ġsp onge
Ġent ree
Ġswim mer
Ġsub merged
A IR
Ġexer c
Ġproud ly
Ġblen d
rien ds
F riends
ĠBEN CH
ĠP IZ
ĠPIZ Z
ĠPIZZ A
Ġmess age
Ġhus band
B anana
Ġmen u
ĠSUR ROUND
ĠSURROUND ED
Ġfix es
c ream
Ġbrief case
ĠELE CT
ĠCOM P
I LL
ĠDO G
Ġchan nel
Ġref eree
ĠGAM E
Ġemb racing
ĠC anad
R ICK
ĠTOW ER
Ġst ay
Ġg rins
Ġst riking
Ġs ucking
Ġte xt
Ġrem oved
Ġrenov ation
Ġfestiv al
Ġdent al
Ġath letic
The ir
Ġfun ction
B right
k nown
Ġun known
ie ce
Ġcons umption
Ġtw ilight
ĠF RON
ĠFRON T
Ġsc iss
Ġsciss or
wor k
Ġautom atic
ĠM OTOR
ĠP AR
Ġhe ater
Ġg igantic
Ġsit u
Ġblueber ry
Ġlim it
U p
Ġn ude
Ġpre forming
Ve hicles
p ipe
Ġcloth s
Ġsh ady
Ġasp aragus
ĠBASE BALL
F UL
ĠLAR GE
g raph
C oo
Ġwaterf all
U T
Ġcon v
Ġcity scape
To ilet
0 0
urop ean
ĠCH I
ĠCHI LD
b ird
Ġm p
Ġmp 3
Ġf uton
Ġdinos aur
Ġsh ack
ass orted
Ġmake up
Ġblueber ries
Ġbar red
L e
Ġ Z
c ut
Ġshut tle
sty le
lder ly
E lderly
Ġdisc us
Ġnote pad
Ġutens il
Ġbus s
ĠTO ILE
P edest
An tique
Ġeng aging
Ġun p
Ġdist rict
am b
Ġwa x
Ġtat too
p aper
Ġwall paper
Ġinform ation
ĠJ et
Ġgot ten
Ġwre ath
L ight
Ġam usement
Ġdum my
Ġsup erm
Ġsuperm arket
p er
Ġfoc al
Ġrecent ly
Ġsp ring
Ġartif icial
Ġupsc ale
Ġbook case
ĠBU S
ĠTHE IR
Ġret rie
ut ral
Ġne utral
g th
f ruit
p ic
Ġstere o
Ġtol l
Ġmem bers
I m
Ġex it
Ġcabb age
Ġpartic ipating
Ġrun ner
m e
Ġaler t
o es
s o
Sm iling
Ġcroiss ants
P lane
Ġp ushes
Ġal ready
ces s
C ol
Ġro bot
Ġworkst ation
Ġperf ect
ĠB LACK
Ġkey s
Ġrep lic
Ġreplic a
Ġf riz
Ġdown ward
o g
W ooden
Comm uter
Ġgrand f
Ġgrandf ather
N G
OU NG
ĠMOU SE
U CE
Ġoff ering
Ġdot ted
2 5
Ġfore head
ĠCOUR T
Ġ1 9
Sandw ich
De corated
Ġpriv ate
Ġpe aches
Ġon coming
Ġmeat balls
Ġredd ish
Ġs ustenance
or n
Ġloc ation
Ġtus k
Crow d
ĠS ams
ĠSams ung
Ġg rid
Ġret ro
Ġpump kins
ff ect
Ġe ffect
IR T
ĠSH IRT
ĠS M
Ġsmooth ie
Ġcl ub
Ġhaird ryer
Ġrem odeled
Ġbron ze
Ġbur rito
P EOPLE
ĠWA ITING
Ġp ush
p orary
Ġpat riotic
ĠELEPHAN T
Ġc rouches
Ġdep artment
Ġpe psi
Ġdesc ribe
Ġwe ird
Bl urry
ON E
ĠH AND
Ġpro jection
Ġdeb ris
Ġc rops
ĠS W
B OARD
Ġdo zen
Ġin n
Ġco ke
Ph one
Ġi Phone
it cher
Ġadj acent
Ġnuzz ling
Ġwa ist
ĠE iffel
T able
Ġrenov ated
re ak
Ġch amp
Ġ1 3
Ġm ural
ĠS IDE
Ġprep aration
Ġre al
Ġwhe at
t rain
Ġstir ring
Ġrece ption
Ġwel come
or k
ĠY ork
Ġsuspen ders
Car rots
ucc ino
G raffiti
Ġbare foot
Ġsty rofoam
Ġy ear
or ld
Ġex otic
A CH
Ġv ac
Ġvac ant
ub by
ĠFor ce
ĠMac book
Ġknit ting
Ġstud io
Ġpart ly
Ġbut t
Ġcob ble
ĠFor d
Ġc raz
Ġcraz y
Ġactiv ities
Ġexp ired
Ġgor ge
Ġsav annah
ĠB ritish
Ġcap ital
Ġevery where
Ġqu ilt
Ġsp raw
Ġspraw led
Ġpe acock
Ġgum my
Ġc racked
S ign
Ġde f
ih u
h u
hu a
Ġch ihua
Ġchihua hua
Ġsh are
Ġkn ocked
Ġbas il
Ġsw it
Ġco in
aliforn ia
ĠC alifornia
Ġsh ake
Ġskate park
Ġaw a
Ġjockey s
col n
Ġth ose
Ġrele ase
Ġb rus
Ġbrus sel
w ater
Ġside car
Ġshow room
UL T
ĠAD ULT
ĠLOO KING
B LACK
ĠU M
ĠUM B
ĠUMB RELLA
ĠB ar
ĠL ITT
ĠLITT LE
Ġover view
Ġallow ed
Ġbon net
ĠSt ates
P layer
M ale
Ġpe ak
Ġgoo f
Ġgoof y
Ġcur ling
irect ly
Ġd irectly
AR S
Ġovers ized
Ġwester n
ĠB M
ĠBM W
Ġobser ve
Ġchar ming
S il
Ġb ridle
d ifferent
Ġout line
Ġg ir
Ġst rikes
Ġbusiness man
Ġbarbe que
ĠBO AT
ĠSK Y
E ven
Ġintric ate
Ġhe avily
Ġd rags
Ġan im
h ost
Ġg host
Ġdonkey s
Ġpass age
Ġbul b
Ġdisc s
Ġoutf ield
S occer
Ġpump kin
Ġcuc umber
C ute
Ġbutterf lies
ur s
Ġresc ue
Ġpin ned
ber ry
ĠCH AIR
Ġskew ers
Ġday light
Comm ode
i k
Ġup coming
Ġgu ide
v ol
Ġduff el
G I
ĠC GI
Ġsec urity
Ġm issh
Ġcam o
N o
Ġset up
arat us
Ġapp aratus
T w
u ke
ort ant
Ġimp ortant
Ġsp routs
Ġperson nel
Ġun w
f u
Ġto fu
Y C
YC LE
aw a
awa iian
ĠH awaiian
Ġin let
Ġice cream
Ġl unges
ĠR d
ART MEN
ĠSHE EP
I M
Ġtoo k
Ġbo ar
h ole
B roccoli
Ġv iolin
ĠB RICK
um my
Ġfly s
Ġstarb ucks
o bile
Ġw rist
et ti
Ġconf etti
Ġbene f
Ġbure au
Ġpac if
Ġpacif ier
Ġhead lights
u ildings
Airp lanes
Ġath lete
Ġin ches
AS A
Ġup ward
Ġses ame
Ġgraffit ti
Ġg rizz
Ġgrizz ly
Ġgrass lands
on ial
Ġcerem onial
Ġflat bread
h and
Ġtrip od
p iece
Ġcenter piece
Ġv irgin
Ġg rind
Ġuph olstered
Ġow l
Ġy elling
Ġsubst ance
Ġpaper work
H ING
Ġshel ving
Ġsitu ated
Ġnav ig
Ġeye glasses
F lat
Ġweb c
Ġwebc am
M ixed
ram id
F ire
I P
ĠA pple
t ree
Ġcol lege
f ield
ĠD I
B as
Ġten ding
LOR FUL
Ġover h
Ġlanter n
ĠA PP
Ġrelig ious
Ġt rot
Ġconv oy
Ġbun ny
Ġexten ds
Ġb rake
Ġpat rol
Ġinsp ecting
Ġw ig
Ġpenc il
Ġpro ject
Ġd iff
ĠC ROW
U N
ĠF E
Airp lane
Ġunder ground
ĠE uropean
Ġhumming bird
Ġbackse at
Y ou
A KE
Ġrot ten
Ġl unging
Ġcond uctor
Ġsw ampy
P an
oo h
ĠP ooh
S ub
Ġrug by
ol ly
ĠH olly
An d
Ġcal c
Ġgour met
Bus iness
Ġrem ains
W ild
Ġwash room
s m
sm all
Ġtherm ometer
ĠTOILE T
U B
Pedest rians
ĠW EAR
ĠWEAR ING
ĠSU IT
up cakes
C upcakes
Ġrap ids
Ġref ridgerator
N ice
Ġd raft
Ġar rive
E E
Ġdal m
it ting
Ġfil m
Ġk iss
Ġear ring
Elect ronic
Ġs igh
Ġcact us
Ġsw iss
o id
ĠCanad ian
c red
Ġin cred
Ġincred ible
Ġstill ness
Ġaven ue
Ġr d
Ġwrest ling
Ġsqu ad
Ġspe aker
Ġse ven
d rant
Ġveget arian
Ġstar ring
C onstruction
Ġbub ble
e aten
Ġrow ers
I X
RON IC
ĠELECT RONIC
Ġwo k
Ġd iced
Ġretrie ving
Ġlen gth
W ood
Ġgrape fruit
v ille
Ġexpens ive
lym pic
ĠO lympic
ĠAven ue
h y
Ġsh ine
Ġup dated
Ġsh aved
ager ly
Ġe agerly
P artially
h a
ĠM ain
j estic
Ġma jestic
Ġhum orous
Ġham mer
Ġorder ly
Ġbisc uit
U M
Ġsty lish
B ird
U n
ĠC D
Ġcont raption
The y
d ining
Ġfixt ure
Ġdifferent ly
ĠM r
Ġmos s
v il
Ġe vil
rin cess
Ġwh ine
Ġvolley ball
ail way
ĠWAT CHING
Ġg nar
Q u
Ġd ivided
Ġesc alator
Ġlandsc aping
UT ER
ĠCOMP UTER
ĠLIN E
Ġfriz bee
s ized
t rucks
ĠBAB Y
Ġplan k
Ve get
A pple
RO D
ROD UCE
ĠP RODUCE
ĠY OUNG
Ġlaugh s
Ġgo blet
w e
R oom
f ree
Ġblan k
Ġspe aks
V D
ĠD VD
Ġoctop us
Ġcla im
H appy
Ġspee ch
h orn
x p
d ryer
Ġblow dryer
f lower
C O
ĠVE GE
ĠVEGE T
Ġar ray
Ġjewel ry
Ġlay ed
ĠS an
ran c
ĠF ranc
ĠFranc isco
f lip
Ġs ip
ĠL a
b us
Ġsp lash
Ġaut um
ĠVER Y
Ġd v
Ġswe atshirt
Ġgrass land
t a
ĠDel ta
ĠF OR
N ight
Ġbom b
E xt
ĠOUTS IDE
Ste ak
ĠO bama
Ġven ding
Ġ 8
Ġgu ine
Ġguine a
Ġin vestig
ĠGE T
Ġmouth s
Ġbas ic
Ġch inese
ĠS INK
c ient
Ġan cient
p layer
Ġches s
W ICH
AND WICH
ĠS ANDWICH
Ġwar m
Ġcan v
ĠK IT
ĠKIT CHEN
Road way
m it
n if
Ġmag nif
Ġdep art
Ġappro ach
Ġp udding
O r
Ġcontrol led
Ġinn ocent
P art
ĠS av
ĠSav annah
Ġfriend ly
qu are
Ġk raut
Ġle aps
Ġbox ing
Ġhar ness
Ġclim bs
z y
Ġleaf less
Ġshut ters
b ack
ROU P
ĠG ROUP
C ut
Ġprom inent
Ch ocolate
h orses
oram ic
Ġpan oramic
Ġrad iator
Ġz om
Ġb rass
Ġroller b
ĠMOTOR C
Ġsnugg led
Ġreg arding
B ride
ir k
Ġsm irk
ush i
Ġs ushi
Ġm int
Ġh idden
sp ring
Ġg auge
Ġconvey or
Ġp rice
Passen ger
Ġbad ly
Ġcapp uccino
Ġgar land
Ġcock tail
ĠD R
ĠF er
now led
nowled ging
Ġack nowledging
ĠT REES
Shel ves
Ġe ight
Ġcomp artment
f rien
frien d
Ġfam ous
IV ING
Ġpen gu
Ġav oc
Ġd rapes
Ar tistic
Ġj ail
Ġsaf e
ĠF RU
Ġy ak
O pen
Ġd ragon
ĠD AY
ĠBE ACH
T ray
Ġsupp ort
Ġhalf way
ĠB ay
S ail
ĠW orld
Ġg ad
Ġal p
Ġpamph let
Im age
Ġsaf ari
i w
Ġboun cing
Ġwh is
IG N
A IN
Sep ia
Ġmail box
Ġclock tower
Ġunp eeled
re p
iv al
T e
O utside
Ġser rated
Ġbe c
Ġbec ause
Ġbund t
Ġomelet te
Ġven ue
Ġm isses
Ġhoo k
ag ne
Ġchamp agne
Ġwine glass
O dd
Ġgorge ous
ĠN avy
Ġhandic apped
O ffice
Ġy acht
Bed room
GE THER
F ruit
Ġch o
Ġreg ion
Ġsunsh ine
Ġbat ch
Ġre ins
ultim ate
Ġ ultimate
ĠV ictorian
Ġteap ot
Ġmag ic
Ġmagic ian
Ġtre k
Sp ectators
L unch
g ate
Ġpl umbing
OO L
F ar
Ġe g
ĠP resident
Ġexam ining
ĠF R
roy ed
Ġdest royed
o ise
Ġswit ch
Ġexp ression
Ġfac ade
Ġb ra
Ġo ars
Ġso il
Ġemer gency
k nacks
Ġmix er
Ġmon och
Ġo ak
Ġbat tle
A KING
ĠT AKING
Ġamb ulance
ĠG erman
Ġsw amp
Ġy awning
Ġsky light
Ġsne aker
ĠTO Y
Ġcas ual
ims ical
Ġwh imsical
ru ised
Ġb ruised
Ġindic ates
Ġc uddling
some one
Ġwebs ite
Ġchee k
B ikes
Ġhandic ap
Ġgar ment
Ġc rashes
Ġpeace fully
Ġp ub
Ġhel p
ĠSOME THING
H ar
ot ter
ĠP otter
Ġmonkey s
Ġ udders
ĠF UR
ĠFUR N
ĠFURN IT
ĠFURNIT URE
A pp
Snow board
v anced
Ġad vanced
ĠW onder
Ġra quet
F T
ĠBO X
CK S
Ġartic ulated
Ġyellow ish
V ariety
Ġhut ch
Ġinstit utional
ĠP e
ĠPe psi
ĠM arket
Ġother w
Ġotherw ise
b l
bl ue
Sil ver
Ġf risby
N umerous
oo ky
Ġsp ooky
Ġfor rest
Ġdoc uments
Ġcapt ure
v iting
Ġanim ated
ĠCh ina
Bo x
ĠLe go
ĠV ader
Ġsamp ling
ĠF it
Ġpre y
R acks
Ġocc urs
ĠT rans
ĠTrans it
ĠB IR
ĠBIR D
Ġpe ach
Ġcustom ized
Ġcurious ly
Ġblack berry
Ġal cove
R IGH
RIGH T
ĠTH REE
ĠH all
Ġcur rent
Ġcurrent ly
4 6
ĠTV s
Ġin vol
Ġc uddles
ĠP olish
Ġle aking
Ġexerc ising
Ġhoriz ontal
H and
Ġgent ly
Ġn un
Ġse g
chand ise
Ġmer chandise
Ġtrim med
p m
Tw in
Ġpl ugs
Ġexp ect
Ġcowboy s
Ġarchitect ure
S un
Her d
Ġunw rapped
Be autiful
Ġconvey er
T RA
ĠAN OTHER
un k
Ġp unk
Ġand roid
Ġeaster n
ĠSUR F
ĠH ILL
G ROUND
ĠBACK GROUND
' .
Ġl lama
ĠAN IM
ĠANIM AL
al m
ĠT ree
Ġspen ding
CKE T
Ġspe ak
Ġman hole
Ġcaptiv ity
Ġsum mer
ĠB IG
ID D
ĠM IDD
ĠMIDD LE
ĠD EP
ĠSK IER
ĠG O
ĠS LOP
ĠSLOP ES
Ġcal ves
Ġbet ter
Ġsnow m
Ġsnowm obile
Ġlife gu
Ġlifegu ard
Ġpeace ful
Ġwrist band
Ġbenef it
Ġadd itional
Ġc ropped
Ġflan ked
Ġbooth s
Ġrece ive
Ġconve x
Ġcalen dar
B uildings
Ġtext ured
Ġmer ging
Ġs iamese
ĠSp ace
ĠN ASA
Ġceleb rate
Ġm ur
Ġnovel ty
Ġsp o
Ġsee ing
Ġscrat ches
o ff
ĠVe g
ĠVeg as
g irl
Ġcow girl
Ġd w
Ġdw arf
ĠM ary
Ġbree ze
s urf
Ġdinner ware
Ġwit ches
ĠB I
ĠPAR KED
ĠWOR KER
U S
Ġfree z
K id
Ġpat ties
N S
NS F
n d
2 nd
Flat bread
Ġun happy
Ġsen ior
Ġcliff s
Ġpier cings
Ġste al
b ug
Ġlady bug
Ġrain co
Ġrainco at
Ġpy ramid
P ic
Pic nic
f ighters
Ġassem bled
Ġovers ize
p lant
Ġegg plant
Hot dogs
Ġhalf pipe
ĠD av
ĠDav idson
Ġpelic an
Ġun covered
Ġair field
ĠRE AD
ĠTH ROW
Bas ket
Ġhe at
ĠCO LORFUL
P od
Ġi Pod
R un
UR T
ĠY O
ĠYO G
ĠYOG URT
lit tle
Ġsun flowers
w ild
in ner
ĠFE W
ĠB RAN
ĠT REE
Up ward
Ġfe ast
auc asian
Ġam trak
ĠH A
ĠCHILD REN
s igns
ut ting
Ġcol t
L ine
Ġany where
ĠC ont
ĠCont rol
C AKE
B icyclists
Ġaff ixed
Pan cakes
Ġch illin
Ġbl u
Ġblu ish
Ġkang aroo
Ġsp are
f ile
Ġpro file
Ġbur gundy
Ġcalc ulator
Ġshoest ring
Ġ (
Ġhaw k
P ublic
Ġmarket place
Ġhair cut
ĠW ashing
ĠWashing ton
ĠD C
Ġleop ard
ban k
Ġdiscus sing
ĠP INK
Ġsear ching
Ath lete
ĠP aul
Ġo at
Ġdalm ation
H uman
Ġb ritish
Ġcakesh op
Le gs
k ka
ĠP o
Ġn uclear
D ucks
Ġcross bones
Ġde al
Ġspark ling
p izza
Sp arse
Ġd ial
ĠF L
ĠFL YING
Des sert
kee per
Ġzoo keeper
Ġbarbe c
ĠP C
Ġ6 th
O ut
Ġw ipe
mer gency
E mergency
M uffins
Ġsquad ron
Ġnav al
ing le
S ingle
Ġshel ve
ĠELECTRONIC S
Ġceleb rating
Ġ2 6
Ġocc upants
ĠMens wear
Ġattem ping
b rellas
Ġ1 0
Ġwar ns
In tersection
ĠG ames
f emale
Ġw ih
Ġbulldo zer
ĠS ony
Ġses sion
Ġin verted
ĠSty rofoam
ne qu
Ġman nequ
Ġodd ly
Ġexp lains
Ġsh inning
P arents
Ġpan cake
Ġsalam i
Ġalo ft
Ġdem onst
Ġteac up
s ailing
ĠRA CE
P ING
UM PING
ĠJ UMPING
V ER
Ġch in
Ġinj ury
sp eed
ĠM ario
Ġro am
Ġmed ian
Ġhyr dant
ven ile
Ġju venile
Ġjo e
V ib
Vib rant
Ġstir red
af e
Ġdol ph
ĠBow ling
ĠMr s
M other
Ġp rincess
De ad
Ġsur vey
R ailway
ĠCROW D
ĠLAD Y
Ġsprink le
st uffed
Qu aint
Ġcalm ly
Ġl f
Ġd iapers
Ġbrown ies
ĠV AN
ĠF IRE
ĠT RU
Ġfen cing
f ridge
Ġm unching
Ġcent ral
G ray
Ġwaters k
Ġarch way
8 7
Ġ7 87
Ġexerc ise
Ġa is
Ġais le
b rown
u ary
ct uary
Ġsan ctuary
ĠJ ackson
Ġsharp ly
Ġv ia
Ġcamp f
Ġcampf ire
Ġsunsc reen
TH REE
ĠWA V
M s
Ġalm onds
Ġwal nuts
ĠG ood
ĠSch ool
ĠA p
free zer
Ġembank ment
Ġattem pted
Ġver dant
Motor cyclists
Ġliving room
close up
Ġoo king
ĠDVD s
Ġan n
Ġtas k
Ġreenact ment
5 3
Bow ls
Ġref lective
Ġhit ching
Ġtos ses
Ġcent ury
ĠF ed
Ġun cut
Ġd rums
ven ir
venir s
Ġsou venirs
Ġarchitect ural
Ġkee p
ĠChic ago
c iled
Ġsten ciled
Ġfo al
G loves
Ġhair brush
ĠP LA
Ġblow up
Ġtrot ting
Ġimp ress
Ġimpress ive
ĠR em
ĠRem ote
Ġ1 1
Ġbar ren
E n
Ġout dated
Ġmay be
ĠF ut
Ġrecog n
Ġtour bus
Ġy ummy
Ġh ides
1 1
Ġnew born
E ggs
M O
Ġexp loring
Ġdv ds
Ġhand rail
C ake
Ġairst rip
Ġcon nect
Ġhead phone
Ġcol um
f ry
ĠBOT T
Ġpaint brush
Ġstrol l
Ġadd ress
I L
Ġloving ly
ios k
Ġk iosk
Ġlie ing
Ġchat ting
Ext remely
Ġsauce pan
ĠWIND OW
O bama
ĠP RE
IS S
Ġkick flip
Sep arate
S uit
Suit cases
Ġv iny
Ġviny l
Ġc ramped
ĠL YING
ous ly
Ġcontem porary
Ġru ins
Ġball player
Ġcont rast
Ġamen ities
Ġsqu ir
Ġsquir rel
U rinals
Ġlav atory
F ull
Ġsc rambled
FF EREN
ĠDI FFEREN
ĠDIFFEREN T
R acers
Ġcanv as
00 9
ĠWH ILE
ĠSOME ONE
ĠHAND S
U Y
G UY
N ER
ĠBUS Y
ĠREST A
ĠRESTA URAN
ĠRESTAURAN T
Ġed ible
Ġadj usts
Ġbrown ie
Ġv ast
Ġhoo f
c ies
Ġcree k
Ġso aking
Ġwild flowers
D ude
Ġcamp ground
ĠKE Y
ĠKEY BOARD
C ross
Ġexc itement
J et
P itcher
Ġg ay
ĠS outh
Ġd ivider
Ġfoodst uff
Ġfoodstuff s
Ġpret zel
S quare
Ġpictures que
Ġtem porary
Ġt rinkets
ĠLab rador
Ġg ifts
Ġg alore
Ġimp osing
E x
b reak
m ock
Ġham mock
ĠW illiams
h old
Ġhouse hold
Ġrandom ly
Ġsub m
Ġsubm arine
ĠK orean
Ġbat man
Ġpe al
boy s
Ġtw ig
Ġfoot p
Ġple ase
Ġalm ond
Ġdaffod ils
Ġc rashed
Ġbob ble
ĠR estaurant
D ishes
Ġzom b
ĠS o
ĠSo x
p a
Ġqu iche
Ġcoast line
Ġwh ip
P astry
ĠTe x
Ġfet ch
Ġv at
v al
ĠY an
ĠYan kees
ĠAPP LES
Ġz ip
Ġsum o
o ber
ĠR ober
ic inity
Ġv icinity
d rawn
ĠF re
ĠFre ight
Ġcomm un
Ġcommun ity
Ġattem pt
Sh oes
1 5
M ounted
ARTMEN T
Ġallig ator
Ġunat tached
Ġsp indle
s ail
Ġun consc
Ġunconsc ious
Ġassem bles
Ġdisor ganized
Ġpower ful
Ġpatient ly
ĠS am
p o
po int
Ġbad ge
ĠPH ONE
ĠDON UTS
ic an
x ican
w iss
ĠS wiss
Ġmay o
ĠT P
Ġcor ridor
n t
S lices
ĠFer ris
Ġsle igh
RA Z
RAZ ING
ĠG RAZING
Ġgnar ly
d ion
Ġaccor dion
Ġco zy
Ġmov ig
Sub way
Ġdrizz le
Ġcare fully
ĠP AN
Ind ivid
Individ uals
Ġavoc ado
Ġsc rew
Ġaccom pan
Ġaccompan ied
Ġcoup e
Des k
Ġle ast
Ġpl ugged
Ġpoor ly
Ġover loaded
Ġheadd ress
Ġtur bop
Ġturbop rop
M om
Ġst raddling
Ġshaw l
Ġg ripping
d ic
ĠFRU ITS
Ġraz or
R aw
hak i
Ġk haki
R iding
Ġcher ries
C o
ĠGIRA FF
ĠO B
Ġc ram
Ġcram med
M ac
Ġiw th
Ġcond itioner
Un ique
Ġeach other
Ġgirl friend
Ġmoo bs
Ġm unic
Ġmunic ipal
E AN
ĠJ EAN
ĠSKATE BOARD
Ġbab ies
ĠG ate
Ġunder pass
Ġflash light
Ġgut ter
ĠSINK S
Ġd irects
Ġteddy bear
ir ror
Ġestablish ment
Ġe ccent
Ġeccent ric
Ġgad gets
Ġner d
Ġcan n
Ġcann ot
Ġalpac a
Ġgest ures
Ġof a
G rapes
Ġk iw
Ġkiw i
ĠM ustang
Ġw iping
Ġwhis k
Ġamaz ing
ĠP aris
F ront
Ġenthus iastically
D S
Ġlight ning
F uzzy
Ġmailbox es
Ġgaz ing
y e
Ġter rier
Ġd rag
Ġwe aving
Ġsun hat
v ice
pher d
Ġshe pherd
Ġfoot long
Ġtechn ique
Ġen orm
Ġenorm ous
Ġbox ed
Ġk ilt
th rough
Ġan k
Ġcard inal
Ġfl utes
b aseball
irth day
Odd ly
at ched
Ġbuck le
Ġboo ze
n ut
Ġto iler
Tooth brush
Ġpol l
Ġplan ner
B unch
Ġadj ust
Ġinter f
I OUS
ĠKEP T
Ġlaund ry
Ġgo ers
Ġpaper back
man ned
Ġun manned
Ġsp irit
Ġlo ft
Ġracet rack
Ġpleth ora
Ġview s
Ġcho ices
A A
I ING
ĠSK IING
ĠS O
0 s
p itcher
Ġvis it
od iac
Ġg aurs
Ġwalk ie
A fter
Ġcor ral
Ġm inor
Ġslat ted
m otor
Ġstand up
m a
Ġassem bly
Ġo ar
Ġpre vent
ĠStarb ucks
B RAS
ĠL y
Ġbacksp lash
Ġg ift
ĠVEGET ABLE
e ating
Ġwh it
s k
Ġtur b
Ġdef lated
n ival
Ġcar nival
R ow
Ġbut cher
s ize
uzz i
ac uzzi
Ġenjoy s
Ġspe ck
E ach
Ġmon orail
ĠC ARS
Ġshould n
Ġtrek king
Ġarm chair
Ġmod if
Ġmodif ied
ĠTO GETHER
Ġsun ning
Ġacce pt
Ġconcer ned
A P
ĠP AP
ĠPAP ER
laz a
ĠP laza
Ġsh redded
Ġbutterf ly
P iles
Ġor gan
d ressed
Ġsc antily
des dale
ĠCly desdale
Ġdem on
ĠP OOL
5 0
Ġsand box
Ġdis gu
Ġdisgu ised
Ġpl ug
M iniature
Ġbird c
Ġbirdc age
Ġdis repair
ĠM ickey
Ġhum ongous
T T
Ġeg ret
Th omas
Ġwel coming
loo king
ĠHolly wood
He avy
Ar twork
n ie
in nie
ĠW innie
Ġlunch box
Ġst rike
Ġad vent
Ġcol lapsed
ĠFR IS
ĠFRIS B
ĠFRISB EE
B aked
ĠD ivision
F ather
Ġhyd rogen
ag na
Ġlas agna
ĠY ARD
Ġhaz ard
for ward
Ġl ux
Ġlux urious
Sh ot
Ġautum n
G lasses
Be ach
IC LES
ĠVE H
ĠVEH ICLES
Ġcomf y
Ġrelax ed
Ġmos a
Ġmosa ic
Ġsams ung
Ġfam ilies
igh s
Ġth ighs
Ġexp lorer
ĠK ing
ĠAir ways
Ġre act
ric ade
Ġbar ricade
Ġagg ress
Ġaggress ively
am ous
Ġinf amous
ĠL IVING
Ġcru ising
Or nate
ĠBOW L
h ol
Ġjo ined
ROW N
ĠB ROWN
Ġduck lings
Ġm isty
Ġtem perature
Ġh ike
Ġmonoch rome
Ġfav orite
Ġany thing
ĠG LAS
Y D
YD RAN
ĠH YDRAN
ĠHYDRAN T
Ġbull pen
go ers
Ġpengu ins
ĠH IGH
G rilled
Ġstraw s
Ġwh le
Ġinter national
ĠDe cker
Ġsto ic
ĠPAR K
us ic
Ġphotosh opped
OR M
F ORM
ĠPER FORM
Ġmem ber
ĠZ E
U FF
ĠST UFF
Ġbe j
Ġbej eweled
ĠAriz ona
Ġemer ging
Ġcor pse
ĠCOU P
ĠCOUP LE
ĠBA G
Ġkn ights
Ġmel ting
Ġaud itorium
Ġw rought
o e
ĠJ oe
S ide
Ġspeed boat
Ġsmo ky
Ġsum mit
ĠAIR P
Ġ6 3
Ġ63 0
Ġcand ies
Ġv ineyard
Ġext remely
s andw
ĠUS A
Ġplac id
Ġthe ater
LAR GE
C LO
Ġfer ris
hy drant
Ġskin ned
Ġ3 4
Ġ34 th
ĠMer cedes
Al tered
Ġter ritory
Ġpars ley
ĠInd ia
Ġeng lish
Ġsun flower
Ġpet ted
an ner
Ġsc anner
Ġhit ch
Ġhitch h
ĠL in
ĠLin coln
Ġevery one
UG HING
ĠLA UGHING
k ia
ĠNo kia
ĠMOTORC YCLE
D ark
Ġcot tage
Ġawa its
qu oise
Ġtur quoise
Ġen ough
Ġpee ks
ĠM ad
Ġpony tail
ĠSM ALL
Ġovert urned
Ġtechn ology
Ġc iti
Ġoff spring
ĠD EL
ĠM ouse
Ġcroiss ant
Ġhomesc reen
Ġman uals
P laying
Ġdiffic ult
Ġdistin ctive
Ġsp rout
Ġflood water
Ġsal utes
Har ry
ĠBar ron
ĠDIN ING
ĠARE A
App liance
are house
ĠW arehouse
Ġs reen
Ġwal greens
Ġexp ress
Ġexpress way
Ġun board
Ġnotif ying
ĠTo ky
ĠToky o
Ġref lects
ĠAr my
Ġsim ulating
ĠWonder land
ĠAl gerie
Ġhandleb ar
Ġe ffic
Ġeffic ien
Ġefficien cy
ĠLE FT
H IND
ĠBE HIND
Ġm ules
O LD
ĠRUST ED
ĠBOX C
ĠBOXC ARS
ĠSE T
ĠTRA CKS
Ġp uff
Ġjo ints
ĠM ini
Sh ort
Ġcre ates
pan cake
Ġass aulted
Ġten ns
Ġtenns i
Ġphe as
Ġpheas ants
n i
Ġsoetih ni
Ġsome on
Ġprod uct
Ġrep resentative
g roup
Ġming ling
Sk is
Snow y
Ġsec ure
Ġdark ness
Ġd iagonally
Ġgir raf
Ġcy ber
C anning
Ġf rig
Ġfrig id
Ġiceber gs
Ġpic s
co al
Ġchar coal
f ifteen
Ġbust ling
Ġkit boarding
ut to
i utto
Ġprosc iutto
In viting
T ruck
Ġpee ping
Ġg allop
ĠD arth
Ġscrat ch
W orkers
f ant
Ġele fant
Ġbolog na
Ġset tled
ilo het
ilohet te
s ilohette
Ch ives
Ġol lie
m ountain
ĠSnow mountain
pp elin
Ġze ppelin
ĠMet ropolitan
ĠS y
ĠSy stem
ER S
ĠFLOW ERS
Ġred room
ale a
Ġaz alea
M ouse
Ġdub iously
Ġconce pt
B RIGHT
ĠCHAIR S
ur dy
Ġst urdy
ĠC adogan
Ġrap id
Ġunf rosted
ik o
ĠSe iko
Ġtechnic ians
Firet ruck
Storm t
Stormt rooper
Ġinvol ved
N an
Ġdark ly
ĠTw ilight
ĠE clipse
Ġsals a
N e
Ne at
Neat ly
Ġseg way
Ġfoot rest
Ġcamo f
Ġcamof lague
Ġfrot n
Ġemb race
ĠT rinity
Ġ4 th
ĠDod ge
Ġenthus iasts
ĠA way
Ġ4 pm
Ġ6 pm
Ġ2 am
Ġ6 am
B art
ĠB a
cong ratulations
Ġl uke
Ġar rival
G rown
than k
m ies
Ġdum mies
M odel
Ġabst ract
Sun b
Sunb athers
Ġbreth ren
B urnt
ĠCON TRAP
TI ON
ĠCONTRAP TION
ĠBIC YCLE
Ġaqu a
Ġrucks ack
is y
Ġda isy
ĠM or
ĠMor gan
ĠELECT R
ĠELECTR IC
ĠCOMP ARTMENTS
ĠHILL S
' S
ĠW hat
ĠD id
ĠW rong
? '.
ĠANIMAL S
ĠGRASS ING
C alm
Ġber th
Ġfer rets
Ġenjoy able
T ENNIS
ĠSH OW
ĠSHOW ING
ĠRA CKET
m ounted
Ġsur mounted
Ġm inarets
ĠSe cond
il m
ĠF ilm
Ġdeterm ined
ĠCanad ien
ĠN ike
Ġm ummy
ART OON
C ARTOON
ĠDEP ICTION
ĠGO ING
Ġwe aved
W hen
Ġsecl uded
Ġfarm house
Ġkets up
Ġtown houses
Ġmake over
M ountain
rac ately
Ġint racately
Ġtrump et
C amera
Ġhand held
ĠShut tle
g ree
Ġde gree
Ġab ility
Ġrece ipt
Ġmur dered
C ree
Cree py
Ġaf ixed
Ġspo il
Ġg ap
He ad
Ġtake off
ĠM a
ĠP a
Ġunder hand
Ġsp rigs
Ġrat chet
ĠB ike
iet namese
ĠV ietnamese
Ġhers l
Ġhersl f
St udents
re ative
C reative
re ached
Ġout reached
Th in
st riped
Ġ7 th
Ġdwarf ed
Ġor b
E arthen
Ġch ives
Ġtaup e
Ġdu vet
Ġlat ching
surf ers
Ġchees in
Ġgrab bed
s bee
Ġfir sbee
ĠBI KES
ĠP US
ĠPUS HING
Ġgues s
Ġm ine
B NSF
Ġpl ump
ĠB road
ĠBroad way
Ġ3 2nd
ĠK ore
ĠKore a
Ġv aried
Ġalter native
ĠS L
ĠSL R
Ġcoor d
Ġcoord inate
Ġrab ies
Ġto b
Ġtob acco
Ġh ide
Ġwre ckage
Ġc rash
Ġexp loded
Ġwaters lide
Ġwater park
Ġwatch in
f laming
Ġpost ure
Fire fighters
s le
Ġtus sle
ĠH UGE
ĠSH IP
Ġtaste ful
J ulien
Julien ned
Ġsep ia
Ġocc upy
Ġmar ley
ĠCol lege
Ġsmoke cloud
L ower
H ILL
ĠDOWN HILL
ĠSH RED
D ING
ĠSHRED DING
Ġtriang le
ASE BALL
B ASEBALL
ĠDI AMOND
ĠP IT
ĠPIT CHER
ĠREAD Y
Th ose
Basket ball
I vy
H ang
Ġh in
ĠH ITTING
Ġwar rior
ipp i
iss iss
M ississ
Mississ ippi
ĠC LEAN
ĠM IR
ĠMIR ROR
Coo king
ĠR ights
F ore
Fore ign
ĠN UT
ĠAPP LE
W ashed
Ġus ually
He y
ĠO x
j a
in ja
ĠN inja
ĠT urtle
alk way
W alkway
Ġd reary
Ch ristmas
Ġhor ror
Ind ian
Ġsat chel
Ġcons ulting
D inner
Ġa x
Ġ6 00
ĠNew port
Ġruff led
Ġdiff rent
ĠCROW S
ĠH UN
ĠHUN TING
ĠBRAN CHES
Ġpark land
ĠC aucasian
Ġv apor
Ġreg ard
b rick
Ġy ack
Ġin l
Ġinl uding
ĠHAPP Y
Ġs signs
P utting
tain ly
Ġcer tainly
Ġapprop riate
Ġplay ign
ĠControl lers
ĠBIRTH D
ĠBIRTHD AY
ĠC U
ĠCU P
ĠCUP CAKE
ĠB LOW
ĠBLOW ING
AND LES
ĠC ANDLES
ale xt
Sc alext
Scalext ric
Ġw ieners
d irect
ĠT uxedo
Ġpl ume
Ġsc raping
zeb ras
Ġtele graph
Ġsw iiming
D igital
Sub aru
Ġhe fty
Ġp u
Ġpu king
Ġe iffel
ĠB uddy
ĠC rickets
L ap
ĠKit ty
Ġstruct uring
Ġskill fully
Ġglim mering
Ġcas ino
Ġin cense
ĠJ ack
ĠK erou
ĠKerou ac
Ġ4 1
ĠM t
ĠW alton
D ale
P olicemen
Ġdump ling
Ġw rong
b aby
Ġexter nal
ĠPedest rian
ĠZ one
Ġpin up
Ġsnow bank
S lice
B ullet
Ġbal conies
Ġgood ies
On ly
Ġkitchenet te
Ġnib bling
Ġfit ted
ĠT UB
Ġroy al
ĠO J
Ġover ly
S im
Sim ple
Ġmakesh ift
ĠST AR
ĠSTAR ING
D uke
in b
ur g
urg h
ĠE d
ĠEd inb
ĠEdinb urgh
ĠR ue
Ġc ud
am ily
F amily
hamb urger
N ASA
Ġwrit tien
Ġphar macy
Ġflood way
Ġpop ular
ĠChe v
ĠChev rolet
Ġin hales
ĠHAL F
FF EE
ĠCO FFEE
ĠDIS HES
Ġc ider
Ġv ain
F loral
f ly
ĠJetair fly
ĠPo kka
Ġc ricket
ur red
Bl urred
L amb
G lass
Ġsc runched
ĠA er
Ġclut ching
Water way
Ġhyd rand
R ay
aver n
ĠT avern
Ġpod ge
New lon
ĠH ale
ĠV illage
Ġcons ult
ĠPelle g
ĠPelleg rino
Ġves sels
il n
Ġk iln
Ġroof ed
Ġv ivid
Ġass isting
ulpt ures
Sc ulptures
Ġsc icors
Ġdev oid
ĠMan uel
ĠI dal
ĠIdal go
Ġbarbec ue
ĠE ating
Ġper haps
Ġroo om
P elicans
c ats
Ġe ps
Out doors
Ġcook book
Ġhomeme ade
Ar rows
Ġdart board
B ro
Bro ken
Ġar c
iam i
ĠM iami
Ġracquet ball
Ġhyr drant
Ġdiscus sion
Meat ball
N a
Na an
uff links
Ġc ufflinks
Ġm ighty
id walk
Ġs idwalk
S IX
IV E
ĠF IVE
ĠTHE M
Ġso ars
Ġv ictory
ust ralia
ĠA ustralia
Ġe ave
Ġbar ley
A ven
Aven gers
ĠJet 2
Ġtug boat
Ġp raying
S later
Ġsour ce
L ondon
Ġoff ense
Ġglass ware
Ġpens ive
Ġch illi
F loor
C rust
c d
Ġl cd
P ug
Ġs iding
Ġhill top
Ġun brellas
ĠL ou
ĠLou is
ĠLouis ville
ĠS l
ĠSl ugger
ĠK Y
ĠF lorida
Ġ3 5
ce pt
Ġinter cept
Ġp ry
Ġgogg le
Ġdiscla imer
Ġconv or
Ġconvor bel
Ġconvorbel t
Ġwind blown
Ġstir rer
ran k
Ġd rank
Ġrena iss
Ġrenaiss ance
Ġmannequ ins
W hy
Ġany one
up ied
Ġocc upied
Ġc rock
M unching
Ġcons umed
An older
ĠUP S
S A
ĠC SA
Sk illet
ama ha
ĠY amaha
Ġno bles
Ġdemonst rating
Ġig rinding
Ġcanad ien
Ġwe ighing
Ġcre ated
Ġd rown
Ġd ives
c me
ĠA cme
Ġalert ly
ĠB read
ĠO VER
ĠFEN CE
p e
pe ckers
Wood peckers
Ġlar gge
Ġsnowsh oes
Ġclim b
Ġscar ve
Ġp rayer
Ġv ictim
ov able
Ġrem ovable
Un p
Unp l
Unpl ugged
g rain
Ġcoco a
Ġc rim
Ġcrim ped
Ġwax ed
Ġcou ole
Ġpeb bles
Ġinter locked
Coo ked
Ses ame
ilant ro
Ġc ilantro
S ugar
ĠR ain
ĠC afe
Ġpl unging
Ġdolph in
M r
Ġmoss y
Ġoxy gen
Col lege
K neeling
udd ha
ĠB uddha
Ġball l
orian o
S oriano
Ġf raming
Ġadd ition
Ġpartic ular
bed room
Ġwaterf ront
Ġrit z
M orning
Sh ip
Ġgu ac
Ġguac am
Ġguacam ole
A w
Aw ake
ĠAM X
Ġsh redding
Cond uctors
Ġun lit
Ġswe aty
de cked
rink les
Ġw rinkles
le gged
g ns
Ġs gns
ĠCO CKER
AN IEL
ĠSP ANIEL
Ġore os
Hel meted
ĠSE VERAL
ĠTRU C
ĠTRUC S
is itors
V isitors
Deb ris
F og
Ġmetic ulous
Ġeng land
Ġpota otes
Ġwatersk iing
Ġgut ted
Ġclaw s
Ġhigh chair
Ġsc isors
Ġday s
Ġst ting
ĠM iche
ĠMiche al
Y OUNG
ĠHAIR B
ĠHAIRB RUS
ĠHAIRBRUS H
Ġch ipping
Ġan mails
Blind folded
surf boarder
Ġrest urant
ĠHangg liders
ĠE urope
f ront
Ġstore front
Ġ ukelele
f lowing
ĠCO LOR
Ġcarse at
B ar
Bar ren
Ġdoug nuts
Ġ1 2
P AB
ĠSU PAB
ĠSUPAB AAD
Ġbodac ious
F ish
Ġextingu isher
IC AL
US ICAL
ĠM USICAL
ĠINST UR
ĠINSTUR MEN
ĠINSTURMEN TS
ĠSURF ING
ĠWAV ES
ĠC LEAR
Ġst rom
ĠGood mayes
ĠAp ril
Ġ19 2
Ġ192 9
Ġtabl we
Ġro bust
L ounge
Ġhas n
Ġchut ney
Ġblank ly
Ġantic s
Ġwre ck
ĠC es
ĠCes s
ĠCess na
Ġat las
Ġann oun
Ġannoun cer
P uppy
Ġconf ederate
Ġhur dle
Ġ1 8
Ġ18 53
Ġ19 8
Ġ198 9
a i
Ġbon z
Ġbonz ai
dere k
Ġb rilliant
Long horn
Street lights
O vere
Overe xposed
Ġgest ure
Ġsh ielding
Ġv ibe
S OME
LL I
ĠB RO
CO LLI
ĠBRO COLLI
ĠM IX
ĠMIX ED
At v
Se ven
Ġcrut ches
Ġsc rap
Ġscrap book
ĠD un
m ore
ĠDun more
Ġcirc uit
ĠQ atar
Ġglos s
U D
ĠT UD
ĠTUD OR
ĠPLA CE
Ġ4 2
Sm oggy
Ġju icy
Ġsur board
Ġcross wor
Ġcrosswor d
ĠControl ler
ĠB rewers
Entry way
Ġback flip
Ġeng ages
ĠB re
ĠBre a
Ġconf ined
ĠF ry
ĠFut urama
y oung
Ġloud ly
houet te
Sil houette
akesh ift
M akeshift
se ven
Ġtang led
Ġind ian
Ġclip boards
m brellas
U mbrellas
liz beth
ĠE lizbeth
Ġcheeseste ak
Ġoff ers
Ġresp ite
L ilies
loo k
am mer
ĠH ammer
Ġb ristles
passen gers
ĠN ICE
D EL
MO DEL
ĠRE MODEL
Ġtwink ly
Ġcalf s
ĠSchool house
C enter
Ġsty lized
Ġsp iked
ĠC ubs
ĠF uneral
ĠH ome
Ġav aitors
ĠB ug
Ġfem inine
Ġener gy
Ġcolum n
CO LORFUL
ĠE Y
ĠEY ED
ĠBOTT LES
ĠC ANS
C ups
Ġpat rons
ĠScot land
Y P
ĠN YP
ĠNYP D
ĠV alley
Ġ10 th
r ving
ĠI rving
IL ING
ĠSM ILING
ĠC AM
ĠCAM ERA
R ice
G auges
Ġcomed ian
ĠD UM
ĠDUM M
ĠC ASE
ĠT AB
Ġbu ying
Ġ q
u asion
Ġpers uasion
Ġkind ly
Ġsports wear
Ġgirraff e
Ġautom obiles
Ġexp ire
Ġarts y
t ub
Ve hicle
Ġ uban
Sc ience
LOO KING
ĠArab ic
MO B
MOB EL
ĠPRE ISS
Ġpupp ies
Ġ8 th
Ġ2 2
wild wood
Ġinvestig ating
W aff
Waff les
Ġle ap
Ġsw irled
Ġearb uds
Ġner v
Ġnerv ously
ĠMOM M
ĠMOMM A
ĠWATER ING
ĠHO LE
Ġchar m
Ġh il
Ġk rispy
Ġk reme
Ġmouse pad
in x
ĠSp inx
P olice
Ġresem bles
ĠCOR N
ĠPLA E
Ġref ill
Ġc ivilians
I s
Ġit l
Ġy b
IE CES
ĠP IECES
Ġb rioche
Ġatt raction
AN Y
m ANY
ĠCHE F
ĠCHEF S
ĠWOR K
ĠCOO KING
Ġc routons
Ġglad iator
Ġdv d
car rots
Ġtv s
Ġassoc iated
Ġblack board
Ġte qu
Ġtequ ila
Ar ray
Ġtw irling
Ġm ission
B icyclist
R ipe
F ed
um mit
ĠS ummit
Ġ2 009
qu is
quis itively
Ġin quisitively
F risbee
Ġburies d
St raight
P ete
ĠR ose
Ġmagnif ying
l ling
ĠE lling
ĠElling ton
L ux
Lux ury
Ġgrou o
Ġs isters
agg le
Ġg aggle
Ġsp rinting
Ġscow ling
Ġd id
Ġdid n
ĠST AGE
ĠS INGING
ĠH IM
M E
Ġsw iping
ĠD AR
ĠDAR K
Ġte o
Ġd i
Clut ter
W ar
War ning
ĠDIN NER
Ġteam mate
Ġdisor der
Ġdisorder ly
Ġfore closure
ĠG arbo
ĠSt raf
ĠStraf ze
Ġch ill
k ids
Ġl unatic
Ġe uropean
TISE MEN
ĠAD VER
TISEMEN T
ĠADVER TISEMENT
Ġhoof ed
E A
UTI FUL
EA UTIFUL
B EAUTIFUL
AN AL
ĠC ANAL
ĠWALL S
AST LE
ĠC ASTLE
ĠL I
ĠLI KE
o bstruction
T ug
Ġemer gen
Ġemergen cies
Ġnurt uring
ads worth
ĠW adsworth
ĠAm herst
Ġg aining
Or ganized
Ġin com
Ġincom plete
D riving
ĠSpen cer
Ġpee p
Ġcanop ied
Ġgingers naps
Ġtoot brush
Ġpee ing
ĠP AD
ĠSh op
Ġle ach
P osted
Ġf rit
Ġfrit ter
d ward
E dward
Ġdiscus s
Ġfut ure
Ġstom ps
P olar
Ġcol lectible
Ġcle ver
Ġclever ly
ĠF oot
ĠWood b
ĠWoodb ine
Ġre indeer
Cher ry
dee p
De corative
Ġsw ats
Ġnach os
Ġfo x
Ġpl us
ĠAT M
Ch ina
Ġques ad
Ġquesad illa
Ġsqu inting
ĠFed Ex
break fast
Ġtreat ments
Ġkit board
ionsh ip
Ġchamp ionship
Ġslee zy
Ġadm irers
W aves
ben ch
R ust
G ive
Ġdest roying
Ġth reatened
Ġschool boys
P asta
rac quet
Ġcasc ading
Ġdet rit
Ġdetrit us
Ġin ch
for cement
Ġen forcement
adala jara
Gu adalajara
Ġfootp rints
Ben ch
Ġ4 7
Ġwing back
Ġlad nscape
Ġsund resses
Ġv igorously
Ġwork horses
Ġne cess
Ġnecess ary
Ġperf erms
Ġhal ve
Ġw ise
S oup
P eanut
ĠO il
Ġcart ridges
ĠUnivers ity
ĠG erard
ĠSch w
ar z
ĠSchw arz
ĠP l
Ġ3 r
Ġ3r d
orab ilia
Ġmem orabilia
Ġzomb ies
Ġemb roidered
Y L
YL CE
ĠMOTORC YLCE
Ġnat tily
T rees
Ġsim ulator
Ġact ual
G rand
Grand pa
F rench
ick ly
Ġs ickly
ĠS D
R em
Rem nants
Ġdeft ly
ĠTex as
Ġo j
pict ure
Ġf risbe
s s
Ġhorss s
Ġwarm ly
Ġmed ie
Ġmedie val
Ġpeppe oni
Ġmel t
ĠTHING S
Ġban nister
ĠBAS KE
ĠBASKE T
Ġp rairie
Ġunw raping
ĠFut ure
ĠK ut
ĠKut cher
ne xt
Ġc ivil
g table
Ġve gtable
ĠB ill
ĠRober tson
Ġd raught
Ġm inutes
R acing
Ġlab rador
ĠSany o
City scape
ĠBat tlestar
alactic a
ĠG alactica
ĠFreight liner
Ġdee jay
P addle
Ġlect ure
Ġgrad u
Ġgradu ation
Ġbo iling
Ġj it
Ġjit ney
ĠH onda
Ġsh ields
P ige
Pige ons
ĠB u
ĠBu y
Ġlf ying
ĠH ong
ĠK ong
ish i
H irag
Hirag ishi
G ALA
ĠDEP ARTMENT
ĠAt las
ĠP retoria
B ike
Ġmot tled
Ġdach shunds
d gen
Ġhyr dgen
Ġfish net
Ġexper tise
Ġconcent rates
R YING
ĠT RYING
ĠR IDE
ĠWAV E
5 5
Ġdach shund
Ġav o
Ġavo be
Ġboun ces
Ġsim ultane
Ġsimultane ously
Ġpat ron
ĠCl ub
Ġswe atsuit
isc uits
ĠB iscuits
Ġdec als
Ġsho ing
Ġsquat ted
Ġcheck point
t HERE
ĠLAY ED
ĠDR Y
R ILL
ĠG RILL
Ġme xican
ĠY ear
Ġsignif ying
A erial
ĠCom cast
ĠDoes nt
Ġrep resent
Ġup close
Ġis w
Ġb rinks
8 15
Ġ3 815
B agels
Ġpe ck
HER D
aven ly
Ġhe avenly
Ġp rimed
Ġcons ume
Ġun z
Ġunz ipped
3 4
Ġbomb arded
Ġm uzz
Ġmuzz le
Ġcomm uting
ran od
ranod m
G S
ĠLE GS
ic roso
icroso ft
ĠM icrosoft
Che f
ĠN ikon
agg age
B aggage
Ġresp irator
W orld
ĠB rakey
Ġnuzz le
ĠComm ons
M astering
Ġprofound ly
Ġbenef icial
Girl friend
D rawing
Ġpe gs
H AM
G G
ĠE GG
ĠPAN CAKE
ĠDIS H
Ġille g
Ġilleg ally
Ġleg ally
Sc antily
ĠDR IVING
Ġpengu in
ru way
ĠTh ruway
Ġscrub bing
ĠSW EATER
Ġscrew s
W al
Wal nuts
Ġtwel ve
Ġtor ches
Ġblaz ing
ult ures
Ġv ultures
Ġcale co
Ġsur ve
Ġsurve illance
Ġwork out
Ġhay stacks
Ġfor d
Ġself y
ĠA F
a erial
V ol
Vol unteer
ge ine
Ġhy geine
ĠNor dic
wonder land
ĠC ingular
wor rying
Sty rofoam
ur ching
Ġl urching
C auliflower
Co ats
f eeder
Ġbird feeder
k ien
ĠTol kien
ĠGIRAFF ES
UR ING
ĠD URING
EN TS
ĠT ENTS
J E
JE CT
ĠOB JECT
Ġwed gies
Ġjo ke
Ġe ffort
Ġbor de
Ġborde aux
Ġday break
Ġbiil board
Ġrail car
F urry
arb age
G arbage
Ġcaric ature
Motor cyclist
ĠOut door
Ġhel m
Ġhelm ut
ĠWA G
ĠWAG ON
Ġmy riad
ĠH at
Ġsky lit
ĠPAN TS
ĠDO ING
ĠT RICK
ĠG olden
ĠB ridge
Ġembellish ment
Ġcat food
ĠSouther n
if ic
ĠPac ific
Ġrem odel
Ġsimilar ly
Ġbroad way
Ġschool bus
ĠMarily n
ĠM on
ĠMon roe
Ġbou y
Ġstand int
Ġs ift
Ġwol f
ĠW iff
ĠWiff le
ĠUTIL ITY
G ULAR
ĠRE GULAR
ĠJ ones
ĠSh irt
Ġsan ctioned
ĠAmaz on
B icycle
M irror
Ġon ce
Ġsol ution
ĠQueens lander
R Y
ĠJER RY
ĠOR B
ĠORB ACH
Ġhash brown
m il
mil k
S lider
Ġsy ringe
T ry
Ġgen u
Ġgenu inely
s liced
f inished
ĠC ape
Ġmannequ in
ĠW ilson
Ġcook outs
Ġwit ch
Ġts unam
Ġtsunam i
Ġmotor cy
l ces
Ġmotorcy lces
R esidential
Ġround ish
ĠSTAND IGN
ĠN E
X T
ĠNE XT
lanter n
Ġdiff r
Ġdiffr r
Ġdiffrr nt
ĠAp ia
Ġast ronauts
P aved
Ġdut ch
ST OP
ĠS IGN
ĠSP RAY
AIN T
ĠP AINT
ĠPAINT ED
ĠWOR DS
ĠH ilton
Ġobsc uring
Ġv ictorian
ĠD aily
Ġceleb rity
nas ium
Ġgym nasium
Ġbol t
Ġpars nips
P ost
Ġhar vest
Teddy bear
Ġconnecte c
Ġunf ath
Ġunfath omable
Box es
Ġwipe out
Ġvideog ame
V irgin
e cor
ecor ds
ĠR ecords
Ġvisib ility
C repes
Ġsur v
Ġsurv ival
v ated
Ele vated
Te a
Ġdoll house
e ye
Ġsc anning
I dentical
ĠC air
ĠCair n
Ġwh ilst
Qu arter
Ġstanid g
Ġbor ding
ĠD irt
ĠC ART
naw s
Ġg naws
Ġcre vice
Ġst reaking
Ġpersonif ied
me at
Ġw ishes
Ġt rif
Ġtrif led
Ġsupp ly
P ieces
Ġhigh lighted
Ġaltit ude
Stain less
g ht
ie ght
Ġh ieght
Ġzeeb ra
Ġfe ild
Sh irts
ĠG arage
Ġintric acies
Ġank les
Ġann oyed
Ġdelight ful
ĠD ad
Ġself s
Ġemp ire
Ġsom b
Ġsomb reros
Ġbu idling
Ġv aries
Ġspe cies
k ies
Ġtur kies
Ven us
Ġmanip ulated
B irthday
Ġcong ratulatory
est room
R estroom
Ġelim inators
Ġt p
m opeds
Ġl uch
W atched
Ġport ly
u fthans
L ufthans
Lufthans a
Ġrecogniz able
M uddy
Ġow man
Ġflick r
Ġweb page
Ġmic rove
Ġsh redder
C aucasian
ĠHar ley
Ġ !
h ome
Ġmotor home
P otatoes
Be fore
Ġcap itol
Ġfl uted
Ġwal nut
ĠATV S
B alloons
Ġsw ift
Ġswift ly
Ġg ains
Ġhyd r
Ġhydr gon
C ream
Ġholiday s
Ġpan orama
Ġpop corn
Ġgle aming
Ġdom ino
Ġeight teen
He avily
Ġanten nas
C afe
F LAM
FLAM ING
ĠLIP S
ĠALLE Y
Ġinterf erence
Ġon n
h ile
W hile
AR IOUS
V ARIOUS
Q UE
TI QUE
ĠAN TIQUE
ĠCH AIN
T O
TO GETHER
ĠAL TOGETHER
Sel f
Ġreads d
ir v
irv ana
ĠN irvana
ĠD r
Ġbun cch
Ġcop ies
Ġtouc an
Ġcand idate
Ġadm ires
Sail boats
M ail
E ast
Ġ2 7
Ġ27 8
ĠBron x
Ġmem orial
Ġv oucher
Ġsuite cases
quest rian
ĠE questrian
Ġdiff erence
Ġnut ty
Ġp rizes
Ġbir ching
ockey s
J ockeys
Ġblac n
Ġlit te
ĠP izzeria
ĠC resc
ĠCresc ia
Ġphy s
Ġphys ically
Ġchallen ged
Ġread ies
' ,
ab inets
C abinets
Ġun belie
Ġunbelie v
Ġunbeliev able
Ġcross roads
ĠAs ia
U tility
ĠL os
ĠAn geles
ĠC t
P ainting
Ġsn out
Ġw rote
Ġhur ling
Ġrun ny
ĠLAD IES
ĠSP ENDING
C CER
ĠSO CCER
Ġcare free
Ġstreet car
Ġcur lers
f inal
Ġ8 0s
oving ly
L ovingly
Ġtrim mings
Ġar riving
Ġfor ce
Ġever g
Ġeverg lade
Ġz odiac
Ġback lit
Ġtalk ie
ĠF 250
ĠPick up
After noon
Ġsp ins
ĠBuff alo
Ġg rumpy
o bs
Ġkn obs
Ġrectang le
motor cycles
Ġuph ill
Ġgrand ma
row th
g rowth
Ġunder growth
Ġtom otates
Ġexer ts
Ġtele v
Ġtelev sion
M ush
Mush rooms
Ġbarth room
ĠR IDING
D airy
Ġdef ender
Ġbun nies
Ġqu ote
c ular
ir cular
c ircular
Ġcol lect
Ġinste ad
BRAS IL
at tle
ĠSe attle
ĠJ umbo
ĠLy n
ĠLyn n
0 1
2 009
Ġ2 3
5 8
Ġcon jo
Ġconjo ined
Ġv arying
ĠJ ames
Ġmer ry
Ġsp iral
Ele gant
ĠDES IGN
ĠSHEL F
S iblings
Ġc ue
Ġdown pour
Ġjugg ling
Ġglit ter
com passing
Ġen compassing
ĠSHEEP S
v o
Ġvol vo
ĠR ace
sk i
id wester
idwester n
ĠM idwestern
Ġturb ulent
ĠD AD
ĠHA V
ĠHAV ING
ĠF UN
Ġcler k
M ilitary
Ġro ar
uc ational
Ġed ucational
am otive
Ġloc amotive
ls ie
ĠE lsie
Ar tic
Artic ulated
ĠJ acuzzi
Ġp rize
Ġm ight
Ġw in
ĠOr leans
ĠS aints
B aker
Ġsew age
ib rary
ĠL ibrary
Ġle isurely
Ġstat ute
ĠD j
LAD Y
Ġspeck les
Ġcig ar
Ġsqu ints
Ġe hating
Ġgrassh opper
ĠPER CHED
ĠBRAN CH
J ar
Mac au
Ġsav anna
B O
BO ATS
ĠHAR BOR
ĠSW AT
Ġsp illing
it te
ash itte
E ashitte
Ġsportsmansh ip
Ġunin viting
Ġmam ma
Ġam d
Ġblind fold
B ulls
Ġt rouble
b uttoned
Ġun buttoned
sh ore
Ġoff shore
Ġportray s
ĠW ill
Ġbe gun
Ġdirt b
Ġdirtb ike
M ulti
Ġnet ted
Ġdu o
Ġid ly
Ġceleb ratory
Ġasht ray
Ġach ie
Ġachie ving
Ġbelie ving
Ġriver bank
Ġast ute
ĠCol gate
m ultiple
ĠDO LL
Ġcub ical
Ġv iolet
ĠA utism
Ġmos ques
b ig
d inary
Ġor dinary
Ġv irt
Ġvirt ual
Ġim mature
Ġair ways
Ġst rides
ĠF lag
Ġav atars
Ġcommand ments
M opeds
Ġshel ter
At tendants
Ġcre ased
L ocom
Locom otive
ĠR ail
G arden
ĠMac iel
ĠL n
ĠSt ump
Ġer rands
roo ks
Ġc rooks
ĠR adar
P ARE
Ġsail boarder
Ġhooka h
ĠDom inoes
Ġhat chets
row ds
c rowds
ast ro
ĠC astro
Ġmotion less
Ġ19 50
T A
M TA
Far mer
motor cycle
Ġinf re
Ġinfre quent
Ġinfrequent ly
Co ast
Ġ3 0
Ġbit umen
Ġch ip
Ġgad get
M ini
ĠBolog na
Ġset tee
Ġcity h
Ġth read
Ġoff ered
DS M
ĠB DSM
Se ver
Ġved gies
st riches
O striches
Ġm ig
Ġmig rating
Ġinf rastruct
Ġinfrastruct ure
erus alem
ĠJ erusalem
ĠBUN CH
ĠPRE TT
ĠPRETT Y
ĠRO SES
ĠBU CKET
Ġtrey s
Ġsunda e
Ġb ridal
ĠUS ING
ĠGAM ING
ĠCONS O
ĠCONSO LE
Ġsc ience
ĠM ission
ĠFer ry
Ġbox er
Ġback round
L amps
v ard
ĠBoule vard
Ġh id
Ġhid rent
Ġcontented ly
Ġstud ies
Ġreco ils
Ġsc ull
Ġwh ik
Ġwhik le
ix on
ĠN ixon
Ġsaw toothed
hate ver
W hatever
O ff
Ġgu ilt
Ġtre acherous
Ġsp itting
Bow l
Ġdest k
Ġhouse plants
Ġhedge h
Ġhedgeh og
h o
da ho
ĠI daho
P ower
Ġhund reds
Ġmo b
Ġst reak
ĠT v
Ġgarnish ment
ĠF eed
ĠBar n
Ġcount ries
Ġdispos able
Ġrail house
Ġill usion
Ġne verending
Ġadvent ure
Ġshelf s
p rised
Ġsur prised
Ġc ringes
vest ment
Ġin vestment
Ġactiv ity
Ġappe aling
Ġfire fighters
IZ ER
IZER IE
R IZERIE
F RIZERIE
Ġd rug
ĠGRASS Y
Ġpark ded
Ġf board
quen ce
Ġse quence
ĠBar rack
usse in
ĠH ussein
Ġyol k
Ġliv ign
ĠOlympic s
q oise
Ġtur qoise
AR NIS
ĠG ARNIS
ĠGARNIS H
Ġfud ge
P UB
Ġpicut re
Ġover laid
Ġman made
Ġpim p
Ġcomp forter
ĠCor re
ĠCorre os
Ġyork ie
ĠS napple
Ġap ink
ĠI ke
ĠIke a
Ġsheep dog
Electronic s
Ġel k
Ġsed uctively
ĠT rump
ĠMan hat
ĠManhat tan
ĠLA W
ĠY IELD
R I
RI ANS
EST RIANS
ED ESTRIANS
ĠP EDESTRIANS
ĠWITH IN
ĠC RO
S W
SW AL
SWAL K
ĠCRO S
ĠCROS SWALK
com fortable
Ġun comfortable
Ġdem ise
O thello
app uccino
ĠC appuccino
B reak
Break fast
ĠGO AT
Ġm ime
Ġw ispy
Ġpreser ves
Ġpreser ve
Ġbow tie
Ġdwarf s
Ġm utants
ĠF acebook
Ġhuman oid
Ġtoowoom b
Ġtoowoomb a
Ġorig am
Ġorigam i
Ġexpression less
Ġzomb ie
Ġinter locking
S altine
Ġclo aks
Z odiac
s unset
Ġst rong
Ġjud ged
Ġmar rying
Ġs ucc
Ġsucc ulent
Ġlethar g
Ġletharg ically
D arth
Ġlights aber
Ġmarsh land
Ġhead b
Ġheadb utting
Ad vertising
Ġc rispy
F ew
ĠU l
ĠUl timate
Ġexc ursion
Ġmar quee
Ġpew s
if ix
Ġcruc ifix
ĠF urnace
ĠC rapo
Ġchallen ging
ĠM G
ĠMG M
P e
Pe pperoni
S o
Ġfan c
Ġfanc iful
Ġfore hand
ĠKing dom
f loor
Ġchest nuts
f igured
Ġdis figured
Ġdep loyed
Te xt
ĠPet land
Ġalf redo
ĠFor resto
Ġmix es
ĠCOW S
Ġst ride
ĠHeb rew
ĠFIREP LA
ĠFIREPLA CE
ĠS CEN
ĠSCEN IC
Com fortable
r rim
h rrim
Ġbar hrrim
ĠSam uel
inos aur
D inosaur
Ġche ap
Ġsp iting
Ġscrew d
Ġscrewd river
Ġquiet ly
Ġm iscellane
Ġmiscellane ous
Ġc rochet
Ġplate au
Ġsc ramble
P lastic
Ġve il
Ġcolise um
Ġtik i
Ġm isc
Ġsp illed
Ġoff loaded
ĠH T
St uff
IXT URE
M IXTURE
Ġsim mering
Ġg rubby
Ġto iled
y ramid
P yramid
Ġv ariable
K S
ĠBAN KS
k raut
Ġsauer kraut
Coo k
Ġse quential
Ġslam ming
Ġimp rovements
Ġspot ty
Ġhand made
ul hol
ĠM ulhol
ĠMulhol land
t urn
Ġw ilted
Ġpocket k
Ġpocketk nife
Ġkith chen
ag arding
Ġre agarding
Ġunder water
Ġbattlesh ip
L avish
Lavish ly
Ġsub jects
Sh redded
Ġfe ces
ĠG REEN
ĠSUIT C
ĠSUITC ASE
ĠLED GE
ĠMem ph
ĠMemph is
ĠTen nessee
T ree
P osed
M at
Mat tress
Run ning
Ele ven
Ġs inister
ĠSO B
Ġcard igan
Loo ks
Ġc u
Ġcu is
Ġcuis ine
F olded
Ġscrub ber
RU CTION
ĠCONST RUCTION
Ġcraw led
ĠCar riage
Ġ9 9
Ġfac ility
Ġcre ature
ch ild
Ġschool child
Ġschoolchild ren
W W
WW F
Ġspo ked
b roccoli
Ġobsc urely
AS SENGER
P ASSENGER
ĠSMO KE
ĠBILLOW ING
EL ING
V ELING
TRA VELING
ĠTH ROUG
ĠTHROUG H
im ney
Ġch imney
Ġsit tin
Ġdry in
Ġsc affolding
Ġbod ies
ĠS C
ĠSC ISS
OR S
ĠSCISS ORS
Ġscon ce
Ġv iw
Ġchem ical
Bo iled
ĠGLAS SES
ĠK N
ĠKN EELING
Ġperfect ly
Ġcre ation
Ġsomers aulting
F air
L ate
Ġs uggests
Ġth irty
Ġwiim ote
RES IDEN
RESIDEN T
P RESIDENT
ĠBARA CK
ĠOB AM
ĠOBAM A
s ix
Ġblem ish
ĠSK IS
Ġleaf s
Boo k
ĠOre gon
G iant
ĠG hana
F risco
ĠV ig
ĠVig rin
ĠAt lantic
ĠR esident
Ġwe all
ĠPLAN E
ĠCLOUD Y
T ub
co k
Ġcl cok
Ġadm ired
Ġhoriz on
Pick up
Ġmer ge
Ġbie k
Ġprot rude
ks g
ksg iving
ĠThan ksgiving
Ġhur ls
ĠRober ts
ĠC edar
Ext ra
R ainbow
I ce
Ġmonst rous
ĠB russels
mes an
Ġpar mesan
Ġmanic ured
f resh
Ġg ators
m other
Ġgrand mother
air p
airp lanes
ĠF A
C ING
ĠFA CING
ĠCO VERED
ĠMOUN TAIN
ad io
ĠR adio
ĠM usic
Ġnaz i
Ġsuperim posed
ĠI ran
ĠV ans
Ġco arse
Ġs uggestive
Sc reens
P ortion
Ġback hand
Ġminiv an
Ġlear ned
Ex amples
Ġmorib ilia
Ġle isure
Ġsitu ation
Ġpur poses
Ġpropelle or
Ġslee ve
jolic a
Ġma jolica
Ġstreet lamp
Ġdu f
Ġduf ell
ĠT E
P rincess
ĠA urora
Ġpier cing
Ġdrib bles
Ġg ain
Ġmoment um
Ġantic ipates
ĠHen ry
ĠL ove
Ġb risket
Ġsun lit
Ġext reme
ĠTH IGH
ĠHIGH S
ĠHEEL S
AB Y
B ABY
ĠOVERALL S
Tw p
Ġo in
Ġaud io
Ġd rooping
or dan
ĠJ ordan
Me x
qu ash
ĠS quash
ĠC asserole
B rand
Ġdam med
Ġstreet light
dot ted
Ġfork lift
Ġcor g
Ġcorg i
Ġref lect
E CORATED
ĠD ECORATED
Ġam used
Ġass ign
Ġassign ment
O val
Ġhill l
Ste am
ue ver
Ġman uever
eser ved
R eserved
Ġmon ks
ĠSKATEBOARD ER
ĠSe agulls
Ġjet blue
ĠBE ING
Col lage
Ġlar g
Out door
Ġtrans formed
an on
ĠC anon
Nor dic
9 s
Ġ19 6
Ġ196 9s
Tray s
Ġem iddle
Ġlecter n
Ġmat ted
Ġg aloshes
ĠM outh
cow boys
Ġamate ur
Mer chants
F oot
P arallel
B RA
ĠZE BRA
ĠL og
ab in
ĠC abin
ĠOW MAN
Ġuninsp iring
Ġk im
on o
Ġkim ono
Ġpath s
S inks
To aster
Le ftover
Ġgraph s
Ġindes ic
Ġindesic rim
Ġindesicrim inate
Ġv ines
Ġground train
Ġcons uming
Ġsc allops
Ġsw ishes
Ġshee o
Ġlin coln
Ġresiden ce
ĠF rito
Ġdesc ription
Ġqu arters
Ġred head
Ġinner tube
id ney
ĠS idney
ĠSidney ville
p ly
Ġsim ply
Ġjam med
ut ri
ĠN utri
Ġmon k
ĠS ri
ĠLan ka
Ġsp in
ĠC am
Ġc ran
Ġcran berry
Ġwe ights
Ġpear ls
Ġloaf s
Ġle is
Ġdemonst ration
S lee
Slee ping
c ap
Ġnight cap
Ġp riest
Ġpriest ly
ĠI phone
Ġwreath s
w all
W ide
Ġdang led
m ote
c ab
n on
non ment
ir nonment
Ġenv irnonment
cock leb
cockleb urs
Desk top
Ġflatsc reen
g ic
Ġnostal gic
Ġrem nants
m iddle
F actory
H amb
Hamb urger
g iant
Ġcol gate
Ġad vising
Ġpasser by
Ġpasserby s
Ġconf ines
Ġt ucking
ĠB iden
Ġloc ust
we ight
Ġover weight
ĠP OW
I A
ĠM IA
Ġbur ly
Ġle aing
ĠO scar
T ake
Take out
St ripped
Ġbull horn
Ġnight ly
Ġrit ual
Ġg rime
Ġre qu
Ġrequ iring
Ġartis an
Ġlong boards
Arab ic
Ġcond ition
Ġassoc iates
Ġantic ipation
Ġim mac
Ġimmac ulate
Ġ /
Ġbeach side
ĠH um
ĠHum or
ve al
Ġre veal
ĠY ELLOW
LAN E
ĠAIRP LANE
Ġp f
ĠL ut
ĠLut z
Ġsur b
Ġsurb urban
ĠP OR
ĠPOR CH
ĠG ra
ĠGra ham
Ġsong bird
Ġbroo k
Ġindic ator
Ġcot rol
B S
ĠS BS
B M
BM X
Ġdiscon nected
Ġautom obile
re gnant
P regnant
Ġg rin
Ġgrin ch
Ġsoft ly
Ġ630 9
Ġchar ging
ĠC risco
C upped
Ġunfoc used
IND O
ĠUS INDO
Ġlunche on
Ġdeterm ining
Col lection
Ġplay pen
T rio
Ġshe pard
S loppy
ar ray
Ġdis array
D ull
Ġ5 4
Com ical
Ġsh ies
ĠGre at
ĠB ritain
ĠTh ird
ret ty
p retty
hausst rasse
ĠBauming hausstrasse
E laborate
ĠJ ay
ĠJay s
ĠTOP S
ĠOFF ICE
Ġun m
Ġunm own
Ġwindsurf er
b ased
Ġsh rugs
Ġapp re
c iating
Ġappre ciating
ĠFrem ont
ĠD ist
ĠDist rict
Ġsl ug
sandw iches
Ġl ugging
AT M
ĠINS IDE
ĠN ippon
7 7
Ġ77 7
Ġmir cow
Ġmircow ave
R ue
ur bed
t urbed
Ġper turbed
Ġ6 5
Ġ65 th
Ġr v
ĠF ries
Ġglo be
Class room
ĠWe iner
Ġalp ine
Ġsp ills
ĠAm oco
Ġill ust
Ġillust ration
ad ies
L adies
Ġgrand pa
g nan
Ġpre gnan
Ġpregnan cy
Ġbaseb al
Ġtabl r
ĠNe ver
ĠL oving
ĠPAND A
S URE
ĠEN CLO
ĠENCLO SURE
W hich
ĠG ay
ich igan
ĠM ichigan
ĠAMO CO
E ating
ĠChelse a
ĠChelseaf c
p rint
Ġab undance
ĠH ut
gy le
Ġar gyle
Ġwind mill
Solem n
Ġprod ucing
ĠBen z
AR C
ĠM ARC
ĠMARC P
Ġbat t
Ġbatt ling
Ġfooth ills
H igh
av id
D avid
Ġd rum
ren gth
St rength
Ġsuccess ful
Ġhy b
Ġhyb rid
elect ric
ĠEng land
P aper
Ġhar ley
Ġter race
Ġg allery
A oold
Ġrust c
Ġtail gate
Ġpare ils
Ġbit ch
Sun ny
Ġbeach goers
Ġprog ram
Ġinterf ace
G od
lem ons
RU 1
RU1 3
ĠP RU13
H is
Ġcap board
Ġet c
sandw ich
zz anine
Ġme zzanine
out door
Ġje ap
Ġ8 11
Ġw tih
ĠCard inals
Ġuse ful
Ġcomb ined
ĠF riday
Ġ13 th
ĠV alentine
ĠD ay
Ġmar velous
ĠC ave
Ġhyr dons
Ġmeat ball
W ith
des ign
Ġ X
ĠX box
ĠCoc a
Ġfoodser vice
Ġcho ice
G et
Ġho agie
Ġdistant ly
Ġhitchh iking
Ġtund ra
ĠK rispy
ĠK reme
Ġ9 2nd
ĠBay view
Ġjes us
Ġequ ine
S anta
Ġen cased
Ġprominent ly
Ġh i
Ġsurfer boarder
Col um
Colum ns
Ġpre f
Ġpref er
es us
ĠJ esus
Ġpinst ripe
Ġspeck led
Ġdoug nut
ĠSTOP S
ĠC AR
ĠRO AD
ĠPle ase
ĠU se
ĠSor ry
Ġglo b
r ge
Ġl rge
ĠIN NER
Ġfol k
Z oo
Ġspark ler
ĠJackson ville
Gre vy
Ġcol laboration
ĠH ouse
Ġbee ch
Ġsub ject
Ġscreens aver
. ,
A m
V Y
ĠHEA VY
ĠCO ATS
b uff
buff et
ir st
f irst
gy ptian
ĠE gyptian
ĠBacard i
ucch ini
Ġz ucchini
S B
SB C
ĠH SBC
Ġab domen
Bet ween
rad itional
T raditional
m oving
Ġbit ty
Ġmayon naise
Ġfre ck
Ġfreck led
z one
Ġcal zone
Ġpriv acy
F lock
Ġc risp
Ġe clectic
Ġbook let
ĠR ockaway
Ġc rack
Ġed iting
s itting
C ell
Ġker nel
Ġwe ak
Ġumb ilical
Ġstraight forward
aw cet
ĠF awcet
ĠFawcet t
1 8
0 2
18 02
Ġdef end
Ġre igns
Ġus age
Ġidentif y
Ġturb ines
Ġons ite
Ġinvol ving
l boro
ĠMar lboro
Ġinj uries
Ġcl ump
Ġv ine
P ur
Pur ple
Ġlilac s
ĠI KEA
Ġtechn ologies
vol ution
Ġre volution
Ġoat me
Ġoatme al
Ġmechanic s
Ġp c
Ġosc illoscope
H osp
Hosp ital
ĠLE TT
ĠLETT UCE
Ġple as
Ġpleas ant
Ġunivers al
Ġgour ds
B LUE
CLO SE
ĠSH OT
ĠBOTT LE
ĠWIN E
ĠGLAS S
Ġchom ping
A very
f ed
Ġengul fed
Ġ6 0
Ġ7 0
Mess y
ĠAn gels
Ġcuck oo
Ġbrick work
Ġmonoch romatic
y our
Ġyog a
ĠG e
ĠGe orge
ĠJ r
Ġ7 50
Ġperson near
m usic
ĠClock tower
Har vest
ĠWhite house
Ġc rop
Ġmarsh mallow
H orned
ĠCo kes
Ġlol l
Ġeng age
Ġinter c
Ġinterc ity
Ġcou h
b ino
Ġal bino
Ġsun rise
n o
no b
Ġdoork nob
ar nished
Ġv arnished
resc ue
Ġsp layed
Guy s
Ġmane u
Ġmaneu vers
Ġdec adent
ĠH aight
ĠAsh b
ĠAshb ury
ĠWar hol
Man ual
Ġpar cels
Ġred uce
Ġfet locks
ĠPERFORM ING
ĠSK ATING
ĠST UN
ĠSTUN T
ĠM ULTIP
ĠMULTIP LE
B IN
BIN ED
ĠCOM BINED
Ġseg ments
ĠPh illy
Ġexper t
Ġdoc ument
W inter
Ġnoo k
e xposure
Delic ate
ĠFRU IT
Ġsubstit uted
Ġdedic ation
Ġf ru
Ġfru i
Ġsnow boader
shee p
g redients
In gredients
ĠGIRAFF E
UR S
ĠN URS
ĠNURS ING
ĠZ OO
Ġve gan
Ġm ist
Bee f
3 8
Ġcom ic
Ġdis assem
Ġdisassem bled
voutside v
Ġthe voutsidev
Ġthevoutsidev if
G roceries
Ġmarsh mellows
Ġjo in
Ġhitchh iker
Ġhad ron
ĠPen n
Ġmouth w
Ġmouthw ash
Ġback board
iss an
ĠN issan
ĠT itan
Ġtroph ies
Sem i
Ġoo ol
Ġlook ign
Ġmur ky
Ġtw p
ĠH ocken
Ġluncheonet te
Ġsl um
ĠCamb ridge
ĠNor fol
ĠNorfol k
Ġm iss
P rotesters
L ush
Lush ly
Ġtw ist
Ġcook ware
rink led
Ġc rinkled
vent ure
ĠAd venture
Ġcy linders
RINK LES
ĠSP RINKLES
Me al
s alad
" ,
Ġparf ait
Ġrais ins
Per haps
Ġconf ectionery
g raded
Ġup graded
ĠStew art
H auling
Ġeas ier
k ites
ĠAP ARTMENT
IZ E
ĠS IZE
Se a
Ġw iener
T V
Ġi TV
Ġrelie f
Ġpo kka
Ġstair well
ĠTRA ILER
ĠJ O
ĠJO CKE
ĠJOCKE Y
Ġpla e
Pedest rian
Ġsp rite
Ġp rimitive
Ġtrolley s
Sp lit
re freshed
Ġpro blem
Ġmagnific ation
Ġab normal
ub merged
s ubmerged
G old
S nacks
Ġwond rous
Ġwigg ly
F lag
Ġgover n
Ġgovern ment
Sc rambled
Ġad vises
Stat ue
Ġsp lattered
U CK
ĠY UCK
ĠYUCK Y
Ġsher pard
Ġdark lit
Ġcont rail
Ġst ucco
Ġtow ling
c rap
Ġso x
Ġswe at
G rape
Ġ2 8
Far m
qu aint
Ġte h
an cy
F ancy
N umbered
Ġoy sters
Ġsle f
Ġslef ie
ĠSP EEDING
ĠRAM P
act ures
f actures
u factures
Ġman ufactures
ĠU K
p ronged
B read
Ġtypew riter
Ġcontin ue
Ġdrain pipe
W icker
S an
ĠM iguel
Ġsp ider
ĠR eno
P ot
Cliff s
Ġa erop
Ġaerop lane
D IP
Ġm ismatched
ĠH og
ĠHog w
ĠHogw arts
ĠExp ress
Ġstar ch
tain ment
Enter tainment
ĠD almatian
ĠS uper
P ulling
Ġge isha
Ġpar ch
Ġparch ment
Ġtrud ging
Ġceramic s
C rackers
Ġfer n
Ġsidet rack
AN A
Ġm unch
Ġind ul
Ġindul ge
Ġbudd ies
Ġher b
Ġfa erie
Ġa e
Ġsit tign
IC IOUS
ĠDEL ICIOUS
ĠT REATS
ĠDISPLAY ED
ĠDEL I
ĠBroo k
ly n
ĠBrook lyn
Ġc radled
cent ury
ĠBACK P
ĠBACKP A
ĠBACKPA CKS
K W
ĠWAL KW
ĠWALKW AY
ĠAd idas
kem on
ĠPo kemon
Ġlav a
Ġstem med
Ġshut ter
Ġis n
ĠRA FT
Ġtarmac s
ĠC alico
f redo
Al fredo
ĠD ut
ĠDut ch
ĠNeder lanse
we gen
ĠSpoor wegen
ĠSp irit
lin coln
ĠSCH OOL
ĠBI KE
ĠC A
ĠCA F
ĠCAF E
Ġas ain
ĠVol ks
w agon
ĠVolks wagon
Ġbraz ier
Ġdelap itated
Ġexp laining
ĠWii F
ĠWiiF it
Ġocc asion
C alico
Ġon board
apha el
ĠR aphael
F or
Ġt rindle
p lates
Ġcontem plates
h istorical
ĠKITT EN
ĠN APPING
ĠLAP TOP
ĠT ime
az ine
ĠMag azine
n umerous
P at
Pat ches
Ġcot ton
Ġhy giene
re g
Ġcong reg
Ġcongreg ating
Ġt ricolor
Ġantic ipating
Ġwalk ling
ĠVE GGIES
Ġchalk board
Ġtechnic ian
Ġcomp laints
ĠMem orial
ĠSunsh ine
ĠM il
ĠMil ker
qu arters
Ġlett ce
Ġtrim ming
ĠLO G
Ġl ucky
Ġfarm land
j ung
Ġe jung
Ġejung le
C an
ĠD ance
B all
B urger
b ridge
OR T
ĠAIRP ORT
Ġlam os
Ġank le
f ighter
Ġfire fighter
oy al
ĠR oyal
Bel g
Belg ium
Ġplat f
Ġplatf rom
Ġc roup
Ġw ilt
Ġtur ret
f rul
Ġcolo frul
ĠP UG
Ġigu ana
ĠD uck
ĠM in
ĠMin ney
is ney
ĠD isney
nat ural
Ġun natural
Ġknick knacks
Ġextrav agant
Ġcarav an
M ade
Ġesp resso
Ġg riaff
Ġgriaff e
Ġsightsee ing
Ġpro h
Ġproh ibiting
Ġspacesh ip
P arachutes
o bama
Ġuss r
Ġmain ly
ĠTHROW ING
lif ier
Ġamp lifier
Ġconcer t
ĠM cdonald
ĠP ro
ĠPLAY ER
und reds
H undreds
Ġbackground is
ĠW hole
Ġse x
d ish
Ġfire hydrant
Ġretrie ver
bow ls
Ġsw at
Ġswat ting
ro bably
Ġimp robably
Ġmotoc ross
st udents
Ġapples auce
Ġcerem ony
ĠSW ING
