{
  "Ā": 3,
  "ā": 4,
  "Ă": 5,
  "ă": 6,
  "Ą": 7,
  "ą": 8,
  "Ć": 9,
  "ć": 10,
  "Ĉ": 11,
  "ĉ": 12,
  "Ċ": 13,
  "ċ": 14,
  "Č": 15,
  "č": 16,
  "Ď": 17,
  "ď": 18,
  "Đ": 19,
  "đ": 20,
  "Ē": 21,
  "ē": 22,
  "Ĕ": 23,
  "ĕ": 24,
  "Ė": 25,
  "ė": 26,
  "Ę": 27,
  "ę": 28,
  "Ě": 29,
  "ě": 30,
  "Ĝ": 31,
  "ĝ": 32,
  "Ğ": 33,
  "ğ": 34,
  "Ġ": 35,
  "!": 36,
  "\"": 37,
  "#": 38,
  "$": 39,
  "%": 40,
  "&": 41,
  "'": 42,
  "(": 43,
  ")": 44,
  "*": 45,
  "+": 46,
  ",": 47,
  "-": 48,
  ".": 49,
  "/": 50,
  "0": 51,
  "1": 52,
  "2": 53,
  "3": 54,
  "4": 55,
  "5": 56,
  "6": 57,
  "7": 58,
  "8": 59,
  "9": 60,
  ":": 61,
  ";": 62,
  "<": 63,
  "=": 64,
  ">": 65,
  "?": 66,
  "@": 67,
  "A": 68,
  "B": 69,
  "C": 70,
  "D": 71,
  "E": 72,
  "F": 73,
  "G": 74,
  "H": 75,
  "I": 76,
  "J": 77,
  "K": 78,
  "L": 79,
  "M": 80,
  "N": 81,
  "O": 82,
  "P": 83,
  "Q": 84,
  "R": 85,
  "S": 86,
  "T": 87,
  "U": 88,
  "V": 89,
  "W": 90,
  "X": 91,
  "Y": 92,
  "Z": 93,
  "[": 94,
  "\\": 95,
  "]": 96,
  "^": 97,
  "_": 98,
  "`": 99,
  "a": 100,
  "b": 101,
  "c": 102,
  "d": 103,
  "e": 104,
  "f": 105,
  "g": 106,
  "h": 107,
  "i": 108,
  "j": 109,
  "k": 110,
  "l": 111,
  "m": 112,
  "n": 113,
  "o": 114,
  "p": 115,
  "q": 116,
  "r": 117,
  "s": 118,
  "t": 119,
  "u": 120,
  "v": 121,
  "w": 122,
  "x": 123,
  "y": 124,
  "z": 125,
  "{": 126,
  "|": 127,
  "}": 128,
  "~": 129,
  "ġ": 130,
  "Ģ": 131,
  "ģ": 132,
  "Ĥ": 133,
  "ĥ": 134,
  "Ħ": 135,
  "ħ": 136,
  "Ĩ": 137,
  "ĩ": 138,
  "Ī": 139,
  "ī": 140,
  "Ĭ": 141,
  "ĭ": 142,
  "Į": 143,
  "į": 144,
  "İ": 145,
  "ı": 146,
  "Ĳ": 147,
  "ĳ": 148,
  "Ĵ": 149,
  "ĵ": 150,
  "Ķ": 151,
  "ķ": 152,
  "ĸ": 153,
  "Ĺ": 154,
  "ĺ": 155,
  "Ļ": 156,
  "ļ": 157,
  "Ľ": 158,
  "ľ": 159,
  "Ŀ": 160,
  "ŀ": 161,
  "Ł": 162,
  "ł": 163,
  "¡": 164,
  "¢": 165,
  "£": 166,
  "¤": 167,
  "¥": 168,
  "¦": 169,
  "§": 170,
  "¨": 171,
  "©": 172,
  "ª": 173,
  "«": 174,
  "¬": 175,
  "Ń": 176,
  "®": 177,
  "¯": 178,
  "°": 179,
  "±": 180,
  "²": 181,
  "³": 182,
  "´": 183,
  "µ": 184,
  "¶": 185,
  "·": 186,
  "¸": 187,
  "¹": 188,
  "º": 189,
  "»": 190,
  "¼": 191,
  "½": 192,
  "¾": 193,
  "¿": 194,
  "À": 195,
  "Á": 196,
  "Â": 197,
  "Ã": 198,
  "Ä": 199,
  "Å": 200,
  "Æ": 201,
  "Ç": 202,
  "È": 203,
  "É": 204,
  "Ê": 205,
  "Ë": 206,
  "Ì": 207,
  "Í": 208,
  "Î": 209,
  "Ï": 210,
  "Ð": 211,
  "Ñ": 212,
  "Ò": 213,
  "Ó": 214,
  "Ô": 215,
  "Õ": 216,
  "Ö": 217,
  "×": 218,
  "Ø": 219,
  "Ù": 220,
  "Ú": 221,
  "Û": 222,
  "Ü": 223,
  "Ý": 224,
  "Þ": 225,
  "ß": 226,
  "à": 227,
  "á": 228,
  "â": 229,
  "ã": 230,
  "ä": 231,
  "å": 232,
  "æ": 233,
  "ç": 234,
  "è": 235,
  "é": 236,
  "ê": 237,
  "ë": 238,
  "ì": 239,
  "í": 240,
  "î": 241,
  "ï": 242,
  "ð": 243,
  "ñ": 244,
  "ò": 245,
  "ó": 246,
  "ô": 247,
  "õ": 248,
  "ö": 249,
  "÷": 250,
  "ø": 251,
  "ù": 252,
  "ú": 253,
  "û": 254,
  "ü": 255,
  "ý": 256,
  "þ": 257,
  "ÿ": 258,
  "<pad>": 0,
  "<bos>": 1,
  "<eos>": 2,
  "Ġa": 259,
  "in": 260,
  "Ġw": 261,
  "Ġs": 262,
  "th": 263,
  "ing": 264,
  "Ġo": 265,
  "Ġb": 266,
  "an": 267,
  "er": 268,
  "re": 269,
  "Ġin": 270,
  "hi": 271,
  "Ġth": 272,
  "Ġp": 273,
  "le": 274,
  "Ġthe": 275,
  "ar": 276,
  "Ġc": 277,
  "Ġt": 278,
  "Ġm": 279,
  "ro": 280,
  "Ġand": 281,
  "Ġh": 282,
  "Ġon": 283,
  "is": 284,
  "Ġg": 285,
  "Ġf": 286,
  "la": 287,
  "Ġd": 288,
  "Ġwi": 289,
  "ck": 290,
  "Ġwith": 291,
  "Ġof": 292,
  "un": 293,
  "al": 294,
  "en": 295,
  "at": 296,
  "Ġis": 297,
  "lo": 298,
  "it": 299,
  "Ġst": 300,
  "om": 301,
  "es": 302,
  "Ġman": 303,
  "or": 304,
  "ld": 305,
  "ear": 306,
  "ed": 307,
  "Ġto": 308,
  "ir": 309,
  "et": 310,
  "on": 311,
  "and": 312,
  "id": 313,
  "Ġwear": 314,
  "hirt": 315,
  "Ġwearing": 316,
  "Ġwom": 317,
  "ra": 318,
  "Ġshirt": 319,
  "hite": 320,
  "Ġy": 321,
  "king": 322,
  "Ġwhite": 323,
  "Ġwoman": 324,
  "Ġdo": 325,
  "ts": 326,
  "Ġbo": 327,
  "Ġwhi": 328,
  "ic": 329,
  "lu": 330,
  "op": 331,
  "lack": 332,
  "Ġblack": 333,
  "wo": 334,
  "el": 335,
  "all": 336,
  "Ġwhile": 337,
  "ers": 338,
  "Ġblu": 339,
  "und": 340,
  "Ġba": 341,
  "ch": 342,
  "Ġblue": 343,
  "Ġstand": 344,
  "ge": 345,
  "oun": 346,
  "Ġj": 347,
  "ting": 348,
  "wn": 349,
  "up": 350,
  "Ġn": 351,
  "Ġpla": 352,
  "Ġsh": 353,
  "gh": 354,
  "Ġho": 355,
  "ss": 356,
  "ur": 357,
  "eop": 358,
  "eople": 359,
  "Ġred": 360,
  "ea": 361,
  "Ġco": 362,
  "ide": 363,
  "Ġr": 364,
  "oung": 365,
  "lding": 366,
  "st": 367,
  "Ġlo": 368,
  "Ġpeople": 369,
  "Ġplay": 370,
  "ut": 371,
  "Ġyoung": 372,
  "Ġl": 373,
  "ther": 374,
  "Two": 375,
  "Ġsit": 376,
  "um": 377,
  "irl": 378,
  "Ġstanding": 379,
  "Ġloo": 380,
  "Ġwat": 381,
  "Ġgirl": 382,
  "us": 383,
  "ront": 384,
  "Ġwal": 385,
  "Ġfront": 386,
  "Ġbe": 387,
  "Ġher": 388,
  "Ġback": 389,
  "il": 390,
  "ce": 391,
  "Ġsitting": 392,
  "Th": 393,
  "Ġboy": 394,
  "Ġone": 395,
  "Ġha": 396,
  "ri": 397,
  "Ġdog": 398,
  "low": 399,
  "Ġgra": 400,
  "ver": 401,
  "Ġholding": 402,
  "Ġsm": 403,
  "ard": 404,
  "Ġas": 405,
  "ks": 406,
  "Ġdress": 407,
  "am": 408,
  "reen": 409,
  "Ġpo": 410,
  "ct": 411,
  "Ġmen": 412,
  "ion": 413,
  "Ġstre": 414,
  "Ġdown": 415,
  "Ġgreen": 416,
  "ght": 417,
  "ve": 418,
  "ack": 419,
  "Ġsom": 420,
  "ot": 421,
  "ul": 422,
  "Ġstreet": 423,
  "Ġgro": 424,
  "Ġpa": 425,
  "ground": 426,
  "ke": 427,
  "rown": 428,
  "ree": 429,
  "Ġta": 430,
  "ow": 431,
  "Ġby": 432,
  "Ġgroup": 433,
  "ex": 434,
  "Ġout": 435,
  "se": 436,
  "Ġbrown": 437,
  "ellow": 438,
  "bo": 439,
  "Ġyellow": 440,
  "Ġwater": 441,
  "od": 442,
  "Ġcar": 443,
  "Ġup": 444,
  "Ġwalking": 445,
  "Ġlarge": 446,
  "Ġtwo": 447,
  "Ġbu": 448,
  "ying": 449,
  "im": 450,
  "Ġbackground": 451,
  "tle": 452,
  "Ġwh": 453,
  "Ġk": 454,
  "orm": 455,
  "Ġsw": 456,
  "ay": 457,
  "if": 458,
  "em": 459,
  "Ġlooking": 460,
  "ly": 461,
  "Ġfrom": 462,
  "one": 463,
  "Ġside": 464,
  "Ġsk": 465,
  "uit": 466,
  "to": 467,
  "Ġover": 468,
  "ext": 469,
  "Ġanother": 470,
  "ig": 471,
  "ain": 472,
  "ping": 473,
  "Ġfo": 474,
  "Ġjacket": 475,
  "ugh": 476,
  "ent": 477,
  "Ġrun": 478,
  "The": 479,
  "erson": 480,
  "Ġsp": 481,
  "An": 482,
  "Ġthat": 483,
  "Ġtheir": 484,
  "Ġnext": 485,
  "Ġlit": 486,
  "ble": 487,
  "Ġshor": 488,
  "Ġbuilding": 489,
  "Ġsome": 490,
  "hind": 491,
  "Ġbehind": 492,
  "air": 493,
  "Ġperson": 494,
  "rough": 495,
  "ad": 496,
  "Ġthrough": 497,
  "Ġorange": 498,
  "Ġsn": 499,
  "Ġlittle": 500,
  "Ġpin": 501,
  "Ġwomen": 502,
  "ol": 503,
  "ball": 504,
  "lasses": 505,
  "Ġjum": 506,
  "ian": 507,
  "ap": 508,
  "Ġsmall": 509,
  "Ġcam": 510,
  "Ġpink": 511,
  "Ġjean": 512,
  "Ġit": 513,
  "Ġstands": 514,
  "Ġpants": 515,
  "Ġnear": 516,
  "yc": 517,
  "Ġfa": 518,
  "Ġoutside": 519,
  "Ġinto": 520,
  "ĠA": 521,
  "Ġsnow": 522,
  "Ġgrass": 523,
  "Ġv": 524,
  "ning": 525,
  "Ġjeans": 526,
  "Ġshorts": 527,
  "ike": 528,
  "Three": 529,
  "Ġhas": 530,
  "Ġwa": 531,
  "Ġhead": 532,
  "ie": 533,
  "Ġma": 534,
  "Ġun": 535,
  "Ġchildren": 536,
  "ru": 537,
  "ped": 538,
  "rowd": 539,
  "Ġlooks": 540,
  "ark": 541,
  "Ġcrowd": 542,
  "Ġmo": 543,
  "Ġsun": 544,
  "Ġe": 545,
  "Ġtable": 546,
  "rying": 547,
  "hone": 548,
  "Ġcamera": 549,
  "Ġdark": 550,
  "alk": 551,
  "Ġrunning": 552,
  "board": 553,
  "Ġsc": 554,
  "walk": 555,
  "Ġsur": 556,
  "Ġoff": 557,
  "ter": 558,
  "Ġsho": 559,
  "Ġstri": 560,
  "Ġso": 561,
  "iling": 562,
  "Ġfield": 563,
  "ving": 564,
  "age": 565,
  "way": 566,
  "qu": 567,
  "lond": 568,
  "Ġlong": 569,
  "ling": 570,
  "'s": 571,
  "tain": 572,
  "Ġsidewalk": 573,
  "Ġwood": 574,
  "Ġhel": 575,
  "Ġblond": 576,
  "iform": 577,
  "Ġuniform": 578,
  "Ġmid": 579,
  "by": 580,
  "Ġwho": 581,
  "ip": 582,
  "Ġpict": 583,
  "Ġwatch": 584,
  "Ġpur": 585,
  "Ġolder": 586,
  "Ġriding": 587,
  "ross": 588,
  "ud": 589,
  "form": 590,
  "ction": 591,
  "Ġhe": 592,
  "irt": 593,
  "ycle": 594,
  "ne": 595,
  "shirt": 596,
  "dle": 597,
  "Ġplayer": 598,
  "ate": 599,
  "Ġjumping": 600,
  "ity": 601,
  "cing": 602,
  "Ġgo": 603,
  "Ġper": 604,
  "ive": 605,
  "ep": 606,
  "ign": 607,
  "Ġglasses": 608,
  "Ġbeach": 609,
  "Ġguit": 610,
  "Ġarm": 611,
  "Ġatt": 612,
  "ff": 613,
  "Ġhands": 614,
  "umb": 615,
  "Ġcap": 616,
  "sian": 617,
  "Ġapp": 618,
  "Ġface": 619,
  "Ġalong": 620,
  "Ġbic": 621,
  "do": 622,
  "Ġpicture": 623,
  "ame": 624,
  "gs": 625,
  "Ġabo": 626,
  "Ġsmiling": 627,
  "Ġholds": 628,
  "Ġcarrying": 629,
  "Ġbike": 630,
  "Ġperform": 631,
  "Ġhelm": 632,
  "Ġguitar": 633,
  "ple": 634,
  "Ġac": 635,
  "Ġgirls": 636,
  "door": 637,
  "Ġsign": 638,
  "Ġcity": 639,
  "Ġmouth": 640,
  "Ġgu": 641,
  "Ġsand": 642,
  "glasses": 643,
  "Ġsoc": 644,
  "Ġpurple": 645,
  "ub": 646,
  "Ġchair": 647,
  "Ġsuit": 648,
  "Ġmiddle": 649,
  "Ġflo": 650,
  "as": 651,
  "ĠAsian": 652,
  "Ġtoward": 653,
  "Ġsoccer": 654,
  "Ġmic": 655,
  "Ġswim": 656,
  "ect": 657,
  "Ġcoat": 658,
  "Ġroad": 659,
  "ish": 660,
  "Ġteam": 661,
  "Ġjump": 662,
  "Ġdan": 663,
  "Ġsunglasses": 664,
  "Ġunder": 665,
  "ation": 666,
  "Ġfem": 667,
  "haired": 668,
  "Ġshe": 669,
  "Ġeach": 670,
  "Ġbench": 671,
  "Ġcl": 672,
  "ft": 673,
  "gg": 674,
  "Ġde": 675,
  "Ġlight": 676,
  "Ġboys": 677,
  "side": 678,
  "Ġlook": 679,
  "Ġhelmet": 680,
  "ry": 681,
  "Man": 682,
  "Ġrock": 683,
  "Ġbeing": 684,
  "Ġmountain": 685,
  "Ġoutdoor": 686,
  "Ġlady": 687,
  "Ġthree": 688,
  "Ġworking": 689,
  "ful": 690,
  "Ġtree": 691,
  "Ġbright": 692,
  "Ġfemale": 693,
  "ted": 694,
  "Ġskate": 695,
  "our": 696,
  "Ġmicrop": 697,
  "ĠC": 698,
  "Ġ\"": 699,
  "Ġph": 700,
  "Ġroom": 701,
  "Ġbaseball": 702,
  "Ġche": 703,
  "Ġguy": 704,
  "Ġbicycle": 705,
  "Ġthey": 706,
  "Ġdirt": 707,
  "Ġfoot": 708,
  "stru": 709,
  "Ġsurround": 710,
  "Ġtogether": 711,
  "Ġphoto": 712,
  "imb": 713,
  "Four": 714,
  "een": 715,
  "Ġfood": 716,
  "Ġwooden": 717,
  "Ġcomp": 718,
  "ĠS": 719,
  "Ġplays": 720,
  "Ġmicrophone": 721,
  "Ġwindow": 722,
  "Ġag": 723,
  "Ġbag": 724,
  "ult": 725,
  "Se": 726,
  "Ġfen": 727,
  "Ġacross": 728,
  "Ġclimb": 729,
  "using": 730,
  "Ġappear": 731,
  "Ġfloor": 732,
  "Ġstage": 733,
  "Ġagain": 734,
  "Ġgame": 735,
  "Ġseveral": 736,
  "Ġagainst": 737,
  "Ġob": 738,
  "Ġskateboard": 739,
  "Ġbaby": 740,
  "struction": 741,
  "Ġdrin": 742,
  "Ġday": 743,
  "Several": 744,
  "Ġmus": 745,
  "Ġsa": 746,
  "Ġten": 747,
  "Ġsweater": 748,
  "Ġpool": 749,
  "Ġusing": 750,
  "Ġsurf": 751,
  "Ġoutf": 752,
  "Ġcat": 753,
  "Ġleft": 754,
  "Ġcovered": 755,
  "lee": 756,
  "ment": 757,
  "People": 758,
  "Ġbasket": 759,
  "Ġtaking": 760,
  "Ġbrick": 761,
  "Ġopen": 762,
  "Ġcolorful": 763,
  "Ġconstruction": 764,
  "Ġboat": 765,
  "Ġmusic": 766,
  "oking": 767,
  "Ġpie": 768,
  "Ġsurrounded": 769,
  "Ġwatches": 770,
  "ok": 771,
  "Ġinside": 772,
  "Ġarms": 773,
  "Ġfence": 774,
  "os": 775,
  "One": 776,
  "Ġtank": 777,
  "Ġtenn": 778,
  "Ġtennis": 779,
  "Ġtowards": 780,
  "Ġfe": 781,
  "Ġdis": 782,
  "Ġwhat": 783,
  "ee": 784,
  "ach": 785,
  "Ġtra": 786,
  "ance": 787,
  "Ġbackp": 788,
  "Ġbody": 789,
  "Ġhorse": 790,
  "Ġjumps": 791,
  "Ġabout": 792,
  "Ġtoy": 793,
  "als": 794,
  "ding": 795,
  "Ġdoing": 796,
  "Ġshort": 797,
  "Ġswimm": 798,
  "Ġsl": 799,
  "Ġnumb": 800,
  "inging": 801,
  "Ġappears": 802,
  "te": 803,
  "Ġmotorc": 804,
  "uch": 805,
  "Ġshoes": 806,
  "Ġpul": 807,
  "itch": 808,
  "Ġfla": 809,
  "Ġprep": 810,
  "Ġcan": 811,
  "Ġpart": 812,
  "Ġca": 813,
  "erly": 814,
  "Ġfootball": 815,
  "Ġblo": 816,
  "Ġlike": 817,
  "Ġabove": 818,
  "ix": 819,
  "ging": 820,
  "Ġperforming": 821,
  "Ġaway": 822,
  "ds": 823,
  "Ġrace": 824,
  "ous": 825,
  "Ġcross": 826,
  "iv": 827,
  "Ġmany": 828,
  "Ġey": 829,
  "Ġwork": 830,
  "Ġshould": 831,
  "Ġgrassy": 832,
  "Ġumb": 833,
  "Ġumbrel": 834,
  "Ġmet": 835,
  "Ġelderly": 836,
  "Ġpiece": 837,
  "Ġtrying": 838,
  "ĠB": 839,
  "Ġline": 840,
  "Ġoutfit": 841,
  "Ġtur": 842,
  "Ġcouple": 843,
  "Ġclothes": 844,
  "Ġruns": 845,
  "Ġskirt": 846,
  "ue": 847,
  "Ġocean": 848,
  "Ġwhere": 849,
  "ny": 850,
  "Ġbackpack": 851,
  "Ġswimming": 852,
  "ition": 853,
  "arf": 854,
  "ĠM": 855,
  "ruck": 856,
  "Ġdisp": 857,
  "Ġfl": 858,
  "Ġpro": 859,
  "auran": 860,
  "Ġbasketball": 861,
  "Ġwaiting": 862,
  "Ġnumber": 863,
  "der": 864,
  "Ġrestauran": 865,
  "Ġbig": 866,
  "In": 867,
  "ersey": 868,
  "hair": 869,
  "Ġduring": 870,
  "grap": 871,
  "Ġcell": 872,
  "Ġmetal": 873,
  "Ġjersey": 874,
  "slee": 875,
  "Ġsweatshirt": 876,
  "Ġrestaurant": 877,
  "Ġcatch": 878,
  "Ġhill": 879,
  "Ġnearby": 880,
  "graph": 881,
  "Ġdrum": 882,
  "Ġuniforms": 883,
  "Ġplaid": 884,
  "Ġpaper": 885,
  "Ġsky": 886,
  "Ġbusy": 887,
  "Ġcellp": 888,
  "Ġthrow": 889,
  "Ġglo": 890,
  "Young": 891,
  "Ġpoin": 892,
  "Ġhave": 893,
  "Ġmaking": 894,
  "ween": 895,
  "Ġplastic": 896,
  "Ġcostum": 897,
  "Ġfil": 898,
  "meric": 899,
  "Ġbox": 900,
  "Ġopp": 901,
  "Ġbetween": 902,
  "Ġcellphone": 903,
  "Ġphotograph": 904,
  "ial": 905,
  "Ġboots": 906,
  "Ġstick": 907,
  "Ġtruck": 908,
  "ject": 909,
  "sp": 910,
  "Ġice": 911,
  "Ġsinging": 912,
  "Ġbook": 913,
  "ant": 914,
  "ĠT": 915,
  "fric": 916,
  "Ġattemp": 917,
  "Ġhanging": 918,
  "Ġnew": 919,
  "Ġfull": 920,
  "Ġconc": 921,
  "Ġumbrella": 922,
  "Ġcur": 923,
  "Ġclimbing": 924,
  "Ġspor": 925,
  "frican": 926,
  "Ġmotorcycle": 927,
  "merican": 928,
  "Ġsil": 929,
  "ty": 930,
  "Ġstair": 931,
  "Ġwheel": 932,
  "itchen": 933,
  "Ġconcrete": 934,
  "Ġequ": 935,
  "Ġdistance": 936,
  "Ġflowers": 937,
  "Ġforeground": 938,
  "Ġscarf": 939,
  "iew": 940,
  "ls": 941,
  "Ġgetting": 942,
  "jo": 943,
  "Ġhood": 944,
  "Ġkitchen": 945,
  "boy": 946,
  "Ġdancing": 947,
  "ycl": 948,
  "Ġpus": 949,
  "ha": 950,
  "Ġref": 951,
  "Ġcart": 952,
  "Ġlake": 953,
  "Ġequip": 954,
  "mer": 955,
  "iz": 956,
  "Ġart": 957,
  "raw": 958,
  "utting": 959,
  "Ġsmiles": 960,
  "Ġonto": 961,
  "Ġeyes": 962,
  "kin": 963,
  "Ġfire": 964,
  "Ġequipment": 965,
  "Ġinc": 966,
  "Ġsub": 967,
  "Ġcowboy": 968,
  "Ġind": 969,
  "Ġjust": 970,
  "Ġflag": 971,
  "Ġspea": 972,
  "Ġsetting": 973,
  "Ġtoddler": 974,
  "Ġadults": 975,
  "Ġcup": 976,
  "Ġchairs": 977,
  "Ġenjo": 978,
  "ome": 979,
  "Ġview": 980,
  "Ġdisplay": 981,
  "ĠF": 982,
  "Ġgloves": 983,
  "Ġposing": 984,
  "Ġevent": 985,
  "Ġvehic": 986,
  "Ġshopping": 987,
  "Ġrope": 988,
  "Ġedge": 989,
  "Ġsomeone": 990,
  "Ġglass": 991,
  "co": 992,
  "Ġoutdoors": 993,
  "ĠAmerican": 994,
  "Ġafter": 995,
  "Ġsqu": 996,
  "Ġsaf": 997,
  "Five": 998,
  "Ġadult": 999,
  "vy": 1000,
  "Ġapron": 1001,
  "Ġmountains": 1002,
  "head": 1003,
  "Ġready": 1004,
  "hes": 1005,
  "Ġswing": 1006,
  "ckey": 1007,
  "ffit": 1008,
  "ĠAfrican": 1009,
  "ĠP": 1010,
  "Ġoppos": 1011,
  "Ġnight": 1012,
  "room": 1013,
  "Ġobject": 1014,
  "Ġpainted": 1015,
  "lic": 1016,
  "Ġgraffit": 1017,
  "Ġgoing": 1018,
  "Ġhaving": 1019,
  "Some": 1020,
  "Ġsafety": 1021,
  "Ġneck": 1022,
  "ber": 1023,
  "Ġmem": 1024,
  "ons": 1025,
  "ime": 1026,
  "Ġfilled": 1027,
  "Ġmake": 1028,
  "Ġgraffiti": 1029,
  "Ġstud": 1030,
  "ta": 1031,
  "Ġpub": 1032,
  "Ġcorner": 1033,
  "ĠG": 1034,
  "Ġmult": 1035,
  "Ġfish": 1036,
  "of": 1037,
  "Ġstruct": 1038,
  "Ġsunny": 1039,
  "Ġdrinking": 1040,
  "Ġbrid": 1041,
  "utiful": 1042,
  "Ġsnowy": 1043,
  "Ġcrowded": 1044,
  "ym": 1045,
  "ium": 1046,
  "Ġcig": 1047,
  "Ġpublic": 1048,
  "ley": 1049,
  "Ġvehicle": 1050,
  "Ġbi": 1051,
  "Ġtrick": 1052,
  "Ġsteps": 1053,
  "ban": 1054,
  "Ġaud": 1055,
  "Ġflip": 1056,
  "py": 1057,
  "Ġbeautiful": 1058,
  "Ġkids": 1059,
  "sleeved": 1060,
  "Ġbridge": 1061,
  "Ġstructure": 1062,
  "Ġna": 1063,
  "Ġpainting": 1064,
  "Ġdiff": 1065,
  "Ġfacing": 1066,
  "Ġbottle": 1067,
  "ki": 1068,
  "Ġtakes": 1069,
  "ical": 1070,
  "Ġsort": 1071,
  "Ġdifferent": 1072,
  "Ġhu": 1073,
  "ou": 1074,
  "ĠL": 1075,
  "ience": 1076,
  "Ġkn": 1077,
  "Ġinstruments": 1078,
  "Ġtrun": 1079,
  "Ġlegs": 1080,
  "Ġcigaret": 1081,
  "Ġwave": 1082,
  "Ġpreparing": 1083,
  "ract": 1084,
  "Ġhockey": 1085,
  "Ġmidair": 1086,
  "ĠN": 1087,
  "Ġsilver": 1088,
  "Ġpurse": 1089,
  "ool": 1090,
  "Ġkha": 1091,
  "arious": 1092,
  "Ġsubway": 1093,
  "Ġracing": 1094,
  "irc": 1095,
  "ĠD": 1096,
  "Ġfrien": 1097,
  "oman": 1098,
  "Ġcostume": 1099,
  "ife": 1100,
  "Ġtatto": 1101,
  "man": 1102,
  "Ġsays": 1103,
  "Ġtake": 1104,
  "ggles": 1105,
  "ectators": 1106,
  "Ġcars": 1107,
  "Ġno": 1108,
  "Ġonlo": 1109,
  "Ġ2": 1110,
  "Ġvis": 1111,
  "Ġrail": 1112,
  "Woman": 1113,
  "Ġgathered": 1114,
  "Ġalso": 1115,
  "Ġcomputer": 1116,
  "Ġdrink": 1117,
  "Ġgym": 1118,
  "Ġcigarette": 1119,
  "Ġoverlo": 1120,
  "Ġblan": 1121,
  "Ġwinter": 1122,
  "Ġcounter": 1123,
  "Ġmil": 1124,
  "Ġaudience": 1125,
  "Ġtie": 1126,
  "Ġim": 1127,
  "Ġanim": 1128,
  "Ġinstrument": 1129,
  "ace": 1130,
  "Ġsports": 1131,
  "ched": 1132,
  "ivid": 1133,
  "Ġsplas": 1134,
  "Ġlawn": 1135,
  "Ġtyp": 1136,
  "Ġvol": 1137,
  "Ġleaves": 1138,
  "Ġfountain": 1139,
  "Ġspectators": 1140,
  "Ġpointing": 1141,
  "Ġstairs": 1142,
  "Ġexp": 1143,
  "ward": 1144,
  "ĠH": 1145,
  "Ġonlookers": 1146,
  "Ġvarious": 1147,
  "ell": 1148,
  "Ġfur": 1149,
  "fore": 1150,
  "Ġkhaki": 1151,
  "Ġvolley": 1152,
  "rill": 1153,
  "Ġleans": 1154,
  "risb": 1155,
  "yclist": 1156,
  "ded": 1157,
  "Ġvolleyball": 1158,
  "ib": 1159,
  "Ġsmile": 1160,
  "ividu": 1161,
  "Ġputting": 1162,
  "Ġroof": 1163,
  "Ġpaint": 1164,
  "Ġincluding": 1165,
  "spap": 1166,
  "Ġnewspap": 1167,
  "Ġbefore": 1168,
  "ĠR": 1169,
  "risbee": 1170,
  "Ġindividu": 1171,
  "Ġgoggles": 1172,
  "Ġplayground": 1173,
  "Ġguys": 1174,
  "Ġfew": 1175,
  "uff": 1176,
  "Ġcirc": 1177,
  "ĠW": 1178,
  "Ġlaughing": 1179,
  "Ġbusiness": 1180,
  "ĠE": 1181,
  "Ġdoes": 1182,
  "Ġwrap": 1183,
  "Ġschool": 1184,
  "Ġstrol": 1185,
  "Ġbrightly": 1186,
  "Ġpulling": 1187,
  "be": 1188,
  "Ġconvers": 1189,
  "Ġsandals": 1190,
  "runette": 1191,
  "Ġtrunks": 1192,
  "Ġrocky": 1193,
  "Ġcollar": 1194,
  "Ġbucket": 1195,
  "Ġdesk": 1196,
  "Ġpushing": 1197,
  "Ġgar": 1198,
  "Ġattempting": 1199,
  "Ġgoal": 1200,
  "Ġscreen": 1201,
  "art": 1202,
  "Ġladies": 1203,
  "Ġramp": 1204,
  "Ġinf": 1205,
  "Ġpile": 1206,
  "ĠJ": 1207,
  "Ġdriving": 1208,
  "Ġtype": 1209,
  "Ġleg": 1210,
  "Ġshowing": 1211,
  "Ġelectric": 1212,
  "az": 1213,
  "Ġbrunette": 1214,
  "Ġwears": 1215,
  "Ġbowl": 1216,
  "Ġitems": 1217,
  "Ġcourt": 1218,
  "Ġyard": 1219,
  "Ġamon": 1220,
  "Ġnewspaper": 1221,
  "Ġoverlooking": 1222,
  "ĠIn": 1223,
  "Ġmask": 1224,
  "Ġflower": 1225,
  "cope": 1226,
  "Ġsigns": 1227,
  "Ġfamily": 1228,
  "Ġtrail": 1229,
  "Ġpract": 1230,
  "Ġmusician": 1231,
  "Ġcompet": 1232,
  "Ġcarries": 1233,
  "Ġcoming": 1234,
  "Ġcream": 1235,
  "Ġ3": 1236,
  "Ġbeige": 1237,
  "Ġswims": 1238,
  "Ġemp": 1239,
  "Ġblanket": 1240,
  "Ġslide": 1241,
  "Ġlife": 1242,
  "Ġenjoying": 1243,
  "Ġvi": 1244,
  "Ġattire": 1245,
  "Child": 1246,
  "Ġtries": 1247,
  "Ġmartial": 1248,
  "Ġwriting": 1249,
  "Ġfollow": 1250,
  "ump": 1251,
  "Ġcooking": 1252,
  "go": 1253,
  "Ġprin": 1254,
  "Ġplatform": 1255,
  "fo": 1256,
  "Ġstraw": 1257,
  "urban": 1258,
  "Ġvegeta": 1259,
  "Ġstatue": 1260,
  "vert": 1261,
  "Ġthrowing": 1262,
  "Ġsmoking": 1263,
  "Ġsim": 1264,
  "Ġcoffee": 1265,
  "ĠInd": 1266,
  "Ġ1": 1267,
  "Ġmud": 1268,
  "Ġsurfboard": 1269,
  "Ġbull": 1270,
  "Ġwalkway": 1271,
  "Ġbottom": 1272,
  "Ġobser": 1273,
  "Ġpassing": 1274,
  "Ġmembers": 1275,
  "Ġdrums": 1276,
  "Ġbikin": 1277,
  "cap": 1278,
  "Ġopposing": 1279,
  "On": 1280,
  "Ġperforms": 1281,
  "Ġsup": 1282,
  "Ġthird": 1283,
  "Ġladder": 1284,
  "Ġcrossing": 1285,
  "Ġwell": 1286,
  "Ġdirection": 1287,
  "Ġlistening": 1288,
  "ival": 1289,
  "try": 1290,
  "Ġwindows": 1291,
  "Ġadvert": 1292,
  "Ġgrill": 1293,
  "ew": 1294,
  "Ġsandy": 1295,
  "ouf": 1296,
  "Ġcamouf": 1297,
  "Ġbunch": 1298,
  "Ġbutton": 1299,
  "Ġhelp": 1300,
  "Ġsusp": 1301,
  "sleeve": 1302,
  "vice": 1303,
  "Ġmulticolored": 1304,
  "Six": 1305,
  "ĠO": 1306,
  "Ġwet": 1307,
  "Ġviol": 1308,
  "Ġviolin": 1309,
  "Ġvisible": 1310,
  "phones": 1311,
  "Ġsuspen": 1312,
  "Ġturn": 1313,
  "Ġpatter": 1314,
  "Ġvendor": 1315,
  "Ġmade": 1316,
  "Ġmatching": 1317,
  "eo": 1318,
  "dy": 1319,
  "ort": 1320,
  "Ġprotective": 1321,
  "Ġsurface": 1322,
  "Ġdecorated": 1323,
  "io": 1324,
  "Men": 1325,
  "Ġblock": 1326,
  "ho": 1327,
  "Ġprepares": 1328,
  "Ġspeaking": 1329,
  "Ġurban": 1330,
  "Ġwed": 1331,
  "Ġnavy": 1332,
  "Ġ(": 1333,
  "Ġonly": 1334,
  "itional": 1335,
  "Ġcamouflage": 1336,
  "nic": 1337,
  "Ġrodeo": 1338,
  "Ġmir": 1339,
  "Ġbooth": 1340,
  "Ġconcert": 1341,
  "Ġbikini": 1342,
  "Ġloc": 1343,
  "Ġseems": 1344,
  "ys": 1345,
  "Ġtattoo": 1346,
  "Ġpulled": 1347,
  "Ġbird": 1348,
  "Ġbarefo": 1349,
  "Ġcolors": 1350,
  "ĠU": 1351,
  "ia": 1352,
  "Ġqu": 1353,
  "ffic": 1354,
  "Children": 1355,
  "Ġteams": 1356,
  "ĠFrisbee": 1357,
  "estrian": 1358,
  "Ġledge": 1359,
  "Ġgarb": 1360,
  "ĠIndian": 1361,
  "Ġmed": 1362,
  "Ġgymn": 1363,
  "Ġmilitary": 1364,
  "Ġlaptop": 1365,
  "Ġanimal": 1366,
  "Ġcheckered": 1367,
  "Ġwedding": 1368,
  "Ġfinger": 1369,
  "Ġfruit": 1370,
  "Ġfix": 1371,
  "uck": 1372,
  "Ġju": 1373,
  "Ġcompetition": 1374,
  "Ġstroller": 1375,
  "Ġhalf": 1376,
  "Ġcont": 1377,
  "ized": 1378,
  "aya": 1379,
  "Ġpil": 1380,
  "oc": 1381,
  "Ġtraditional": 1382,
  "Ġempty": 1383,
  "na": 1384,
  "Ġwait": 1385,
  ".\"": 1386,
  "Ġsurfer": 1387,
  "Ġmirror": 1388,
  "Ġexam": 1389,
  "Ġtraffic": 1390,
  "Ġamong": 1391,
  "Ġsimilar": 1392,
  "Ġcurly": 1393,
  "ising": 1394,
  "Ġparade": 1395,
  "Ġdoorway": 1396,
  "Ġkaya": 1397,
  "Ġraised": 1398,
  "Ġprodu": 1399,
  "ins": 1400,
  "Ġballoons": 1401,
  "cape": 1402,
  "Ġhoodie": 1403,
  "Ġleash": 1404,
  "gue": 1405,
  "ittle": 1406,
  "Ġwrapped": 1407,
  "Ġcutting": 1408,
  "Ġfive": 1409,
  "Ġeither": 1410,
  "Ġchasing": 1411,
  "Ġtime": 1412,
  "Ġkey": 1413,
  "uc": 1414,
  "Ġeng": 1415,
  "Ġponyta": 1416,
  "Ġfun": 1417,
  "Ġheadphones": 1418,
  "Ġsnowboarder": 1419,
  "Ġballoon": 1420,
  "skin": 1421,
  "ĠCh": 1422,
  "Ġmeat": 1423,
  "Little": 1424,
  "Ġcliff": 1425,
  "Ġcourse": 1426,
  "Ġsing": 1427,
  "\".": 1428,
  "Ġshows": 1429,
  "skinned": 1430,
  "self": 1431,
  "Ġhimself": 1432,
  "Ġbrea": 1433,
  "Ġpitch": 1434,
  "Ġindividuals": 1435,
  "Ġtrash": 1436,
  "Ġvegetables": 1437,
  "road": 1438,
  "light": 1439,
  "Ġspot": 1440,
  "Ġappro": 1441,
  "Ġgiving": 1442,
  "Ġsneakers": 1443,
  "Ġbrus": 1444,
  "Ġdraw": 1445,
  "Ġfriends": 1446,
  "Ġbelt": 1447,
  "Ġconversation": 1448,
  "Ġstudents": 1449,
  "ture": 1450,
  "ulp": 1451,
  "Ġbanner": 1452,
  "Ġcovering": 1453,
  "Ġponytail": 1454,
  "Ġroller": 1455,
  "Ġdenim": 1456,
  "Ġattempts": 1457,
  "Ġhuge": 1458,
  "Ġgather": 1459,
  "ag": 1460,
  "Ġsculp": 1461,
  "Ġunderneath": 1462,
  "Ġcut": 1463,
  "Ġeye": 1464,
  "Ġphotographer": 1465,
  "mas": 1466,
  "Ġstripes": 1467,
  "Ġopposite": 1468,
  "Ġgolf": 1469,
  "Ġknit": 1470,
  "Ġtongue": 1471,
  "Ġmoving": 1472,
  "Ġpedestrian": 1473,
  "Ġcarp": 1474,
  "Ġclimbs": 1475,
  "Person": 1476,
  "Ġbandan": 1477,
  "Ġshovel": 1478,
  "Ġfig": 1479,
  "Ġmatch": 1480,
  "Ġwaist": 1481,
  "ristmas": 1482,
  "Ġclassroom": 1483,
  "ual": 1484,
  "Ġguitars": 1485,
  "Ġmeal": 1486,
  "Ġfriend": 1487,
  "ill": 1488,
  "Ġmustache": 1489,
  "Ġbandanna": 1490,
  "Ġpup": 1491,
  "Ġpen": 1492,
  "Ġkind": 1493,
  "Ġdry": 1494,
  "line": 1495,
  "Ġstuff": 1496,
  "Ġupside": 1497,
  "Ġstadium": 1498,
  "Ġchef": 1499,
  "Ġbarefoot": 1500,
  "Ġdevice": 1501,
  "Ġgiant": 1502,
  "covered": 1503,
  "Ġ-": 1504,
  "fe": 1505,
  "Ġwaving": 1506,
  "Ġgarden": 1507,
  "Ġheavy": 1508,
  "icip": 1509,
  "Ġuses": 1510,
  "Ġpracticing": 1511,
  "Ġbreak": 1512,
  "Ġmaroon": 1513,
  "cord": 1514,
  "Ġhoop": 1515,
  "per": 1516,
  "like": 1517,
  "Ġrug": 1518,
  "Ġz": 1519,
  "Ġairp": 1520,
  "Ġpatterned": 1521,
  "Ġpalm": 1522,
  "Ġgolden": 1523,
  "Ġend": 1524,
  "Ġdiving": 1525,
  "Ġleaps": 1526,
  "fully": 1527,
  "ibly": 1528,
  "Ġrelax": 1529,
  "Ġsliding": 1530,
  "Ġbra": 1531,
  "ĠY": 1532,
  "Ġrobe": 1533,
  "Ġmember": 1534,
  "cle": 1535,
  "Ġblowing": 1536,
  "Ġcountry": 1537,
  "Ġgrab": 1538,
  "ink": 1539,
  "Ġwarm": 1540,
  "Ġspray": 1541,
  "ĠK": 1542,
  "Ġemb": 1543,
  "Ġfin": 1544,
  "Ġspeaks": 1545,
  "Ġcob": 1546,
  "Ġteamm": 1547,
  "ĠI": 1548,
  "Ġsupp": 1549,
  "Ġkeyboard": 1550,
  "ucasian": 1551,
  "Ġtw": 1552,
  "ipe": 1553,
  "Ġmicros": 1554,
  "Ġmakeup": 1555,
  "Ġlandscape": 1556,
  "Ġgoes": 1557,
  "Ġtire": 1558,
  "Ġmove": 1559,
  "Ġmix": 1560,
  "Ġvan": 1561,
  "Ġimage": 1562,
  "ac": 1563,
  "zz": 1564,
  "Ġflies": 1565,
  "Ġstyle": 1566,
  "front": 1567,
  "Bo": 1568,
  "Ġkissing": 1569,
  "Ġscooter": 1570,
  "Ġdeck": 1571,
  "Ġears": 1572,
  "Ġtu": 1573,
  "Ġheadband": 1574,
  "ĠChristmas": 1575,
  "ade": 1576,
  "Ġrolling": 1577,
  "Ġprint": 1578,
  "Ġfab": 1579,
  "Ġfabric": 1580,
  "ka": 1581,
  "Ġstrap": 1582,
  "Ġbackd": 1583,
  "Ġbackdrop": 1584,
  "case": 1585,
  "Ġwe": 1586,
  "urch": 1587,
  "Ġhiking": 1588,
  "Ġmusicians": 1589,
  "Ġwetsuit": 1590,
  "Ġcaps": 1591,
  "Ġstun": 1592,
  "ns": 1593,
  "Ġcano": 1594,
  "Ġthrows": 1595,
  "Ġpaved": 1596,
  "Ġreflect": 1597,
  "Ġda": 1598,
  "Ġdigging": 1599,
  "Ġpossibly": 1600,
  "Ġattention": 1601,
  "Ġcake": 1602,
  "Ġframe": 1603,
  "erman": 1604,
  "Ġaccord": 1605,
  "Ġsax": 1606,
  "Ġpoints": 1607,
  "Ġmuddy": 1608,
  "Ġartist": 1609,
  "Ġlaugh": 1610,
  "Ġchurch": 1611,
  "artment": 1612,
  "Ġharness": 1613,
  "Ġexpress": 1614,
  "Ġbeg": 1615,
  "Ġcra": 1616,
  "Ġaccordion": 1617,
  "ĠV": 1618,
  "Ġpartially": 1619,
  "Ġbalancing": 1620,
  "Ġpolka": 1621,
  "Ġreflective": 1622,
  "Group": 1623,
  "Ġtops": 1624,
  "Ġmostly": 1625,
  "Ġsmoke": 1626,
  "hed": 1627,
  "Ġforward": 1628,
  "Asian": 1629,
  "uzz": 1630,
  "Ġhammer": 1631,
  "Ġsum": 1632,
  "Ġmicroscope": 1633,
  "Ġsuspended": 1634,
  "Ġpeace": 1635,
  "Ġcafe": 1636,
  "Ġadj": 1637,
  "Ġ'": 1638,
  "Ġunderw": 1639,
  "Ġsquat": 1640,
  "Ġwashing": 1641,
  "Ġceleb": 1642,
  "Ġpic": 1643,
  "Ġmiss": 1644,
  "aw": 1645,
  "Ġskiing": 1646,
  "key": 1647,
  "Here": 1648,
  "Ġsca": 1649,
  "Ġwheelchair": 1650,
  "Ġjogging": 1651,
  "Ġpushes": 1652,
  "ĠSp": 1653,
  "yard": 1654,
  "Ġnecklace": 1655,
  "Ġproject": 1656,
  "Ġsplashing": 1657,
  "irst": 1658,
  "Ġcaught": 1659,
  "Ġbicyclist": 1660,
  "Ġmotorb": 1661,
  "Ġsculpture": 1662,
  "Ġput": 1663,
  "At": 1664,
  "Ġboxes": 1665,
  "Ġsquare": 1666,
  "ips": 1667,
  "Ġif": 1668,
  "time": 1669,
  "Ġdrummer": 1670,
  "bar": 1671,
  "Sm": 1672,
  "Ġposition": 1673,
  "Ġmin": 1674,
  "Ġbubbles": 1675,
  "Ġslightly": 1676,
  "Ġtramp": 1677,
  "Ġcrosswalk": 1678,
  "Ġparticip": 1679,
  "Ġdaughter": 1680,
  "bile": 1681,
  "Ġdin": 1682,
  "Ġahead": 1683,
  "Ġguard": 1684,
  "Ġtelescope": 1685,
  "Ġ4": 1686,
  "wh": 1687,
  "Ġsecon": 1688,
  "tion": 1689,
  "her": 1690,
  "Ġcanoe": 1691,
  "Ġtrampoline": 1692,
  "med": 1693,
  "Ġtrip": 1694,
  "Ġinflata": 1695,
  "Ġlaund": 1696,
  "Ġlamp": 1697,
  "Ġcurb": 1698,
  "Ġheadsc": 1699,
  "Ġsilhouet": 1700,
  "iqu": 1701,
  "Ġtunnel": 1702,
  "Ġstunt": 1703,
  "Ġyouth": 1704,
  "flop": 1705,
  "Ġbubble": 1706,
  "Ġpicnic": 1707,
  "Ġleaf": 1708,
  "Ġlab": 1709,
  "Ġpavement": 1710,
  "Ġathlet": 1711,
  "Ġbalcony": 1712,
  "Ġbackyard": 1713,
  "Ġsurfing": 1714,
  "Ġliqu": 1715,
  "Ġcamp": 1716,
  "Ġsecond": 1717,
  "Ġenjoy": 1718,
  "Ġgarbage": 1719,
  "Ġobstacle": 1720,
  "Ġfunny": 1721,
  "cy": 1722,
  "nival": 1723,
  "Ġsaxop": 1724,
  "Ġnarrow": 1725,
  "Ġpond": 1726,
  "Ġfigure": 1727,
  "rench": 1728,
  "Ġfestival": 1729,
  "Ġrunner": 1730,
  "Ġathletic": 1731,
  "Ġsnows": 1732,
  "Ġbending": 1733,
  "Ġinflatable": 1734,
  "Ġdrives": 1735,
  "Ġhappy": 1736,
  "Ġkayak": 1737,
  "Ġevery": 1738,
  "Ġ5": 1739,
  "ritten": 1740,
  "ĠCa": 1741,
  "zen": 1742,
  "Ġpaj": 1743,
  "ics": 1744,
  "Ġcarnival": 1745,
  "Ġsaxophone": 1746,
  "Ġinfant": 1747,
  "Ġcrying": 1748,
  "Ġdesert": 1749,
  "ggling": 1750,
  "back": 1751,
  "Ġexc": 1752,
  "Ġsquatting": 1753,
  "Ġlog": 1754,
  "Ġoverhead": 1755,
  "Ġwritten": 1756,
  "ork": 1757,
  "Ġbroom": 1758,
  "Ġhorizon": 1759,
  "Ġsingle": 1760,
  "Ġmissing": 1761,
  "Ġsix": 1762,
  "Ġtowel": 1763,
  "Ġlugg": 1764,
  "Ġluggage": 1765,
  "Ġgives": 1766,
  "Ġdrawing": 1767,
  "Ġpian": 1768,
  "Ġrailroad": 1769,
  "Ġhangs": 1770,
  "Ġhugging": 1771,
  "dling": 1772,
  "Ġadvertisement": 1773,
  "Ġobserving": 1774,
  "Ġopponent": 1775,
  "bing": 1776,
  "Ġceiling": 1777,
  "Ġgravel": 1778,
  "Ġbackwards": 1779,
  "oon": 1780,
  "Ġsec": 1781,
  "flops": 1782,
  "rey": 1783,
  "Ġpaddle": 1784,
  "Ġsummer": 1785,
  "Ġmural": 1786,
  "Ġtight": 1787,
  "Black": 1788,
  "Ġyou": 1789,
  "Ġlies": 1790,
  "Ġfixing": 1791,
  "ky": 1792,
  "Ġacoustic": 1793,
  "Ġpud": 1794,
  "Ġliving": 1795,
  "Ġgaz": 1796,
  "Ġcarpet": 1797,
  "Ġfirst": 1798,
  "ĠNew": 1799,
  "Ġprofessional": 1800,
  "Ġbeverage": 1801,
  "Ġpuppy": 1802,
  "lish": 1803,
  "Ġtrim": 1804,
  "Ġsweeping": 1805,
  "inning": 1806,
  "Ġpret": 1807,
  "Ġpiano": 1808,
  "Ġraising": 1809,
  "Ġexer": 1810,
  "Ġwind": 1811,
  "Ġstra": 1812,
  "lit": 1813,
  "Ġmarching": 1814,
  "Ġentrance": 1815,
  "Ġintent": 1816,
  "Ġhapp": 1817,
  "Ġmotorbike": 1818,
  "Ġmotocross": 1819,
  "Ġpodium": 1820,
  "While": 1821,
  "Ġpajamas": 1822,
  "Ġpig": 1823,
  "Ġbushes": 1824,
  "resh": 1825,
  "Ġshooting": 1826,
  "ull": 1827,
  "Women": 1828,
  "amp": 1829,
  "ab": 1830,
  "Ġswimsuit": 1831,
  "Ġheadscarf": 1832,
  "Ġliquid": 1833,
  "Ġwords": 1834,
  "Ġfloating": 1835,
  "Ġdriver": 1836,
  "Ġexpression": 1837,
  "Ġintently": 1838,
  "apanese": 1839,
  "Ġmagaz": 1840,
  "Ġcover": 1841,
  "gth": 1842,
  "Ġpipe": 1843,
  "Ġword": 1844,
  "Ġconversing": 1845,
  "Ġscaffolding": 1846,
  "Ġexerc": 1847,
  "Ġspread": 1848,
  "Ġtax": 1849,
  "gle": 1850,
  "Ġoutstret": 1851,
  "Small": 1852,
  "Ġcontrol": 1853,
  "Ġmultiple": 1854,
  "Ġprepare": 1855,
  "Ġairplane": 1856,
  "Ġracetrack": 1857,
  "Ġshoe": 1858,
  "ĠYork": 1859,
  "Ġformal": 1860,
  "Ġplaza": 1861,
  "Ġme": 1862,
  "Ġsewing": 1863,
  "Ġdemonst": 1864,
  "Ġfiref": 1865,
  "we": 1866,
  "Ġshaving": 1867,
  "Ġdinner": 1868,
  "Ġpet": 1869,
  "Ġcond": 1870,
  "Ġstraight": 1871,
  "Ġrugby": 1872,
  "Ġoutstretched": 1873,
  "Ġrec": 1874,
  "Ġpun": 1875,
  "lin": 1876,
  "Ġinclud": 1877,
  "Ġjumpsuit": 1878,
  "Ġgood": 1879,
  "Ġpatio": 1880,
  "lies": 1881,
  "Girl": 1882,
  "Ġorder": 1883,
  "Ġbars": 1884,
  "Ġcrew": 1885,
  "Ġchecking": 1886,
  "Ġcasual": 1887,
  "Ġgate": 1888,
  "Ġbouquet": 1889,
  "Ġrainbow": 1890,
  "cuss": 1891,
  "Ġcobblestone": 1892,
  "Ġdust": 1893,
  "Ġpre": 1894,
  "Ġthemsel": 1895,
  "Ġthemselves": 1896,
  "Ġboxing": 1897,
  "Ġpuck": 1898,
  "Ġuse": 1899,
  "Ġcrouches": 1900,
  "Ġsoldier": 1901,
  "Ġwrest": 1902,
  "Ġwrestling": 1903,
  "fall": 1904,
  "Ġident": 1905,
  "Ġfresh": 1906,
  "hood": 1907,
  "Ġlaundry": 1908,
  "Ġrubber": 1909,
  "ilt": 1910,
  "Ġtrump": 1911,
  "Ġgentlemen": 1912,
  "Ġintersection": 1913,
  "Ġamidst": 1914,
  "Ġneigh": 1915,
  "Ġrollerb": 1916,
  "Ġcardboard": 1917,
  "Ġinter": 1918,
  "Ġsail": 1919,
  "bag": 1920,
  "Ġfollowing": 1921,
  "Ġstill": 1922,
  "Ġfrisbee": 1923,
  "American": 1924,
  "tails": 1925,
  "Ġcomm": 1926,
  "ec": 1927,
  "Ġupon": 1928,
  "Ġrolled": 1929,
  "Ġglove": 1930,
  "Ġhitting": 1931,
  "Ġsnowboard": 1932,
  "Ġbrush": 1933,
  "Ġpuddle": 1934,
  "Ġafrican": 1935,
  "Ġesc": 1936,
  "Ġescalator": 1937,
  "Ġhallway": 1938,
  "Ġlocal": 1939,
  "ĠSanta": 1940,
  "Ġdowntown": 1941,
  "Ġcarriage": 1942,
  "Ġorg": 1943,
  "sc": 1944,
  "ĠJapanese": 1945,
  "Ġporch": 1946,
  "Ġtrumpet": 1947,
  "Ġelectronic": 1948,
  "Ġneighbor": 1949,
  "Ġhaircut": 1950,
  "Ġdoors": 1951,
  "Ġunderwater": 1952,
  "Ġredheaded": 1953,
  "Ġairbor": 1954,
  "Ġairborne": 1955,
  "Ġornate": 1956,
  "Ġhospital": 1957,
  "Ġmuseum": 1958,
  "Ġtiled": 1959,
  "ĠGerman": 1960,
  "Ġribbon": 1961,
  "Ġ20": 1962,
  "Boy": 1963,
  "ears": 1964,
  "Ġpretty": 1965,
  "green": 1966,
  "Ġgrin": 1967,
  "hawk": 1968,
  "Ġsleeps": 1969,
  "Ġ&": 1970,
  "lege": 1971,
  "Ġfro": 1972,
  "Ġtransportation": 1973,
  "Ġneighborhood": 1974,
  "Ġtrunk": 1975,
  "coat": 1976,
  "Ġfloat": 1977,
  "Ġtux": 1978,
  "ming": 1979,
  "Ġteammates": 1980,
  "Ġlift": 1981,
  "Ġgas": 1982,
  "Ġethnic": 1983,
  "Ġtape": 1984,
  "Ġexamining": 1985,
  "Ġretrie": 1986,
  "ference": 1987,
  "Ġmuzz": 1988,
  "Ġcups": 1989,
  "Ġcircular": 1990,
  "Ġroutine": 1991,
  "Ġdoll": 1992,
  "Ġcarry": 1993,
  "Ġknife": 1994,
  "Ġstir": 1995,
  "Ġstudent": 1996,
  "Ġattempt": 1997,
  "Ġstove": 1998,
  "Ġslope": 1999,
  "Ġbank": 2000,
  "Ġmobile": 2001,
  "Ġinv": 2002,
  "Ġmagazine": 2003,
  "Ġthumb": 2004,
  "Ġblows": 2005,
  "Ġrange": 2006,
  "Ġraft": 2007,
  "Ġlocated": 2008,
  "Ġfurn": 2009,
  "Ġsuitcase": 2010,
  "Brown": 2011,
  "Ġpatch": 2012,
  "Ġraises": 2013,
  "Ġbarbec": 2014,
  "Ġenc": 2015,
  "Ġgoalie": 2016,
  "day": 2017,
  "Ġwaterfall": 2018,
  "boat": 2019,
  "Ġconference": 2020,
  "ĠCaucasian": 2021,
  "Ġbranch": 2022,
  "Ġeyeglasses": 2023,
  "It": 2024,
  "Ġgrey": 2025,
  "Ġdim": 2026,
  "Ġbends": 2027,
  "Ġfree": 2028,
  "Ġsplash": 2029,
  "rubs": 2030,
  "Ġpigtails": 2031,
  "Ġav": 2032,
  "Ġspace": 2033,
  "Older": 2034,
  "Ġapparent": 2035,
  "Ġfollows": 2036,
  "Ġstops": 2037,
  "Ġiron": 2038,
  "Ġaqu": 2039,
  "den": 2040,
  "Ġgrabbing": 2041,
  "Ġbarrier": 2042,
  "Ġmoney": 2043,
  "Ġsilhouette": 2044,
  "Blond": 2045,
  "Ġcook": 2046,
  "itors": 2047,
  "Ġdirect": 2048,
  "ars": 2049,
  "Ġcorn": 2050,
  "Ġrelaxing": 2051,
  "bling": 2052,
  "Ġjuggling": 2053,
  "White": 2054,
  "Ġapartment": 2055,
  "Ġtrench": 2056,
  "Ġsoftball": 2057,
  "Ġvariety": 2058,
  "Ġforeign": 2059,
  "og": 2060,
  "Ġworld": 2061,
  "Ġvac": 2062,
  "Ġpatient": 2063,
  "Ġboardwalk": 2064,
  "Male": 2065,
  "Ġstudio": 2066,
  "Ġstorefront": 2067,
  "Ġshaved": 2068,
  "Ġorgan": 2069,
  "Ġfurry": 2070,
  "weight": 2071,
  "Ġphotographs": 2072,
  "'t": 2073,
  "Ġteammate": 2074,
  "Ġindust": 2075,
  "Ġindustrial": 2076,
  "Ġskinny": 2077,
  "Ġpaddling": 2078,
  "Ġtaxi": 2079,
  "Ġtelephone": 2080,
  "ewelry": 2081,
  "Ġroll": 2082,
  "Ġpractice": 2083,
  "Ġsofa": 2084,
  "Ġserving": 2085,
  "place": 2086,
  "Ġmarketplace": 2087,
  "Ġmouths": 2088,
  "vis": 2089,
  "Ġlib": 2090,
  "Ġtraveling": 2091,
  "Ġmedium": 2092,
  "Ġspeed": 2093,
  "Ġsuspenders": 2094,
  "Ġexercise": 2095,
  "Ġsprink": 2096,
  "Ġstrange": 2097,
  "herd": 2098,
  "Ġterrain": 2099,
  "ĠUn": 2100,
  "Ġshops": 2101,
  "Ġupper": 2102,
  "Ġtripod": 2103,
  "Ġreg": 2104,
  "Ġdefen": 2105,
  "Ġdesign": 2106,
  "Ġstrapped": 2107,
  "ific": 2108,
  "Ġjewelry": 2109,
  "Ġsunlight": 2110,
  "Ġchoir": 2111,
  "Ġimp": 2112,
  "Ġsink": 2113,
  "can": 2114,
  "rief": 2115,
  "Ġbrief": 2116,
  "Ġfluffy": 2117,
  "Ġlunch": 2118,
  "Ġdecorative": 2119,
  "Ġlaughs": 2120,
  "Ġhelps": 2121,
  "Ġapproaching": 2122,
  "Ġsemi": 2123,
  "dress": 2124,
  "Ġadvertising": 2125,
  "Ġstopped": 2126,
  "Ġcloseup": 2127,
  "oise": 2128,
  "Ġsoda": 2129,
  "Ġcheerleaders": 2130,
  "iddle": 2131,
  "Ġtablecloth": 2132,
  "Ġtrop": 2133,
  "Ġamusement": 2134,
  "Ġshaking": 2135,
  "Ġdig": 2136,
  "Ġpottery": 2137,
  "Ġrepair": 2138,
  "Ġpoint": 2139,
  "hoes": 2140,
  "Ġinvol": 2141,
  "Ġelev": 2142,
  "St": 2143,
  "book": 2144,
  "Ġcollege": 2145,
  "Ġpassenger": 2146,
  "Ġfurniture": 2147,
  "Ġjet": 2148,
  "Ġbeanie": 2149,
  "Ġtile": 2150,
  "Ġmodel": 2151,
  "bur": 2152,
  "Ġlibrary": 2153,
  "Ġrowing": 2154,
  "ĠAT": 2155,
  "Ġconsisting": 2156,
  "loy": 2157,
  "Ġspoon": 2158,
  "Ġdread": 2159,
  "Ġsecurity": 2160,
  "Ġincludes": 2161,
  "Ġbarbecue": 2162,
  "box": 2163,
  "Ġbutter": 2164,
  "quoise": 2165,
  "Ġturquoise": 2166,
  "Ġpump": 2167,
  "Ġrows": 2168,
  "Ġblurred": 2169,
  "Construction": 2170,
  "Ġcraft": 2171,
  "lymp": 2172,
  "Ġidentical": 2173,
  "ors": 2174,
  "Ġnighttime": 2175,
  "Ġ6": 2176,
  "Ġoverweight": 2177,
  "camera": 2178,
  "Ġextended": 2179,
  "Ġparachute": 2180,
  "dish": 2181,
  "Ġreddish": 2182,
  "Ġhang": 2183,
  "Ġbuilt": 2184,
  "Ġobserve": 2185,
  "looking": 2186,
  "Ġflipping": 2187,
  "Ġforehead": 2188,
  "Ġmedical": 2189,
  "vas": 2190,
  "rail": 2191,
  "Ġblaz": 2192,
  "Ġarch": 2193,
  "ug": 2194,
  "Ġfrozen": 2195,
  "Ġzip": 2196,
  "Ġspotted": 2197,
  "Ġpupp": 2198,
  "Ġperched": 2199,
  "Ġpattern": 2200,
  "ops": 2201,
  "ractive": 2202,
  "Ġmakeshift": 2203,
  "Ġdirectly": 2204,
  "Ġdreadlocks": 2205,
  "Ġcrouched": 2206,
  "Ġdrive": 2207,
  "Ġquick": 2208,
  "Ġfake": 2209,
  "Ġbathroom": 2210,
  "Ġcoach": 2211,
  "Ġstretched": 2212,
  "Ġevening": 2213,
  "Ġhappily": 2214,
  "Ġlength": 2215,
  "Seven": 2216,
  "Ġgreyhound": 2217,
  "ĠUS": 2218,
  "Ġapplying": 2219,
  "wood": 2220,
  "Ġais": 2221,
  "Ġcustomer": 2222,
  "Ġfencing": 2223,
  "Ġyears": 2224,
  "Ġbuy": 2225,
  "Ġscarves": 2226,
  "Ġsandw": 2227,
  "ĠEn": 2228,
  "Ġarran": 2229,
  "raption": 2230,
  "Ġcontraption": 2231,
  "ino": 2232,
  "bs": 2233,
  "Ġcarefully": 2234,
  "Ġtrashcan": 2235,
  "igious": 2236,
  "Ġdisplayed": 2237,
  "Ġump": 2238,
  "Ġumpire": 2239,
  "Ġformation": 2240,
  "Ġengine": 2241,
  "Ġfit": 2242,
  "Ġdeb": 2243,
  "vil": 2244,
  "Ġcelebrating": 2245,
  "Fem": 2246,
  "Ġeastern": 2247,
  "ney": 2248,
  "With": 2249,
  "barrow": 2250,
  "Ġwheelbarrow": 2251,
  "Ġcanvas": 2252,
  "Ġcaucasian": 2253,
  "Ġearrings": 2254,
  "Ġpit": 2255,
  "Ġbagp": 2256,
  "Ġlisten": 2257,
  "Ġtoo": 2258,
  "Ġhurdle": 2259,
  "Ġcompan": 2260,
  "Ġexhib": 2261,
  "ĠLon": 2262,
  "ĠOlymp": 2263,
  "Ġapparently": 2264,
  "Ġeight": 2265,
  "ze": 2266,
  "arge": 2267,
  "Ġairport": 2268,
  "uba": 2269,
  "Ġdrill": 2270,
  "Ġfiretruck": 2271,
  "Ġreligious": 2272,
  "rush": 2273,
  "Ġdump": 2274,
  "Ġdonkey": 2275,
  "Ġbegins": 2276,
  "Ġpours": 2277,
  "izza": 2278,
  "Ġsimilarly": 2279,
  "Ġtail": 2280,
  "gu": 2281,
  "reme": 2282,
  "Ġcalf": 2283,
  "Ġsword": 2284,
  "Ġattractive": 2285,
  "Ġdraped": 2286,
  "Ġsized": 2287,
  "Ġsupport": 2288,
  "Ġchalkboard": 2289,
  "men": 2290,
  "Ġawa": 2291,
  "Ġcheek": 2292,
  "sia": 2293,
  "Ġspinning": 2294,
  "Ġemploy": 2295,
  "Ġmarble": 2296,
  "Female": 2297,
  "Ġcalm": 2298,
  "Ġcarving": 2299,
  "Ġolive": 2300,
  "Ġmodern": 2301,
  "Ġus": 2302,
  "Ġattending": 2303,
  "Ġspeak": 2304,
  "Ġdrib": 2305,
  "Ġexamines": 2306,
  "Ġaisle": 2307,
  "Ġsandwich": 2308,
  "Ġocc": 2309,
  "Ġspark": 2310,
  "Ġbottoms": 2311,
  "Ġbarrel": 2312,
  "Ġsnowshoes": 2313,
  "Ġscuba": 2314,
  "Ġwrist": 2315,
  "Ġfocus": 2316,
  "ĠSh": 2317,
  "Ġhandrail": 2318,
  "Ġpush": 2319,
  "Ġtuxedo": 2320,
  "Ġleaving": 2321,
  "Ġax": 2322,
  "brush": 2323,
  "Ġfeaturing": 2324,
  "Ġarmy": 2325,
  "Ġexcited": 2326,
  "ironment": 2327,
  "Ġenv": 2328,
  "Ġenvironment": 2329,
  "nequ": 2330,
  "Ġblurry": 2331,
  "Ġamoun": 2332,
  "Ġapproaches": 2333,
  "Ġdune": 2334,
  "Ġcreating": 2335,
  "Ġlime": 2336,
  "Ġquickly": 2337,
  "Ġcargo": 2338,
  "Ġshoot": 2339,
  "ĠAr": 2340,
  "Ġsy": 2341,
  "Ġparticipating": 2342,
  "ĠCla": 2343,
  "Ġjuice": 2344,
  "boo": 2345,
  "Ġvenue": 2346,
  "Ġshawl": 2347,
  "Ġnative": 2348,
  "ĠLondon": 2349,
  "Ġfancy": 2350,
  "Ġscrubs": 2351,
  "ifier": 2352,
  "Ġfirefighters": 2353,
  "Ġ7": 2354,
  "Ġflowing": 2355,
  "haps": 2356,
  "Ġseven": 2357,
  "reek": 2358,
  "Large": 2359,
  "Ġclapping": 2360,
  "pants": 2361,
  "Ġshelf": 2362,
  "Ġfinish": 2363,
  "Ġracquet": 2364,
  "Ġsocial": 2365,
  "Ġillum": 2366,
  "Ġattend": 2367,
  "Ġduck": 2368,
  "ma": 2369,
  "ĠEaster": 2370,
  "Ġtiny": 2371,
  "Ġdimly": 2372,
  "ĠSouth": 2373,
  "Ġsmo": 2374,
  "Ġplayfully": 2375,
  "Ġskull": 2376,
  "Ġheavily": 2377,
  "Ġtackle": 2378,
  "bat": 2379,
  "Ġnewbor": 2380,
  "Ġnewborn": 2381,
  "Ġmannequ": 2382,
  "Ġfestive": 2383,
  "Ġembracing": 2384,
  "Ġdebris": 2385,
  "Ġpathway": 2386,
  "Ġaerial": 2387,
  "Ġblood": 2388,
  "Ġmessy": 2389,
  "most": 2390,
  "Ġelephant": 2391,
  "Ġodd": 2392,
  "Ġhelicopter": 2393,
  "style": 2394,
  "Ġhandbag": 2395,
  "Ġretriever": 2396,
  "Ġburgundy": 2397,
  "Ġbamboo": 2398,
  "Ġengaged": 2399,
  "pan": 2400,
  "Ġaccom": 2401,
  "Ġnearly": 2402,
  "Ġ10": 2403,
  "Ġestablish": 2404,
  "Ġcrouching": 2405,
  "12": 2406,
  "Ġderby": 2407,
  "Ġmenu": 2408,
  "Ġsciss": 2409,
  "Ġupward": 2410,
  "Ġtossing": 2411,
  "Ġperhaps": 2412,
  "Ġlevel": 2413,
  "Ġbouncing": 2414,
  "ĠEng": 2415,
  "Ġcreek": 2416,
  "view": 2417,
  "Ġwarmly": 2418,
  "Ġtorch": 2419,
  "Ġunf": 2420,
  "Ġwake": 2421,
  "Ġadm": 2422,
  "uffs": 2423,
  "Ġvacu": 2424,
  "Ġoven": 2425,
  "ĠMex": 2426,
  "Ġbriefcase": 2427,
  "Ġactiv": 2428,
  "Ġshape": 2429,
  "Ġgl": 2430,
  "Ġtelevis": 2431,
  "Ġadjusting": 2432,
  "Ġrollerblades": 2433,
  "Ġservice": 2434,
  "Ġchainsaw": 2435,
  "sized": 2436,
  "Ġbarber": 2437,
  "Ġgesturing": 2438,
  "Ġamount": 2439,
  "Ġbroad": 2440,
  "Ġplayed": 2441,
  "Ġelbow": 2442,
  "Lo": 2443,
  "Ġnail": 2444,
  "Ġlocation": 2445,
  "ĠTV": 2446,
  "Ġexamine": 2447,
  "Ġbirthday": 2448,
  "Ġpetting": 2449,
  "ipping": 2450,
  "kn": 2451,
  "Ġmixing": 2452,
  "Ġcong": 2453,
  "Ġgymnasium": 2454,
  "Ġmuzzle": 2455,
  "Ġpretending": 2456,
  "Ġfatigues": 2457,
  "Ġkimon": 2458,
  "Ġdozen": 2459,
  "Ġembrace": 2460,
  "Ġletters": 2461,
  "Ġshadows": 2462,
  "Ġspec": 2463,
  "Ġscissors": 2464,
  "Ġbaggy": 2465,
  "Ġcolumns": 2466,
  "Ġ9": 2467,
  "cil": 2468,
  "Ġadjusts": 2469,
  "obile": 2470,
  "Ġsweatpants": 2471,
  "Ġpeach": 2472,
  "inished": 2473,
  "Ġstretches": 2474,
  "Ġmonument": 2475,
  "Ġbinoculars": 2476,
  "Workers": 2477,
  "Ġsupplies": 2478,
  "Ġingred": 2479,
  "Ġshaggy": 2480,
  "war": 2481,
  "Ġpropped": 2482,
  "Ġtricycle": 2483,
  "Ġweaving": 2484,
  "Ġaqua": 2485,
  "Ġworn": 2486,
  "Ġpeers": 2487,
  "Ġspotlight": 2488,
  "ĠEurop": 2489,
  "Ġchewing": 2490,
  "Ġhorseback": 2491,
  "Ġsnowsuit": 2492,
  "Ġfarm": 2493,
  "Ġpea": 2494,
  "chestra": 2495,
  "Ġsprinkler": 2496,
  "Ġgradu": 2497,
  "rows": 2498,
  "Ġnur": 2499,
  "Ġalmost": 2500,
  "Ġrollerskates": 2501,
  "my": 2502,
  "Ġstretching": 2503,
  "Ġbutterf": 2504,
  "Ġspons": 2505,
  "Ġsurp": 2506,
  "Ġtrousers": 2507,
  "Ġsharp": 2508,
  "Ġyar": 2509,
  "Ġdaytime": 2510,
  "Ġgarment": 2511,
  "Ġsuch": 2512,
  "known": 2513,
  "ca": 2514,
  "Ġwaterm": 2515,
  "Ġhalter": 2516,
  "Ġsaddle": 2517,
  "Ġbron": 2518,
  "Ġcompanion": 2519,
  "Ġinner": 2520,
  "Ġunus": 2521,
  "Ġestablishment": 2522,
  "Ġavo": 2523,
  "Ġcotton": 2524,
  "Ġmonkey": 2525,
  "Ġcrown": 2526,
  "Ġdyed": 2527,
  "Ġi": 2528,
  "Ġunfinished": 2529,
  "Ġsweeps": 2530,
  "Ġbend": 2531,
  "Lady": 2532,
  "Ġconductor": 2533,
  "Ġdragging": 2534,
  "Ġingredients": 2535,
  "Ġtattooed": 2536,
  "Ġhandlebars": 2537,
  "Ġdiscussing": 2538,
  "Ġeggs": 2539,
  "Ġlaun": 2540,
  "Ġwheelie": 2541,
  "Ġtelevision": 2542,
  "ey": 2543,
  "Ġremo": 2544,
  "Ġscrat": 2545,
  "Ġnewly": 2546,
  "Ġlettering": 2547,
  "Ġapart": 2548,
  "striped": 2549,
  "Ġdrop": 2550,
  "Ġdownward": 2551,
  "Ġorchestra": 2552,
  "Ġbelongings": 2553,
  "Ġfacial": 2554,
  "ĠAsia": 2555,
  "Ġstump": 2556,
  "Ġpaws": 2557,
  "Ġtopped": 2558,
  "Gu": 2559,
  "Ġtiger": 2560,
  "Ġoverlooks": 2561,
  "Ġraincoat": 2562,
  "ified": 2563,
  "Ġnaked": 2564,
  "Ġjoy": 2565,
  "Ġridden": 2566,
  "ĠMo": 2567,
  "Ġbraided": 2568,
  "Mult": 2569,
  "Ġsurprised": 2570,
  "Ġtropical": 2571,
  "Sp": 2572,
  "gling": 2573,
  "Ġbeginning": 2574,
  "Ġint": 2575,
  "Ġsoa": 2576,
  "Ġstairway": 2577,
  "Ġportra": 2578,
  "Ġpirate": 2579,
  "reg": 2580,
  "Middle": 2581,
  "Ġspeech": 2582,
  "Ġceremony": 2583,
  "Ġshepherd": 2584,
  "ĠSqu": 2585,
  "Ġcherry": 2586,
  "oot": 2587,
  "hy": 2588,
  "Ġwhen": 2589,
  "Ġlips": 2590,
  "Ġpencil": 2591,
  "Ġmohawk": 2592,
  "Ġquarter": 2593,
  "Ġnotebook": 2594,
  "Ġangel": 2595,
  "Ġunusual": 2596,
  "Ġcit": 2597,
  "Ġbillboard": 2598,
  "Ġpartly": 2599,
  "Ġmaneu": 2600,
  "ĠMexican": 2601,
  "ai": 2602,
  "Ġartwork": 2603,
  "UV": 2604,
  "Ġgymnastics": 2605,
  "Ġmonitor": 2606,
  "Ġchopsticks": 2607,
  "unity": 2608,
  "Ġtorn": 2609,
  "Ġmuch": 2610,
  "Ġdepartment": 2611,
  "Ġmit": 2612,
  "Ġgazing": 2613,
  "oms": 2614,
  "Ġheaddress": 2615,
  "Ġmilk": 2616,
  "Ġeverywhere": 2617,
  "Ġnav": 2618,
  "Ġdun": 2619,
  "Ġcontemp": 2620,
  "Ġrifle": 2621,
  "occer": 2622,
  "wheeled": 2623,
  "Ġexcitement": 2624,
  "Ġaxe": 2625,
  "Ġcurtain": 2626,
  "Ġeven": 2627,
  "ude": 2628,
  "Ġtanned": 2629,
  "fire": 2630,
  "Ġpizza": 2631,
  "Ġbatter": 2632,
  "Ġyarn": 2633,
  "Ġminiature": 2634,
  "As": 2635,
  "gency": 2636,
  "Ġsailboat": 2637,
  "Ġshut": 2638,
  "Ped": 2639,
  "Ġunknown": 2640,
  "noon": 2641,
  "Ġboxer": 2642,
  "ritish": 2643,
  "rimmed": 2644,
  "Ġtarp": 2645,
  "ĠMc": 2646,
  "oga": 2647,
  "Ġyoga": 2648,
  "Ġbagpipes": 2649,
  "ĠJo": 2650,
  "Ġdragon": 2651,
  "Ġaccompan": 2652,
  "Ġseparate": 2653,
  "Ġwhiteboard": 2654,
  "ĠSquare": 2655,
  "Ġdemonstration": 2656,
  "Ġbooths": 2657,
  "Ġ2012": 2658,
  "ootball": 2659,
  "Ġcrosscountry": 2660,
  "Ġoncoming": 2661,
  "cial": 2662,
  "filled": 2663,
  "Ġstirring": 2664,
  "During": 2665,
  "Ch": 2666,
  "Ġautom": 2667,
  "Ġearphones": 2668,
  "Ġshakes": 2669,
  "Ġinvolving": 2670,
  "Ġgoatee": 2671,
  "Ġdepicting": 2672,
  "now": 2673,
  "ĠMus": 2674,
  "Ġticket": 2675,
  "Ġunderground": 2676,
  "Ġpassersby": 2677,
  "Ġfist": 2678,
  "Ġsniff": 2679,
  "ti": 2680,
  "ĠHaw": 2681,
  "blue": 2682,
  "izing": 2683,
  "ĠSUV": 2684,
  "Ġclutching": 2685,
  "Ġ8": 2686,
  "Ġpuppies": 2687,
  "ĠNike": 2688,
  "Ġfirefighter": 2689,
  "Ġchefs": 2690,
  "Ġdemonstrating": 2691,
  "Ġgrinding": 2692,
  "Ġ:": 2693,
  "chief": 2694,
  "Ġcurve": 2695,
  "Ġsnake": 2696,
  "oo": 2697,
  "Ġnavig": 2698,
  "umn": 2699,
  "utumn": 2700,
  "Ġjack": 2701,
  "Ġauditorium": 2702,
  "Ġgraduation": 2703,
  "Ġbroken": 2704,
  "Ġgift": 2705,
  "Ġhorn": 2706,
  "Ġtoes": 2707,
  "Guy": 2708,
  "Ġplank": 2709,
  "Ġgroups": 2710,
  "Ġsprayed": 2711,
  "Ġnumerous": 2712,
  "Ġblin": 2713,
  "Ġjob": 2714,
  "shaped": 2715,
  "Ġsponsored": 2716,
  "Ġbusinessman": 2717,
  "Kids": 2718,
  "Ġmannequin": 2719,
  "Ġbutterfly": 2720,
  "Ġcricket": 2721,
  "Ġmini": 2722,
  "Ġsyn": 2723,
  "Ġdescending": 2724,
  "Ġdangling": 2725,
  "Pedestrians": 2726,
  "Ġflannel": 2727,
  "Ġunlo": 2728,
  "Ġviewing": 2729,
  "Ġafternoon": 2730,
  "ĠClaus": 2731,
  "Ġmerchand": 2732,
  "Ġmerchandise": 2733,
  "Ġsupermarket": 2734,
  "ĠMcD": 2735,
  "Ġgreat": 2736,
  "Ġstroll": 2737,
  "Ġjungle": 2738,
  "Ġcongreg": 2739,
  "Old": 2740,
  "Ġga": 2741,
  "Ġrecently": 2742,
  "Ġindian": 2743,
  "Ġhardwood": 2744,
  "Football": 2745,
  "Ġalco": 2746,
  "Ġprov": 2747,
  "IN": 2748,
  "cut": 2749,
  "Ġfreshly": 2750,
  "Ġcobbled": 2751,
  "Ġmatt": 2752,
  "Ġobscured": 2753,
  "Elderly": 2754,
  "Ġalleyway": 2755,
  "ĠAmerica": 2756,
  "Ġterm": 2757,
  "Ġdiver": 2758,
  "Ġwrites": 2759,
  "Ġbedroom": 2760,
  "Ġmessenger": 2761,
  "Nine": 2762,
  "Ġsenior": 2763,
  "pain": 2764,
  "ĠShep": 2765,
  "drant": 2766,
  "Ġhydrant": 2767,
  "Ġcru": 2768,
  "ĠHawai": 2769,
  "ĠHawaiian": 2770,
  "Ġbrownish": 2771,
  "Ġvisor": 2772,
  "Ġtoothbrush": 2773,
  "Ġvarying": 2774,
  "ond": 2775,
  "Ġhambur": 2776,
  "Ġchatting": 2777,
  "Ġpickup": 2778,
  "Ġbanjo": 2779,
  "Ġceremon": 2780,
  "Ġpavil": 2781,
  "Ġfind": 2782,
  "Ġloading": 2783,
  "Ġpillows": 2784,
  "Soccer": 2785,
  "ĠAp": 2786,
  "Ġtracksuit": 2787,
  "Ġfourth": 2788,
  "Ġdive": 2789,
  "Ġstopping": 2790,
  "Ġcylin": 2791,
  "gy": 2792,
  "Ġmixed": 2793,
  "Ġinspecting": 2794,
  "Ġelevated": 2795,
  "bby": 2796,
  "aseball": 2797,
  "Ġpartner": 2798,
  "Ġburning": 2799,
  "Ġcelebration": 2800,
  "Ġfoliage": 2801,
  "mon": 2802,
  "Ġacro": 2803,
  "Ġenclosed": 2804,
  "Ġhighchair": 2805,
  "Ġtightly": 2806,
  "ĠCanadian": 2807,
  "Ġapproach": 2808,
  "Ġguiding": 2809,
  "Eight": 2810,
  "Ġemergency": 2811,
  "Ġwash": 2812,
  "ms": 2813,
  "prin": 2814,
  "Ġ11": 2815,
  "rong": 2816,
  "Ġeveryone": 2817,
  "Ġheadgear": 2818,
  "Ġbrother": 2819,
  "Ġdumpster": 2820,
  "Ġtransit": 2821,
  "Ġtechn": 2822,
  "ĠBritish": 2823,
  "Red": 2824,
  "Ġlive": 2825,
  "Ġbulldozer": 2826,
  "Ġnun": 2827,
  "Ġskyline": 2828,
  "Close": 2829,
  "Closeup": 2830,
  "Ġpray": 2831,
  "Ġvocal": 2832,
  "Ġyouths": 2833,
  "Ġox": 2834,
  "onge": 2835,
  "Ġkimono": 2836,
  "Ġgoat": 2837,
  "Ġdrag": 2838,
  "Ġdryer": 2839,
  "Ġcarved": 2840,
  "ĠOlympics": 2841,
  "Ġquiet": 2842,
  "Ġleafy": 2843,
  "Ġavoid": 2844,
  "Ġcommercial": 2845,
  "Ġtwirling": 2846,
  "Ġentertain": 2847,
  "Ġegg": 2848,
  "Ġexcept": 2849,
  "Ġveil": 2850,
  "Street": 2851,
  "Ġlaundromat": 2852,
  "Ġvending": 2853,
  "Ġhorizontally": 2854,
  "Ġtrol": 2855,
  "Ġdigital": 2856,
  "Ġsymbols": 2857,
  "ĠEastern": 2858,
  "Ġarrow": 2859,
  "Ġearm": 2860,
  "Ġearmuffs": 2861,
  "asket": 2862,
  "Ġrazor": 2863,
  "ind": 2864,
  "Ġsurgery": 2865,
  "ĠNY": 2866,
  "Ġtoe": 2867,
  "Ġbecause": 2868,
  "Ġslung": 2869,
  "Ġcircuit": 2870,
  "Ġshoppers": 2871,
  "Ġsquin": 2872,
  "Ġsplit": 2873,
  "Ġscaffold": 2874,
  "Ġhunched": 2875,
  "Ġplus": 2876,
  "int": 2877,
  "Ġbarricade": 2878,
  "Ġdressing": 2879,
  "Ġrelaxed": 2880,
  "Ġrapids": 2881,
  ",\"": 2882,
  "Ġcattle": 2883,
  "ĠDJ": 2884,
  "Ġearly": 2885,
  "Ġactivity": 2886,
  "Ad": 2887,
  "Ġextreme": 2888,
  "Ġpeering": 2889,
  "agne": 2890,
  "Ġchampagne": 2891,
  "Ġpavilion": 2892,
  "Ġpep": 2893,
  "Ġspat": 2894,
  "Ġindex": 2895,
  "Ġdistrict": 2896,
  "ĠBar": 2897,
  "Ġautumn": 2898,
  "Ġchopping": 2899,
  "Ġinj": 2900,
  "Ġforefront": 2901,
  "ĠATM": 2902,
  "\",": 2903,
  "Ġsilk": 2904,
  "was": 2905,
  "Ġlobby": 2906,
  "Ġemployee": 2907,
  "Ġpee": 2908,
  "ĠMohawk": 2909,
  "Ġhuddled": 2910,
  "Ġreception": 2911,
  "Ġcluttered": 2912,
  "Ġbutcher": 2913,
  "Ġcoaster": 2914,
  "Ġbreakd": 2915,
  "Ġwarehouse": 2916,
  "Ġamid": 2917,
  "ĠArmy": 2918,
  "Ġlush": 2919,
  "Ġextends": 2920,
  "Ġsight": 2921,
  "losure": 2922,
  "ĠBM": 2923,
  "urfer": 2924,
  "Ġcardig": 2925,
  "Ġcardigan": 2926,
  "Ġtv": 2927,
  "Ġdoesn": 2928,
  "halt": 2929,
  "Ġasphalt": 2930,
  "Ġilluminated": 2931,
  "Ġstuck": 2932,
  "Ġpunch": 2933,
  "Ġpauses": 2934,
  "Ġbegin": 2935,
  "ĠLa": 2936,
  "Ġkeeps": 2937,
  "Ġaccompanied": 2938,
  "iversity": 2939,
  "Ġapplies": 2940,
  "Ġtravel": 2941,
  "Ġmuscular": 2942,
  "Ġstainless": 2943,
  "Ġapparat": 2944,
  "Ġapparatus": 2945,
  "Ġorganized": 2946,
  "Ġpreparation": 2947,
  "ĠiP": 2948,
  "Ġautomobile": 2949,
  "Ġzone": 2950,
  "Ġarranged": 2951,
  "Ġsimultaneous": 2952,
  "ĠCon": 2953,
  "Ġterminal": 2954,
  "Ġearb": 2955,
  "tube": 2956,
  "bie": 2957,
  "Ġstepping": 2958,
  "razil": 2959,
  "Ġpressure": 2960,
  "esus": 2961,
  "Ġwaterway": 2962,
  "ĠIs": 2963,
  "Ġfetch": 2964,
  "ĠCity": 2965,
  "Ġarray": 2966,
  "ĠMusl": 2967,
  "asketball": 2968,
  "Ġva": 2969,
  "Ġsurg": 2970,
  "Ġsurgical": 2971,
  "Ġnatural": 2972,
  "Ġovercoat": 2973,
  "Ġtending": 2974,
  "ĠSooners": 2975,
  "Ġpacifier": 2976,
  "Ġdownhill": 2977,
  "ĠEnglish": 2978,
  "girl": 2979,
  "tub": 2980,
  "Ġbathtub": 2981,
  "ĠGolden": 2982,
  "Ġeverything": 2983,
  "ĠBan": 2984,
  "Ġuphill": 2985,
  "Ġfashioned": 2986,
  "happy": 2987,
  "Ġcash": 2988,
  "Ġincline": 2989,
  "Ġceremonial": 2990,
  "ĠEuropean": 2991,
  "Ġbodysuit": 2992,
  "Ġmetro": 2993,
  "Ġmesh": 2994,
  "ĠEl": 2995,
  "Ġspatula": 2996,
  "ĠLe": 2997,
  "Ġhorizontal": 2998,
  "Ġmime": 2999,
  "Various": 3000,
  "Ġcaution": 3001,
  "pit": 3002,
  "raft": 3003,
  "Ġinjured": 3004,
  "ĠATV": 3005,
  "Ġbunny": 3006,
  "Ġyelling": 3007,
  "Ġbridesmaids": 3008,
  "Ġemerges": 3009,
  "Ġ#": 3010,
  "Ġfloppy": 3011,
  "Ġdribbling": 3012,
  "Ġkiosk": 3013,
  "ultural": 3014,
  "Ġconnected": 3015,
  "Ġworkshop": 3016,
  "Ġupright": 3017,
  "Baseball": 3018,
  "rd": 3019,
  "Ġcampfire": 3020,
  "Ġprogress": 3021,
  "bank": 3022,
  "usk": 3023,
  "Ġdusk": 3024,
  "Ġfashion": 3025,
  "Ġdessert": 3026,
  "Ġtutu": 3027,
  "wrap": 3028,
  "Ġfoam": 3029,
  "Ġjeep": 3030,
  "aphone": 3031,
  "Ġstretch": 3032,
  "Ġenclosure": 3033,
  "Ġlaven": 3034,
  "Ġlavender": 3035,
  "Ġmarried": 3036,
  "Ġdinosa": 3037,
  "Ġdinosaur": 3038,
  "Ġangle": 3039,
  "Ġsong": 3040,
  "Ġrabb": 3041,
  "Ġlamps": 3042,
  "ĠApple": 3043,
  "Ġhuddle": 3044,
  "Ġwaterfront": 3045,
  "crop": 3046,
  "Ġpurs": 3047,
  "Ġpumpkin": 3048,
  "Tourists": 3049,
  "Ġsurfs": 3050,
  "Ġdribbles": 3051,
  "Ġaccents": 3052,
  "Ġisle": 3053,
  "Ġdried": 3054,
  "Ġrollerskating": 3055,
  "Ġdeterm": 3056,
  "ĠPark": 3057,
  "Ġoccup": 3058,
  "Ġmattress": 3059,
  "Ġpamph": 3060,
  "Ġcaptured": 3061,
  "Ġpossession": 3062,
  "Ġovercast": 3063,
  "Ġparticipate": 3064,
  "ef": 3065,
  "Ġcann": 3066,
  "but": 3067,
  "Ġlanterns": 3068,
  "Ġsimultaneously": 3069,
  "Ġearbuds": 3070,
  "Ġtackling": 3071,
  "Ġslip": 3072,
  "legged": 3073,
  "Ġsunhat": 3074,
  "Ġcarried": 3075,
  "Ġtrolley": 3076,
  "ĠBrazil": 3077,
  "Ġsnowman": 3078,
  "ĠMuslim": 3079,
  "Ġteddy": 3080,
  "Basketball": 3081,
  "Ġspike": 3082,
  "Ġmight": 3083,
  "Ġmarsh": 3084,
  "ĠShepherd": 3085,
  "Ġexiting": 3086,
  "ĠGreen": 3087,
  "Ġsnowball": 3088,
  "Ġinline": 3089,
  "Ġamb": 3090,
  "Ġregister": 3091,
  "pe": 3092,
  "Ġthrew": 3093,
  "Ġmov": 3094,
  "cept": 3095,
  "Ġclothesline": 3096,
  "Ġcave": 3097,
  "Ġpotted": 3098,
  "Ġlion": 3099,
  "oint": 3100,
  "kiing": 3101,
  "Ġstraps": 3102,
  "itting": 3103,
  "Ġmassive": 3104,
  "Ġbush": 3105,
  "Ġscreaming": 3106,
  "pie": 3107,
  "Ġcrayons": 3108,
  "Ġgazebo": 3109,
  "Ġengaging": 3110,
  "Ġspar": 3111,
  "Ġbows": 3112,
  "Ġstrumming": 3113,
  "Ġwilderness": 3114,
  "Ġshelter": 3115,
  "Ġload": 3116,
  "dotted": 3117,
  "Ġsuds": 3118,
  "kerchief": 3119,
  "Ġscattered": 3120,
  "Ġinflated": 3121,
  "inn": 3122,
  "field": 3123,
  "Out": 3124,
  "Ġbarn": 3125,
  "Ġsash": 3126,
  "Ġpuzz": 3127,
  "Ġcommunity": 3128,
  "Ġexhibit": 3129,
  "Ġmaneuver": 3130,
  "Ġtask": 3131,
  "Ġnews": 3132,
  "merged": 3133,
  "Ġsubmerged": 3134,
  "Ġflash": 3135,
  "Dark": 3136,
  "Ġhotdogs": 3137,
  "Ġcarrier": 3138,
  "Ġdiscussion": 3139,
  "jump": 3140,
  "Ġbounce": 3141,
  "oller": 3142,
  "Ġwatermelon": 3143,
  "Ġgreenish": 3144,
  "Ġaf": 3145,
  "Ġpaperwork": 3146,
  "Ġsalmon": 3147,
  "val": 3148,
  "Ġgive": 3149,
  "Ġcus": 3150,
  "Ġglowing": 3151,
  "Ġrevealing": 3152,
  "Ġbackward": 3153,
  "Ġknitted": 3154,
  "wheeler": 3155,
  "pass": 3156,
  "Ġstrawber": 3157,
  "Ġcheerleading": 3158,
  "cident": 3159,
  "Ġaccident": 3160,
  "LE": 3161,
  "Ġbattle": 3162,
  "ĠIndia": 3163,
  "Ġdiaper": 3164,
  "Ġchange": 3165,
  "Ġhung": 3166,
  "Ġupset": 3167,
  "ĠArabic": 3168,
  "Ġprominent": 3169,
  "Ġsipping": 3170,
  "Ġintricate": 3171,
  "Ġholiday": 3172,
  "length": 3173,
  "Ġkickbox": 3174,
  "ĠBud": 3175,
  "Ġhighway": 3176,
  "Ġturtleneck": 3177,
  "Ġmounted": 3178,
  "ĠHispanic": 3179,
  "Ġpairs": 3180,
  "Ġbartender": 3181,
  "Ġbuild": 3182,
  "glass": 3183,
  "oy": 3184,
  "We": 3185,
  "Ġshelves": 3186,
  "ilapid": 3187,
  "ilapidated": 3188,
  "ĠAl": 3189,
  "Ġcoconut": 3190,
  "ps": 3191,
  "Ġpowder": 3192,
  "Ġharmonica": 3193,
  "Ġwrapping": 3194,
  "Ġcapri": 3195,
  "Ġbroadly": 3196,
  "Ġcrystal": 3197,
  "lowing": 3198,
  "Ġprayer": 3199,
  "Ġbarren": 3200,
  "Ġloa": 3201,
  "lie": 3202,
  "uffy": 3203,
  "gry": 3204,
  "ĠTimes": 3205,
  "ĠMarket": 3206,
  "Ġkitten": 3207,
  "Ġscience": 3208,
  "Ġcries": 3209,
  "Ġassort": 3210,
  "Ġassortment": 3211,
  "Ġhealth": 3212,
  "Ġshrubs": 3213,
  "Ġampl": 3214,
  "Ġchristmas": 3215,
  "00": 3216,
  "ison": 3217,
  "Ġbroch": 3218,
  "Ġguide": 3219,
  "Ġelevator": 3220,
  "Ġprofile": 3221,
  "Snow": 3222,
  "Ġlip": 3223,
  "Ġmanip": 3224,
  "Ġrollerblading": 3225,
  "Ġlearning": 3226,
  "Ġquarterback": 3227,
  "Ġcivil": 3228,
  "Ġvibrant": 3229,
  "Ġmovie": 3230,
  "ga": 3231,
  "hammer": 3232,
  "Ġplush": 3233,
  "point": 3234,
  "Ġank": 3235,
  "Ġsunshine": 3236,
  "Ġtri": 3237,
  "eyed": 3238,
  "urf": 3239,
  "Ġshake": 3240,
  "Ġskyd": 3241,
  "Ġmorning": 3242,
  "Ġlangu": 3243,
  "Ġlanguage": 3244,
  "Ġscratching": 3245,
  "Ġunhappy": 3246,
  "Ġconvention": 3247,
  "Ġfamilies": 3248,
  "Ġensemble": 3249,
  "Ġwineglasses": 3250,
  "Ele": 3251,
  "Tod": 3252,
  "Ġsparring": 3253,
  "Ġsatch": 3254,
  "Ġcelebrate": 3255,
  "cussion": 3256,
  "Ġpercussion": 3257,
  "Ġsquad": 3258,
  "Ġhandkerchief": 3259,
  "ĠOk": 3260,
  "Ġarmor": 3261,
  "Ġ13": 3262,
  "Ġpiggyback": 3263,
  "Ġreclining": 3264,
  "Ġearring": 3265,
  "osing": 3266,
  "Ġsniffing": 3267,
  "pa": 3268,
  "Ġembro": 3269,
  "Ġhatch": 3270,
  "Ġnurse": 3271,
  "washer": 3272,
  "Ġturkey": 3273,
  "Ġcultural": 3274,
  "Ġruins": 3275,
  "Ġtread": 3276,
  "Ġmerry": 3277,
  "ĠWal": 3278,
  "Ġunidentified": 3279,
  "Cyclists": 3280,
  "Ġretur": 3281,
  "Ġmailbox": 3282,
  "ĠOlympic": 3283,
  "Ġbeyond": 3284,
  "Ġshrub": 3285,
  "Ġfurther": 3286,
  "Ġsocializing": 3287,
  "Ġsquirting": 3288,
  "Ġbookbag": 3289,
  "Ġlittered": 3290,
  "Ġarcade": 3291,
  "Ġriverbank": 3292,
  "ĠCoca": 3293,
  "Ġbetter": 3294,
  "Ġutility": 3295,
  "ĠMa": 3296,
  "Ġlacrosse": 3297,
  "Ġjudges": 3298,
  "Ġcheckout": 3299,
  "Ġtomatoes": 3300,
  "Ġalready": 3301,
  "Ġchoppy": 3302,
  "cient": 3303,
  "Ġkickboxing": 3304,
  "Ġgliding": 3305,
  "Ġconcentrating": 3306,
  "Ġyet": 3307,
  "ximately": 3308,
  "Bea": 3309,
  "Ġtre": 3310,
  "Ġunloading": 3311,
  "hoe": 3312,
  "Ġsledding": 3313,
  "ĠBMX": 3314,
  "Ġcinder": 3315,
  "Ġclip": 3316,
  "ashioned": 3317,
  "Ġfrying": 3318,
  "Ġserves": 3319,
  "Ġpanca": 3320,
  "Ġwineglass": 3321,
  "Ġsnowm": 3322,
  "Ġcollection": 3323,
  "wise": 3324,
  "Ġcreme": 3325,
  "Ġtoilet": 3326,
  "ĠMcDonald": 3327,
  "Ġdilapidated": 3328,
  "Ġbandage": 3329,
  "Ġx": 3330,
  "Ġcrashing": 3331,
  "capped": 3332,
  "Ġsnowcapped": 3333,
  "Ġhalfway": 3334,
  "ave": 3335,
  "Ġserve": 3336,
  "Ġadjust": 3337,
  "Ġstaff": 3338,
  "Ġadd": 3339,
  "Ġcows": 3340,
  "Ġmur": 3341,
  "Ġmurky": 3342,
  "!\"": 3343,
  "Ġhandmade": 3344,
  "bly": 3345,
  "Ġassembly": 3346,
  "Ġwoven": 3347,
  "Ġvocalist": 3348,
  "Ġsecured": 3349,
  "Ġpuffy": 3350,
  "proof": 3351,
  "ĠCafe": 3352,
  "Ġmagn": 3353,
  "ĠOriental": 3354,
  "Ġcapture": 3355,
  "ĠUSA": 3356,
  "Ġhotdog": 3357,
  "Ġskyscrapers": 3358,
  "Ġsmir": 3359,
  "Ġattraction": 3360,
  "Ġassisting": 3361,
  "AN": 3362,
  "ING": 3363,
  "Ġassembled": 3364,
  "Ġamplifier": 3365,
  "Ġbluish": 3366,
  "Ġtribal": 3367,
  "Ġstirs": 3368,
  "Ġstriking": 3369,
  "Ġrailway": 3370,
  "hel": 3371,
  "Ġlasso": 3372,
  "Ġfixes": 3373,
  "Ġreview": 3374,
  "Ġaccess": 3375,
  "Ġreceives": 3376,
  "Ġcrawls": 3377,
  "arm": 3378,
  "Ġturtle": 3379,
  "Ġwakeboard": 3380,
  "Photo": 3381,
  "African": 3382,
  "Ġadmiring": 3383,
  "Ġbagpipe": 3384,
  "Ġattendant": 3385,
  "Ġwheat": 3386,
  "Ġinnertube": 3387,
  "ramid": 3388,
  "Ġpyramid": 3389,
  "Ġarchway": 3390,
  "fetti": 3391,
  "Ġconfetti": 3392,
  "Ġpotatoes": 3393,
  "Ġmug": 3394,
  "Ġambulance": 3395,
  "Ġhij": 3396,
  "usic": 3397,
  "Music": 3398,
  "type": 3399,
  "ridge": 3400,
  "Ġadorned": 3401,
  "Ġwaterskiing": 3402,
  "ĠCom": 3403,
  "Ġequipped": 3404,
  "Ġbreed": 3405,
  "Ġwaff": 3406,
  "Ġnewlywed": 3407,
  "Gray": 3408,
  "Ġmittens": 3409,
  "Eleven": 3410,
  "Toddler": 3411,
  "Ġtambourine": 3412,
  "Ġfluorescent": 3413,
  "mo": 3414,
  "Ġtournament": 3415,
  "Ġuncut": 3416,
  "Ġtongs": 3417,
  "Play": 3418,
  "deep": 3419,
  "Ġglancing": 3420,
  "rently": 3421,
  "Ġcurrently": 3422,
  "Ġlimb": 3423,
  "Ġcockpit": 3424,
  "ĠUnited": 3425,
  "Ġcloths": 3426,
  "Ġboogie": 3427,
  "Ġscratches": 3428,
  "Ġripped": 3429,
  "Ġchun": 3430,
  "Ġpadded": 3431,
  "Ġbowtie": 3432,
  "Ġrequ": 3433,
  "Ġadv": 3434,
  "Ġembroidered": 3435,
  "Ġdye": 3436,
  "Ġprevent": 3437,
  "Ġdishwasher": 3438,
  "Ġsitu": 3439,
  "Ġcharco": 3440,
  "Ġcharcoal": 3441,
  "ĠGreat": 3442,
  "Crowd": 3443,
  "Ġrelaxes": 3444,
  "Ġvacuuming": 3445,
  "Ġshrubbery": 3446,
  "brea": 3447,
  "Ġhovering": 3448,
  "Ġinvolved": 3449,
  "Ġduffel": 3450,
  "Ġisland": 3451,
  "Ġankle": 3452,
  "Ġever": 3453,
  "Ġembankment": 3454,
  "Ġhammock": 3455,
  "Ġacrobatic": 3456,
  "Bob": 3457,
  "ongeBob": 3458,
  "ong": 3459,
  "Ġoil": 3460,
  "Ġmajor": 3461,
  "Ġpedals": 3462,
  "Ġharp": 3463,
  "Ġvacuum": 3464,
  "Ġash": 3465,
  "Ġvisitors": 3466,
  "vation": 3467,
  "Ġextending": 3468,
  "Ġdeli": 3469,
  "Ġmixer": 3470,
  "'.": 3471,
  "ĠFrance": 3472,
  "Ġprize": 3473,
  "Ġtulips": 3474,
  "Ġancient": 3475,
  "Ġcontemplating": 3476,
  "Smiling": 3477,
  "Ġdandel": 3478,
  "Ġhundreds": 3479,
  "Cheer": 3480,
  "minton": 3481,
  "ronized": 3482,
  "chronized": 3483,
  "Ġsynchronized": 3484,
  "Ġgently": 3485,
  "ĠDis": 3486,
  "ĠDisney": 3487,
  "Ġmegaphone": 3488,
  "Beautiful": 3489,
  "Ġneatly": 3490,
  "lift": 3491,
  "Ġ25": 3492,
  "Ġcheerleader": 3493,
  "Ġexotic": 3494,
  "Ġsparkly": 3495,
  "Ġpatrol": 3496,
  "mill": 3497,
  "Ġcomforter": 3498,
  "Ġbronco": 3499,
  "fashioned": 3500,
  "Ġcampsite": 3501,
  "Ġbangs": 3502,
  "Students": 3503,
  "opoly": 3504,
  "Ġpomp": 3505,
  "Ġwindowsill": 3506,
  "rowsing": 3507,
  "Ġbrowsing": 3508,
  "Ġotherwise": 3509,
  "izard": 3510,
  "Ġhairnet": 3511,
  "Ġharbor": 3512,
  "ĠHe": 3513,
  "Ġlunging": 3514,
  "Ġsoil": 3515,
  "Ġmainly": 3516,
  "Ġplum": 3517,
  "Ġbridal": 3518,
  "Ġsoaked": 3519,
  "Ġrowboat": 3520,
  "brown": 3521,
  "Ġlid": 3522,
  "Ġdiag": 3523,
  "Ġradio": 3524,
  "Ġchubby": 3525,
  "Ġweird": 3526,
  "Ġspi": 3527,
  "Ġhusband": 3528,
  "Ġdug": 3529,
  "ĠSpanish": 3530,
  "ĠNative": 3531,
  "Ġnine": 3532,
  "first": 3533,
  "Ġheadfirst": 3534,
  "Ġcrawling": 3535,
  "Ġpretzels": 3536,
  "Ġoutcrop": 3537,
  "Ġtemp": 3538,
  "Ġmarch": 3539,
  "Ġbronze": 3540,
  "Ġtroupe": 3541,
  "Ġcoast": 3542,
  "Ġ%": 3543,
  "Ġheadscarves": 3544,
  "ĠBlue": 3545,
  "Ġtends": 3546,
  "Ġcroch": 3547,
  "rofoam": 3548,
  "Ġsolid": 3549,
  "Ġclassic": 3550,
  "Ġyawning": 3551,
  "Ġshred": 3552,
  "gin": 3553,
  "OR": 3554,
  "Ġpatriotic": 3555,
  "Ġalcohol": 3556,
  "Ġassisted": 3557,
  "Ġdetermined": 3558,
  "Ġtrophy": 3559,
  "ĠBat": 3560,
  "Ġswan": 3561,
  "Ġcreated": 3562,
  "Ġpamphlet": 3563,
  "Ġpedal": 3564,
  "Ġmount": 3565,
  "Ġscrub": 3566,
  "iously": 3567,
  "Ġanx": 3568,
  "hn": 3569,
  "Ġ33": 3570,
  "Ġfrench": 3571,
  "Ġcanyon": 3572,
  "Ġunison": 3573,
  "Ġbookshel": 3574,
  "Ġbrochure": 3575,
  "Ġmagic": 3576,
  "Ġyear": 3577,
  "Ġscruffy": 3578,
  "ummer": 3579,
  "cert": 3580,
  "Ġbackdropped": 3581,
  "Ġeyeb": 3582,
  "Ġsaus": 3583,
  "Ġworkout": 3584,
  "ĠLight": 3585,
  "Ġdesktop": 3586,
  "lywood": 3587,
  "ĠAngeles": 3588,
  "Ġrapid": 3589,
  "Ġprimarily": 3590,
  "Ġgoofy": 3591,
  "Ġmaybe": 3592,
  "iami": 3593,
  "ĠMiami": 3594,
  "ij": 3595,
  "riend": 3596,
  "Ġspending": 3597,
  "orld": 3598,
  "Ġunique": 3599,
  "Ġactivities": 3600,
  "Ġcomposed": 3601,
  "Ġhijab": 3602,
  "Ġlaunch": 3603,
  "Ġpregnant": 3604,
  "Ġintercept": 3605,
  "Ġcruise": 3606,
  "unners": 3607,
  "Runners": 3608,
  "Ġpensive": 3609,
  "cottish": 3610,
  "ĠScottish": 3611,
  "Ġbeak": 3612,
  "Ġhamburger": 3613,
  "ĠPizza": 3614,
  "Ġjar": 3615,
  "Ġaudio": 3616,
  "Ġmossy": 3617,
  "Ġstudies": 3618,
  "Ġdoberman": 3619,
  "Ġexplaining": 3620,
  "Ġappla": 3621,
  "ĠTex": 3622,
  "Ġboundary": 3623,
  "Ġfoil": 3624,
  "Ġjan": 3625,
  "Ġhauling": 3626,
  "Adults": 3627,
  "ĠElmo": 3628,
  "Ġconcerned": 3629,
  "Ġdraws": 3630,
  "lahoma": 3631,
  "ĠBus": 3632,
  "Ġoars": 3633,
  "Ġroofs": 3634,
  "Ġrequires": 3635,
  "ĠStarb": 3636,
  "Ġonce": 3637,
  "ĠUniversity": 3638,
  "with": 3639,
  "Ġviolinist": 3640,
  "Ġdunk": 3641,
  "Ġstairwell": 3642,
  "Ġfilming": 3643,
  "Ġslender": 3644,
  "Ġyo": 3645,
  "yo": 3646,
  "appy": 3647,
  "Ġprob": 3648,
  "Ġprobably": 3649,
  "Ġawk": 3650,
  "Ġawkward": 3651,
  "ĠFrench": 3652,
  "Ġroyal": 3653,
  "Ġredhead": 3654,
  "ĠJesus": 3655,
  "Ġcaptain": 3656,
  "Ġcoll": 3657,
  "Ġprice": 3658,
  "Ġconducting": 3659,
  "Ġweapon": 3660,
  "Ġchanging": 3661,
  "Ġburn": 3662,
  "Ġgranite": 3663,
  "ĠVe": 3664,
  "Ġevergreen": 3665,
  "Ġcrocod": 3666,
  "Qu": 3667,
  "pot": 3668,
  "Ġ.": 3669,
  "Ġassistance": 3670,
  "Ġoverpass": 3671,
  "Ġhopping": 3672,
  "Ġcub": 3673,
  "Ġcrib": 3674,
  "Ġzoo": 3675,
  "dhist": 3676,
  "Ġemerging": 3677,
  "Ġboa": 3678,
  "Ġmixture": 3679,
  "ux": 3680,
  "Ġbowing": 3681,
  "Ġlove": 3682,
  "Un": 3683,
  "Ġconveyor": 3684,
  "Ġsuspension": 3685,
  "Ġbouncy": 3686,
  "Ġpullover": 3687,
  "Ġslowly": 3688,
  "Ġskyscraper": 3689,
  "Ġpeeking": 3690,
  "Ġpaisley": 3691,
  "Ġrubble": 3692,
  "Ġseemingly": 3693,
  "Ġ19": 3694,
  "Ġbackstroke": 3695,
  "Ġexposing": 3696,
  "sh": 3697,
  "Ġbadminton": 3698,
  "Ġfilms": 3699,
  "Ġapproximately": 3700,
  "Ġagility": 3701,
  "Ġthread": 3702,
  "Ġrectangular": 3703,
  "themed": 3704,
  "Ġfav": 3705,
  "Ġfavorite": 3706,
  "Ġseafood": 3707,
  "idas": 3708,
  "Ġexpensive": 3709,
  "Ġletter": 3710,
  "Ġbaked": 3711,
  "Ġpengu": 3712,
  "Ġbreakdan": 3713,
  "Ġbreakdancing": 3714,
  "Numerous": 3715,
  "Ġdaylight": 3716,
  "Ġtheme": 3717,
  "Ġferry": 3718,
  "Ġleis": 3719,
  "no": 3720,
  "Ġcurled": 3721,
  "iforn": 3722,
  "ifornia": 3723,
  "ĠCalifornia": 3724,
  "Ġmonks": 3725,
  "Ġvisiting": 3726,
  "Ġcampus": 3727,
  "Ġpompoms": 3728,
  "rewd": 3729,
  "Ġscrewd": 3730,
  "nyrd": 3731,
  "Ġstudded": 3732,
  "Ġbree": 3733,
  "Ġsip": 3734,
  "11": 3735,
  "Ġcathedral": 3736,
  "Ġmist": 3737,
  "Ġadorn": 3738,
  "Ġcupca": 3739,
  "Ġkept": 3740,
  "Ġconsists": 3741,
  "Ġcue": 3742,
  "Ġfilm": 3743,
  "Ġschoolgirl": 3744,
  "Ġsize": 3745,
  "Ġsmelling": 3746,
  "Ġdolp": 3747,
  "av": 3748,
  "Ġfixtures": 3749,
  "ĠSun": 3750,
  "Ġwrong": 3751,
  "Ġscrol": 3752,
  "ev": 3753,
  "osable": 3754,
  "Ġdisposable": 3755,
  "Aid": 3756,
  "zing": 3757,
  "Ġflanked": 3758,
  "dyed": 3759,
  "Ġraking": 3760,
  "Ġfifth": 3761,
  "Ġpossible": 3762,
  "Ġgreeting": 3763,
  "Ġxy": 3764,
  "Ġmedieval": 3765,
  "Ġcasino": 3766,
  "Ġabstract": 3767,
  "Ġtemporary": 3768,
  "Ġrepairs": 3769,
  "Ġbackhoe": 3770,
  "Grey": 3771,
  "ewish": 3772,
  "Ġdefender": 3773,
  "lattered": 3774,
  "Ġplow": 3775,
  "Ġpearl": 3776,
  "Ġoutcropping": 3777,
  "Ġquad": 3778,
  "RA": 3779,
  "etro": 3780,
  "Ġollie": 3781,
  "Ġtwisting": 3782,
  "Ġassists": 3783,
  "Ġmachete": 3784,
  "Ġstyrofoam": 3785,
  "AM": 3786,
  "Ġappropriate": 3787,
  "entral": 3788,
  "Ġculture": 3789,
  "ault": 3790,
  "Ġcrutches": 3791,
  "drawn": 3792,
  "Ġstrokes": 3793,
  "ĠJohn": 3794,
  "Ġsparklers": 3795,
  "Ġdefending": 3796,
  "Ġbookshelves": 3797,
  "urs": 3798,
  "pipe": 3799,
  "ĠiPod": 3800,
  "Ġavailable": 3801,
  "ĠSummer": 3802,
  "Ġsausages": 3803,
  "Ġtend": 3804,
  "Ġdisinterested": 3805,
  "ombie": 3806,
  "Ġzombie": 3807,
  "ĠBrazilian": 3808,
  "rael": 3809,
  "Ġhandheld": 3810,
  "adio": 3811,
  "Ġentertainment": 3812,
  "Ġimpress": 3813,
  "ĠSam": 3814,
  "ijing": 3815,
  "Ġmarshmallow": 3816,
  "friend": 3817,
  "Ġsniffs": 3818,
  "ĠWorld": 3819,
  "Ġmanipulating": 3820,
  "Dressed": 3821,
  "Ġhighly": 3822,
  "Ġhandful": 3823,
  "Ġcorridor": 3824,
  "Ġpedestal": 3825,
  "Ġpatiently": 3826,
  "Ġtrom": 3827,
  "ĠJen": 3828,
  "ĠJenga": 3829,
  "Ġzippered": 3830,
  "gehammer": 3831,
  "Ġsledgehammer": 3832,
  "Ġpowerpoint": 3833,
  "Ġcomic": 3834,
  "Ġfitted": 3835,
  "Ġharvesting": 3836,
  "ibility": 3837,
  "Ds": 3838,
  "Ġ$": 3839,
  "Ġ15": 3840,
  "Ġdisk": 3841,
  "Ġskydiving": 3842,
  "Ġstreetlights": 3843,
  "Ġcorrugated": 3844,
  "Ġparticular": 3845,
  "ĠPort": 3846,
  "Ġcombat": 3847,
  "Ġsews": 3848,
  "Ġwaffle": 3849,
  "Ġmosaic": 3850,
  "Ġapplauding": 3851,
  "Ġbrow": 3852,
  "Ġcreate": 3853,
  "Ġgripping": 3854,
  "Ġgreenhouse": 3855,
  "City": 3856,
  "After": 3857,
  "Ġcurling": 3858,
  "Ġalumin": 3859,
  "Ġaluminum": 3860,
  "Ġsource": 3861,
  "Ġperfect": 3862,
  "uchsia": 3863,
  "Ġfuchsia": 3864,
  "Ġtypewriter": 3865,
  "ĠLegos": 3866,
  "Ġreceiving": 3867,
  "ĠHar": 3868,
  "Snowboarder": 3869,
  "Ġdollhouse": 3870,
  "ĠOklahoma": 3871,
  "Ġwristband": 3872,
  "Ġreporter": 3873,
  "ĠKorean": 3874,
  "Ġdomino": 3875,
  "ĠSpiderman": 3876,
  "innie": 3877,
  "Ġpeak": 3878,
  "Ġaircraft": 3879,
  "Ġ50": 3880,
  "ĠBull": 3881,
  "Ġtrouble": 3882,
  "Ġseesaw": 3883,
  "Ġlayers": 3884,
  "limbing": 3885,
  ").": 3886,
  "Ġpassionately": 3887,
  "ĠScouts": 3888,
  "Ġolympic": 3889,
  "Ġdangerous": 3890,
  "Brunette": 3891,
  "Ġanvil": 3892,
  "Ġkeyboardist": 3893,
  "Ġsleigh": 3894,
  "Ġutens": 3895,
  "ript": 3896,
  "Ġprocedure": 3897,
  "bull": 3898,
  "uccess": 3899,
  "Ġforce": 3900,
  "Ġpersonnel": 3901,
  "ĠBritain": 3902,
  "ĠWalmart": 3903,
  "phone": 3904,
  "Ġcause": 3905,
  "Ġstroke": 3906,
  "Ġbadge": 3907,
  "Ġoar": 3908,
  "Ġexercising": 3909,
  "Ġquilt": 3910,
  "etti": 3911,
  "Ġafro": 3912,
  "Ġconf": 3913,
  "ision": 3914,
  "Ġaccessories": 3915,
  "Picture": 3916,
  "Ġexits": 3917,
  "block": 3918,
  "forcement": 3919,
  "Ġenforcement": 3920,
  "Ġjavelin": 3921,
  "circle": 3922,
  "Ġmuff": 3923,
  "Ġcrocodile": 3924,
  "Ġwindbrea": 3925,
  "Ġwarning": 3926,
  "Ġballgame": 3927,
  "Ġornamental": 3928,
  "Col": 3929,
  "Ġbakery": 3930,
  "ĠQu": 3931,
  "Ġtoboggan": 3932,
  "Ġoutward": 3933,
  "HE": 3934,
  "Ġhoisted": 3935,
  "Ġbring": 3936,
  "Ġcubicle": 3937,
  "Ġnovel": 3938,
  "Ġoverhan": 3939,
  "0s": 3940,
  "ĠIrish": 3941,
  "ĠDal": 3942,
  "Ġterrier": 3943,
  "ĠOcean": 3944,
  "Ġpierced": 3945,
  "the": 3946,
  "Ġfaux": 3947,
  "Ġpretends": 3948,
  "Ġpaintbrush": 3949,
  "Ġascending": 3950,
  "Ġbacklit": 3951,
  "Ġnecktie": 3952,
  "Ġpegs": 3953,
  "Ġspraw": 3954,
  "wrapped": 3955,
  "Onlookers": 3956,
  "ĠSeattle": 3957,
  "Ġmetropolitan": 3958,
  "Am": 3959,
  "Ġpantyhose": 3960,
  "Ind": 3961,
  "eastern": 3962,
  "Ġastride": 3963,
  "Ġbasin": 3964,
  "Ġskimpy": 3965,
  "Ġdandelions": 3966,
  "Ġvelvet": 3967,
  "Cheerleaders": 3968,
  "Ġnetted": 3969,
  "Ġremoves": 3970,
  "Ġsister": 3971,
  "ox": 3972,
  "Ġhurry": 3973,
  "atch": 3974,
  "Ġonions": 3975,
  "ĠRo": 3976,
  "Ġtwisted": 3977,
  "Ġnude": 3978,
  "Ġconcession": 3979,
  "Ġrefreshing": 3980,
  "Ġtightrope": 3981,
  "Ġforklift": 3982,
  "ixed": 3983,
  "Ġcoal": 3984,
  "Shirtless": 3985,
  "Ġbanquet": 3986,
  "Ġmeasuring": 3987,
  "Ġswimwear": 3988,
  "Ġstrawberry": 3989,
  "Ġlei": 3990,
  "Ġbalcon": 3991,
  "Ġbalconies": 3992,
  "Ġworkben": 3993,
  "Ġworkbench": 3994,
  "Ġupraised": 3995,
  "Ġrabbits": 3996,
  "Ġglobe": 3997,
  "Ġblossoms": 3998,
  "High": 3999,
  "clad": 4000,
  "two": 4001,
  "bama": 4002,
  "ĠObama": 4003,
  "ĠUN": 4004,
  "ĠWar": 4005,
  "Ġscrewdriver": 4006,
  "Couple": 4007,
  "ĠMer": 4008,
  "cedes": 4009,
  "Ġtrots": 4010,
  "Ġtrek": 4011,
  "Ġmessage": 4012,
  "Ġarrangement": 4013,
  "ung": 4014,
  "Ġlizard": 4015,
  "ĠVictorian": 4016,
  "Ġbreeze": 4017,
  "Ġblindfolded": 4018,
  "Ġhedges": 4019,
  "Ġsucking": 4020,
  "Ġresort": 4021,
  "ĠHouse": 4022,
  "Ġglittery": 4023,
  "Ġrollerblader": 4024,
  "Ġrake": 4025,
  "AT": 4026,
  "ĠBer": 4027,
  "Ġsoaking": 4028,
  "Ġdolphin": 4029,
  "Ġsilverware": 4030,
  "Ġunit": 4031,
  "Ġdesolate": 4032,
  "Ġscroll": 4033,
  "Ġtreadmill": 4034,
  "Ġrabbit": 4035,
  "Ġspeedboat": 4036,
  "Ġbarred": 4037,
  "Over": 4038,
  "Ġimportant": 4039,
  "Ġpresumably": 4040,
  "Ġflashlight": 4041,
  "Ġlantern": 4042,
  "Ġsqueezing": 4043,
  "ankees": 4044,
  "lip": 4045,
  "Ġfiring": 4046,
  "Ġbonnet": 4047,
  "Ġadjustments": 4048,
  "Ġkettle": 4049,
  "Ġadditional": 4050,
  "wim": 4051,
  "Ġxylophone": 4052,
  "Ġditch": 4053,
  "Ġpuzzle": 4054,
  "Ġfixture": 4055,
  "Ġtorso": 4056,
  "Ġmule": 4057,
  "Ġcrest": 4058,
  "Ġjetty": 4059,
  "Surfer": 4060,
  "ashington": 4061,
  "Ġstylish": 4062,
  "Ġamused": 4063,
  "Ġtoast": 4064,
  "Band": 4065,
  "Ġreh": 4066,
  "intendo": 4067,
  "ĠNintendo": 4068,
  "Ġbassist": 4069,
  "ĠSpongeBob": 4070,
  "ĠKit": 4071,
  "ĠKitty": 4072,
  "Ġtoppings": 4073,
  "Ġviews": 4074,
  "Ġbrimmed": 4075,
  "ĠFord": 4076,
  "Ġfolks": 4077,
  "Ġaddressing": 4078,
  "Ġreceive": 4079,
  "Ġblade": 4080,
  "Shop": 4081,
  "bra": 4082,
  "Ġzebra": 4083,
  "Ġdefend": 4084,
  "Ġleafless": 4085,
  "Police": 4086,
  "Ġfolk": 4087,
  "Ġgoers": 4088,
  "Ġtechnique": 4089,
  "Ġroadway": 4090,
  "Ġphysical": 4091,
  "Ġsplattered": 4092,
  "Ġpopcor": 4093,
  "Ġpopcorn": 4094,
  "Ġcabinet": 4095,
  "Ġscrib": 4096,
  "Ġbatting": 4097,
  "Dancers": 4098,
  "flowing": 4099,
  "ak": 4100,
  "Ġgrowing": 4101,
  "Ġfishermen": 4102,
  "Ġextend": 4103,
  "ĠMetro": 4104,
  "Ġloaf": 4105,
  "Ġoxy": 4106,
  "Ġoxygen": 4107,
  "Ġfuture": 4108,
  "Ġsponge": 4109,
  "ifying": 4110,
  "Ġmagnifying": 4111,
  "ĠUnion": 4112,
  "irgin": 4113,
  "ĠVirgin": 4114,
  "ĠVirginia": 4115,
  "Ġoutline": 4116,
  "Ġglacier": 4117,
  "Ġhealthcare": 4118,
  "EM": 4119,
  "Protesters": 4120,
  "Ġhousehold": 4121,
  "Ġdisabled": 4122,
  "Ġcrot": 4123,
  "Ġcrotch": 4124,
  "ĠCentral": 4125,
  "Ġregion": 4126,
  "rocs": 4127,
  "ĠDeere": 4128,
  "Ġheight": 4129,
  "Chef": 4130,
  "ĠTan": 4131,
  "Ġcabin": 4132,
  "Ġblackboard": 4133,
  "ĠSeg": 4134,
  "ĠSegway": 4135,
  "Ġseeing": 4136,
  "Ġreviewing": 4137,
  "orange": 4138,
  "ĠConcert": 4139,
  "Ġbookcase": 4140,
  "Ġcomprised": 4141,
  "ĠHol": 4142,
  "Ġtissue": 4143,
  "Ġbusily": 4144,
  "Ġcompound": 4145,
  "Ġplayhouse": 4146,
  "ĠIsrael": 4147,
  "Ġfuzz": 4148,
  "Ġfuzzy": 4149,
  "ĠRadio": 4150,
  "Ġpajama": 4151,
  "ichael": 4152,
  "ĠMichael": 4153,
  "eijing": 4154,
  "ĠBeijing": 4155,
  "Ġcoin": 4156,
  "izable": 4157,
  "Ġtye": 4158,
  "Ġhidden": 4159,
  "Ġdrun": 4160,
  "size": 4161,
  "Ġsucks": 4162,
  "Ġfriendly": 4163,
  "CA": 4164,
  "Ġcausing": 4165,
  "redible": 4166,
  "Ġgrowling": 4167,
  "Ġplugs": 4168,
  "Ġpurchasing": 4169,
  "Ġmowing": 4170,
  "Ġdrenched": 4171,
  "weiler": 4172,
  "Number": 4173,
  "Ġalter": 4174,
  "Ġglider": 4175,
  "fitting": 4176,
  "Ġpastries": 4177,
  "Ġdip": 4178,
  "Do": 4179,
  "ĠGate": 4180,
  "ĠBank": 4181,
  "ID": 4182,
  "ĠGame": 4183,
  "ĠJeep": 4184,
  "Ġdefensive": 4185,
  "Ġbatman": 4186,
  "Ġconvertible": 4187,
  "Ġpiping": 4188,
  "Ġcliffs": 4189,
  "Adult": 4190,
  "ĠTexas": 4191,
  "Ġnapping": 4192,
  "Ġdeeply": 4193,
  "Ġbuffalo": 4194,
  "ĠFlag": 4195,
  "Ġscrubbing": 4196,
  "Ġmedia": 4197,
  "Ġgrayish": 4198,
  "ĠTeam": 4199,
  "Ġburger": 4200,
  "Ġsomersault": 4201,
  "Ġworkmen": 4202,
  "buttoned": 4203,
  "Ġunbuttoned": 4204,
  "Ġelegant": 4205,
  "Ġcorp": 4206,
  "Ġpowerful": 4207,
  "Ġ23": 4208,
  "Ġbarbie": 4209,
  "Ġsculptor": 4210,
  "ĠNorth": 4211,
  "ua": 4212,
  "Ġknight": 4213,
  "Ġperches": 4214,
  "Outdoor": 4215,
  "ĠKing": 4216,
  "Ġspandex": 4217,
  "Ġdecide": 4218,
  "Ġalligator": 4219,
  "Ġhopscotch": 4220,
  "Ġconcentration": 4221,
  "Ġdustpan": 4222,
  "Ġwarrior": 4223,
  "Ġdramatic": 4224,
  "Ġbutt": 4225,
  "ĠDay": 4226,
  "ĠEx": 4227,
  "44": 4228,
  "Ġchemicals": 4229,
  "Ġenergy": 4230,
  "Ġplugging": 4231,
  "Bald": 4232,
  "Ġenthusiastically": 4233,
  "Ġtrimming": 4234,
  "Happy": 4235,
  "bu": 4236,
  "built": 4237,
  "Ġoboe": 4238,
  "Ġcellist": 4239,
  "Ġoddly": 4240,
  "Ġsushi": 4241,
  "Ġassoc": 4242,
  "Roller": 4243,
  "Ġpitchfork": 4244,
  "Ġconfused": 4245,
  "Ġnightc": 4246,
  "Ġnightclub": 4247,
  "Ġbilliards": 4248,
  "Yellow": 4249,
  "),": 4250,
  "Ġbuckle": 4251,
  "ĠVegas": 4252,
  "ietnamese": 4253,
  "ĠVietnamese": 4254,
  "Ġlightly": 4255,
  "Ġgorgeous": 4256,
  "Ġcontinue": 4257,
  "Ġcropped": 4258,
  "Com": 4259,
  "Ġpeppers": 4260,
  "Ġarchitectural": 4261,
  "Ġmidriff": 4262,
  "Ġhandlebar": 4263,
  "Ġcrossbones": 4264,
  "guing": 4265,
  "Ġarguing": 4266,
  "picker": 4267,
  "ĠMickey": 4268,
  "ĠPep": 4269,
  "ĠPepper": 4270,
  "ĠDr": 4271,
  "Ġculinary": 4272,
  "Ġsuccess": 4273,
  "Ġinternational": 4274,
  "Ġmp": 4275,
  "Ġmp3": 4276,
  "Ġburlap": 4277,
  "Ġstrawberries": 4278,
  "Ġsedan": 4279,
  "Ġpicturesque": 4280,
  "CE": 4281,
  "RO": 4282,
  "Ġworried": 4283,
  "Ġjourney": 4284,
  "Ġjanitor": 4285,
  "Ġpeanut": 4286,
  "tray": 4287,
  "Ġpiercing": 4288,
  "Ġbarret": 4289,
  "ravagant": 4290,
  "Ġextravagant": 4291,
  "eterm": 4292,
  "Ġsimple": 4293,
  "Ġspaghetti": 4294,
  "Ġsprawled": 4295,
  "Ġmanhole": 4296,
  "ĠAust": 4297,
  "ĠAustral": 4298,
  "Ġtheatrical": 4299,
  "Ġpassageway": 4300,
  "undreds": 4301,
  "Hundreds": 4302,
  "Ġgurney": 4303,
  "Ġopport": 4304,
  "Ġopportunity": 4305,
  "urned": 4306,
  "Ġbarbed": 4307,
  "Ġplaypen": 4308,
  "Ġflexing": 4309,
  "Ġproviding": 4310,
  "Ġangry": 4311,
  "Ġpriest": 4312,
  "Ġhappiness": 4313,
  "Ġcampground": 4314,
  "Ġwheelchairs": 4315,
  "Ġscram": 4316,
  "Ġwrapper": 4317,
  "Ġsweatsuit": 4318,
  "Ġornaments": 4319,
  "Kid": 4320,
  "ĠTer": 4321,
  "Ġpadding": 4322,
  "Ġdachsh": 4323,
  "Ġattendees": 4324,
  "Ġinterview": 4325,
  "watch": 4326,
  "Ġgeometric": 4327,
  "Ġsquatted": 4328,
  "Ġlitter": 4329,
  "Ġethnicity": 4330,
  "Ġdonning": 4331,
  "Ġur": 4332,
  "Firef": 4333,
  "Ġcandid": 4334,
  "Ġreind": 4335,
  "Ġreindeer": 4336,
  "Ġcrevice": 4337,
  "Ġremoved": 4338,
  "vo": 4339,
  "ĠEast": 4340,
  "Ġexploring": 4341,
  "Ġswampy": 4342,
  "Blue": 4343,
  "Ġgrid": 4344,
  "Ġpenguin": 4345,
  "ubway": 4346,
  "New": 4347,
  "En": 4348,
  "Ġutil": 4349,
  "Ġclipboard": 4350,
  "Ġvisit": 4351,
  "mun": 4352,
  "Ġwaterskier": 4353,
  "Ġmows": 4354,
  "Ġridding": 4355,
  "Ġcount": 4356,
  "Ġcountries": 4357,
  "Rock": 4358,
  "Ġritual": 4359,
  "Ġaltar": 4360,
  "Ġwaitress": 4361,
  "terned": 4362,
  "Ġcrime": 4363,
  "Military": 4364,
  "Ġpopsicle": 4365,
  "Ġpeb": 4366,
  "Ġdescription": 4367,
  "Ġrobot": 4368,
  "ĠCor": 4369,
  "Father": 4370,
  "Ġmedals": 4371,
  "Profess": 4372,
  "Professional": 4373,
  "ĠMacBook": 4374,
  "Ġliquor": 4375,
  "ĠPokemon": 4376,
  "Ġpistol": 4377,
  "ĠMercedes": 4378,
  "ĠSky": 4379,
  "Ġconcentrate": 4380,
  "groud": 4381,
  "brimmed": 4382,
  "Ġfanny": 4383,
  "Ġflipped": 4384,
  "Per": 4385,
  "Ġmul": 4386,
  "Ġpopping": 4387,
  "Ġwindsurf": 4388,
  "uing": 4389,
  "Ġbonfire": 4390,
  "flowers": 4391,
  "Ġcorral": 4392,
  "Ġchunk": 4393,
  "Ġtransporting": 4394,
  "Ġwrite": 4395,
  "Ġsparkling": 4396,
  "Ġtechnician": 4397,
  "Ġbreakf": 4398,
  "Ġbreakfast": 4399,
  "Ġbrought": 4400,
  "Ġwestern": 4401,
  "eye": 4402,
  "Ġbulb": 4403,
  "Ġstreetlight": 4404,
  "Ġsequ": 4405,
  "Ġadjacent": 4406,
  "Ġlimo": 4407,
  "Ġbratw": 4408,
  "Ġbratwurst": 4409,
  "Sur": 4410,
  "Ġexposed": 4411,
  "10": 4412,
  "Ġcomfort": 4413,
  "Skate": 4414,
  "horn": 4415,
  "Ġsquirted": 4416,
  "Ġcreation": 4417,
  "Ġcreature": 4418,
  "Ġuncom": 4419,
  "ĠBuddhist": 4420,
  "Ġsymbol": 4421,
  "Ġswad": 4422,
  "clock": 4423,
  "ĠSport": 4424,
  "ĠDS": 4425,
  "ossibly": 4426,
  "Ġdemonstrate": 4427,
  "Ġspiky": 4428,
  "Ġstraddling": 4429,
  "Ġstrength": 4430,
  "lazoned": 4431,
  "Ġemblazoned": 4432,
  "Ġshortly": 4433,
  "Very": 4434,
  "Ġwhisk": 4435,
  "CH": 4436,
  "ĠAir": 4437,
  "Ġmitt": 4438,
  "Ġparagl": 4439,
  "gi": 4440,
  "Ġcrazy": 4441,
  "cro": 4442,
  "cloth": 4443,
  "ES": 4444,
  "Ġadmires": 4445,
  "Ġroughly": 4446,
  "Swim": 4447,
  "Ġlollip": 4448,
  "Ġlist": 4449,
  "Ġyach": 4450,
  "Ġscrab": 4451,
  "Ġscrabble": 4452,
  "You": 4453,
  "Ġpause": 4454,
  "Images": 4455,
  "Ġshuttered": 4456,
  "Ġgambling": 4457,
  "ĠWashington": 4458,
  "Ġopposition": 4459,
  "Ġgrimaces": 4460,
  "Free": 4461,
  "Ġseg": 4462,
  "walled": 4463,
  "Ġnuts": 4464,
  "ĠTw": 4465,
  "Ġcemetery": 4466,
  "Ġ30": 4467,
  "ĠCoke": 4468,
  "ĠAdidas": 4469,
  "Ar": 4470,
  "Ġjudge": 4471,
  "Ġrunway": 4472,
  "aucasian": 4473,
  "Caucasian": 4474,
  "Ġpunk": 4475,
  "blades": 4476,
  "Ġdescend": 4477,
  "ĠPat": 4478,
  "ĠPatrick": 4479,
  "Ġforrest": 4480,
  "Ġsunlit": 4481,
  "Ġportly": 4482,
  "ĠMr": 4483,
  "Ġ40": 4484,
  "Shoppers": 4485,
  "Greyhound": 4486,
  "Ġcontrolling": 4487,
  "Ġexit": 4488,
  "Ġawkwardly": 4489,
  "Tw": 4490,
  "Ġ36": 4491,
  "Ġcuffs": 4492,
  "Ġsearch": 4493,
  "range": 4494,
  "Ġfier": 4495,
  "Ġpineapples": 4496,
  "Ġflippers": 4497,
  "Ġtrud": 4498,
  "ax": 4499,
  "ĠNo": 4500,
  "ĠJewish": 4501,
  "Ġglassware": 4502,
  "imity": 4503,
  "Ġproximity": 4504,
  "ĠEngland": 4505,
  "Ġdominoes": 4506,
  "Sc": 4507,
  "Native": 4508,
  "Ġframing": 4509,
  "Ġdropped": 4510,
  "Ġreclines": 4511,
  "Ten": 4512,
  "Ġdarkly": 4513,
  "EA": 4514,
  "Ġtwelve": 4515,
  "pong": 4516,
  "Ġhedge": 4517,
  "Ġoverflowing": 4518,
  "Ġnylon": 4519,
  "ĠToyota": 4520,
  "ĠYankees": 4521,
  "Ġstrong": 4522,
  "Ġcivilians": 4523,
  "College": 4524,
  "Is": 4525,
  "Ġbackup": 4526,
  "Ġcrochet": 4527,
  "enn": 4528,
  "uz": 4529,
  "Ġromp": 4530,
  "Ġwaterproof": 4531,
  "Green": 4532,
  "Ġmike": 4533,
  "Ġpews": 4534,
  "Ġsawing": 4535,
  "Ġsnowfall": 4536,
  "Ġuniversity": 4537,
  "Ġruffles": 4538,
  "Ġreins": 4539,
  "Ġresembles": 4540,
  "Ġheadlamp": 4541,
  "ĠBatman": 4542,
  "Ġornament": 4543,
  "Ġanxiously": 4544,
  "Ġtrapeze": 4545,
  "Ġdangles": 4546,
  "ĠFor": 4547,
  "tling": 4548,
  "Ġbattling": 4549,
  "ĠGood": 4550,
  "ĠMorning": 4551,
  "Ġclearly": 4552,
  "Ġeyebrow": 4553,
  "assengers": 4554,
  "Passengers": 4555,
  "Ġbodies": 4556,
  "Near": 4557,
  "Ġcommuter": 4558,
  "About": 4559,
  "Ġarranging": 4560,
  "Ġclapboard": 4561,
  "Ġsomb": 4562,
  "Ġchestn": 4563,
  "Ġsculpting": 4564,
  "Ġilluminate": 4565,
  "ĠDior": 4566,
  "ĠHall": 4567,
  "Ġimpressive": 4568,
  "ĠUncle": 4569,
  "Ġmermaid": 4570,
  "Ġversion": 4571,
  "Chefs": 4572,
  "Ġ2008": 4573,
  "Ġsomebody": 4574,
  "Ġrecogn": 4575,
  "Ġrollerskater": 4576,
  "Ġcode": 4577,
  "Ġdumb": 4578,
  "Wh": 4579,
  "Ġawesome": 4580,
  "Ġdrunken": 4581,
  "Ġcivilian": 4582,
  "Ġpurp": 4583,
  "Ġbrill": 4584,
  "Ġbrilliant": 4585,
  "Ġorganiz": 4586,
  "Ġorganization": 4587,
  "Ġprisoner": 4588,
  "ĠSouthE": 4589,
  "ĠSouthEast": 4590,
  "Musician": 4591,
  "Fam": 4592,
  "ĠTarget": 4593,
  "bridge": 4594,
  "Ġfootbridge": 4595,
  "Ġmarquee": 4596,
  "Ġtwins": 4597,
  "Ġgingerbread": 4598,
  "Ġdeg": 4599,
  "Ġdegrees": 4600,
  "Ġcobal": 4601,
  "Ġcobalt": 4602,
  "tweiler": 4603,
  "flight": 4604,
  "Ġcowgirl": 4605,
  "ĠMexico": 4606,
  "Ġfry": 4607,
  "Ġroadwork": 4608,
  "ĠFood": 4609,
  "ĠCDs": 4610,
  "ĠGod": 4611,
  "ĠHam": 4612,
  "ĠPac": 4613,
  "Ġfoldable": 4614,
  "ĠPortuguese": 4615,
  "Lad": 4616,
  "Ġremoving": 4617,
  "Ġlottery": 4618,
  "Ġsnowing": 4619,
  "Ġwaistband": 4620,
  "Ġfingerless": 4621,
  "Ġmasquerade": 4622,
  "Ġhaul": 4623,
  "ĠChampionship": 4624,
  "Ġgirlfriend": 4625,
  "Ġcrews": 4626,
  "Baby": 4627,
  "Ġcurving": 4628,
  "Ġsalt": 4629,
  "Ġpepper": 4630,
  "Ġbriefs": 4631,
  "Ġcorporate": 4632,
  "ĠKarate": 4633,
  "ĠNavy": 4634,
  "Ġbrim": 4635,
  "ĠHarley": 4636,
  "Player": 4637,
  "plexed": 4638,
  "Ġperplexed": 4639,
  "uah": 4640,
  "uahua": 4641,
  "huahua": 4642,
  "Ġchihuahua": 4643,
  "ĠRV": 4644,
  "Ġcontemporary": 4645,
  "Ġoctopus": 4646,
  "ĠWinnie": 4647,
  "ooh": 4648,
  "Ġphrase": 4649,
  "ĠGaz": 4650,
  "ĠGaza": 4651,
  "Ġcornfield": 4652,
  "Ġjackhammer": 4653,
  "Ġlimousine": 4654,
  "Ap": 4655,
  "Ex": 4656,
  "Ġfingertips": 4657,
  "Ġmushrooms": 4658,
  "Sky": 4659,
  "Ġheadlights": 4660,
  "Ġoccasion": 4661,
  "Ġongoing": 4662,
  "Ġaccepting": 4663,
  "climbing": 4664,
  "ĠSa": 4665,
  "Ġarmchair": 4666,
  "torch": 4667,
  "Ġblowtorch": 4668,
  "Ġfootpath": 4669,
  "Ġsupervising": 4670,
  "Ġembedded": 4671,
  "ĠRet": 4672,
  "Ġmarshmallows": 4673,
  "hyth": 4674,
  "Ġrhyth": 4675,
  "Ġrhythm": 4676,
  "met": 4677,
  "ĠPepsi": 4678,
  "Ġblank": 4679,
  "Ġscrap": 4680,
  "Ġsparkler": 4681,
  "Ġvigorously": 4682,
  "Ġporcelain": 4683,
  "yellow": 4684,
  "endors": 4685,
  "Vendors": 4686,
  "escript": 4687,
  "Ġneut": 4688,
  "Ġneutral": 4689,
  "Ġ32": 4690,
  "Ġmultitude": 4691,
  "nister": 4692,
  "Ġgroomsmen": 4693,
  "Ġdevelopment": 4694,
  "Ġfingernails": 4695,
  "ĠRedbull": 4696,
  "Ġhoists": 4697,
  "ĠSuperman": 4698,
  "Ġlamb": 4699,
  "Ġsauce": 4700,
  "Ġassociated": 4701,
  "Ġparasailing": 4702,
  "Ġtummy": 4703,
  "Ġmailboxes": 4704,
  "rolling": 4705,
  "Ġfrilly": 4706,
  "Ġruffled": 4707,
  "pt": 4708,
  "ĠChrist": 4709,
  "ĠKn": 4710,
  "Ġindicates": 4711,
  "ĠClub": 4712,
  "Ġanchored": 4713,
  "ircling": 4714,
  "Ġencircling": 4715,
  "Ġbutterflies": 4716,
  "Ġboiling": 4717,
  "Ġrummaging": 4718,
  "Ġbeauty": 4719,
  "ER": 4720,
  "Customers": 4721,
  "Ġtroops": 4722,
  "ĠGras": 4723,
  "ĠNYC": 4724,
  "LI": 4725,
  "Ġparlor": 4726,
  "Ġcurls": 4727,
  "Ġmuffin": 4728,
  "Ġjaw": 4729,
  "Ġfurnished": 4730,
  "Ġbunk": 4731,
  "Ġrespirator": 4732,
  "ĠJoe": 4733,
  "Ġplayful": 4734,
  "Ġmanner": 4735,
  "Ġcul": 4736,
  "potties": 4737,
  "Ġkidd": 4738,
  "Ġkiddie": 4739,
  "Ġchute": 4740,
  "Ġdressy": 4741,
  "Ġsandal": 4742,
  "LL": 4743,
  "erris": 4744,
  "ĠFerris": 4745,
  "venue": 4746,
  "LR": 4747,
  "Ġsphere": 4748,
  "Ġmonk": 4749,
  "raffic": 4750,
  "Ġreturning": 4751,
  "Ġcactus": 4752,
  "Ġincredible": 4753,
  "Ġreplica": 4754,
  "Ġenthusiastic": 4755,
  "Ġsync": 4756,
  "ĠWonder": 4757,
  "Ġashtray": 4758,
  "Ġtwirls": 4759,
  "Ġfascinated": 4760,
  "Ġautograph": 4761,
  "Under": 4762,
  "Colorful": 4763,
  "Ġimmed": 4764,
  "Ġpontoon": 4765,
  "berry": 4766,
  "Ġsaws": 4767,
  "Ġbeachfront": 4768,
  "Ġtriangular": 4769,
  "Ġlilies": 4770,
  "ĠRan": 4771,
  "ĠAustralian": 4772,
  "Ġentryway": 4773,
  "Ġoverturned": 4774,
  "LO": 4775,
  "Hockey": 4776,
  "ism": 4777,
  "Hol": 4778,
  "Ġcopper": 4779,
  "Ġlayered": 4780,
  "Con": 4781,
  "Ġchopped": 4782,
  "Ġsifting": 4783,
  "Ġexpressing": 4784,
  "Ġhippie": 4785,
  "Ġgrips": 4786,
  "Ġbitten": 4787,
  "50": 4788,
  "uniformed": 4789,
  "ĠJack": 4790,
  "titude": 4791,
  "ĠHut": 4792,
  "Ġcartwh": 4793,
  "Work": 4794,
  "Ġparasol": 4795,
  "between": 4796,
  "Ġshrine": 4797,
  "Ġonward": 4798,
  "inantly": 4799,
  "Ġpredominantly": 4800,
  "decker": 4801,
  "Ġeuropean": 4802,
  "?\"": 4803,
  "Ġherbs": 4804,
  "Ġfootprints": 4805,
  "ĠDepartment": 4806,
  "ĠCirc": 4807,
  "ĠAfrica": 4808,
  "uve": 4809,
  "Ġmauve": 4810,
  "Ġbrindle": 4811,
  "El": 4812,
  "Ġstoplight": 4813,
  "Ġknives": 4814,
  "Ġbeanbag": 4815,
  "dance": 4816,
  "ĠBMW": 4817,
  "Ġalp": 4818,
  "Ġaffixed": 4819,
  "Ġreclined": 4820,
  "attoo": 4821,
  "Ġravine": 4822,
  "Ġpineapple": 4823,
  "Ġpeddling": 4824,
  "ĠZ": 4825,
  "Ġann": 4826,
  "Ġbolts": 4827,
  "owboy": 4828,
  "Ġconsole": 4829,
  "ĠUK": 4830,
  "Ġchallenging": 4831,
  "Ġdue": 4832,
  "Ġinspired": 4833,
  "Ġdojo": 4834,
  "Ġchandelier": 4835,
  "kulele": 4836,
  "ukulele": 4837,
  "Ġukulele": 4838,
  "goers": 4839,
  "rizzy": 4840,
  "Ġfrizzy": 4841,
  "Sold": 4842,
  "Soldiers": 4843,
  "Ġbooklet": 4844,
  "patterned": 4845,
  "Ġmustachioed": 4846,
  "Ġjelly": 4847,
  "Ġplywood": 4848,
  "Ġbedspread": 4849,
  "ĠFinn": 4850,
  "ĠFinnish": 4851,
  "flower": 4852,
  "Ġjagged": 4853,
  "ĠBridge": 4854,
  "ĠIce": 4855,
  "Ġrepresenting": 4856,
  "dic": 4857,
  "dicular": 4858,
  "Ġperpen": 4859,
  "Ġperpendicular": 4860,
  "Ġbatsman": 4861,
  "craft": 4862,
  "Ġwatercraft": 4863,
  "Ġoccur": 4864,
  "ĠMemorial": 4865,
  "Ġmanicured": 4866,
  "Ġpeeks": 4867,
  "IS": 4868,
  "Ġfreck": 4869,
  "Ġsmartly": 4870,
  "Ġjoin": 4871,
  "powered": 4872,
  "Ġsyringe": 4873,
  "ynyrd": 4874,
  "ĠTour": 4875,
  "Ġbackgroud": 4876,
  "Ġsolemn": 4877,
  "Ġproclaiming": 4878,
  "Performers": 4879,
  "Repent": 4880,
  "Ġpride": 4881,
  "Ġpreserve": 4882,
  "Ġmulch": 4883,
  "Ġwindsurfing": 4884,
  "Ġdrain": 4885,
  "Ġbarbecuing": 4886,
  "Ġauto": 4887,
  "ĠTube": 4888,
  "Ġscowls": 4889,
  "Ġpristine": 4890,
  "Ġwildflowers": 4891,
  "Ġclutch": 4892,
  "Ġtablecloths": 4893,
  "ĠGrand": 4894,
  "Ġ24": 4895,
  "Ġfestivities": 4896,
  "Ġdrift": 4897,
  "Ġhazard": 4898,
  "Ġsmirking": 4899,
  "Ġnike": 4900,
  "Ġrefresh": 4901,
  "fives": 4902,
  "Ġcolonial": 4903,
  "Ġclipped": 4904,
  "PS": 4905,
  "Mon": 4906,
  "Ġ16": 4907,
  "ii": 4908,
  "ĠWii": 4909,
  "Ġilluminating": 4910,
  "Ġcomponents": 4911,
  "Ġgiraffe": 4912,
  "Cars": 4913,
  "ĠSubway": 4914,
  "Ġminivan": 4915,
  "kly": 4916,
  "riskly": 4917,
  "Ġbriskly": 4918,
  "ĠCookie": 4919,
  "ĠPro": 4920,
  "LA": 4921,
  "AY": 4922,
  "UN": 4923,
  "NA": 4924,
  "Ġbullhorn": 4925,
  "Ġdiagram": 4926,
  "Ġplaques": 4927,
  "ĠAll": 4928,
  "wind": 4929,
  "mp": 4930,
  "Ġnovelty": 4931,
  "Ġconditions": 4932,
  "Ġespress": 4933,
  "Ġespresso": 4934,
  "Ġutensil": 4935,
  "Ġsquir": 4936,
  "Ġsquirrel": 4937,
  "Ġtattered": 4938,
  "psy": 4939,
  "Ġdivided": 4940,
  "terrain": 4941,
  "Ġsending": 4942,
  "Ġsatisf": 4943,
  "Ġapply": 4944,
  "Ġcud": 4945,
  "ĠTinker": 4946,
  "Overhead": 4947,
  "Ġfowl": 4948,
  "union": 4949,
  "Ġreunion": 4950,
  "Ġobscuring": 4951,
  "Ġrescue": 4952,
  "Ġcarve": 4953,
  "ĠPower": 4954,
  "Ġdiscovers": 4955,
  "ĠKitchenAid": 4956,
  "burns": 4957,
  "Ġsideburns": 4958,
  "Ġfluid": 4959,
  "Ġgoodby": 4960,
  "Ġgoodbye": 4961,
  "Ġfringe": 4962,
  "Ġremove": 4963,
  "Ġoverhang": 4964,
  "Ġcomplicated": 4965,
  "Race": 4966,
  "ĠSimps": 4967,
  "ĠSimpsons": 4968,
  "Ġdisap": 4969,
  "Ġcorgi": 4970,
  "No": 4971,
  "Ġtransport": 4972,
  "Ġrefrigerated": 4973,
  "Ġwelcome": 4974,
  "HO": 4975,
  "Ġthrill": 4976,
  "Ġripples": 4977,
  "Be": 4978,
  "Ġrecliner": 4979,
  "Ġblossoming": 4980,
  "Ġtriangle": 4981,
  "Ġscrambling": 4982,
  "Ġdistract": 4983,
  "Ġimpro": 4984,
  "Ġrecreational": 4985,
  "Firefighters": 4986,
  "Ġbridesmaid": 4987,
  "Ġgotten": 4988,
  "Ġgrit": 4989,
  "Ġgritty": 4990,
  "Ġtwin": 4991,
  "Ġtreatment": 4992,
  "ĠVol": 4993,
  "blond": 4994,
  "Ġblacksm": 4995,
  "Ġblacksmith": 4996,
  "decorated": 4997,
  "Ġtussle": 4998,
  "Ġsnapping": 4999,
  "Ġswaddled": 5000,
  "Ġhoisting": 5001,
  "Ġ60": 5002,
  "Ġunwraps": 5003,
  "black": 5004,
  "Ġ2n": 5005,
  "Ġ2nd": 5006,
  "screen": 5007,
  "over": 5008,
  "Ġcrawl": 5009,
  "Ġobservation": 5010,
  "Tan": 5011,
  "lide": 5012,
  "Ġanchor": 5013,
  "ĠTwister": 5014,
  "Ġmodified": 5015,
  "Ġrefrigerator": 5016,
  "ĠCel": 5017,
  "quis": 5018,
  "Ġggauged": 5019,
  "Ġclassmates": 5020,
  "cropped": 5021,
  "Ġcocktails": 5022,
  "From": 5023,
  "Ġtrot": 5024,
  "bert": 5025,
  "Ġturntable": 5026,
  "Ġamphitheater": 5027,
  "Ġcarrot": 5028,
  "Ġpoorly": 5029,
  "uis": 5030,
  "Ġcuis": 5031,
  "Ġexplore": 5032,
  "Ġdistur": 5033,
  "Ġ18": 5034,
  "Ġcentury": 5035,
  "ince": 5036,
  "ĠBarcelona": 5037,
  "ĠRollerblades": 5038,
  "Ġtroop": 5039,
  "Ġpopular": 5040,
  "Ġfairground": 5041,
  "Ġenjoyed": 5042,
  "Ġeasy": 5043,
  "Ġmartini": 5044,
  "Ġmottled": 5045,
  "Ġyawns": 5046,
  "vember": 5047,
  "bal": 5048,
  "Ġsqueeze": 5049,
  "Ġindeterm": 5050,
  "Ġindeterminate": 5051,
  "Ġdetermination": 5052,
  "Ġmismatched": 5053,
  "Ġcompanies": 5054,
  "Ġsunbathing": 5055,
  "Ġ3rd": 5056,
  "Ġprimary": 5057,
  "Ġonesie": 5058,
  "Ġprairie": 5059,
  "Ġethnicities": 5060,
  "load": 5061,
  "Ġsteadies": 5062,
  "Ġadmire": 5063,
  "Ġreleasing": 5064,
  "nished": 5065,
  "ulke": 5066,
  "Ġtailgate": 5067,
  "Ġuncomfortable": 5068,
  "Ġjapanese": 5069,
  "ĠLove": 5070,
  "Ġindigenous": 5071,
  "Ġpassage": 5072,
  "identifiable": 5073,
  "Ġunidentifiable": 5074,
  "Ġfrust": 5075,
  "Ġprominently": 5076,
  "limbers": 5077,
  "Orange": 5078,
  "ĠBerlin": 5079,
  "uous": 5080,
  "Ġplatter": 5081,
  "Ġthoroughly": 5082,
  "Ġsynthesizer": 5083,
  "ĠCapri": 5084,
  "Ġshotgun": 5085,
  "nawing": 5086,
  "Ġgnawing": 5087,
  "Ġseasoning": 5088,
  "Ġsurveys": 5089,
  "ĠArgentina": 5090,
  "Ġmarriage": 5091,
  "Ġpatron": 5092,
  "Ġtouchdown": 5093,
  "Ġjewelery": 5094,
  "Ġwrought": 5095,
  "Ġswung": 5096,
  "Ġleafs": 5097,
  "Ġflapping": 5098,
  "ĠSpider": 5099,
  "Ġtrombone": 5100,
  "View": 5101,
  "Ġwhether": 5102,
  "truck": 5103,
  "ĠiPad": 5104,
  "mit": 5105,
  "Ġmanual": 5106,
  "Ġoutboard": 5107,
  "igrant": 5108,
  "Ġscribbling": 5109,
  "so": 5110,
  "Surrounded": 5111,
  "Ġspeckled": 5112,
  "strewn": 5113,
  "Ġcarcass": 5114,
  "ĠPops": 5115,
  "Ġlayer": 5116,
  "ĠWinter": 5117,
  "Ġspiking": 5118,
  "Ġversus": 5119,
  "Ġrehears": 5120,
  "Ġrehearsing": 5121,
  "reight": 5122,
  "Ġfreight": 5123,
  "Ġparachuting": 5124,
  "ĠTibetan": 5125,
  "Ġrecipe": 5126,
  "cisco": 5127,
  "rancisco": 5128,
  "ĠFrancisco": 5129,
  "Ġscreams": 5130,
  "ik": 5131,
  "ĠBur": 5132,
  "ĠGi": 5133,
  "Marathon": 5134,
  "Ġgender": 5135,
  "ĠSox": 5136,
  "Ġaccept": 5137,
  "Ġsweatband": 5138,
  "Ġnin": 5139,
  "ja": 5140,
  "Ġninja": 5141,
  "Ġpretend": 5142,
  "Ġknuck": 5143,
  "ĠGuinness": 5144,
  "ll": 5145,
  "ĠHotel": 5146,
  "Ġfierce": 5147,
  "Ġreplacing": 5148,
  "Ġdisheveled": 5149,
  "ĠAf": 5150,
  "Ġattracts": 5151,
  "Ġflatbed": 5152,
  "ucco": 5153,
  "Ġstucco": 5154,
  "Ġsippy": 5155,
  "Ġnapkin": 5156,
  "28": 5157,
  "Ġmoustache": 5158,
  "potty": 5159,
  "Ġrubbing": 5160,
  "namic": 5161,
  "Ġchemistry": 5162,
  "Gra": 5163,
  "Graffiti": 5164,
  "Japanese": 5165,
  "Ġhunter": 5166,
  "Ġmanu": 5167,
  "Ġmanuf": 5168,
  "Ġplateau": 5169,
  "Ġsketch": 5170,
  "ayet": 5171,
  "ayette": 5172,
  "Ġgrip": 5173,
  "itz": 5174,
  "Alo": 5175,
  "Aloha": 5176,
  "Ġlengths": 5177,
  "Ġhandsaw": 5178,
  "Ġnostrils": 5179,
  "Ġsunrise": 5180,
  "Ġshredder": 5181,
  "Ġpeasant": 5182,
  "Ġtrendy": 5183,
  "IO": 5184,
  "Ġsmirk": 5185,
  "Ġfreezer": 5186,
  "Ġjunk": 5187,
  "Ġprovider": 5188,
  "Ġwedged": 5189,
  "RE": 5190,
  "DING": 5191,
  "ĠDEM": 5192,
  "Ġcalc": 5193,
  "bodied": 5194,
  "ĠCrocs": 5195,
  "Ġang": 5196,
  "Ġangrily": 5197,
  "Ġtussling": 5198,
  "ĠKawas": 5199,
  "ĠKawasaki": 5200,
  "ĠCure": 5201,
  "ĠTank": 5202,
  "Ġfirefighting": 5203,
  "eorge": 5204,
  "yn": 5205,
  "Ġwitness": 5206,
  "Ġslippers": 5207,
  "Ġclerk": 5208,
  "ylar": 5209,
  "ĠMylar": 5210,
  "PA": 5211,
  "Ġshrimp": 5212,
  "Ġupcoming": 5213,
  "Ġuprising": 5214,
  "Ġyells": 5215,
  "Ġadjoining": 5216,
  "Ġcountertop": 5217,
  "ĠRenaiss": 5218,
  "ĠRenaissance": 5219,
  "Ġsombrero": 5220,
  "Ġchestnut": 5221,
  "Ġsocialize": 5222,
  "Ġauthor": 5223,
  "Ġjesus": 5224,
  "ĠIsraeli": 5225,
  "13": 5226,
  "Ġvinyl": 5227,
  "ĠSw": 5228,
  "Jim": 5229,
  "Ġdeflated": 5230,
  "corner": 5231,
  "Ġwardro": 5232,
  "Ġwardrobe": 5233,
  "Ġsophisticated": 5234,
  "Ġrecognizable": 5235,
  "Ġlatte": 5236,
  "Ġexuberance": 5237,
  "When": 5238,
  "Ġecstatic": 5239,
  "Ġpurplish": 5240,
  "otorcycle": 5241,
  "Motorcycle": 5242,
  "Ġenthusiasts": 5243,
  "Gentleman": 5244,
  "Ġdisregarding": 5245,
  "Family": 5246,
  "Tall": 5247,
  "MCA": 5248,
  "ĠYMCA": 5249,
  "uzu": 5250,
  "ĠInc": 5251,
  "Ġexposes": 5252,
  "button": 5253,
  "ronaut": 5254,
  "Ġastronaut": 5255,
  "ĠAmsterdam": 5256,
  "Fluffy": 5257,
  "Ġrecreation": 5258,
  "Ġrottweiler": 5259,
  "divers": 5260,
  "irmingham": 5261,
  "ĠBirmingham": 5262,
  "blown": 5263,
  "Ġkneeing": 5264,
  "ĠDad": 5265,
  "pillar": 5266,
  "ĠWA": 5267,
  "incol": 5268,
  "ĠLincol": 5269,
  "ĠLincoln": 5270,
  "ĠCenter": 5271,
  "ĠRodgers": 5272,
  "ĠPacific": 5273,
  "Ġexecuting": 5274,
  "folio": 5275,
  "Ġhoist": 5276,
  "Ġability": 5277,
  "Ġexecutes": 5278,
  "free": 5279,
  "Ġpeddle": 5280,
  "Ġcrossword": 5281,
  "Ġrucksack": 5282,
  "ircular": 5283,
  "circular": 5284,
  "Ġcroquet": 5285,
  "Ġmexican": 5286,
  "Ġsailboard": 5287,
  "FA": 5288,
  "21": 5289,
  "etherlands": 5290,
  "ĠNetherlands": 5291,
  "Rider": 5292,
  "ĠArabian": 5293,
  "Ġprovides": 5294,
  "Night": 5295,
  "Nighttime": 5296,
  "Ġbreakw": 5297,
  "Ġfoosball": 5298,
  "Ġviewpoint": 5299,
  "Ġstraddles": 5300,
  "Ġconifers": 5301,
  "cloudy": 5302,
  "Ġdemise": 5303,
  "toe": 5304,
  "Ġask": 5305,
  "Ġchallenge": 5306,
  "Ne": 5307,
  "De": 5308,
  "Ġroundhouse": 5309,
  "Ġ35": 5310,
  "Ġoxen": 5311,
  "Ġlearn": 5312,
  "Ġsportswear": 5313,
  "Ġarmbands": 5314,
  "Ġetching": 5315,
  "Ġheadpiece": 5316,
  "ĠPooh": 5317,
  "Ġpopulated": 5318,
  "Ġplot": 5319,
  "Ġloiter": 5320,
  "Ġshredding": 5321,
  "Ġsouvenir": 5322,
  "ountain": 5323,
  "Mountain": 5324,
  "Demonstrators": 5325,
  "ĠKingdom": 5326,
  "Ġdodge": 5327,
  "five": 5328,
  "Ġenthusiast": 5329,
  "ĠBetty": 5330,
  "Ġmaj": 5331,
  "Ġproperty": 5332,
  "ĠMiller": 5333,
  "ĠLite": 5334,
  "Ġmedal": 5335,
  "alestinian": 5336,
  "Ġactress": 5337,
  "Ġnib": 5338,
  "Ġsubject": 5339,
  "ĠEagle": 5340,
  "Ġadvantage": 5341,
  "Ġelbows": 5342,
  "Ġaviator": 5343,
  "reiver": 5344,
  "Ġgraham": 5345,
  "Ġhatchback": 5346,
  "Ġearpiece": 5347,
  "ĠPalace": 5348,
  "Ġspun": 5349,
  "Ġamish": 5350,
  "Ġbannister": 5351,
  "Ġpatties": 5352,
  "Ġoverview": 5353,
  "ĠBut": 5354,
  "Ġneckline": 5355,
  "Ġrebuilt": 5356,
  "Ġcraftsman": 5357,
  "Ġrestrain": 5358,
  "ĠPipe": 5359,
  "ĠChallenge": 5360,
  "Ġrectangle": 5361,
  "Teenage": 5362,
  "Ġresponse": 5363,
  "Passers": 5364,
  "Passersby": 5365,
  "ĠGN": 5366,
  "Ġsmartphone": 5367,
  "ĠVan": 5368,
  "Ġplacid": 5369,
  "Ġswift": 5370,
  "Ġswiftly": 5371,
  "Ġappre": 5372,
  "ension": 5373,
  "hension": 5374,
  "Ġapprehension": 5375,
  "Ġreturn": 5376,
  "grass": 5377,
  "Ġgauges": 5378,
  "Wedding": 5379,
  "Ġpeek": 5380,
  "ĠNerf": 5381,
  "Ġdonuts": 5382,
  "Ġswirls": 5383,
  "Dan": 5384,
  "draped": 5385,
  "Ġstyl": 5386,
  "ĠLuc": 5387,
  "Ġprimitive": 5388,
  "Ġattracting": 5389,
  "skating": 5390,
  "ĠCroc": 5391,
  "Ġexchange": 5392,
  "ĠMardi": 5393,
  "nment": 5394,
  "Ġgovernment": 5395,
  "Ġroasting": 5396,
  "ĠJets": 5397,
  "Ġallows": 5398,
  "Ġsteadied": 5399,
  "ĠDrayton": 5400,
  "MM": 5401,
  "Ġrattan": 5402,
  "ĠFly": 5403,
  "Ġstewardess": 5404,
  "Ġduct": 5405,
  "Ġagric": 5406,
  "Ġdwarfed": 5407,
  "Ġculvert": 5408,
  "ĠDesigner": 5409,
  "port": 5410,
  "Ġlecturing": 5411,
  "Ġevident": 5412,
  "Ġtango": 5413,
  "ĠMinnie": 5414,
  "Ġflexibility": 5415,
  "Ġsharply": 5416,
  "Ġcoil": 5417,
  "Ġballroom": 5418,
  "Ġpanda": 5419,
  "Ġmemorabil": 5420,
  "Ġmemorabilia": 5421,
  "alized": 5422,
  "Ġvandalized": 5423,
  "Ball": 5424,
  "Ġ0": 5425,
  "46": 5426,
  "Ġfourteen": 5427,
  "Ġoverseeing": 5428,
  "ĠAvenue": 5429,
  "Ġfryer": 5430,
  "Ġspool": 5431,
  "HI": 5432,
  "TE": 5433,
  "Ġreflex": 5434,
  "Ġsurveying": 5435,
  "Firemen": 5436,
  "Ġbehav": 5437,
  "Ġbehavior": 5438,
  "Ġpaperback": 5439,
  "Ġbuddhist": 5440,
  "Ġskydiver": 5441,
  "tw": 5442,
  "ĠDalmation": 5443,
  "pro": 5444,
  "Ġassist": 5445,
  "plane": 5446,
  "Ġwaistcoats": 5447,
  "Ġschoolwork": 5448,
  "Ġdominant": 5449,
  "ifix": 5450,
  "Ġcrucifix": 5451,
  "Ġ57": 5452,
  "Ġgrabbed": 5453,
  "Ġalert": 5454,
  "Heavyset": 5455,
  "Ġglows": 5456,
  "Ġseek": 5457,
  "Ġbenefit": 5458,
  "Ġchessboard": 5459,
  "mosphere": 5460,
  "Ġatmosphere": 5461,
  "Ġseahorse": 5462,
  "Ġsession": 5463,
  "Ġjoyfully": 5464,
  "Ġbarrette": 5465,
  "Big": 5466,
  "Ġimmediate": 5467,
  "gyle": 5468,
  "Ġargyle": 5469,
  "Ġbillows": 5470,
  "Ġ96": 5471,
  "Ġgrumpy": 5472,
  "Ġthrong": 5473,
  "Ġcorrect": 5474,
  "ĠRangers": 5475,
  "eepdog": 5476,
  "ĠSheepdog": 5477,
  "ĠYama": 5478,
  "ĠYamaha": 5479,
  "Metal": 5480,
  "Ġjaws": 5481,
  "Ġthreatening": 5482,
  "ĠDE": 5483,
  "Ġfumbles": 5484,
  "Indian": 5485,
  "Ġwreath": 5486,
  "Ġsaxaphone": 5487,
  "Ġcharging": 5488,
  "Ġcapo": 5489,
  "spotted": 5490,
  "Ġplaque": 5491,
  "Ġcamcorder": 5492,
  "Ġceremonies": 5493,
  "BA": 5494,
  "weiser": 5495,
  "Ġrhythmic": 5496,
  "redging": 5497,
  "Ġdredging": 5498,
  "ĠPal": 5499,
  "string": 5500,
  "Ġcrank": 5501,
  "ĠTerrier": 5502,
  "Ġmeasured": 5503,
  "ĠUgg": 5504,
  "Ġdachshund": 5505,
  "Ġtowing": 5506,
  "Ġoxford": 5507,
  "Ġcartwheel": 5508,
  "Ġinterviews": 5509,
  "ĠKur": 5510,
  "ĠKurt": 5511,
  "Workmen": 5512,
  "ĠFox": 5513,
  "aul": 5514,
  "ĠPaul": 5515,
  "traffic": 5516,
  "Ġparaplegic": 5517,
  "Class": 5518,
  "Ġascends": 5519,
  "Ġnondescript": 5520,
  "plaid": 5521,
  "Ġcabbage": 5522,
  "uzzi": 5523,
  "Ġjacuzzi": 5524,
  "Ġpausing": 5525,
  "bin": 5526,
  "ĠHood": 5527,
  "Ġ94": 5528,
  "Ġtwice": 5529,
  "ĠBad": 5530,
  "Ġacrobat": 5531,
  "ĠKorea": 5532,
  "pling": 5533,
  "Ġgrappling": 5534,
  "Ġshadowy": 5535,
  "Ġhatchet": 5536,
  "Ġmeditating": 5537,
  "Unhappy": 5538,
  "FL": 5539,
  "ĠPrem": 5540,
  "Ġdistressed": 5541,
  "Ġaligned": 5542,
  "Ġadidas": 5543,
  "Ġreservo": 5544,
  "Ġreservoir": 5545,
  "ĠBB": 5546,
  "Ġpilg": 5547,
  "Ġoval": 5548,
  "Ġdove": 5549,
  "Ġreigns": 5550,
  "Ġpianist": 5551,
  "Ġalphabet": 5552,
  "Most": 5553,
  "attooed": 5554,
  "Tattooed": 5555,
  "rinkled": 5556,
  "Ġfireball": 5557,
  "Ġassemble": 5558,
  "Ġutilizing": 5559,
  "Ġpanoramic": 5560,
  "Ġeccent": 5561,
  "Ġeccentric": 5562,
  "Ġwindmill": 5563,
  "post": 5564,
  "Ġparasail": 5565,
  "Ġengraved": 5566,
  "Cowboy": 5567,
  "Ġtanning": 5568,
  "Ġwrench": 5569,
  "Ġdelicious": 5570,
  "ĠLC": 5571,
  "ĠLCD": 5572,
  "Ġthrust": 5573,
  "Ġassignment": 5574,
  "ctuary": 5575,
  "Ġsanctuary": 5576,
  "ĠCaution": 5577,
  "wink": 5578,
  "Ġperiwink": 5579,
  "Ġperiwinkle": 5580,
  "Ġcalligraphy": 5581,
  "Ġshowroom": 5582,
  "Ġsunflower": 5583,
  "ĠBang": 5584,
  "escue": 5585,
  "ĠRescue": 5586,
  "ĠAdirond": 5587,
  "ĠAdirondack": 5588,
  "ĠBusiness": 5589,
  "Ġpebbled": 5590,
  "Ġ66": 5591,
  "US": 5592,
  "Ġroasted": 5593,
  "Ġdonut": 5594,
  "heeled": 5595,
  "Ġbarbell": 5596,
  "Ġshoving": 5597,
  "Ġblacktop": 5598,
  "ĠPresidential": 5599,
  "Ġbreaststroke": 5600,
  "Ġdominate": 5601,
  "Ġfreckled": 5602,
  "Ġbro": 5603,
  "Ġintertube": 5604,
  "RK": 5605,
  "URK": 5606,
  "ĠLynyrd": 5607,
  "Ġnetbook": 5608,
  "Ġhurt": 5609,
  "Ġexcitedly": 5610,
  "ĠPakistan": 5611,
  "Ġshutter": 5612,
  "Fish": 5613,
  "number": 5614,
  "Ġtrekking": 5615,
  "asm": 5616,
  "chee": 5617,
  "ĠSamsung": 5618,
  "Ġstumbling": 5619,
  "Go": 5620,
  "Love": 5621,
  "Ġdrapery": 5622,
  "Ġenthusiasm": 5623,
  "ĠVW": 5624,
  "Ġsexy": 5625,
  "ĠTab": 5626,
  "ĠCadillac": 5627,
  "dar": 5628,
  "Ġcalendar": 5629,
  "ĠDomino": 5630,
  "he": 5631,
  "Ġchili": 5632,
  "Ġlobster": 5633,
  "Ġruffle": 5634,
  "Ġshrouded": 5635,
  "Ġwebs": 5636,
  "Ġwebsite": 5637,
  "Ġsoprano": 5638,
  "Sitting": 5639,
  "Ġheadline": 5640,
  "Ġfunction": 5641,
  "Ġejected": 5642,
  "Ġsimulates": 5643,
  "Ġcobble": 5644,
  "Ġspout": 5645,
  "Ġlayup": 5646,
  "Ġmode": 5647,
  "Ġalthough": 5648,
  "Ġmushroom": 5649,
  "ĠOd": 5650,
  "ĠOdeon": 5651,
  "Ġfoundation": 5652,
  "Motocross": 5653,
  "stride": 5654,
  "Ġthousand": 5655,
  "Ġpotter": 5656,
  "Ġskyward": 5657,
  "ang": 5658,
  "Ġweimaraner": 5659,
  "Ġchoice": 5660,
  "Ġupstairs": 5661,
  "Ġsodium": 5662,
  "munition": 5663,
  "Ġammunition": 5664,
  "Ġsequined": 5665,
  "Ġamusing": 5666,
  "Ġperfectly": 5667,
  "Ġvolunteers": 5668,
  "Ġ56": 5669,
  "draw": 5670,
  "Ġwithdraw": 5671,
  "Ġdecision": 5672,
  "ORT": 5673,
  "Ġvolcano": 5674,
  "qa": 5675,
  "Ġburqa": 5676,
  "Ġcommerce": 5677,
  "Anderson": 5678,
  "Ġponcho": 5679,
  "Ġeuro": 5680,
  "Ġspotting": 5681,
  "Ġstripper": 5682,
  "Ġkabobs": 5683,
  "Ġgreet": 5684,
  "Ġ2010": 5685,
  "Skateboarder": 5686,
  "Ġkickball": 5687,
  "Ġutilizes": 5688,
  "ĠBay": 5689,
  "Ġgrimacing": 5690,
  "Ġ20th": 5691,
  "iversary": 5692,
  "Ġanniversary": 5693,
  "Ġexha": 5694,
  "ĠJer": 5695,
  "ĠJerry": 5696,
  "Ġcleavage": 5697,
  "Ġharvest": 5698,
  "ĠSin": 5699,
  "Ġprecision": 5700,
  "Ġpleasant": 5701,
  "Ġharle": 5702,
  "Ġharlequ": 5703,
  "Ġharlequin": 5704,
  "Through": 5705,
  "altimore": 5706,
  "ĠBaltimore": 5707,
  "Ġobl": 5708,
  "ĠTech": 5709,
  "Ġobedience": 5710,
  "Ġrode": 5711,
  "Ġ344": 5712,
  "Ġhighlights": 5713,
  "zy": 5714,
  "Ġsatisfy": 5715,
  "Ġmidday": 5716,
  "ĠJoseph": 5717,
  "Ġcuddling": 5718,
  "Ġzipper": 5719,
  "Ġfundraiser": 5720,
  "Ġresembling": 5721,
  "Ġtopic": 5722,
  "ĠDSLR": 5723,
  "Ġinterlocked": 5724,
  "possibly": 5725,
  "Ġdepicts": 5726,
  "Ġ14": 5727,
  "Ġcauldron": 5728,
  "Ġblender": 5729,
  "ĠCalv": 5730,
  "ĠCalvin": 5731,
  "ĠKle": 5732,
  "ĠKlein": 5733,
  "Only": 5734,
  "Ġpyrex": 5735,
  "ĠAirways": 5736,
  "Ġkelp": 5737,
  "FC": 5738,
  "Ġparagliding": 5739,
  "Ġdisappear": 5740,
  "Pink": 5741,
  "Ġcombed": 5742,
  "ĠWizard": 5743,
  "ĠOz": 5744,
  "Ġvelcro": 5745,
  "Welcome": 5746,
  "Ġsuspends": 5747,
  "Ġshaft": 5748,
  "Ġlattice": 5749,
  "Ġbritish": 5750,
  "Ġnursing": 5751,
  "Sil": 5752,
  "Ġafar": 5753,
  "Ġoutstreached": 5754,
  "Ġrenaissance": 5755,
  "Ġlollipop": 5756,
  "ĠDave": 5757,
  "Ġwoodland": 5758,
  "Ġyacht": 5759,
  "Ġgrandmother": 5760,
  "Ġ4th": 5761,
  "bottomed": 5762,
  "Bien": 5763,
  "tuce": 5764,
  "Ġlettuce": 5765,
  "Ġsends": 5766,
  "Ġpitbull": 5767,
  "Ġsandpit": 5768,
  "Ġbulky": 5769,
  "Ġfingernail": 5770,
  "ĠOx": 5771,
  "ĠOxford": 5772,
  "ĠCircus": 5773,
  "32": 5774,
  "blonde": 5775,
  "Ġ37": 5776,
  "Ġwrecked": 5777,
  "Ġspanish": 5778,
  "Ġbehal": 5779,
  "Ġbehalf": 5780,
  "Cyclist": 5781,
  "Concert": 5782,
  "western": 5783,
  "Ġpebbles": 5784,
  "Ġcry": 5785,
  "Ġabdomen": 5786,
  "Ġberm": 5787,
  "ĠItalian": 5788,
  "ada": 5789,
  "Ġunwrapped": 5790,
  "Ġweighing": 5791,
  "Ġreviews": 5792,
  "duty": 5793,
  "Ġpropping": 5794,
  "Ġsnarling": 5795,
  "loid": 5796,
  "Ġtabloid": 5797,
  "Ġsecluded": 5798,
  "Ġoccurring": 5799,
  "Ġsleepover": 5800,
  "Ġconver": 5801,
  "Ġtows": 5802,
  "Ok": 5803,
  "Ġcollapsing": 5804,
  "wrapping": 5805,
  "Ġunwrapping": 5806,
  "Ġnerf": 5807,
  "Ġsegment": 5808,
  "Ġhandc": 5809,
  "Ġ17": 5810,
  "Ġmonarch": 5811,
  "Ġpharmacist": 5812,
  "Ġmissionary": 5813,
  "Ġanything": 5814,
  "Ġputt": 5815,
  "Ġknob": 5816,
  "Ġfitness": 5817,
  "Ġcurl": 5818,
  "Ġconducts": 5819,
  "Ġnecessary": 5820,
  "Ġmosque": 5821,
  "Ġsnowbank": 5822,
  "ĠWine": 5823,
  "Tex": 5824,
  "Texas": 5825,
  "Ġdayd": 5826,
  "ĠSquareP": 5827,
  "ĠSquarePants": 5828,
  "Ġdeciding": 5829,
  "ĠiPhone": 5830,
  "Ġconsumers": 5831,
  "Ġknapsack": 5832,
  "Ġ39": 5833,
  "love": 5834,
  "Ġcontemplative": 5835,
  "Ġtrotting": 5836,
  "ĠAutumn": 5837,
  "Rug": 5838,
  "Rugby": 5839,
  "Ġ29": 5840,
  "ĠRef": 5841,
  "ĠPool": 5842,
  "Santa": 5843,
  "ĠFanta": 5844,
  "Ġ70s": 5845,
  "Ġdappled": 5846,
  "Olymp": 5847,
  "Ġfunnel": 5848,
  "16": 5849,
  "Ġsecurely": 5850,
  "Ġswap": 5851,
  "Redhead": 5852,
  "Ġdisturbing": 5853,
  "Ġ54": 5854,
  "Ġboulevard": 5855,
  "ICE": 5856,
  "ĠUNICE": 5857,
  "ĠUNICEF": 5858,
  "Ġburnt": 5859,
  "Ġweb": 5860,
  "Ġpassionate": 5861,
  "ĠPike": 5862,
  "Ġjuke": 5863,
  "Ġbalck": 5864,
  "Ġarrive": 5865,
  "Ġsince": 5866,
  "Ġsurvey": 5867,
  "Ġtricorn": 5868,
  "Ġmanicure": 5869,
  "Ġunpaved": 5870,
  "Ġcherries": 5871,
  "ĠJamaican": 5872,
  "Ġpursuit": 5873,
  "idly": 5874,
  "ĠBobcat": 5875,
  "ĠCruz": 5876,
  "Individuals": 5877,
  "Ġbiscuit": 5878,
  "Ġmenorah": 5879,
  "BU": 5880,
  "Ġsanitation": 5881,
  "Ġpaintball": 5882,
  "Ġaccented": 5883,
  "Ġdecrepit": 5884,
  "ĠTrain": 5885,
  "Even": 5886,
  "lockbuster": 5887,
  "ĠMrs": 5888,
  "Ġverbal": 5889,
  "Stret": 5890,
  "Ġfarmland": 5891,
  "Ġpagoda": 5892,
  "brew": 5893,
  "ĠHebrew": 5894,
  "Ġalbums": 5895,
  "Ġaltitude": 5896,
  "ĠRetriever": 5897,
  "Ġblueish": 5898,
  "Ġcheckerboard": 5899,
  "Ġconven": 5900,
  "Ġconvenience": 5901,
  "Ġaerosol": 5902,
  "Ġsnuggling": 5903,
  "Ġkitty": 5904,
  "Ġ3D": 5905,
  "ĠPeter": 5906,
  "ĠChurch": 5907,
  "ĠBun": 5908,
  "issan": 5909,
  "Everyone": 5910,
  "bike": 5911,
  "Thriller": 5912,
  "Ġaccompaniment": 5913,
  "play": 5914,
  "player": 5915,
  "jerseyed": 5916,
  "Ġshallows": 5917,
  "Ice": 5918,
  "For": 5919,
  "Ġgrapple": 5920,
  "Ġ197": 5921,
  "Ġfries": 5922,
  "ĠBarney": 5923,
  "grey": 5924,
  "Acro": 5925,
  "Acrobatic": 5926,
  "Ġcrisp": 5927,
  "father": 5928,
  "Ġgrandfather": 5929,
  "OP": 5930,
  "NT": 5931,
  "ENT": 5932,
  "Ġheadphone": 5933,
  "ae": 5934,
  "Ġobv": 5935,
  "Ġtransaction": 5936,
  "Twin": 5937,
  "Ġperching": 5938,
  "IA": 5939,
  "Ġpercussionist": 5940,
  "Ġfrustrated": 5941,
  "x4": 5942,
  "Ġsunbathers": 5943,
  "Ġisn": 5944,
  "Senior": 5945,
  "ĠToys": 5946,
  "Climbers": 5947,
  "Ġascend": 5948,
  "Bicycle": 5949,
  "Ġfont": 5950,
  "Ġcuisine": 5951,
  "Ġcocktail": 5952,
  "Od": 5953,
  "Odd": 5954,
  "OS": 5955,
  "ARA": 5956,
  "ĠCup": 5957,
  "Ġglistening": 5958,
  "Ġkaraoke": 5959,
  "ĠArt": 5960,
  "Ġcomb": 5961,
  "Saw": 5962,
  "Ġoldest": 5963,
  "Ġsuccessfully": 5964,
  "Ġpursues": 5965,
  "Ġplumes": 5966,
  "Ġpsychedelic": 5967,
  "Ġaggress": 5968,
  "rightly": 5969,
  "Brightly": 5970,
  "Ġquietly": 5971,
  "Ġhighlighted": 5972,
  "VC": 5973,
  "ĠPVC": 5974,
  "Ġyarmulke": 5975,
  "skiing": 5976,
  "Ġmanipulates": 5977,
  "Ġwhipped": 5978,
  "German": 5979,
  "fit": 5980,
  "Distant": 5981,
  "Active": 5982,
  "thumbs": 5983,
  "Ġlifeguard": 5984,
  "Ġrollerskate": 5985,
  "Ġtrudging": 5986,
  "YC": 5987,
  "ĠTax": 5988,
  "Ġdj": 5989,
  "Shirt": 5990,
  "Ġdropping": 5991,
  "ĠHouston": 5992,
  "Ġtrouser": 5993,
  "Ġpursued": 5994,
  "Ġexplain": 5995,
  "SO": 5996,
  "SOm": 5997,
  "floored": 5998,
  "Ġsprinkling": 5999,
  "ĠCeltic": 6000,
  "Ġinterlaced": 6001,
  "Ġmelted": 6002,
  "Ġdivider": 6003,
  "Ġ90": 6004,
  "ĠBroad": 6005,
  "mergency": 6006,
  "Ġcottage": 6007,
  "Ġkazoo": 6008,
  "Co": 6009,
  "Truck": 6010,
  "ridden": 6011,
  "Ġsandbox": 6012,
  "Ġexcavator": 6013,
  "Ġmopping": 6014,
  "ĠRevolution": 6015,
  "Ġmailman": 6016,
  "Ladies": 6017,
  "Ġadvance": 6018,
  "Ġsnapped": 6019,
  "Ġfeild": 6020,
  "raggly": 6021,
  "Ġsetup": 6022,
  "Ġclothespins": 6023,
  "Ġanxious": 6024,
  "Ġsummit": 6025,
  "ĠSaturday": 6026,
  "Ġrestroom": 6027,
  "Ġwoodworking": 6028,
  "Ġinvolves": 6029,
  "Ġrappels": 6030,
  "Ġapplied": 6031,
  "Ġsociety": 6032,
  "mploy": 6033,
  "mployees": 6034,
  "Ġhunt": 6035,
  "royed": 6036,
  "Ġdestroyed": 6037,
  "ĠPopsicle": 6038,
  "Ġleisurely": 6039,
  "Dozens": 6040,
  "Att": 6041,
  "Attractive": 6042,
  "Ġunderpass": 6043,
  "ĠST": 6044,
  "dition": 6045,
  "Ġrendition": 6046,
  "Ġcrucified": 6047,
  "Ġdepicted": 6048,
  "Fat": 6049,
  "Ġarrival": 6050,
  "Ġtapping": 6051,
  "Ġpresence": 6052,
  "Ġdripping": 6053,
  "Ġspur": 6054,
  "Ġspurting": 6055,
  "ĠRun": 6056,
  "Ġtrough": 6057,
  "ĠAud": 6058,
  "boyant": 6059,
  "Ġflamboyant": 6060,
  "Ġcheerful": 6061,
  "Ġgrownup": 6062,
  "Ġroast": 6063,
  "Ġtypical": 6064,
  "Ġengulfed": 6065,
  "Ġmixes": 6066,
  "ĠGallery": 6067,
  "Ġsaturated": 6068,
  "Ġdistributing": 6069,
  "Ġdonned": 6070,
  "Ġdid": 6071,
  "Ġbullf": 6072,
  "ĠNational": 6073,
  "Ġshredded": 6074,
  "Ġloin": 6075,
  "Ġloincloth": 6076,
  "ĠGap": 6077,
  "ĠRick": 6078,
  "Ġramshackle": 6079,
  "Ġchuck": 6080,
  "ĠRe": 6081,
  "Ġcloak": 6082,
  "Ġdu": 6083,
  "Foreign": 6084,
  "ĠOak": 6085,
  "Ġtrophies": 6086,
  "Ġsummertime": 6087,
  "Jesus": 6088,
  "Ġassembling": 6089,
  "Ġjester": 6090,
  "ledge": 6091,
  "Ġstarfish": 6092,
  "phia": 6093,
  "hiladelphia": 6094,
  "ĠPhiladelphia": 6095,
  "Ġgypsy": 6096,
  "Ġgrasslands": 6097,
  "Ġsmeared": 6098,
  "Ġroaming": 6099,
  "Ġsibling": 6100,
  "Ġottoman": 6101,
  "Ġcoastline": 6102,
  "Backyard": 6103,
  "Ġconnecting": 6104,
  "Ġknuckle": 6105,
  "Ġprovide": 6106,
  "Ġunnoticed": 6107,
  "Ġsauna": 6108,
  "Ġtrue": 6109,
  "Swimmers": 6110,
  "Ġcorsage": 6111,
  "Ġzipped": 6112,
  "All": 6113,
  "Bag": 6114,
  "Ġeg": 6115,
  "Ġfaintly": 6116,
  "Ġscream": 6117,
  "ĠFarm": 6118,
  "Hiker": 6119,
  "Ġmicrowave": 6120,
  "Ġdrab": 6121,
  "Ġflyer": 6122,
  "Water": 6123,
  "Ġproudly": 6124,
  "ĠAfro": 6125,
  "Ġthermos": 6126,
  "Ġmission": 6127,
  "Ġ(#": 6128,
  "Ġpinstripe": 6129,
  "Volun": 6130,
  "Ġundergarments": 6131,
  "Ġminute": 6132,
  "ĠLaura": 6133,
  "Ġpursue": 6134,
  "Ġblindfold": 6135,
  "Ġpageboy": 6136,
  "Ġnuzz": 6137,
  "Ġfauna": 6138,
  "ĠMuseum": 6139,
  "ĠToronto": 6140,
  "Mom": 6141,
  "Ġvoltage": 6142,
  "Ġdrumming": 6143,
  "Ġgolfing": 6144,
  "Ġviewf": 6145,
  "Ġviewfinder": 6146,
  "Ġmiscellaneous": 6147,
  "Ġcyan": 6148,
  "Back": 6149,
  "ipple": 6150,
  "Ġnipple": 6151,
  "ĠVerizon": 6152,
  "Ġtaupe": 6153,
  "Having": 6154,
  "Ġtickling": 6155,
  "ĠVehicle": 6156,
  "Ġtrudge": 6157,
  "ĠHeine": 6158,
  "ĠHeineken": 6159,
  "Ġmending": 6160,
  "ender": 6161,
  "ĠFender": 6162,
  "Ġdisinterestedly": 6163,
  "Ġattachment": 6164,
  "Ġrecumbent": 6165,
  "Ġdraft": 6166,
  "Ġsafari": 6167,
  "Ġsyrup": 6168,
  "Ġinterlocking": 6169,
  "Ġnumeral": 6170,
  "Ġoverstuffed": 6171,
  "Ġpylon": 6172,
  "reuse": 6173,
  "Ġchartreuse": 6174,
  "Ġgroin": 6175,
  "Ġhasn": 6176,
  "Ġtoppled": 6177,
  "VA": 6178,
  "ĠATVs": 6179,
  "ĠPabst": 6180,
  "ĠRib": 6181,
  "ĠRibbon": 6182,
  "Ġpatriotism": 6183,
  "Ġspecific": 6184,
  "OLA": 6185,
  "Ġengraving": 6186,
  "menian": 6187,
  "Ġrefreshments": 6188,
  "Ġwonderful": 6189,
  "ĠApplebee": 6190,
  "de": 6191,
  "Ġsymphony": 6192,
  "Ġfrightened": 6193,
  "Ġwoodwind": 6194,
  "ĠEar": 6195,
  "Ġsubmarine": 6196,
  "Ġinterviewing": 6197,
  "26": 6198,
  "Ġconsumer": 6199,
  "Ġpasserby": 6200,
  "Ġpinwheels": 6201,
  "din": 6202,
  "ĠAladdin": 6203,
  "gray": 6204,
  "Ġstuntman": 6205,
  "Ġdandelion": 6206,
  "urning": 6207,
  "Ġscript": 6208,
  "Ġstencil": 6209,
  "Ġ22": 6210,
  "Ġ53": 6211,
  "Ġunmarked": 6212,
  "Ġcrimson": 6213,
  "Ġcrit": 6214,
  "Ġcritter": 6215,
  "rapped": 6216,
  "Ġdrapped": 6217,
  "ĠNovember": 6218,
  "Ġconspic": 6219,
  "Ġconspicuous": 6220,
  "embers": 6221,
  "Members": 6222,
  "Ġsiding": 6223,
  "Ġroomful": 6224,
  "Ġexpansive": 6225,
  "ĠHuman": 6226,
  "ĠVolks": 6227,
  "wagen": 6228,
  "ĠVolkswagen": 6229,
  "Miller": 6230,
  "Ġdogp": 6231,
  "Ġdogpile": 6232,
  "Ġkeg": 6233,
  "ĠHuckabee": 6234,
  "ĠCRA": 6235,
  "ĠCRAZ": 6236,
  "ĠCRAZI": 6237,
  "Ġcrevasse": 6238,
  "ĠGet": 6239,
  "ĠJob": 6240,
  "Ġheroes": 6241,
  "Ġmanufact": 6242,
  "Ġmanufacturing": 6243,
  "Ġsketchpad": 6244,
  "Ġpouncing": 6245,
  "ĠRasta": 6246,
  "ĠRastaf": 6247,
  "ĠRastafarian": 6248,
  "ĠPenn": 6249,
  "ĠLaf": 6250,
  "ĠLafayette": 6251,
  "hungry": 6252,
  "Ġgauzy": 6253,
  "Ġbronc": 6254,
  "ĠRitz": 6255,
  "Ġbiohaz": 6256,
  "Ġbiohazard": 6257,
  "Ġlectern": 6258,
  "ĠGLAM": 6259,
  "IK": 6260,
  "IKI": 6261,
  "ĠWIKI": 6262,
  "Ġpend": 6263,
  "Ġpendant": 6264,
  "Ġsend": 6265,
  "Central": 6266,
  "bowls": 6267,
  "Ġfishbowls": 6268,
  "ĠGIOR": 6269,
  "ĠGIORG": 6270,
  "ĠGIORGIO": 6271,
  "Ġenjoyable": 6272,
  "Ġalto": 6273,
  "ĠOther": 6274,
  "WE": 6275,
  "ĠARE": 6276,
  "ĠDEMAN": 6277,
  "ĠDEMANDING": 6278,
  "Ġdealt": 6279,
  "Ġexaggerated": 6280,
  "Winning": 6281,
  "Ġcalculator": 6282,
  "Ġsanitizer": 6283,
  "Ġsummersault": 6284,
  "robed": 6285,
  "class": 6286,
  "niere": 6287,
  "Ġboutonniere": 6288,
  "bill": 6289,
  "Ġplaybill": 6290,
  "Ġscrubland": 6291,
  "Ġ72": 6292,
  "Ġ7200": 6293,
  "Ġobtain": 6294,
  "Ġexist": 6295,
  "Ġ330": 6296,
  "Ġseductively": 6297,
  "Barefoot": 6298,
  "Ġchildhood": 6299,
  "Ġherb": 6300,
  "Ġcannonball": 6301,
  "ĠDas": 6302,
  "ani": 6303,
  "ĠDasani": 6304,
  "European": 6305,
  "rivia": 6306,
  "ĠTrivia": 6307,
  "ĠPurs": 6308,
  "ĠPursuit": 6309,
  "butter": 6310,
  "victory": 6311,
  "ailroad": 6312,
  "Railroad": 6313,
  "Ġvolunteer": 6314,
  "skate": 6315,
  "idded": 6316,
  "lidded": 6317,
  "ĠConquest": 6318,
  "Ġparadise": 6319,
  "George": 6320,
  "ĠStephanop": 6321,
  "ĠStephanopoulos": 6322,
  "ynthia": 6323,
  "ĠCynthia": 6324,
  "ĠMaralis": 6325,
  "Ġstirred": 6326,
  "Ġconnects": 6327,
  "armly": 6328,
  "Warmly": 6329,
  "Bud": 6330,
  "TPA": 6331,
  "STPA": 6332,
  "STPAK": 6333,
  "ĠEASTPAK": 6334,
  "ĠPlanet": 6335,
  "ĠBingo": 6336,
  "ĠCasino": 6337,
  "ĠAA": 6338,
  "ĠAAA": 6339,
  "ttaw": 6340,
  "ĠOttaw": 6341,
  "ĠOttawa": 6342,
  "ĠAcademy": 6343,
  "Ġresearch": 6344,
  "floor": 6345,
  "ĠFair": 6346,
  "Amanda": 6347,
  "Ġyougn": 6348,
  "Ġbaroque": 6349,
  "elho": 6350,
  "ĠCoelho": 6351,
  "Ġchrist": 6352,
  "Rays": 6353,
  "coaster": 6354,
  "Ġresources": 6355,
  "Ġroulette": 6356,
  "Ġblackjack": 6357,
  "Ġtiredly": 6358,
  "Ġsoloist": 6359,
  "Ġinward": 6360,
  "By": 6361,
  "ĠRockettes": 6362,
  "Ġprocession": 6363,
  "ĠSwiss": 6364,
  "Ġsuburbs": 6365,
  "Ġinvisible": 6366,
  "dily": 6367,
  "Ġtrendily": 6368,
  "Ġgabbing": 6369,
  "Invas": 6370,
  "Invasion": 6371,
  "Ġnegotiates": 6372,
  "ĠSightsee": 6373,
  "ĠSightseeing": 6374,
  "Ġgreek": 6375,
  "Ġlowly": 6376,
  "Ġboyfriend": 6377,
  "Ġspindly": 6378,
  "Ġtripped": 6379,
  "pol": 6380,
  "polkadotted": 6381,
  "Ġdie": 6382,
  "Ġmythical": 6383,
  "ĠNYP": 6384,
  "ĠNYPD": 6385,
  "Ġgossamer": 6386,
  "Ġthoughtfully": 6387,
  "Ġdumbbells": 6388,
  "Jockeys": 6389,
  "seek": 6390,
  "ĠJungle": 6391,
  "Ġoffensive": 6392,
  "Ġbruna": 6393,
  "Ġsecuring": 6394,
  "nies": 6395,
  "Ġbunnies": 6396,
  "quire": 6397,
  "Ġacquire": 6398,
  "Ġamphib": 6399,
  "Ġamphibians": 6400,
  "Ġsurfacing": 6401,
  "melon": 6402,
  "Ġgraffti": 6403,
  "Ġsuzu": 6404,
  "Ġsuzuki": 6405,
  "Ġscowling": 6406,
  "Ġflopping": 6407,
  "ĠIncredible": 6408,
  "ulk": 6409,
  "ĠHulk": 6410,
  "Ġcrampons": 6411,
  "Ġhandstnad": 6412,
  "Ġbellybutton": 6413,
  "Ġelectrified": 6414,
  "Ġfurthest": 6415,
  "useument": 6416,
  "Ġamuseument": 6417,
  "Ġ97": 6418,
  "ubbles": 6419,
  "Bubbles": 6420,
  "If": 6421,
  "Ġgrassland": 6422,
  "Ġwindblown": 6423,
  "Ġdiamond": 6424,
  "Ġdipped": 6425,
  "Doe": 6426,
  "Ġresurf": 6427,
  "Ġresurfacing": 6428,
  "visibility": 6429,
  "Ġshadowing": 6430,
  "ĠInn": 6431,
  "ĠCommunity": 6432,
  "Ġwhitewater": 6433,
  "arehouse": 6434,
  "Warehouse": 6435,
  "Ġexcites": 6436,
  "Ġcaterpillar": 6437,
  "Ġburbur": 6438,
  "IDS": 6439,
  "AIDS": 6440,
  "ĠWAL": 6441,
  "ĠWALK": 6442,
  "sad": 6443,
  "depressed": 6444,
  "hatred": 6445,
  "merstein": 6446,
  "ĠHammerstein": 6447,
  "Ġoutskirts": 6448,
  "Ġemty": 6449,
  "Ġscarlet": 6450,
  "Ġparticularly": 6451,
  "ĠPortfolio": 6452,
  "Ġsoundboard": 6453,
  "Ladder": 6454,
  "Taste": 6455,
  "Ġenergized": 6456,
  "Ġtotter": 6457,
  "Ġevade": 6458,
  "Ġsunroof": 6459,
  "ĠLassie": 6460,
  "mile": 6461,
  "smile": 6462,
  "owa": 6463,
  "ĠIowa": 6464,
  "Ġkiln": 6465,
  "Ġpronounced": 6466,
  "Ġfinancial": 6467,
  "Ġkewpie": 6468,
  "Hard": 6469,
  "Ġseamstresses": 6470,
  "Ġsunning": 6471,
  "Ġ2007": 6472,
  "EFA": 6473,
  "ĠUEFA": 6474,
  "Ġhandbook": 6475,
  "Ġbreakwater": 6476,
  "Ġcrippled": 6477,
  "Ġhookah": 6478,
  "Ġadventurous": 6479,
  "Ġskillfully": 6480,
  "ryer": 6481,
  "dryer": 6482,
  "Ġinvites": 6483,
  "Lack": 6484,
  "Ġwhimsically": 6485,
  "ĠMorgan": 6486,
  "ĠPl": 6487,
  "ĠPlNe": 6488,
  "isabeth": 6489,
  "ĠElisabeth": 6490,
  "ĠCred": 6491,
  "ĠCredito": 6492,
  "Ġsentence": 6493,
  "Light": 6494,
  "Preteen": 6495,
  "Ġpunts": 6496,
  "Ġwaterful": 6497,
  "ĠCro": 6498,
  "ĠCroatian": 6499,
  "focus": 6500,
  "thrower": 6501,
  "Ġsleek": 6502,
  "Ġcolt": 6503,
  "ĠBarbara": 6504,
  "Sooners": 6505,
  "Bride": 6506,
  "Apples": 6507,
  "Ġhardly": 6508,
  "Ġroughhousing": 6509,
  "Ext": 6510,
  "Extreme": 6511,
  "Ġwalkng": 6512,
  "ĠDupar": 6513,
  "Ġshowcase": 6514,
  "Ġdizzy": 6515,
  "Ġaviation": 6516,
  "Ġswerves": 6517,
  "Ġmajestically": 6518,
  "Op": 6519,
  "posing": 6520,
  "Opposing": 6521,
  "Ġhurling": 6522,
  "pops": 6523,
  "ĠiM": 6524,
  "ĠiMac": 6525,
  "Skydivers": 6526,
  "usage": 6527,
  "ĠSausage": 6528,
  "sic": 6529,
  "ĠPug": 6530,
  "Outlines": 6531,
  "Ġnibbling": 6532,
  "Ġmolten": 6533,
  "Ġsavana": 6534,
  "Ġsavanah": 6535,
  "conscious": 6536,
  "Ġunconscious": 6537,
  "Ġlampposts": 6538,
  "ĠExhib": 6539,
  "ĠExhibit": 6540,
  "Ġgrandpa": 6541,
  "tweiller": 6542,
  "Ġrottweiller": 6543,
  "ĠRussia": 6544,
  "Ġfoodstuffs": 6545,
  "ĠVelveeta": 6546,
  "Ġfiancee": 6547,
  "Grilled": 6548,
  "Cal": 6549,
  "bi": 6550,
  "Calbi": 6551,
  "Ġburrows": 6552,
  "Ġfumbling": 6553,
  "ĠRetreiver": 6554,
  "foil": 6555,
  "Ġtinfoil": 6556,
  "ĠFestival": 6557,
  "ĠEnergy": 6558,
  "Ġsymmet": 6559,
  "Ġsymmetrical": 6560,
  "Ġheadrests": 6561,
  "Ġrepresentative": 6562,
  "Ġundulating": 6563,
  "Ta": 6564,
  "Taj": 6565,
  "Ġpliers": 6566,
  "Ġearflaps": 6567,
  "umming": 6568,
  "cumming": 6569,
  "irm": 6570,
  "Ġfirm": 6571,
  "Ġfaithful": 6572,
  "Ġbroadcast": 6573,
  "ĠSnowboard": 6574,
  "sitting": 6575,
  "Ġproprietors": 6576,
  "Ġruddy": 6577,
  "Ġsalami": 6578,
  "Ġprosci": 6579,
  "Ġprosciut": 6580,
  "Ġprosciutto": 6581,
  "Ġhassled": 6582,
  "Friend": 6583,
  "ĠOscar": 6584,
  "ĠGrouch": 6585,
  "Ġuncooked": 6586,
  "Ġcalculated": 6587,
  "uturistic": 6588,
  "Ġfuturistic": 6589,
  "Ġamateur": 6590,
  "Ġastronomer": 6591,
  "Ġoverviews": 6592,
  "Toodles": 6593,
  "piercings": 6594,
  "Ġheadscarfs": 6595,
  "ĠButchers": 6596,
  "Thank": 6597,
  "ĠTroops": 6598,
  "Ġunsuccess": 6599,
  "Ġunsuccessful": 6600,
  "rifugal": 6601,
  "Ġcentrifugal": 6602,
  "Ġgroomsman": 6603,
  "Ġmunching": 6604,
  "Ġforging": 6605,
  "suits": 6606,
  "Ġtombstone": 6607,
  "Ġtwiddles": 6608,
  "ĠGNU": 6609,
  "Ġranked": 6610,
  "Grocery": 6611,
  "Gigolo": 6612,
  "Ġarrested": 6613,
  "ĠCrisco": 6614,
  "Ġtransformed": 6615,
  "Front": 6616,
  "Ġsergeant": 6617,
  "ĠVancouver": 6618,
  "Ġhandw": 6619,
  "Ġhandwritten": 6620,
  "Ġbluegrass": 6621,
  "ĠSki": 6622,
  "Ġminiskirt": 6623,
  "Ġmidjump": 6624,
  "Ġformula": 6625,
  "Ġimpromptu": 6626,
  "Peace": 6627,
  "ĠKnits": 6628,
  "ĠShorebreak": 6629,
  "Ġblame": 6630,
  "poc": 6631,
  "Ġhypoc": 6632,
  "Ġhypocrites": 6633,
  "ĠKennel": 6634,
  "Ġ5th": 6635,
  "Ġ23rd": 6636,
  "Ġscarfs": 6637,
  "nequins": 6638,
  "Mannequins": 6639,
  "Cute": 6640,
  "dried": 6641,
  "Ġstylist": 6642,
  "ĠLucchetti": 6643,
  "nge": 6644,
  "Ġorannge": 6645,
  "Ġdialect": 6646,
  "Ġsamurai": 6647,
  "Smartly": 6648,
  "ĠAdobe": 6649,
  "Pod": 6650,
  "Ġcollision": 6651,
  "Ġcosm": 6652,
  "Ġcosmic": 6653,
  "ĠMonsterBow": 6654,
  "ĠMonsterBowl": 6655,
  "ERT": 6656,
  "OUV": 6657,
  "OUVERT": 6658,
  "Ġmarbleized": 6659,
  "Ġonyx": 6660,
  "ĠJane": 6661,
  "Ġhorrified": 6662,
  "Ġhelium": 6663,
  "Ġafraid": 6664,
  "ĠUta": 6665,
  "ĠUtah": 6666,
  "Bruce": 6667,
  "Ġmargin": 6668,
  "Ġincinerator": 6669,
  "osited": 6670,
  "Ġdeposited": 6671,
  "tih": 6672,
  "Ġwtih": 6673,
  "ĠRN": 6674,
  "ĠRNLI": 6675,
  "ĠCleveland": 6676,
  "Ġrebound": 6677,
  "years": 6678,
  "Ġmadly": 6679,
  "ĠSlough": 6680,
  "Ġchimney": 6681,
  "ĠExp": 6682,
  "ĠExplorer": 6683,
  "Ġfantasy": 6684,
  "Ġoppsing": 6685,
  "ĠTheme": 6686,
  "Ġaccelerating": 6687,
  "Ġcookout": 6688,
  "Ġanarchy": 6689,
  "ĠX": 6690,
  "ositional": 6691,
  "Ġcompositional": 6692,
  "MMA": 6693,
  "gend": 6694,
  "ĠLegend": 6695,
  "Ġfurred": 6696,
  "ĠFlyer": 6697,
  "Fans": 6698,
  "Latino": 6699,
  "iznos": 6700,
  "ĠQuiznos": 6701,
  "Subs": 6702,
  "Davison": 6703,
  "Ġagricultural": 6704,
  "Ġsmug": 6705,
  "Ġsmugly": 6706,
  "Ġtuque": 6707,
  "ĠSharpie": 6708,
  "Ġexecutive": 6709,
  "ĠCubs": 6710,
  "portrait": 6711,
  "utrilite": 6712,
  "ĠNutrilite": 6713,
  "ĠSesame": 6714,
  "onk": 6715,
  "Honk": 6716,
  "cl": 6717,
  "climb": 6718,
  "Ġguardian": 6719,
  "Ġexact": 6720,
  "Ġstup": 6721,
  "Ġstupor": 6722,
  "Ġplugged": 6723,
  "Ġmaxi": 6724,
  "Ġbaskers": 6725,
  "ĠBuzz": 6726,
  "ĠLightyear": 6727,
  "ĠOlympian": 6728,
  "ĠChopin": 6729,
  "ĠPrelude": 6730,
  "ĠMajor": 6731,
  "Image": 6732,
  "Ġrelevance": 6733,
  "Ġbesuited": 6734,
  "Ġcarbonated": 6735,
  "Ġknelt": 6736,
  "Ġdiscount": 6737,
  "Ġsorcerer": 6738,
  "ĠMasterC": 6739,
  "ĠMasterCard": 6740,
  "Congrats": 6741,
  "hilipp": 6742,
  "ĠPhilipp": 6743,
  "ĠPhilippines": 6744,
  "Ġ046": 6745,
  "ĠComcast": 6746,
  "ĠDigital": 6747,
  "oice": 6748,
  "ĠVoice": 6749,
  "Ġgibbous": 6750,
  "Ġguidebooks": 6751,
  "HELL": 6752,
  "Ġextras": 6753,
  "ĠBedford": 6754,
  "OINTE": 6755,
  "POINTE": 6756,
  "SLR": 6757,
  "Ġwreck": 6758,
  "Ġseine": 6759,
  "untidy": 6760,
  "imicked": 6761,
  "Ġmimicked": 6762,
  "Ġskidding": 6763,
  "Sultan": 6764,
  "Ġconsults": 6765,
  "LANCE": 6766,
  "BLANCE": 6767,
  "EMBLANCE": 6768,
  "ĠSEMBLANCE": 6769,
  "ĠIV": 6770,
  "Traffic": 6771,
  "Ġwafting": 6772,
  "Ġmesa": 6773,
  "hatted": 6774,
  "VRO": 6775,
  "VROLE": 6776,
  "VROLET": 6777,
  "ĠCHEVROLET": 6778,
  "thrust": 6779,
  "Ġoutthrust": 6780,
  "ĠThurs": 6781,
  "ĠThursday": 6782,
  "Ġhymn": 6783,
  "Ġsetter": 6784,
  "twieler": 6785,
  "ĠRottwieler": 6786,
  "probuilt": 6787,
  "Ġexciting": 6788,
  "Ġscrubber": 6789,
  "Ġhankerchief": 6790,
  "Ġ;": 6791,
  "ĠWonderland": 6792,
  "Ġheadlight": 6793,
  "Ġmessaging": 6794,
  "ĠSANT": 6795,
  "ĠSANTANA": 6796,
  "Ġturret": 6797,
  "Ġsuggesting": 6798,
  "Ġzig": 6799,
  "zag": 6800,
  "ĠAqu": 6801,
  "ĠAquos": 6802,
  "Ġclergy": 6803,
  "ĠSalvation": 6804,
  "Tom": 6805,
  "ĠCruise": 6806,
  "Ġautographs": 6807,
  "anuary": 6808,
  "ĠJanuary": 6809,
  "Ġhirs": 6810,
  "Ġhirsute": 6811,
  "Inf": 6812,
  "Infant": 6813,
  "Ġindistin": 6814,
  "Ġindistinct": 6815,
  "Ġundetermined": 6816,
  "Ġfootprint": 6817,
  "Ġretrive": 6818,
  "Ġhorror": 6819,
  "Ġrecognition": 6820,
  "Ġpaddock": 6821,
  "butted": 6822,
  "uesday": 6823,
  "Tuesday": 6824,
  "Ġcliming": 6825,
  "Ġsifts": 6826,
  "Ġpenalties": 6827,
  "Ġengland": 6828,
  "Ġimpatiently": 6829,
  "Ġradiating": 6830,
  "WI": 6831,
  "WII": 6832,
  "ĠWWII": 6833,
  "Ġbombers": 6834,
  "Ġcorrectly": 6835,
  "ĠSubaru": 6836,
  "ĠConfederate": 6837,
  "Ġforelegs": 6838,
  "Ġlightsaber": 6839,
  "ĠJumbo": 6840,
  "Avocet": 6841,
  "pintaria": 6842,
  "ĠCarpintaria": 6843,
  "ĠClown": 6844,
  "Ġdominance": 6845,
  "CAF": 6846,
  "CAFE": 6847,
  "Ġlesbianism": 6848,
  "Hollister": 6849,
  "chipper": 6850,
  "Tests": 6851,
  "Ġgrooving": 6852,
  "Ġterrible": 6853,
  "Amish": 6854,
  "Ġmedallion": 6855,
  "Ġcapoed": 6856,
  "Ġfrets": 6857,
  "Amidst": 6858,
  "Ġterritory": 6859,
  "Ġchopper": 6860,
  "Concepts": 6861,
  "Ġcrisscross": 6862,
  "ĠWood": 6863,
  "ĠSilk": 6864,
  "ĠSC": 6865,
  "UBA": 6866,
  "ĠSCUBA": 6867,
  "ĠBudweiser": 6868,
  "Ġspeedway": 6869,
  "Ġbrink": 6870,
  "Ġceramics": 6871,
  "Ġsupervision": 6872,
  "Ġscramble": 6873,
  "Ġhobby": 6874,
  "Ġmultilple": 6875,
  "Ġqueue": 6876,
  "Ġmagnificant": 6877,
  "ĠPalmet": 6878,
  "ĠPalmettos": 6879,
  "Bal": 6880,
  "Balck": 6881,
  "Ġwindsailing": 6882,
  "Ġ1950": 6883,
  "Ġfingerpaints": 6884,
  "suited": 6885,
  "Ġdisrupt": 6886,
  "ĠRussell": 6887,
  "altitude": 6888,
  "ĠSeahawks": 6889,
  "ĠHutchesons": 6890,
  "Ġgrammar": 6891,
  "Ġshuttlecock": 6892,
  "Ġembroidery": 6893,
  "ĠGlas": 6894,
  "ĠGlasgow": 6895,
  "Ġhilltop": 6896,
  "uniform": 6897,
  "Ġreversible": 6898,
  "Ġflagman": 6899,
  "Ġbroccol": 6900,
  "Ġbroccoli": 6901,
  "Ġchildern": 6902,
  "Ġtobaggons": 6903,
  "ĠEiffel": 6904,
  "ĠTower": 6905,
  "Ġsurprise": 6906,
  "ĠRobin": 6907,
  "Ġmodular": 6908,
  "Air": 6909,
  "Airport": 6910,
  "warfs": 6911,
  "Ġdwarfs": 6912,
  "ĠShowcase": 6913,
  "ĠBadminton": 6914,
  "Ġdrooling": 6915,
  "Ġquestioningly": 6916,
  "filling": 6917,
  "Ġpopulate": 6918,
  "Ġsi": 6919,
  "Ġnarby": 6920,
  "Zaras": 6921,
  "Live": 6922,
  "Ġspacious": 6923,
  "Fireman": 6924,
  "Ġurging": 6925,
  "Firefighter": 6926,
  "nett": 6927,
  "ĠConnett": 6928,
  "ĠOssian": 6929,
  "ĠFire": 6930,
  "ĠCircuit": 6931,
  "Ms": 6932,
  "ĠAFL": 6933,
  "ĠPremiership": 6934,
  "burg": 6935,
  "hannes": 6936,
  "ĠJohannes": 6937,
  "ĠJohannesburg": 6938,
  "Ġdisbelieving": 6939,
  "Ġgarland": 6940,
  "warves": 6941,
  "Ġdwarves": 6942,
  "ĠCinderella": 6943,
  "Crosscoun": 6944,
  "Crosscountry": 6945,
  "Ġartifacts": 6946,
  "ĠCorazon": 6947,
  "ffeinated": 6948,
  "Ġcaffeinated": 6949,
  "Ġsustain": 6950,
  "Ġtransvestite": 6951,
  "Ġrefuse": 6952,
  "Poor": 6953,
  "Mongolian": 6954,
  "ĠBBQ": 6955,
  "Ġsnowshoeing": 6956,
  "Ġenthralled": 6957,
  "Ġusual": 6958,
  "Ġrefs": 6959,
  "Ġofficiate": 6960,
  "Ġpilgrimage": 6961,
  "Bill": 6962,
  "Ġsediment": 6963,
  "Ġhussars": 6964,
  "Ġsabre": 6965,
  "Secure": 6966,
  "ĠLegal": 6967,
  "mm": 6968,
  "mmig": 6969,
  "mmigration": 6970,
  "ĠImmigration": 6971,
  "Square": 6972,
  "Ġperch": 6973,
  "ĠR2": 6974,
  "D2": 6975,
  "rimly": 6976,
  "Ġgrimly": 6977,
  "Restaurant": 6978,
  "Ġpanned": 6979,
  "Ġcongress": 6980,
  "Ġcenturion": 6981,
  "Wrinkled": 6982,
  "Ġjotting": 6983,
  "errible": 6984,
  "Terrible": 6985,
  "ynch": 6986,
  "synch": 6987,
  "Ġgrandmas": 6988,
  "Subway": 6989,
  "ĠGentlemen": 6990,
  "Ġonion": 6991,
  "Teams": 6992,
  "Ġmongolian": 6993,
  "Ġconvalescent": 6994,
  "Ġterrycloth": 6995,
  "ĠCamden": 6996,
  "ĠInteriors": 6997,
  "amused": 6998,
  "Ġpacific": 6999,
  "ĠIslander": 7000,
  "ĠMud": 7001,
  "Skiiers": 7002,
  "Pol": 7003,
  "Polizes": 7004,
  "ĠZune": 7005,
  "ĠKon": 7006,
  "inck": 7007,
  "ĠKoninck": 7008,
  "ĠMagazine": 7009,
  "Ġ25th": 7010,
  "Ġannual": 7011,
  "ĠLongboard": 7012,
  "Ġgoalpost": 7013,
  "Ġrobin": 7014,
  "Ġunaffected": 7015,
  "izations": 7016,
  "Ġimmunizations": 7017,
  "ĠHusky": 7018,
  "He": 7019,
  "ĠKnights": 7020,
  "Ġunnamed": 7021,
  "ĠKnight": 7022,
  "Ġselves": 7023,
  "Ġknitters": 7024,
  "hki": 7025,
  "Ġkahki": 7026,
  "Ġtransformers": 7027,
  "ĠPants": 7028,
  "ĠTops": 7029,
  "Ġcolliding": 7030,
  "Ġsaddlebags": 7031,
  "Ġ5003": 7032,
  "Ġassessing": 7033,
  "Ġcrossbow": 7034,
  "Ġinitiating": 7035,
  "yp": 7036,
  "yppens": 7037,
  "Lyppens": 7038,
  "ĠMambo": 7039,
  "Pushing": 7040,
  "Ġunsa": 7041,
  "Ġunsafely": 7042,
  "issive": 7043,
  "Ġsubm": 7044,
  "Ġsubmissive": 7045,
  "Ġwindowpane": 7046,
  "Ġlyrics": 7047,
  "ĠShriner": 7048,
  "Clowns": 7049,
  "ĠPot": 7050,
  "ĠPotty": 7051,
  "Ġcranberry": 7052,
  "moving": 7053,
  "Ġupholstered": 7054,
  "Ġstomachs": 7055,
  "Ġmaturity": 7056,
  "risbree": 7057,
  "Ġfrisbree": 7058,
  "ulcher": 7059,
  "Ġsepulcher": 7060,
  "Ġunkempt": 7061,
  "ĠBangrak": 7062,
  "Ġpruning": 7063,
  "ĠFashioned": 7064,
  "ĠCream": 7065,
  "ippie": 7066,
  "Hippie": 7067,
  "Ġkeytar": 7068,
  "Ġcapacity": 7069,
  "Athlete": 7070,
  "97": 7071,
  "Ġ661": 7072,
  "Ġ66197": 7073,
  "ĠKhera": 7074,
  "ĠTransport": 7075,
  "ĠCorp": 7076,
  "uppe": 7077,
  "Huppe": 7078,
  "ĠWiggle": 7079,
  "Ġunpainted": 7080,
  "Ġskimpily": 7081,
  "journal": 7082,
  "journalist": 7083,
  "Photojournalist": 7084,
  "Ġunfortunate": 7085,
  "Ġoccurred": 7086,
  "Ġstumbled": 7087,
  "ĠBiden": 7088,
  "Ġcandidate": 7089,
  "lauge": 7090,
  "flauge": 7091,
  "Ġcampflauge": 7092,
  "Ġextra": 7093,
  "Sol": 7094,
  "ĠSeptu": 7095,
  "Ġsmears": 7096,
  "Ġapplause": 7097,
  "dist": 7098,
  "ĠBuddist": 7099,
  "Ġcenterpieces": 7100,
  "retty": 7101,
  "Pretty": 7102,
  "Parents": 7103,
  "Ġmalnourished": 7104,
  "Ġ49": 7105,
  "Ġ49ers": 7106,
  "ISA": 7107,
  "ĠVISA": 7108,
  "Ġcomplexion": 7109,
  "Ġmerchants": 7110,
  "Ġdrug": 7111,
  "Ġstatute": 7112,
  "URKLE": 7113,
  "oyt": 7114,
  "ĠHoyt": 7115,
  "Lynyrd": 7116,
  "Ġmidway": 7117,
  "ĠBic": 7118,
  "Ġhurl": 7119,
  "Ġillustrating": 7120,
  "Ġcommunist": 7121,
  "ajasthan": 7122,
  "ĠRajasthan": 7123,
  "trol": 7124,
  "control": 7125,
  "ĠSub": 7126,
  "lime": 7127,
  "ĠSublime": 7128,
  "ragrance": 7129,
  "Ġfragrance": 7130,
  "Fishmonger": 7131,
  "ĠChannel": 7132,
  "Ġpaddy": 7133,
  "Gasm": 7134,
  "ĠShoeGasm": 7135,
  "cheeked": 7136,
  "Riding": 7137,
  "Ġpatchwork": 7138,
  "ĠJelly": 7139,
  "Goal": 7140,
  "Exx": 7141,
  "Exxx": 7142,
  "Exxxotica": 7143,
  "ĠHot": 7144,
  "vies": 7145,
  "ĠMovies": 7146,
  "Ġunbelief": 7147,
  "orn": 7148,
  "ĠHorn": 7149,
  "Ġ55": 7150,
  "Ġforehand": 7151,
  "ĠGleati": 7152,
  "acchi": 7153,
  "ĠTabacchi": 7154,
  "ĠComputer": 7155,
  "lobe": 7156,
  "Globe": 7157,
  "Slicers": 7158,
  "Ġcheetah": 7159,
  "Ġlodged": 7160,
  "Ġsousaphone": 7161,
  "Ġtedious": 7162,
  "Ġpuma": 7163,
  "Ġopulent": 7164,
  "Ġnewsboy": 7165,
  "Ġtrout": 7166,
  "ĠEerie": 7167,
  "onsibilities": 7168,
  "Ġresponsibilities": 7169,
  "flying": 7170,
  "Ġshucking": 7171,
  "Ġbudget": 7172,
  "fightes": 7173,
  "Puppeteer": 7174,
  "height": 7175,
  "Brigada": 7176,
  "Ġtrombon": 7177,
  "Ġtrombonist": 7178,
  "Ġmeasure": 7179,
  "Beauty": 7180,
  "ĠPar": 7181,
  "ĠParlour": 7182,
  "Ġrecreate": 7183,
  "Pray": 7184,
  "Prayer": 7185,
  "aws": 7186,
  "saws": 7187,
  "Ġpromting": 7188,
  "Sheep": 7189,
  "Campers": 7190,
  "such": 7191,
  "amb": 7192,
  "ĠGamb": 7193,
  "ĠGambas": 7194,
  "Cat": 7195,
  "Cattle": 7196,
  "hnd": 7197,
  "hndi": 7198,
  "Ġmehndi": 7199,
  "Ġplatinum": 7200,
  "ĠSides": 7201,
  "ĠHealth": 7202,
  "Ġemerge": 7203,
  "Ġslipper": 7204,
  "ĠDerby": 7205,
  "Ġbistro": 7206,
  "Such": 7207,
  "Ġsnowpants": 7208,
  "ĠBBC": 7209,
  "Costumed": 7210,
  "ĠPeruv": 7211,
  "ĠPeruvian": 7212,
  "Ġfemin": 7213,
  "Ġfeminine": 7214,
  "Ġflattening": 7215,
  "Ġunclear": 7216,
  "Ġsnowshovel": 7217,
  "Sled": 7218,
  "Sledding": 7219,
  "Ġ333": 7220,
  "Ġpromptly": 7221,
  "Ġflexible": 7222,
  "Oriental": 7223,
  "Ġefficiently": 7224,
  "Ġinscribed": 7225,
  "Ġhibachi": 7226,
  "Ġhundred": 7227,
  "Ġmagnificent": 7228,
  "ĠEnclosure": 7229,
  "ĠNecklace": 7230,
  "Ġyin": 7231,
  "Ġyang": 7232,
  "Ġrefreshment": 7233,
  "ĠScooby": 7234,
  "Ġsuspending": 7235,
  "ĠUSPS": 7236,
  "ĠInfineon": 7237,
  "Ġsuggestively": 7238,
  "Ġpepperoni": 7239,
  "fourth": 7240,
  "fourths": 7241,
  "Ġdaff": 7242,
  "Ġdaffy": 7243,
  "Ġlionist": 7244,
  "Ġbusinessmen": 7245,
  "Ġannouncing": 7246,
  "downtown": 7247,
  "Graphics": 7248,
  "approximately": 7249,
  "Ġ38": 7250,
  "Ġsnuggled": 7251,
  "Ġshowy": 7252,
  "ĠKingsworth": 7253,
  "Ġbackless": 7254,
  "Participants": 7255,
  "Ġrappelling": 7256,
  "Ġsaffron": 7257,
  "Ġprune": 7258,
  "ennington": 7259,
  "ĠKennington": 7260,
  "enya": 7261,
  "ĠKenya": 7262,
  "spattered": 7263,
  "ATM": 7264,
  "Ġaccoun": 7265,
  "Ġaccount": 7266,
  "ĠBernard": 7267,
  "Ġworkroom": 7268,
  "Ġhalway": 7269,
  "PORT": 7270,
  "ĠDU": 7271,
  "UE": 7272,
  "QUE": 7273,
  "SQUE": 7274,
  "ĠCASQUE": 7275,
  "ATO": 7276,
  "BLI": 7277,
  "GATO": 7278,
  "ĠOBLI": 7279,
  "GATOI": 7280,
  "GATOIRE": 7281,
  "ĠOBLIGATOIRE": 7282,
  "Ġdiorama": 7283,
  "Ġpierce": 7284,
  "Ġflank": 7285,
  "Ġdensity": 7286,
  "avs": 7287,
  "Mavs": 7288,
  "Ġfoe": 7289,
  "Ġtriumphant": 7290,
  "Ġtriumphantly": 7291,
  "Ġfurnishings": 7292,
  "Surgeons": 7293,
  "Ġregrets": 7294,
  "Ġcursive": 7295,
  "Ġclenched": 7296,
  "ĠLexus": 7297,
  "ĠSharpley": 7298,
  "Ġswine": 7299,
  "cracker": 7300,
  "utcracker": 7301,
  "Ġnutcracker": 7302,
  "Ġalbum": 7303,
  "Holiday": 7304,
  "ĠProject": 7305,
  "University": 7306,
  "llinois": 7307,
  "ĠIllinois": 7308,
  "ĠSpringfield": 7309,
  "ĠSunbeam": 7310,
  "mix": 7311,
  "ĠBeatermix": 7312,
  "Ġyolk": 7313,
  "Gelateria": 7314,
  "BOR": 7315,
  "LABOR": 7316,
  "ĠDAY": 7317,
  "unches": 7318,
  "Ġhaunches": 7319,
  "ratulate": 7320,
  "Ġcongratulate": 7321,
  "FUN": 7322,
  "ĠDNA": 7323,
  "RY": 7324,
  "ĠTRY": 7325,
  "ĠME": 7326,
  "Ġkickboards": 7327,
  "Ġsquiggles": 7328,
  "Moon": 7329,
  "ĠBounce": 7330,
  "Ġsupervisory": 7331,
  "Ġgesticulates": 7332,
  "Ġexhaust": 7333,
  "goer": 7334,
  "ĠMillen": 7335,
  "ĠMillenium": 7336,
  "ĠLevi": 7337,
  "windbreakers": 7338,
  "Important": 7339,
  "Ġpizzeria": 7340,
  "Ġpicure": 7341,
  "Hike": 7342,
  "blader": 7343,
  "Rollerblader": 7344,
  "Memoria": 7345,
  "ĠJustic": 7346,
  "ĠJusticia": 7347,
  "vido": 7348,
  "lvido": 7349,
  "ĠOlvido": 7350,
  "Ġsignboards": 7351,
  "ĠNaked": 7352,
  "Ġtatted": 7353,
  "Ġspanned": 7354,
  "ĠTev": 7355,
  "ĠTeva": 7356,
  "ĠNeurosc": 7357,
  "ĠNeuroscience": 7358,
  "Pat": 7359,
  "Patrons": 7360,
  "ĠMagpie": 7361,
  "ĠRavens": 7362,
  "Ġobliverate": 7363,
  "ĠPop": 7364,
  "Ġafghan": 7365,
  "Amid": 7366,
  "513": 7367,
  "ĠChris": 7368,
  "regoire": 7369,
  "ĠGregoire": 7370,
  "Participant": 7371,
  "Ġ3442": 7372,
  "Ġsouvenirs": 7373,
  "Childern": 7374,
  "ĠAshtray": 7375,
  "Ġdishtowel": 7376,
  "Ġgrungy": 7377,
  "Ġstroking": 7378,
  "Ġrealtor": 7379,
  "ĠTrees": 7380,
  "ĠGypsy": 7381,
  "ĠTea": 7382,
  "Ġjealous": 7383,
  "Ġjealously": 7384,
  "ĠAu": 7385,
  "ĠLevain": 7386,
  "Ġbuckling": 7387,
  "Ġbocce": 7388,
  "ĠDav": 7389,
  "ĠDavid": 7390,
  "ozy": 7391,
  "ĠSarkozy": 7392,
  "Ġcrackling": 7393,
  "ĠTemple": 7394,
  "Micky": 7395,
  "Ġswaddling": 7396,
  "ĠEuros": 7397,
  "Ġbroadway": 7398,
  "Averill": 7399,
  "Ġsuave": 7400,
  "Ġdemeanor": 7401,
  "ez": 7402,
  "ĠFez": 7403,
  "sw": 7404,
  "swing": 7405,
  "ĠTinkerbell": 7406,
  "AX": 7407,
  "ont": 7408,
  "Dup": 7409,
  "Dupont": 7410,
  "Ġriverview": 7411,
  "Ġmeditates": 7412,
  "ĠCommunism": 7413,
  "Ġsilence": 7414,
  "Ġswallow": 7415,
  "Of": 7416,
  "Gourmet": 7417,
  "urry": 7418,
  "ĠCurry": 7419,
  "ĠKeep": 7420,
  "ĠClear": 7421,
  "ĠPapa": 7422,
  "sky": 7423,
  "dozen": 7424,
  "ĠMets": 7425,
  "ĠHarly": 7426,
  "Ġranch": 7427,
  "ĠNaples": 7428,
  "Families": 7429,
  "Ġearthquake": 7430,
  "Ġpriv": 7431,
  "Ġprivacy": 7432,
  "ĠFulton": 7433,
  "arre": 7434,
  "Ġbizarre": 7435,
  "Ġbrightness": 7436,
  "evergreen": 7437,
  "Watch": 7438,
  "Student": 7439,
  "Point": 7440,
  "ĠPowerPoint": 7441,
  "Ġdiploma": 7442,
  "Ġgerms": 7443,
  "Mike": 7444,
  "mg": 7445,
  "mgren": 7446,
  "ĠHolmgren": 7447,
  "Ġtouchline": 7448,
  "VER": 7449,
  "NE": 7450,
  "NEVER": 7451,
  "LEE": 7452,
  "ĠSLEE": 7453,
  "ĠSLEEP": 7454,
  "GA": 7455,
  "ĠAGA": 7456,
  "ĠAGAIN": 7457,
  "Ġantarctica": 7458,
  "zily": 7459,
  "Ġcozily": 7460,
  "Ġunrolling": 7461,
  "Ġ281": 7462,
  "Ġarctic": 7463,
  "AND": 7464,
  "Jimi": 7465,
  "drix": 7466,
  "ĠHendrix": 7467,
  "Ġcontrail": 7468,
  "Ġscull": 7469,
  "Ġyankees": 7470,
  "Ġoposs": 7471,
  "Ġopossum": 7472,
  "KR": 7473,
  "UNCH": 7474,
  "KRUNCH": 7475,
  "Jaguar": 7476,
  "Ġfuton": 7477,
  "Ġbackf": 7478,
  "Ġbackflip": 7479,
  "Ġaftermath": 7480,
  "Ġdisaster": 7481,
  "ulously": 7482,
  "Ġmeticulously": 7483,
  "ĠBrighton": 7484,
  "ĠPier": 7485,
  "Ġparrot": 7486,
  "ĠUFC": 7487,
  "Ġnozz": 7488,
  "Ġnozzle": 7489,
  "Ġcondiment": 7490,
  "ĠDa": 7491,
  "ci": 7492,
  "ĠVin": 7493,
  "ĠVinci": 7494,
  "Ġpigtail": 7495,
  "Ġbellbot": 7496,
  "Ġbellbottoms": 7497,
  "Ġmaryjane": 7498,
  "ziget": 7499,
  "ĠSziget": 7500,
  "Ġprotrude": 7501,
  "Ġ3113": 7502,
  "ĠGoctawek": 7503,
  "Ġreduce": 7504,
  "Ġpermits": 7505,
  "Ġmaximize": 7506,
  "Ġaspirations": 7507,
  "Ġsouthwest": 7508,
  "Ġdistributor": 7509,
  "Individual": 7510,
  "Ġkindergarten": 7511,
  "ĠBP": 7512,
  "Ġmacaroni": 7513,
  "Ġrenovation": 7514,
  "ESHINE": 7515,
  "HOESHINE": 7516,
  "SHOESHINE": 7517,
  "Hot": 7518,
  "Hotdog": 7519,
  "Elevator": 7520,
  "ĠBismar": 7521,
  "raBe": 7522,
  "ckstraBe": 7523,
  "ĠBismarckstraBe": 7524,
  "Ġadministering": 7525,
  "Ġflautist": 7526,
  "Ġdetergent": 7527,
  "Ġarmband": 7528,
  "Ġgreas": 7529,
  "Ġgreasy": 7530,
  "Ġbarrior": 7531,
  "ĠYear": 7532,
  "houette": 7533,
  "Silhouette": 7534,
  "Ġcattails": 7535,
  "Main": 7536,
  "ĠJapan": 7537,
  "Ġunpacking": 7538,
  "Ġlavatory": 7539,
  "Ġgunslingers": 7540,
  "Ġextensive": 7541,
  "Skinny": 7542,
  "ĠCrayola": 7543,
  "La": 7544,
  "Ġ64": 7545,
  "Action": 7546,
  "Ġimprove": 7547,
  "Ġboatman": 7548,
  "ĠAberdeen": 7549,
  "Ġhunks": 7550,
  "Ġshrug": 7551,
  "nizable": 7552,
  "Ġunrecog": 7553,
  "Ġunrecognizable": 7554,
  "fish": 7555,
  "Ġgoldfish": 7556,
  "Ġwolf": 7557,
  "Ġhalves": 7558,
  "Bienvenue": 7559,
  "loyed": 7560,
  "Ġdeployed": 7561,
  "Ġmassage": 7562,
  "Ġbeckoning": 7563,
  "Ġresult": 7564,
  "Ġexpressively": 7565,
  "Ġcarryall": 7566,
  "Ref": 7567,
  "Reflections": 7568,
  "Ġovershadows": 7569,
  "Ġdrenches": 7570,
  "Ġgoaltender": 7571,
  "Ġcoarse": 7572,
  "Ġjunction": 7573,
  "ĠNeude": 7574,
  "Ġyouthful": 7575,
  "ĠQ": 7576,
  "ĠVolvo": 7577,
  "ĠNash": 7578,
  "Ġunto": 7579,
  "Ġorchard": 7580,
  "Horses": 7581,
  "Staff": 7582,
  "Ġcondemned": 7583,
  "ĠPrave": 7584,
  "Ġsalesman": 7585,
  "Ġfixating": 7586,
  "Ġnubby": 7587,
  "Ġwaterline": 7588,
  "ĠBasket": 7589,
  "000": 7590,
  "ĠNorthwestern": 7591,
  "ildcats": 7592,
  "ĠWildcats": 7593,
  "Zune": 7594,
  "Ġbalustrade": 7595,
  "Ġparasurfer": 7596,
  "Ġkiteboarder": 7597,
  "Traditional": 7598,
  "ĠKick": 7599,
  "Ġfrete": 7600,
  "ĠDalmatian": 7601,
  "Ġinserted": 7602,
  "Ġmessing": 7603,
  "Bada": 7604,
  "ĠBing": 7605,
  "Ġoverhear": 7606,
  "ĠMut": 7607,
  "ĠMutual": 7608,
  "fenced": 7609,
  "ĠWinston": 7610,
  "Ġjig": 7611,
  "Ġunmade": 7612,
  "Ġreminds": 7613,
  "Ġworkman": 7614,
  "ĠSkyrim": 7615,
  "Cindy": 7616,
  "ĠLifestyle": 7617,
  "Ġply": 7618,
  "Ġjutted": 7619,
  "Absolute": 7620,
  "Absoluteily": 7621,
  "Real": 7622,
  "ĠMeat": 7623,
  "ĠButcher": 7624,
  "ĠAMC": 7625,
  "ĠEquestrian": 7626,
  "ĠNames": 7627,
  "Ġfluglehorn": 7628,
  "Ġrealizes": 7629,
  "voes": 7630,
  "Ġglvoes": 7631,
  "Ġcontemporaries": 7632,
  "Ġpayfully": 7633,
  "Ġconverged": 7634,
  "Bikers": 7635,
  "ĠLED": 7636,
  "Trains": 7637,
  "ĠWembley": 7638,
  "ĠStanmore": 7639,
  "Ġfauxhawk": 7640,
  "enske": 7641,
  "ĠPenske": 7642,
  "Ġhogtying": 7643,
  "Oklahoma": 7644,
  "Ġonsie": 7645,
  "Ġvows": 7646,
  "ROO": 7647,
  "ROOM": 7648,
  "GROOM": 7649,
  "Ġclinching": 7650,
  "ĠPoust": 7651,
  "mia": 7652,
  "ĠHermia": 7653,
  "ĠViking": 7654,
  "Ġgrotto": 7655,
  "Ġmidpitch": 7656,
  "Ġskullcap": 7657,
  "serve": 7658,
  "Ġsprinkles": 7659,
  "Hanging": 7660,
  "Ġhandcuffs": 7661,
  "Ġpinafore": 7662,
  "Ġfright": 7663,
  "Ġduplicate": 7664,
  "ĠTrack": 7665,
  "Ġatm": 7666,
  "itchenAid": 7667,
  "KitchenAid": 7668,
  "Ġscalp": 7669,
  "Ġimprovised": 7670,
  "Ġwaterboard": 7671,
  "Ġseafo": 7672,
  "Ġseafoam": 7673,
  "Aeropostale": 7674,
  "Ġperpendicularly": 7675,
  "after": 7676,
  "afternoon": 7677,
  "Tbe": 7678,
  "slide": 7679,
  "ĠPikesville": 7680,
  "dwards": 7681,
  "ĠEdwards": 7682,
  "Ġbrickw": 7683,
  "Ġbrickwall": 7684,
  "Maritimo": 7685,
  ".'": 7686,
  "Ġtorchlight": 7687,
  "Tourist": 7688,
  "Horse": 7689,
  "ĠMakerBot": 7690,
  "ĠIndust": 7691,
  "ĠIndustries": 7692,
  "Ġsickle": 7693,
  "Ġgenie": 7694,
  "Ġabutment": 7695,
  "Ġtremendous": 7696,
  "Peter": 7697,
  "ĠMotorC": 7698,
  "ĠMotorCycles": 7699,
  "ĠService": 7700,
  "Ġprograms": 7701,
  "Ġfriday": 7702,
  "Romantic": 7703,
  "?)": 7704,
  "Ġalarmedly": 7705,
  "ĠPRO": 7706,
  "ĠPROLO": 7707,
  "Gy": 7708,
  "ĠPROLOGy": 7709,
  "ĠFidel": 7710,
  "ĠCastro": 7711,
  "Cube": 7712,
  "ĠGameCube": 7713,
  "ĠFourth": 7714,
  "Ġwearhing": 7715,
  "hjong": 7716,
  "ĠMahjong": 7717,
  "Ġagenda": 7718,
  "Ġinviting": 7719,
  "ĠElvis": 7720,
  "Ġdaydream": 7721,
  "Aless": 7722,
  "Alessi": 7723,
  "Ġglossy": 7724,
  "Ġbinocular": 7725,
  "Ġaubur": 7726,
  "Ġauburn": 7727,
  "Hands": 7728,
  "riott": 7729,
  "ĠMarriott": 7730,
  "ĠMarquis": 7731,
  "Ġtoolbox": 7732,
  "Beige": 7733,
  "Ġinsurance": 7734,
  "surf": 7735,
  "surfing": 7736,
  "night": 7737,
  "Ġziplock": 7738,
  "Ġwrinkled": 7739,
  "ĠAz": 7740,
  "ĠAztec": 7741,
  "Ġrosebuds": 7742,
  "Ġverdant": 7743,
  "Ġdrama": 7744,
  "ĠShetland": 7745,
  "Ġdoughnut": 7746,
  "Ġtuft": 7747,
  "Ġpainful": 7748,
  "racotta": 7749,
  "Ġterracotta": 7750,
  "Twelve": 7751,
  "Artwork": 7752,
  "Ġbirdcage": 7753,
  "ĠAlbert": 7754,
  "ĠEinste": 7755,
  "ĠEinstein": 7756,
  "Ġsonny": 7757,
  "ĠRub": 7758,
  "bermaid": 7759,
  "ĠRubbermaid": 7760,
  "ĠReflecting": 7761,
  "nestly": 7762,
  "Ġearnestly": 7763,
  "Single": 7764,
  "Ġdeflect": 7765,
  "ĠHeadphones": 7766,
  "Ġgauge": 7767,
  "Cameras": 7768,
  "Ġstraddled": 7769,
  "Ġshuttle": 7770,
  "Ġthermometer": 7771,
  "Ġhurries": 7772,
  "Ġadobe": 7773,
  "ĠJun": 7774,
  "ĠJunior": 7775,
  "ĠBison": 7776,
  "Behind": 7777,
  "Ġstrategy": 7778,
  "Para": 7779,
  "Olympians": 7780,
  "street": 7781,
  "ĠHumor": 7782,
  "ĠRR": 7783,
  "Ġsplint": 7784,
  "oftball": 7785,
  "ĠSoftball": 7786,
  "ĠBanners": 7787,
  "Ġpassively": 7788,
  "ye": 7789,
  "ĠEye": 7790,
  "Ġsteplad": 7791,
  "Ġstepladder": 7792,
  "ĠMadrid": 7793,
  "Ġglimpse": 7794,
  "Ġenglish": 7795,
  "Ġspherical": 7796,
  "Ġbarb": 7797,
  "Ġdil": 7798,
  "Ġdiligent": 7799,
  "Ġdiligently": 7800,
  "Ġ18th": 7801,
  "Ġteeing": 7802,
  "Ġwasn": 7803,
  "Ġwebpage": 7804,
  "Ġstatuette": 7805,
  "Ġgeisha": 7806,
  "Mambo": 7807,
  "Will": 7808,
  "Ġdocuments": 7809,
  "Ġjukebox": 7810,
  "Ġconduct": 7811,
  "Ġsoccor": 7812,
  "Ġblading": 7813,
  "Ġstepped": 7814,
  "Ġpawing": 7815,
  "Ġpinestraw": 7816,
  "Crash": 7817,
  "Ġinlets": 7818,
  "Facing": 7819,
  "Ġdescendant": 7820,
  "Ġcranber": 7821,
  "Ġcranberries": 7822,
  "nible": 7823,
  "Ġdiscernible": 7824,
  "culent": 7825,
  "ucculent": 7826,
  "Ġsucculent": 7827,
  "Ġgreed": 7828,
  "ĠTile": 7829,
  "Ġexperts": 7830,
  "Ġpugs": 7831,
  "oia": 7832,
  "Ġsequoia": 7833,
  "Ġyield": 7834,
  "Ġstoppers": 7835,
  "Highland": 7836,
  "IFA": 7837,
  "ĠFIFA": 7838,
  "Ġespn": 7839,
  "Ġavidly": 7840,
  "friendly": 7841,
  "ĠHond": 7842,
  "ĠHonda": 7843,
  "due": 7844,
  "Ġsubdue": 7845,
  "ĠDoberman": 7846,
  "Ġdge": 7847,
  "IL": 7848,
  "ILDING": 7849,
  "BUILDING": 7850,
  "ĠAv": 7851,
  "ĠAvai": 7852,
  "ĠL6": 7853,
  "ĠL6H": 7854,
  "320": 7855,
  "Ġrein": 7856,
  "Pooh": 7857,
  "nie": 7858,
  "ĠConnie": 7859,
  "Ġscorching": 7860,
  "Ġbarettes": 7861,
  "ĠPremier": 7862,
  "Ġbullpen": 7863,
  "UD": 7864,
  "UDAN": 7865,
  "ĠSUDAN": 7866,
  "Ġhelplessly": 7867,
  "Ġdecrepitness": 7868,
  "casins": 7869,
  "Ġmoccasins": 7870,
  "faced": 7871,
  "Ġordained": 7872,
  "Ġluxurious": 7873,
  "Blockbuster": 7874,
  "November": 7875,
  "ĠRing": 7876,
  "Different": 7877,
  "brick": 7878,
  "Ġinertia": 7879,
  "ĠSwitzer": 7880,
  "ĠSwitzerland": 7881,
  "lornly": 7882,
  "Ġforlornly": 7883,
  "Ġowls": 7884,
  "Stretched": 7885,
  "Ġinternal": 7886,
  "Ġfusing": 7887,
  "Ġplunge": 7888,
  "Toys": 7889,
  "Ġcelebrities": 7890,
  "Luca": 7891,
  "ĠLife": 7892,
  "ĠFit": 7893,
  "ĠFitness": 7894,
  "Ġdocument": 7895,
  "Ġexpectantly": 7896,
  "ĠReligion": 7897,
  "Ġgrandma": 7898,
  "Ġunisex": 7899,
  "Ġfaucet": 7900,
  "ĠAustralia": 7901,
  "Ġtoddling": 7902,
  "ĠTianan": 7903,
  "ĠTiananmen": 7904,
  "ĠMao": 7905,
  "ĠZedong": 7906,
  "Ġjudging": 7907,
  "Ġbermud": 7908,
  "Ġbermuda": 7909,
  "Ġcheckpoint": 7910,
  "ĠGalina": 7911,
  "ĠInga": 7912,
  "Ġfireplug": 7913,
  "mounted": 7914,
  "Ġbrazier": 7915,
  "ĠTanning": 7916,
  "ĠWaves": 7917,
  "ĠBunch": 7918,
  "Ġberries": 7919,
  "Ġ75": 7920,
  "unk": 7921,
  "Ġskunk": 7922,
  "Ġnissan": 7923,
  "ĠAltima": 7924,
  "Ġinsulated": 7925,
  "aclette": 7926,
  "ĠRaclette": 7927,
  "comedians": 7928,
  "trimmed": 7929,
  "Ġsecures": 7930,
  "Ġorbs": 7931,
  "ĠLexmark": 7932,
  "Ġmagnifier": 7933,
  "Ġsliver": 7934,
  "Ġsepia": 7935,
  "ĠRight": 7936,
  "uliar": 7937,
  "Ġpeculiar": 7938,
  "Ġfiddle": 7939,
  "Ġ108": 7940,
  "Ġeyelid": 7941,
  "Ġsuction": 7942,
  "Ġcutters": 7943,
  "liqu": 7944,
  "liquid": 7945,
  "ĠLargo": 7946,
  "Ġgutters": 7947,
  "Ġballplayer": 7948,
  "Partially": 7949,
  "ĠWagamama": 7950,
  "SUN": 7951,
  "AMSUN": 7952,
  "ĠSAMSUN": 7953,
  "ĠSAMSUNG": 7954,
  "Ġseductive": 7955,
  "Ġjewish": 7956,
  "Ġexperiencing": 7957,
  "Ġsequin": 7958,
  "Ġpug": 7959,
  "ĠZZ": 7960,
  "ĠTop": 7961,
  "Ġweeks": 7962,
  "Ġdisappro": 7963,
  "Ġdisapproving": 7964,
  "houttes": 7965,
  "Sillhouttes": 7966,
  "Ġabseiling": 7967,
  "ĠFiesta": 7968,
  "Ġtarnished": 7969,
  "mx": 7970,
  "Ġbmx": 7971,
  "armulke": 7972,
  "ĠYarmulke": 7973,
  "Ġpostcards": 7974,
  "tting": 7975,
  "Ġhtting": 7976,
  "ĠLEG": 7977,
  "ĠLEGO": 7978,
  "ĠHang": 7979,
  "ĠGlide": 7980,
  "ĠVagabond": 7981,
  "ĠDinner": 7982,
  "ĠMur": 7983,
  "phy": 7984,
  "ĠMurphy": 7985,
  "ĠToshib": 7986,
  "ĠToshiba": 7987,
  "South": 7988,
  "Sandy": 7989,
  "ummerbunds": 7990,
  "Ġcummerbunds": 7991,
  "Ġneckerchiefs": 7992,
  "wach": 7993,
  "gwach": 7994,
  "gwacht": 7995,
  "ĠBergwacht": 7996,
  "Ġ1970s": 7997,
  "Tipton": 7998,
  "Ġ103": 7999,
  "ĠBowler": 8000,
  "Ġsuntan": 8001,
  "Ġbulletproof": 8002,
  "ĠNurs": 8003,
  "ĠNursing": 8004,
  "ĠIdol": 8005,
  "ĠRobert": 8006,
  "ĠHarry": 8007,
  "ĠTaylor": 8008,
  "Ġattracted": 8009,
  "Ġrefinished": 8010,
  "Other": 8011,
  "Ġtoddles": 8012,
  "Silver": 8013,
  "Pon": 8014,
  "Poncho": 8015,
  "OPLE": 8016,
  "ĠPE": 8017,
  "ĠPEOPLE": 8018,
  "55": 8019,
  "Ġpm": 8020,
  "IM": 8021,
  "IMENT": 8022,
  "BATIMENT": 8023,
  "IT": 8024,
  "BIT": 8025,
  "BLE": 8026,
  "BITA": 8027,
  "ABITA": 8028,
  "ABITABLE": 8029,
  "HABITABLE": 8030,
  "ĠINHABITABLE": 8031,
  "Skateboard": 8032,
  "ĠKwon": 8033,
  "Ġobviously": 8034,
  "Ġmetalwork": 8035,
  "pick": 8036,
  "Ġtoothpick": 8037,
  "exer": 8038,
  "exercising": 8039,
  "Ġbookshelf": 8040,
  "ĠSprite": 8041,
  "Ġcondolences": 8042,
  "Ġpossibility": 8043,
  "Ġinterrupt": 8044,
  "GE": 8045,
  "OLLE": 8046,
  "COLLE": 8047,
  "COLLEGE": 8048,
  "GT": 8049,
  "ĠKRU": 8050,
  "ĠKRUGT": 8051,
  "ĠDINER": 8052,
  "ĠDINERS": 8053,
  "ĠEN": 8054,
  "Ġ%\"": 8055,
  "Ġbudweiser": 8056,
  "Ġinvolve": 8057,
  "Ġkakhi": 8058,
  "AMA": 8059,
  "MAMA": 8060,
  "ĠMIA": 8061,
  "Ġunenthusiastic": 8062,
  "ongsan": 8063,
  "ĠYongsan": 8064,
  "ĠLibrary": 8065,
  "astern": 8066,
  "Eastern": 8067,
  "Ġ363": 8068,
  "Ġranks": 8069,
  "Ġcami": 8070,
  "Ġupfront": 8071,
  "olleyball": 8072,
  "Volleyball": 8073,
  "Rain": 8074,
  "Rainforest": 8075,
  "shepherd": 8076,
  "Ġ4x4": 8077,
  "Ġ78": 8078,
  "Ġthanks": 8079,
  "Ġobliv": 8080,
  "Ġoblivious": 8081,
  "Promotion": 8082,
  "Ġinstrumentalists": 8083,
  "Ġtriumphal": 8084,
  "ĠKhaki": 8085,
  "Ġfingerhold": 8086,
  "Ġurn": 8087,
  "ĠUs": 8088,
  "Ġreflexes": 8089,
  "Ġchampionship": 8090,
  "Ġsteamroller": 8091,
  "Ġthreshing": 8092,
  "ĠOrioles": 8093,
  "Italiano": 8094,
  "ĠLaF": 8095,
  "ĠLaFayette": 8096,
  "endo": 8097,
  "ĠKendo": 8098,
  "ĠWiscons": 8099,
  "ĠWisconsin": 8100,
  "TEP": 8101,
  "ĠUTEP": 8102,
  "ĠDEMOS": 8103,
  "ARAH": 8104,
  "SARAH": 8105,
  "ĠRefWorkss": 8106,
  "ĠcOS": 8107,
  "ultuous": 8108,
  "Ġtumultuous": 8109,
  "Ah": 8110,
  "Ġregatta": 8111,
  "Ġigloo": 8112,
  "Ġsowing": 8113,
  "Ġrattle": 8114,
  "Ġappended": 8115,
  "conducting": 8116,
  "ildren": 8117,
  "CHildren": 8118,
  "Ġsundry": 8119,
  "taxi": 8120,
  "ĠUnderground": 8121,
  "ĠManchester": 8122,
  "Ġjeepney": 8123,
  "Ġprocessing": 8124,
  "Ġfried": 8125,
  "Ġdulcimer": 8126,
  "ĠTigger": 8127,
  "Ġdiabolo": 8128,
  "Trolleys": 8129,
  "Ġdogwood": 8130,
  "Playboy": 8131,
  "Feelings": 8132,
  "GI": 8133,
  "ĠTGI": 8134,
  "ĠFridays": 8135,
  "Ġrepresented": 8136,
  "Ġcolosseum": 8137,
  "Ġfalcon": 8138,
  "Ġmeditation": 8139,
  "Ġrepo": 8140,
  "Ġovercrowded": 8141,
  "razilian": 8142,
  "Brazilian": 8143,
  "Ġarmrest": 8144,
  "Ġtwirl": 8145,
  "Blackberry": 8146,
  "ĠEnd": 8147,
  "Ġbrulee": 8148,
  "Figures": 8149,
  "Hillary": 8150,
  "Ġaggressive": 8151,
  "Ġbackhand": 8152,
  "Ġcaptivated": 8153,
  "waisted": 8154,
  "Ġbeehive": 8155,
  "Grill": 8156,
  "roofing": 8157,
  "ĠBohemian": 8158,
  "Ġaerobic": 8159,
  "Tons": 8160,
  "Cameramen": 8161,
  "uy": 8162,
  "ĠBuy": 8163,
  "ĠGee": 8164,
  "ĠGeek": 8165,
  "orvete": 8166,
  "Sorvete": 8167,
  "ĠGelados": 8168,
  "ĠNicola": 8169,
  "ĠNicolau": 8170,
  "ĠTy": 8171,
  "ĠTyrolean": 8172,
  "Ġwedge": 8173,
  "Ġblindly": 8174,
  "Ġintrigued": 8175,
  "helmeted": 8176,
  "Ġghostlike": 8177,
  "Ġswank": 8178,
  "ĠCrossfit": 8179,
  "VS": 8180,
  "MMVS": 8181,
  "ĠLMMVS": 8182,
  "ĠLMMVSD": 8183,
  "Ġnois": 8184,
  "Ġnoisy": 8185,
  "Ġcraftsmen": 8186,
  "Ġwaterbed": 8187,
  "52": 8188,
  "Ġstatuesque": 8189,
  "Ġlifeboat": 8190,
  "Pan": 8191,
  "ĠDodgers": 8192,
  "baseman": 8193,
  "Ġpopped": 8194,
  "ĠPix": 8195,
  "ĠPixar": 8196,
  "Ġ06": 8197,
  "Ġ060": 8198,
  "ĠDobos": 8199,
  "Ġartifcial": 8200,
  "Washington": 8201,
  "Ġcauliflower": 8202,
  "ississ": 8203,
  "pi": 8204,
  "Mississ": 8205,
  "Mississip": 8206,
  "Mississippi": 8207,
  "glo": 8208,
  "ĠBakers": 8209,
  "ĠBakersfield": 8210,
  "Ġpudgy": 8211,
  "Ġnervous": 8212,
  "NYC": 8213,
  "ĠTaxi": 8214,
  "Boat": 8215,
  "ĠVienna": 8216,
  "Ġaimless": 8217,
  "Ġaimlessly": 8218,
  "ĠNFL": 8219,
  "ĠPS3": 8220,
  "Post": 8221,
  "Ġsuck": 8222,
  "ĠBishop": 8223,
  "Ġshowcas": 8224,
  "Ġshowcasing": 8225,
  "Ġnautical": 8226,
  "Ġcomprising": 8227,
  "ĠTexans": 8228,
  "ĠNFC": 8229,
  "ĠMinnesota": 8230,
  "ĠHand": 8231,
  "Ġprepossess": 8232,
  "Ġprepossessing": 8233,
  "Ġhitter": 8234,
  "Ġtableau": 8235,
  "Ġdikes": 8236,
  "Possibly": 8237,
  "drunk": 8238,
  "Ġhubcap": 8239,
  "Face": 8240,
  "TheFace": 8241,
  "TheFaceShop": 8242,
  "Ġwindup": 8243,
  "Teen": 8244,
  "SOme": 8245,
  "ansa": 8246,
  "ĠHansa": 8247,
  "Ġexplos": 8248,
  "Ġexplosion": 8249,
  "afe": 8250,
  "Safe": 8251,
  "Ġalgae": 8252,
  "tsburgh": 8253,
  "ittsburgh": 8254,
  "ĠPittsburgh": 8255,
  "Ġtattooing": 8256,
  "Scrambler": 8257,
  "ĠIreland": 8258,
  "Ġcurrycombs": 8259,
  "Ġjaywalk": 8260,
  "Lille": 8261,
  "Ġoutstretches": 8262,
  "eebok": 8263,
  "Reebok": 8264,
  "anker": 8265,
  "ĠWanker": 8266,
  "ĠCarnival": 8267,
  "Ġresidence": 8268,
  "Ġ2e": 8269,
  "Ġ2e3": 8270,
  "ĠNigerians": 8271,
  "Birds": 8272,
  "Ġfleeing": 8273,
  "ĠEcho": 8274,
  "ĠBattal": 8275,
  "ĠBattalion": 8276,
  "ĠCrew": 8277,
  "Ġconfident": 8278,
  "ĠPescaderia": 8279,
  "bulbs": 8280,
  "Ġlightbulbs": 8281,
  "Ġcaressing": 8282,
  "Ġsoftly": 8283,
  "totter": 8284,
  "Ġfirehouse": 8285,
  "ĠSnoopy": 8286,
  "crashing": 8287,
  "Rams": 8288,
  "Ġtemporarily": 8289,
  "fun": 8290,
  "Ġmalfun": 8291,
  "Ġmalfunctions": 8292,
  "95": 8293,
  "Ġ0095": 8294,
  "Ġgrenade": 8295,
  "ĠEmergency": 8296,
  "BUC": 8297,
  "AMBUC": 8298,
  "ĠLion": 8299,
  "unburned": 8300,
  "Sunburned": 8301,
  "Ġrapper": 8302,
  "Ġmonochromatic": 8303,
  "ĠEnter": 8304,
  "berlin": 8305,
  "mandu": 8306,
  "Ġkathmandu": 8307,
  "Distinguished": 8308,
  "Ġguidewire": 8309,
  "Helmeted": 8310,
  "ĠTubeL": 8311,
  "ĠTubeLine": 8312,
  "ĠQuatt": 8313,
  "ĠQuattro": 8314,
  "Ġreefs": 8315,
  "Ġfris": 8316,
  "Ġfrisked": 8317,
  "Ġ7th": 8318,
  "Ġbicyler": 8319,
  "Ġbellboy": 8320,
  "Ġowl": 8321,
  "Ġwidespread": 8322,
  "Ġobvious": 8323,
  "Radio": 8324,
  "Row": 8325,
  "Ġ161": 8326,
  "Ġkiteboarding": 8327,
  "Teaching": 8328,
  "Ġcreative": 8329,
  "iddling": 8330,
  "Ġfiddling": 8331,
  "ĠSonoma": 8332,
  "ĠTiger": 8333,
  "ĠSamurai": 8334,
  "grow": 8335,
  "growth": 8336,
  "Ġdiscomfort": 8337,
  "Waiters": 8338,
  "HENA": 8339,
  "ĠATHENA": 8340,
  "uffling": 8341,
  "Ġshuffling": 8342,
  "zone": 8343,
  "Ġcalzone": 8344,
  "Ġhippy": 8345,
  "Ġterrorist": 8346,
  "ĠJewelry": 8347,
  "ĠTrans": 8348,
  "ĠTransformers": 8349,
  "Ġkabob": 8350,
  "Ġdrips": 8351,
  "Camera": 8352,
  "World": 8353,
  "ĠII": 8354,
  "ĠJoplin": 8355,
  "Ġshowgirl": 8356,
  "Ġenergetic": 8357,
  "Ġmaternal": 8358,
  "Scraggly": 8359,
  "Ġthighs": 8360,
  "Ġcourtesy": 8361,
  "Ġcorporation": 8362,
  "Ġtrowels": 8363,
  "Ġuproariously": 8364,
  "Ġunderpants": 8365,
  "Ġnotch": 8366,
  "Ġmesmerized": 8367,
  "Ġfrail": 8368,
  "Ġcautious": 8369,
  "egetables": 8370,
  "Vegetables": 8371,
  "Ġforcing": 8372,
  "hoodie": 8373,
  "Ġgroove": 8374,
  "Ġreadied": 8375,
  "Ġobscure": 8376,
  "ĠKet": 8377,
  "ĠKettle": 8378,
  "Ġcaddy": 8379,
  "Ġmigrant": 8380,
  "grassy": 8381,
  "Make": 8382,
  "Ġmelancholic": 8383,
  "ĠFilosof": 8384,
  "ĠFilosofie": 8385,
  "ĠClinton": 8386,
  "Ġclowds": 8387,
  "Ġportfolio": 8388,
  "ĠBra": 8389,
  "ĠBraun": 8390,
  "Ġimpression": 8391,
  "Ġfootrest": 8392,
  "Ġzepra": 8393,
  "Ġrubbish": 8394,
  "Ġsupply": 8395,
  "Ġvoicing": 8396,
  "Ġcymbals": 8397,
  "riloquist": 8398,
  "Ġventriloquist": 8399,
  "Bicyclists": 8400,
  "Employees": 8401,
  "fiving": 8402,
  "uscular": 8403,
  "Muscular": 8404,
  "Arrivo": 8405,
  "Ġpenalty": 8406,
  "Ġdistributed": 8407,
  "ĠOU": 8408,
  "ĠOtis": 8409,
  "Ġgaucho": 8410,
  "Ġhandgun": 8411,
  "Ġdifficult": 8412,
  "Ġflagpole": 8413,
  "trada": 8414,
  "Entrada": 8415,
  "ĠEgg": 8416,
  "Ġencounters": 8417,
  "Ġdrew": 8418,
  "Mother": 8419,
  "Ġjodh": 8420,
  "purs": 8421,
  "Ġjodhpurs": 8422,
  "Ġarc": 8423,
  "Ġneckless": 8424,
  "Foot": 8425,
  "Footprints": 8426,
  "twirl": 8427,
  "Ġcompress": 8428,
  "Ġcompressing": 8429,
  "Ġoutspread": 8430,
  "Ġfridge": 8431,
  "Ġfifteen": 8432,
  "Ġmercedes": 8433,
  "Ġaggres": 8434,
  "Ġaggresively": 8435,
  "Ġheadquarters": 8436,
  "Ġblake": 8437,
  "Ġsnoozing": 8438,
  "Ġinland": 8439,
  "Ġpewter": 8440,
  "Ġshopper": 8441,
  "Ġunpleas": 8442,
  "Ġunpleasant": 8443,
  "Ġrearview": 8444,
  "shr": 8445,
  "shrt": 8446,
  "Ġ5k": 8447,
  "Ġmulticultural": 8448,
  "dall": 8449,
  "nsdall": 8450,
  "ĠBarnsdall": 8451,
  "Ġtrowel": 8452,
  "Ġinscriptions": 8453,
  "Ġdrizz": 8454,
  "Ġdrizzling": 8455,
  "ĠIsuzu": 8456,
  "hausser": 8457,
  "ĠDalhausser": 8458,
  "Ġcreator": 8459,
  "ĠBaskin": 8460,
  "bbins": 8461,
  "ĠRobbins": 8462,
  "Ġmidfield": 8463,
  "splashed": 8464,
  "Ġcadence": 8465,
  "Ġtexaco": 8466,
  "YES": 8467,
  "ĠMR": 8468,
  "ĠPRES": 8469,
  "ĠPRESID": 8470,
  "ĠPRESIDENT": 8471,
  "ĠLET": 8472,
  "ĠBR": 8473,
  "ĠBRING": 8474,
  "ĠHONES": 8475,
  "ĠHONEST": 8476,
  "ĠTO": 8477,
  "pop": 8478,
  "populated": 8479,
  "Ġinvade": 8480,
  "Ġcompute": 8481,
  "Ġ3646": 8482,
  "ĠRican": 8483,
  "Ġexpos": 8484,
  "Ġexposure": 8485,
  "Ġbackgammon": 8486,
  "ĠTrader": 8487,
  "Ġhayride": 8488,
  "Ġwholesale": 8489,
  "ĠAngry": 8490,
  "Overweight": 8491,
  "Ġmidriffs": 8492,
  "Ġspokes": 8493,
  "urly": 8494,
  "Curly": 8495,
  "Ġbarrett": 8496,
  "Adventure": 8497,
  "ĠIsland": 8498,
  "bbled": 8499,
  "cobbled": 8500,
  "Ġregalia": 8501,
  "Ġpoached": 8502,
  "ĠMatt": 8503,
  "ĠNevada": 8504,
  "ĠApril": 8505,
  "Ġstartlingly": 8506,
  "Ġ180": 8507,
  "ĠWestern": 8508,
  "ĠSahara": 8509,
  "Ġinscription": 8510,
  "Ġstoppie": 8511,
  "Mariachi": 8512,
  "YCLE": 8513,
  "ĠCYCLE": 8514,
  "stripe": 8515,
  "Ġpepsi": 8516,
  "Ġpressurized": 8517,
  "Ġworshippers": 8518,
  "Ġfortune": 8519,
  "ĠGrandmas": 8520,
  "Ġshortboarders": 8521,
  "Ġrobust": 8522,
  "almost": 8523,
  "Ġ+": 8524,
  "Ġnibbles": 8525,
  "Ġedgy": 8526,
  "Ġrainproof": 8527,
  "ĠPups": 8528,
  "ĠBirth": 8529,
  "ĠBirthday": 8530,
  "ĠQuinn": 8531,
  "Truth": 8532,
  "Ġintended": 8533,
  "Ġphysiques": 8534,
  "Ġuncon": 8535,
  "cerned": 8536,
  "Ġunconcerned": 8537,
  "ĠHaiti": 8538,
  "Ġmoniter": 8539,
  "trance": 8540,
  "ĠEntrance": 8541,
  "reducing": 8542,
  "Ġcontrast": 8543,
  "Ġmyriad": 8544,
  "Ġstunning": 8545,
  "ircus": 8546,
  "Circus": 8547,
  "Ġsaxophon": 8548,
  "Ġsaxophonist": 8549,
  "ĠAudrey": 8550,
  "ĠHepbur": 8551,
  "ĠHepburn": 8552,
  "viz": 8553,
  "zance": 8554,
  "enzance": 8555,
  "ĠPenzance": 8556,
  "Ġalternating": 8557,
  "Ġentwined": 8558,
  "hinx": 8559,
  "Ġsphinx": 8560,
  "ĠAber": 8561,
  "ĠAbercrombie": 8562,
  "ĠDumbo": 8563,
  "Ġpreviously": 8564,
  "Ġyogurt": 8565,
  "Ġunderbrush": 8566,
  "Ġmajestic": 8567,
  "Mixed": 8568,
  "ĠLivingstone": 8569,
  "Ġexcavating": 8570,
  "sentence": 8571,
  "Wo": 8572,
  "TWo": 8573,
  "Rex": 8574,
  "OK": 8575,
  "ĠTonka": 8576,
  "Ġparachutist": 8577,
  "War": 8578,
  "ĠIMP": 8579,
  "ĠIMPEA": 8580,
  "ĠIMPEACH": 8581,
  "Ġwindowing": 8582,
  "Ġmishap": 8583,
  "ĠYW": 8584,
  "ĠYWCA": 8585,
  "Ġpretzel": 8586,
  "cheeky": 8587,
  "Ġauction": 8588,
  "Ġfreckles": 8589,
  "ĠSysco": 8590,
  "Biker": 8591,
  "ĠChemistry": 8592,
  "Ġschoolboy": 8593,
  "ulcan": 8594,
  "Ġavro": 8595,
  "Ġavrov": 8596,
  "Ġavrovulcan": 8597,
  "Ġfossils": 8598,
  "Ġbiek": 8599,
  "Ġsullen": 8600,
  "Ġbuddy": 8601,
  "Ġbullfighting": 8602,
  "Ġbullfighter": 8603,
  "Chairs": 8604,
  "quette": 8605,
  "ĠMarquette": 8606,
  "ĠMadison": 8607,
  "ĠGarden": 8608,
  "ĠTournament": 8609,
  "ĠCrusaders": 8610,
  "ĠRal": 8611,
  "ph": 8612,
  "ĠRalph": 8613,
  "ĠWiggum": 8614,
  "bardi": 8615,
  "ĠLombardi": 8616,
  "WAN": 8617,
  "ĠSWAN": 8618,
  "Ġhitchhiking": 8619,
  "ĠWarped": 8620,
  "Ġsimply": 8621,
  "And": 8622,
  "ĠSamba": 8623,
  "ifa": 8624,
  "ĠFifa": 8625,
  "Village": 8626,
  "three": 8627,
  "Ġloincloths": 8628,
  "Ġdaschund": 8629,
  "Ġunexcited": 8630,
  "Lucky": 8631,
  "Ġconsist": 8632,
  "Ġarmful": 8633,
  "Age": 8634,
  "dressing": 8635,
  "ĠMarching": 8636,
  "Ġdinnerware": 8637,
  "ĠLeppard": 8638,
  "Ġcounterclock": 8639,
  "Ġcounterclockwise": 8640,
  "ĠSavage": 8641,
  "ĠViv": 8642,
  "ĠVivian": 8643,
  "ĠCampbell": 8644,
  "ĠElliot": 8645,
  "ĠPhil": 8646,
  "ĠTriumph": 8647,
  "Ġbrige": 8648,
  "Jenn": 8649,
  "Jennifer": 8650,
  "ĠNettles": 8651,
  "ĠKristin": 8652,
  "ĠSugar": 8653,
  "ĠSugarland": 8654,
  "Ġswig": 8655,
  "Ġdozes": 8656,
  "brev": 8657,
  "breviated": 8658,
  "Ġabbreviated": 8659,
  "Ġcorndogs": 8660,
  "Ġfoldaway": 8661,
  "Ġtaylor": 8662,
  "Ġstraitjacket": 8663,
  "ĠNorthern": 8664,
  "ĠMichigan": 8665,
  "ĠRegional": 8666,
  "Our": 8667,
  "ĠFuture": 8668,
  "Ġperfom": 8669,
  "Ġchipped": 8670,
  "ĠPem": 8671,
  "ĠPemex": 8672,
  "Hors": 8673,
  "Ġpotrait": 8674,
  "ĠOil": 8675,
  "Pair": 8676,
  "Pairs": 8677,
  "SU": 8678,
  "ĠGSU": 8679,
  "Ġhovel": 8680,
  "Ġchrome": 8681,
  "Ġbuoy": 8682,
  "ijer": 8683,
  "eijer": 8684,
  "ĠMeijer": 8685,
  "Ġweigh": 8686,
  "Ġweighs": 8687,
  "Ġscuff": 8688,
  "Ġscuffle": 8689,
  "Ġtranslation": 8690,
  "Cash": 8691,
  "ĠWrap": 8692,
  "Ġaustere": 8693,
  "ĠBav": 8694,
  "ĠBavarian": 8695,
  "Ġsteins": 8696,
  "berfest": 8697,
  "ĠOkto": 8698,
  "ĠOktoberfest": 8699,
  "Glory": 8700,
  "Ġslim": 8701,
  "ĠNews": 8702,
  "Shane": 8703,
  "ĠBattier": 8704,
  "ĠDavonik": 8705,
  "astavowich": 8706,
  "ĠNastavowich": 8707,
  "Ġ2011": 8708,
  "ĠNBA": 8709,
  "ĠSheltie": 8710,
  "Ġnewsie": 8711,
  "Ġfirehose": 8712,
  "Ġincrements": 8713,
  "Ġclippers": 8714,
  "stricken": 8715,
  "Ġhandkerchiefs": 8716,
  "Ġblousy": 8717,
  "Ġspecialty": 8718,
  "Ġcylindrical": 8719,
  "Cu": 8720,
  "Cuido": 8721,
  "Ġabstractly": 8722,
  "Ġsixty": 8723,
  "Ġadversary": 8724,
  "ĠDosas": 8725,
  "ĠBurn": 8726,
  "ĠBurnt": 8727,
  "Ġominous": 8728,
  "Ġfend": 8729,
  "24": 8730,
  "ĠFacebook": 8731,
  "Ġparaphernal": 8732,
  "Ġparaphernalia": 8733,
  "Actors": 8734,
  "Ġcrutch": 8735,
  "Ġtootsie": 8736,
  "Ġpropaganda": 8737,
  "ĠFar": 8738,
  "ĠFargo": 8739,
  "ĠBlowing": 8740,
  "HIP": 8741,
  "PING": 8742,
  "HIPPING": 8743,
  "ĠSHIPPING": 8744,
  "Ġyellowish": 8745,
  "ĠDali": 8746,
  "Ġcarnations": 8747,
  "Ġwaterproofs": 8748,
  "Ġ1102": 8749,
  "umberjack": 8750,
  "Lumberjack": 8751,
  "Ġcarelessly": 8752,
  "Ġtexas": 8753,
  "Ġincred": 8754,
  "Ġincredibly": 8755,
  "Ġattract": 8756,
  "Brass": 8757,
  "Zombies": 8758,
  "Ġresidue": 8759,
  "fry": 8760,
  "ĠBugs": 8761,
  "ĠBunny": 8762,
  "Ġblend": 8763,
  "ĠBike": 8764,
  "ĠPORTO": 8765,
  "More": 8766,
  "farmers": 8767,
  "Trumpet": 8768,
  "Ġcoolness": 8769,
  "Ġoffstage": 8770,
  "ĠFed": 8771,
  "ĠFedEx": 8772,
  "Ġacknowledge": 8773,
  "HOM": 8774,
  "LESS": 8775,
  "HOME": 8776,
  "HOMELESS": 8777,
  "ĠANY": 8778,
  "THING": 8779,
  "ĠANYTHING": 8780,
  "LPS": 8781,
  "ĠHELPS": 8782,
  "Ġarabesque": 8783,
  "Ġreenactment": 8784,
  "Ġshamisen": 8785,
  "Ġsettles": 8786,
  "Ġsubtle": 8787,
  "Ġfrustration": 8788,
  "urn": 8789,
  "ĠTurn": 8790,
  "Ġflows": 8791,
  "Ġartfully": 8792,
  "ĠLifesavers": 8793,
  "ĠPride": 8794,
  "Onlooker": 8795,
  "Ġdrapes": 8796,
  "Ġdownfield": 8797,
  "pagoda": 8798,
  "Appears": 8799,
  "Ġspeculators": 8800,
  "Rop": 8801,
  "Roppolo": 8802,
  "ĠPizzeria": 8803,
  "Ġtwist": 8804,
  "Ġpressing": 8805,
  "HOO": 8806,
  "HOOD": 8807,
  "booths": 8808,
  "ĠHats": 8809,
  "splattered": 8810,
  "..": 8811,
  "Ġ...": 8812,
  "Ġtrellis": 8813,
  "Ġremind": 8814,
  "Ġsacrifices": 8815,
  "Ġswipes": 8816,
  "Ġmadras": 8817,
  "Ġdumbbell": 8818,
  "Ġplaygroud": 8819,
  "Ġequiment": 8820,
  "itamin": 8821,
  "ĠVitamin": 8822,
  "ĠShoppe": 8823,
  "Ġhankie": 8824,
  "Ġbusines": 8825,
  "Artisti": 8826,
  "Ġslapping": 8827,
  "Ġridiculous": 8828,
  "Ġnoseg": 8829,
  "Ġnosegrind": 8830,
  "Ġnegative": 8831,
  "Ġperception": 8832,
  "Ġinflating": 8833,
  "ĠExers": 8834,
  "aucer": 8835,
  "ĠExersaucer": 8836,
  "Ġcarbon": 8837,
  "Ġsatisfaction": 8838,
  "Ġfifty": 8839,
  "Ġamputated": 8840,
  "loitation": 8841,
  "Ġexploitation": 8842,
  "ĠWil": 8843,
  "ĠWilbert": 8844,
  "Ġconserv": 8845,
  "Ġconservatively": 8846,
  "Ġterra": 8847,
  "Ġcotta": 8848,
  "Ġmahogany": 8849,
  "ĠGinobil": 8850,
  "ĠGinobili": 8851,
  "Frog": 8852,
  "Ġdaffodils": 8853,
  "denly": 8854,
  "Ġsud": 8855,
  "Ġsuddenly": 8856,
  "ĠColdtowne": 8857,
  "ĠDV": 8858,
  "ĠDVD": 8859,
  "Ġboxed": 8860,
  "Ġwonderland": 8861,
  "ĠOreo": 8862,
  "Ġdream": 8863,
  "Ġteacup": 8864,
  "Ġuntangles": 8865,
  "Ġgoodies": 8866,
  "Ġkabab": 8867,
  "Ġlemur": 8868,
  "Ġuncrowded": 8869,
  "ĠMondesi": 8870,
  "ĠIslam": 8871,
  "ĠIslamic": 8872,
  ",.": 8873,
  "Ġdiveboard": 8874,
  "Penn": 8875,
  "Ġnightly": 8876,
  "Ġgrimace": 8877,
  "Ġaligning": 8878,
  "Lanterns": 8879,
  "Ġinternet": 8880,
  "Ġpushcart": 8881,
  "Ġfiber": 8882,
  "Ġdiameter": 8883,
  "ĠAntar": 8884,
  "ĠAntarctica": 8885,
  "Qualified": 8886,
  "Bass": 8887,
  "singing": 8888,
  "uzzled": 8889,
  "Puzzled": 8890,
  "Ġgnar": 8891,
  "Ġgnarled": 8892,
  "Ġsuggests": 8893,
  "deserted": 8894,
  "ĠOrient": 8895,
  "Island": 8896,
  "Ġhumvee": 8897,
  "Ġmotionless": 8898,
  "ĠRoad": 8899,
  "ĠRoadWork": 8900,
  "sashed": 8901,
  "Ġbubbling": 8902,
  "99": 8903,
  "Ġlandform": 8904,
  "Piazz": 8905,
  "Piazza": 8906,
  "ĠMiradore": 8907,
  "Ġfanned": 8908,
  "ĠHugs": 8909,
  "Ġbackle": 8910,
  "Ġbacklegs": 8911,
  "ĠOT": 8912,
  "oyal": 8913,
  "Royal": 8914,
  "Ġegret": 8915,
  "Ġquarry": 8916,
  "Oh": 8917,
  "Ġstarlet": 8918,
  "Ġdreadlocked": 8919,
  "ĠGreenpeace": 8920,
  "ĠForce": 8921,
  "Ġdiagnose": 8922,
  "bney": 8923,
  "ĠAbney": 8924,
  "Ġscribbles": 8925,
  "Ġdreary": 8926,
  "Ġgauze": 8927,
  "Palestinian": 8928,
  "ĠInstitute": 8929,
  "ĠDemocracy": 8930,
  "ternet": 8931,
  "ĠInternet": 8932,
  "Ġnarrowly": 8933,
  "Ġtoddle": 8934,
  "ĠTo": 8935,
  "ĠKill": 8936,
  "ĠMockingbird": 8937,
  "Ġconduit": 8938,
  "ĠEden": 8939,
  "Ġoverjoyed": 8940,
  "Ġtoerh": 8941,
  "Ġmeanwhile": 8942,
  "Ġbemused": 8943,
  "Ġrisk": 8944,
  "Ġadmitted": 8945,
  "Ġmerchant": 8946,
  "Ro": 8947,
  "Road": 8948,
  "ĠSnowman": 8949,
  "Ġsupervisor": 8950,
  "Ġhorro": 8951,
  "Ġtipped": 8952,
  "Ġcuddled": 8953,
  "vades": 8954,
  "Ġpervades": 8955,
  "Ġmerge": 8956,
  "Ġblasts": 8957,
  "Ġbreaths": 8958,
  "Ġsuperhero": 8959,
  "NY": 8960,
  "ĠSONY": 8961,
  "Ġ3d": 8962,
  "Ġjeering": 8963,
  "Ġpheasants": 8964,
  "ĠFay": 8965,
  "ĠFayre": 8966,
  "base": 8967,
  "Ġhomebase": 8968,
  "Chris": 8969,
  "Ġblaring": 8970,
  "Ġturbines": 8971,
  "Ġcoddled": 8972,
  "Ġtantrum": 8973,
  "Turbaned": 8974,
  "Ġbeachgoers": 8975,
  "Save": 8976,
  "Ġvapor": 8977,
  "Angry": 8978,
  "Ġglassy": 8979,
  "ĠGutter": 8980,
  "Ġscanning": 8981,
  "Ġobsured": 8982,
  "Ġgrapevines": 8983,
  "Ethnic": 8984,
  "ĠBis": 8985,
  "ĠBisuter": 8986,
  "Volunteers": 8987,
  "Rel": 8988,
  "Religious": 8989,
  "Ġprogram": 8990,
  "Ġjointly": 8991,
  "Observers": 8992,
  "Ġdisgusted": 8993,
  "Nan": 8994,
  "Nancy": 8995,
  "elosi": 8996,
  "ĠPelosi": 8997,
  "Ġlanky": 8998,
  "Ġcapturing": 8999,
  "ĠAc": 9000,
  "ĠAcura": 9001,
  "Ġexhibt": 9002,
  "TAY": 9003,
  "ĠSHING": 9004,
  "ORP": 9005,
  "ĠCORP": 9006,
  "LLEN": 9007,
  "ĠALLEN": 9008,
  "Irish": 9009,
  "Ġunderhand": 9010,
  "ĠYuen": 9011,
  "ĠYuengling": 9012,
  "Ġpantsuit": 9013,
  "First": 9014,
  "ĠConference": 9015,
  "lobal": 9016,
  "ĠGlobal": 9017,
  "Bienven": 9018,
  "Bienvenus": 9019,
  "Ġcolonnade": 9020,
  "Ġstylized": 9021,
  "Ġswat": 9022,
  "Ġunfastened": 9023,
  "Ġloving": 9024,
  "Ġvibrantly": 9025,
  "Ġconnect": 9026,
  "Ġdriftrood": 9027,
  "Ġwring": 9028,
  "Ġ2x4": 9029,
  "Ġhudge": 9030,
  "Ġfarmhands": 9031,
  "Ġstreetcar": 9032,
  "Ġvaughn": 9033,
  "ĠVictoria": 9034,
  "save": 9035,
  "Ġnuzzling": 9036,
  "Ġdials": 9037,
  "Ġtaught": 9038,
  "Ġcupboard": 9039,
  "Mark": 9040,
  "ĠFin": 9041,
  "ĠFinley": 9042,
  "Enrolling": 9043,
  "Benz": 9044,
  "Stevie": 9045,
  "Gladstone": 9046,
  "Ġchuckling": 9047,
  "Ġriffling": 9048,
  "ĠTidy": 9049,
  "igrates": 9050,
  "Ġmigrates": 9051,
  "Ġbloe": 9052,
  "Crazy": 9053,
  "Mar": 9054,
  "Married": 9055,
  "Ġuncle": 9056,
  "ĠBrian": 9057,
  "Ġembarrasses": 9058,
  "ĠCD": 9059,
  "perhaps": 9060,
  "Ġrevolving": 9061,
  "Ġdispersing": 9062,
  "Ġprior": 9063,
  "Ġoverlays": 9064,
  "axe": 9065,
  "Ġresemble": 9066,
  "Ġcollapsable": 9067,
  "Ġdistnat": 9068,
  "ĠDio": 9069,
  "Bleecker": 9070,
  "Ġdeaths": 9071,
  "CLOS": 9072,
  "CLOSE": 9073,
  "CLOSED": 9074,
  "aftig": 9075,
  "Ġzaftig": 9076,
  "Dilapidated": 9077,
  "ĠHD": 9078,
  "ĠHDR": 9079,
  "Fresh": 9080,
  "uicy": 9081,
  "ĠJuicy": 9082,
  "ĠNavel": 9083,
  "groomed": 9084,
  "Ġpuff": 9085,
  "belt": 9086,
  "Ġopinions": 9087,
  "Ġediting": 9088,
  "Ġ70": 9089,
  "Ġ701": 9090,
  "Ġsillhouetted": 9091,
  "Scuba": 9092,
  "Ġextravagantly": 9093,
  "Ġstiffly": 9094,
  "posed": 9095,
  "Ġneurulation": 9096,
  "Uk": 9097,
  "Ukraine": 9098,
  "USA": 9099,
  "String": 9100,
  "Ġmailbag": 9101,
  "Ġkickboxer": 9102,
  "hegan": 9103,
  "ĠMohegan": 9104,
  "Ġthrashes": 9105,
  "Ġprion": 9106,
  "Ġ60th": 9107,
  "ĠUtility": 9108,
  "Ġdimmly": 9109,
  "circularly": 9110,
  "Ġalcove": 9111,
  "Ġdropper": 9112,
  "Menus": 9113,
  "Ġdescribe": 9114,
  "Ġstein": 9115,
  "Ġtrembles": 9116,
  "Tulow": 9117,
  "Tulowitz": 9118,
  "Tulowitzki": 9119,
  "uspended": 9120,
  "suspended": 9121,
  "Ġgadget": 9122,
  "ĠIran": 9123,
  "Ġbombard": 9124,
  "ĠBurger": 9125,
  "Ġpunchbag": 9126,
  "Us": 9127,
  "Usain": 9128,
  "ĠBolt": 9129,
  "Ġslows": 9130,
  "Ġbombs": 9131,
  "ĠStratocaster": 9132,
  "Ġingredient": 9133,
  "Ġlassoing": 9134,
  "Stretching": 9135,
  "Ġvocalizes": 9136,
  "ĠBannister": 9137,
  "eister": 9138,
  "ĠJager": 9139,
  "ĠJagerm": 9140,
  "ĠJagermeister": 9141,
  "dies": 9142,
  "Ġbuddies": 9143,
  "ĠWendy": 9144,
  "Ġannouncer": 9145,
  "ĠSummit": 9146,
  "Ġsmearing": 9147,
  "Ġcrepe": 9148,
  "Ġkorean": 9149,
  "rchestra": 9150,
  "Orchestra": 9151,
  "ĠBry": 9152,
  "ĠBryant": 9153,
  "aa": 9154,
  "uitton": 9155,
  "ĠVuitton": 9156,
  "Mail": 9157,
  "ĠSelek": 9158,
  "tMail": 9159,
  "ĠSelektMail": 9160,
  "Ġappl": 9161,
  "Ġappliance": 9162,
  "ĠMiss": 9163,
  "ĠMission": 9164,
  "ĠPortland": 9165,
  "ĠOregon": 9166,
  "ĠGNC": 9167,
  "Ġ3443": 9168,
  "Ġpompom": 9169,
  "ĠEstacione": 9170,
  "ĠMarl": 9171,
  "ĠMarlboro": 9172,
  "ĠScreaming": 9173,
  "ĠOr": 9174,
  "ĠOrphans": 9175,
  "Ġ134": 9176,
  "Ġ1340": 9177,
  "Ġ13406": 9178,
  "Ġgutter": 9179,
  "Ġcaftan": 9180,
  "Cheerleader": 9181,
  "Ġcurvy": 9182,
  "Jazz": 9183,
  "Ġbeefy": 9184,
  "Ġbounty": 9185,
  "Ġceramic": 9186,
  "Jane": 9187,
  "carrier": 9188,
  "Ġconoe": 9189,
  "Ġacceleration": 9190,
  "Ġconsult": 9191,
  "ĠIkea": 9192,
  "ĠTorch": 9193,
  "Ġpursuing": 9194,
  "Rival": 9195,
  "Ġketch": 9196,
  "Ġketchup": 9197,
  "going": 9198,
  "Ġundergoing": 9199,
  "ĠCaught": 9200,
  "Ġstraddle": 9201,
  "Fast": 9202,
  "Sculptor": 9203,
  "inshasa": 9204,
  "ĠKinshasa": 9205,
  "ĠDemocratic": 9206,
  "ublic": 9207,
  "ĠRepublic": 9208,
  "ĠAsus": 9209,
  "Ġbetbook": 9210,
  "akeboarder": 9211,
  "Wakeboarder": 9212,
  "ĠGrinding": 9213,
  "Ġhte": 9214,
  "ĠNathans": 9215,
  "Jewish": 9216,
  "Ġundercar": 9217,
  "Ġundercarriage": 9218,
  "redators": 9219,
  "ĠPredators": 9220,
  "Ġguinea": 9221,
  "rowing": 9222,
  "Ġburrowing": 9223,
  "Ġtelegraph": 9224,
  "Ġworkbook": 9225,
  "Ġpricing": 9226,
  "Ġbellows": 9227,
  "ishment": 9228,
  "Ġastonishment": 9229,
  "Reporters": 9230,
  "Ġtriathlon": 9231,
  "VAIO": 9232,
  "Ġpickles": 9233,
  "ĠYan": 9234,
  "ĠYankee": 9235,
  "Ġabdom": 9236,
  "Ġabdominal": 9237,
  "Ġprance": 9238,
  "Ġflyaway": 9239,
  "alter": 9240,
  "Walter": 9241,
  "ĠAnne": 9242,
  "Ġfret": 9243,
  "ĠBoulevard": 9244,
  "ĠRoosevelt": 9245,
  "30": 9246,
  "file": 9247,
  "5028": 9248,
  "Ġdividing": 9249,
  "Ġpurposes": 9250,
  "Ġwicketkeeper": 9251,
  "Bus": 9252,
  "Busy": 9253,
  "ĠChinaT": 9254,
  "ĠChinaTown": 9255,
  "Ġinserting": 9256,
  "23": 9257,
  "Ġcurrents": 9258,
  "Alas": 9259,
  "Alaska": 9260,
  "Ġcreepy": 9261,
  "ctopus": 9262,
  "Octopus": 9263,
  "Ġscandal": 9264,
  "Sisters": 9265,
  "Ġnegotiate": 9266,
  "ĠGonzaga": 9267,
  "chucks": 9268,
  "Ġpursing": 9269,
  "Ġbrassiere": 9270,
  "Ġ1st": 9271,
  "ĠSmithson": 9272,
  "ĠSmithsonian": 9273,
  "ĠTv": 9274,
  "Ballplayer": 9275,
  "Ġ63": 9276,
  "Ġcitrus": 9277,
  "Ġwrangle": 9278,
  "Vibrant": 9279,
  "Ġwithdrawing": 9280,
  "Ġwaterski": 9281,
  "Ġcornrows": 9282,
  "Quarterback": 9283,
  "Ġfossil": 9284,
  "Ġinstitutional": 9285,
  "Approximately": 9286,
  "Ġbreakwall": 9287,
  "Ġdiagnostics": 9288,
  "CS": 9289,
  "ĠPCS": 9290,
  "ĠStoneh": 9291,
  "ĠStonehurst": 9292,
  "snow": 9293,
  "Ġlightning": 9294,
  "LB": 9295,
  "ĠMLB": 9296,
  "uicide": 9297,
  "Ġsuicide": 9298,
  "Ġglassses": 9299,
  "ĠMerry": 9300,
  "Ġsnowfield": 9301,
  "Ġfelt": 9302,
  "sponsored": 9303,
  "Ġslitted": 9304,
  "Ġ43": 9305,
  "Di": 9306,
  "DiPA": 9307,
  "DiPAOLA": 9308,
  "ĠTURK": 9309,
  "ĠTURKE": 9310,
  "ĠTURKEY": 9311,
  "ĠFAR": 9312,
  "ĠFARM": 9313,
  "ffie": 9314,
  "ĠEffie": 9315,
  "Against": 9316,
  "ĠNik": 9317,
  "ĠNikon": 9318,
  "candidly": 9319,
  "Ġcuffed": 9320,
  "Ġheterosexual": 9321,
  "Ġliquidation": 9322,
  "Ġribbed": 9323,
  "Turf": 9324,
  "ĠAstro": 9325,
  "ĠAstroTurf": 9326,
  "Ġovergrown": 9327,
  "Ġsyllables": 9328,
  "Ġhurridly": 9329,
  "Ġdescribing": 9330,
  "Volunteer": 9331,
  "ĠDucati": 9332,
  "ĠUPS": 9333,
  "Ġ58": 9334,
  "through": 9335,
  "Ġthro": 9336,
  "Ġthroes": 9337,
  "ĠNissan": 9338,
  "Chubby": 9339,
  "ON": 9340,
  "ĠTHE": 9341,
  "XX": 9342,
  "ĠROXX": 9343,
  "Migrant": 9344,
  "ĠCampus": 9345,
  "bad": 9346,
  "badge": 9347,
  "ĠBible": 9348,
  "ĠRaiders": 9349,
  "ĠDolphins": 9350,
  "visible": 9351,
  "invisible": 9352,
  "Kart": 9353,
  "ĠGoKart": 9354,
  "ĠColonia": 9355,
  "ĠBroadway": 9356,
  "ĠRite": 9357,
  "ĠPharmacy": 9358,
  "Baskets": 9359,
  "ĠArmenian": 9360,
  "Ġstamina": 9361,
  "Ġcaravan": 9362,
  "Ġflatly": 9363,
  "Ġtiretracks": 9364,
  "Ġpf": 9365,
  "Malaysia": 9366,
  "ĠMavic": 9367,
  "ĠKimono": 9368,
  "crossbones": 9369,
  "starve": 9370,
  "Cas": 9371,
  "Casually": 9372,
  "Ġdownt": 9373,
  "rodden": 9374,
  "Ġdowntrodden": 9375,
  "Ġsesame": 9376,
  "Ġwedgie": 9377,
  "Ġedifice": 9378,
  "Ġstrengths": 9379,
  "FF": 9380,
  "FFI": 9381,
  "FFIC": 9382,
  "RAFFIC": 9383,
  "TRAFFIC": 9384,
  "quik": 9385,
  "ĠNesquik": 9386,
  "bannered": 9387,
  "Ġchemise": 9388,
  "Ġtranslucent": 9389,
  "Ġalternatively": 9390,
  "Ġstirrups": 9391,
  "Bagpipes": 9392,
  "Ġegde": 9393,
  "Detroit": 9394,
  "Gaily": 9395,
  "ĠUNO": 9396,
  "Ġyellows": 9397,
  "Ġsnuggle": 9398,
  "ĠTime": 9399,
  "glider": 9400,
  "ucumber": 9401,
  "Ġcucumber": 9402,
  "Prince": 9403,
  "ĠFielder": 9404,
  "wa": 9405,
  "ĠMil": 9406,
  "ĠMilwa": 9407,
  "ukee": 9408,
  "ĠMilwaukee": 9409,
  "ĠBrewers": 9410,
  "ĠCarlos": 9411,
  "ĠRu": 9412,
  "ĠRuiz": 9413,
  "jured": 9414,
  "Injured": 9415,
  "ĠAID": 9416,
  "Ġprotruding": 9417,
  "nhard": 9418,
  "ĠEarnhard": 9419,
  "ĠEarnhardt": 9420,
  "ĠJr": 9421,
  ".,": 9422,
  "Ġroundabout": 9423,
  "ĠDeveraux": 9424,
  "SB": 9425,
  "SBC": 9426,
  "HSBC": 9427,
  "Ġexertion": 9428,
  "Ġprostrate": 9429,
  "Ġgutsy": 9430,
  "Ġrenov": 9431,
  "Ġrenovating": 9432,
  "Ġprepping": 9433,
  "Ġsmelly": 9434,
  "Ġcarnation": 9435,
  "Striding": 9436,
  "Ġinterestingly": 9437,
  "ĠCharging": 9438,
  "ĠBowling": 9439,
  "hattan": 9440,
  "ĠManhattan": 9441,
  "Ġorangesunset": 9442,
  "Ġcolorless": 9443,
  "Ġbassinet": 9444,
  "Ġmarquis": 9445,
  "ĠHill": 9446,
  "Ġeasily": 9447,
  "Blurry": 9448,
  "Ġdries": 9449,
  "Ġdazzling": 9450,
  "Ġhairbrush": 9451,
  "Sixteen": 9452,
  "Ġ156": 9453,
  "ĠBarber": 9454,
  "ĠDonut": 9455,
  "Ġcandied": 9456,
  "Ġcoleus": 9457,
  "Ġexerting": 9458,
  "Climbing": 9459,
  "life": 9460,
  "Ġurgent": 9461,
  "Ġurgently": 9462,
  "Ġvalve": 9463,
  "Ġupturned": 9464,
  "FB": 9465,
  "FBK": 9466,
  "KFBK": 9467,
  "Ġlava": 9468,
  "Ġgaurd": 9469,
  "Ġ80": 9470,
  "Ġ8026": 9471,
  "Ġchews": 9472,
  "Ġsnowf": 9473,
  "Ġsnowflakes": 9474,
  "ĠPy": 9475,
  "ĠPyran": 9476,
  "ĠPyranha": 9477,
  "Ġterrified": 9478,
  "Ġterrifying": 9479,
  "Ġ541": 9480,
  "Ġijs": 9481,
  "web": 9482,
  "usband": 9483,
  "Husband": 9484,
  "Puffy": 9485,
  "pretive": 9486,
  "Ġinterpretive": 9487,
  "usally": 9488,
  "Ġcausally": 9489,
  "Ġpoem": 9490,
  "Ġpunter": 9491,
  "Ġexaminations": 9492,
  "Ġvisibly": 9493,
  "Pale": 9494,
  "Ġlodge": 9495,
  "brooms": 9496,
  "Ġunfurnished": 9497,
  "ĠGreenb": 9498,
  "ĠGreenbay": 9499,
  "ĠJasm": 9500,
  "ĠJasmine": 9501,
  "Ġkeb": 9502,
  "Ġkebabs": 9503,
  "strich": 9504,
  "ĠOstrich": 9505,
  "Ġpetterned": 9506,
  "ĠMuseumsbutik": 9507,
  "ĠMuseumsbutikken": 9508,
  "isterously": 9509,
  "Ġboisterously": 9510,
  "Ġdalmatian": 9511,
  "ĠAfghan": 9512,
  "Ġpinches": 9513,
  "frame": 9514,
  "Traveling": 9515,
  "Bowls": 9516,
  "umBowls": 9517,
  "umY": 9518,
  "ĠYumY": 9519,
  "ĠYumYumBowls": 9520,
  "ĠLouisville": 9521,
  "ĠStatue": 9522,
  "ĠLiberty": 9523,
  "Ġrainbows": 9524,
  "Ġunderfoot": 9525,
  "Ġcommence": 9526,
  "Ever": 9527,
  "Ġpinball": 9528,
  "Ġcontractor": 9529,
  "rank": 9530,
  "Ġdrank": 9531,
  "Ġchurning": 9532,
  "ĠPiz": 9533,
  "ĠPiza": 9534,
  "Hairdressers": 9535,
  "uetted": 9536,
  "Ġsiloh": 9537,
  "Ġsilohuetted": 9538,
  "Ġscraggly": 9539,
  "ĠCarmel": 9540,
  "Ġ302": 9541,
  "ĠLiverp": 9542,
  "ĠLiverpool": 9543,
  "Emergency": 9544,
  "ĠMedical": 9545,
  "caution": 9546,
  "Ġplucking": 9547,
  "Ġladybug": 9548,
  "Grinning": 9549,
  "ĠOakland": 9550,
  "ĠAthletics": 9551,
  "ĠWagner": 9552,
  "Ġdeployment": 9553,
  "ĠClouds": 9554,
  "ĠGe": 9555,
  "ĠGeico": 9556,
  "Ġ65": 9557,
  "Ġsudsy": 9558,
  "Ġwaterhole": 9559,
  "Ġbilliard": 9560,
  "rency": 9561,
  "Ġcurrency": 9562,
  "Ġmanning": 9563,
  "Israel": 9564,
  "ĠTerrorism": 9565,
  "ĠCreation": 9566,
  "Walking": 9567,
  "iniscent": 9568,
  "Ġreminiscent": 9569,
  "ĠMC": 9570,
  "Shakespeare": 9571,
  "ĠTerrain": 9572,
  "Ġcavern": 9573,
  "Ġshowerhead": 9574,
  "Rear": 9575,
  "Ġreceipt": 9576,
  "ĠDodge": 9577,
  "Ġbulging": 9578,
  "sale": 9579,
  "Since": 9580,
  "Ġ188": 9581,
  "Ġ1889": 9582,
  "lanterns": 9583,
  "ĠJew": 9584,
  "ĠJews": 9585,
  "Ġdisturbed": 9586,
  "golf": 9587,
  "Ġinterferes": 9588,
  "ĠTropicana": 9589,
  "volunteer": 9590,
  "Twizz": 9591,
  "Twizzlers": 9592,
  "Skylights": 9593,
  "Ġ535": 9594,
  "Ġdisgust": 9595,
  "Performing": 9596,
  "Ġillusion": 9597,
  "Ġelevates": 9598,
  "Ġconifer": 9599,
  "53": 9600,
  "ĠUnit": 9601,
  "ĠSavoie": 9602,
  "Ġmissile": 9603,
  "ĠJake": 9604,
  "Armenian": 9605,
  "ĠBING": 9606,
  "ĠBINGO": 9607,
  "leaf": 9608,
  "Ġsignificant": 9609,
  "Ġpilgrims": 9610,
  "Ġbritain": 9611,
  "Ġbondage": 9612,
  "Ġgorge": 9613,
  "Ġstylishly": 9614,
  "Ġprying": 9615,
  "ISS": 9616,
  "ĠKISS": 9617,
  "Ġ442": 9618,
  "Ġpunctured": 9619,
  "Ġvestments": 9620,
  "Obese": 9621,
  "Ġ569": 9622,
  "Ġsoundproof": 9623,
  "Ġlily": 9624,
  "ilarly": 9625,
  "Sim": 9626,
  "Similarly": 9627,
  "Grandpa": 9628,
  "Ġwidows": 9629,
  "ĠStyrofoam": 9630,
  "Ġmansion": 9631,
  "Ġrelaxedly": 9632,
  "Ġexplodes": 9633,
  "undromat": 9634,
  "ĠLaundromat": 9635,
  "ĠGator": 9636,
  "Ġnightfall": 9637,
  "ĠExtra": 9638,
  "Ġgrove": 9639,
  "ĠViolen": 9640,
  "ĠViolence": 9641,
  "ĠTrue": 9642,
  "ĠGrip": 9643,
  "Ġauthentic": 9644,
  "ĠHawks": 9645,
  "egacy": 9646,
  "Legacy": 9647,
  "ĠKod": 9648,
  "ĠKodak": 9649,
  "ĠTK": 9650,
  "TS": 9651,
  "ĠTKTS": 9652,
  "drained": 9653,
  "Ġmildly": 9654,
  "Concertgoers": 9655,
  "Ġmenacingly": 9656,
  "Ġdismounts": 9657,
  "ĠBurrito": 9658,
  "ĠBandidos": 9659,
  "Intense": 9660,
  "WheelP": 9661,
  "WheelPower": 9662,
  "court": 9663,
  "Ġzipline": 9664,
  "Ġtavern": 9665,
  "ĠCigar": 9666,
  "Ġbolted": 9667,
  "Left": 9668,
  "Ġhopper": 9669,
  "Ġbomb": 9670,
  "Chopped": 9671,
  "ĠVader": 9672,
  "elky": 9673,
  "ĠMelky": 9674,
  "ĠCabrera": 9675,
  "Skiers": 9676,
  "ĠEarly": 9677,
  "Ġboardroom": 9678,
  "ĠLollapalooz": 9679,
  "ĠLollapalooza": 9680,
  "ĠFlyre": 9681,
  "ĠCly": 9682,
  "ĠClyde": 9683,
  "End": 9684,
  "Ġforge": 9685,
  "Ġoat": 9686,
  "Ġoatm": 9687,
  "Ġoatmeal": 9688,
  "fa": 9689,
  "ĠAlfal": 9690,
  "ĠAlfalfa": 9691,
  "ĠRascals": 9692,
  "Ġbillowy": 9693,
  "Ġsprawling": 9694,
  "Ġspruced": 9695,
  "ĠSunflower": 9696,
  "Ġcontently": 9697,
  "Crusher": 9698,
  "Ġknowledge": 9699,
  "ĠBabies": 9700,
  "Ġdrainpipe": 9701,
  "chewing": 9702,
  "ĠBaker": 9703,
  "Dates": 9704,
  "ĠNuts": 9705,
  "So": 9706,
  "Ġshoves": 9707,
  "ĠTelescopes": 9708,
  "Ġpyrotechnics": 9709,
  "Ġinlaid": 9710,
  "Ġpseudo": 9711,
  "turning": 9712,
  "Ġhighschool": 9713,
  "Ġbrowm": 9714,
  "ĠAudi": 9715,
  "lantern": 9716,
  "Ġpedicure": 9717,
  "Ġreassurance": 9718,
  "His": 9719,
  "Ġheadboard": 9720,
  "rojan": 9721,
  "ĠTrojan": 9722,
  "ĠDELL": 9723,
  "Ġtransformer": 9724,
  "Ġimpoverished": 9725,
  "carver": 9726,
  "Ġwoodcarver": 9727,
  "pur": 9728,
  "purple": 9729,
  "Ġnuzzles": 9730,
  "highs": 9731,
  "ski": 9732,
  "vski": 9733,
  "ĠSwarovski": 9734,
  "ĠUH": 9735,
  "15": 9736,
  "Ġstockcar": 9737,
  "Ġaccomplish": 9738,
  "Lean": 9739,
  "Mature": 9740,
  "EME": 9741,
  "EMEK": 9742,
  "ĠPR": 9743,
  "ZEMEK": 9744,
  "ĠPRZEMEK": 9745,
  "Ġhardcover": 9746,
  "Ġoutfitted": 9747,
  "Ġprehistoric": 9748,
  "Ġhandhold": 9749,
  "ĠDM": 9750,
  "ĠDMC": 9751,
  "Ġtge": 9752,
  "Ġlesions": 9753,
  "Ġrappeling": 9754,
  "Ġultimate": 9755,
  "Ġsecure": 9756,
  "Ġactually": 9757,
  "Background": 9758,
  "ĠArchitects": 9759,
  "Ġscanner": 9760,
  "ĠChoir": 9761,
  "Ġscythe": 9762,
  "treated": 9763,
  "Ġuntreated": 9764,
  "ĠElectronics": 9765,
  "ĠWalgreens": 9766,
  "Ġrecreating": 9767,
  "ĠAncient": 9768,
  "ĠFife": 9769,
  "Ġ).": 9770,
  "Ġplanning": 9771,
  "Ġspend": 9772,
  "ĠHabitat": 9773,
  "Ġunhooks": 9774,
  "gt": 9775,
  "Ġcgt": 9776,
  "Ġwatter": 9777,
  "ĠGulch": 9778,
  "Ġchoi": 9779,
  "Plastic": 9780,
  "ĠHemlock": 9781,
  "Ġsaxo": 9782,
  "Min": 9783,
  "Miniv": 9784,
  "Minivans": 9785,
  "ilions": 9786,
  "Ġdandilions": 9787,
  "Ġboatload": 9788,
  "ĠUp": 9789,
  "afone": 9790,
  "vodafone": 9791,
  "Ovodafone": 9792,
  "ĠEm": 9793,
  "ĠEmirates": 9794,
  "Clown": 9795,
  "ĠBron": 9796,
  "ĠBroncos": 9797,
  "Ġslid": 9798,
  "ivind": 9799,
  "Ġdivind": 9800,
  "Ġsupervises": 9801,
  "Ġhandcuffed": 9802,
  "Paris": 9803,
  "Ġinquis": 9804,
  "Ġinquisitively": 9805,
  "glides": 9806,
  "fitters": 9807,
  "Ġgui": 9808,
  "Ġguiutarist": 9809,
  "Ġalright": 9810,
  "ĠRottweiler": 9811,
  "ĠSetter": 9812,
  "ĠCorgi": 9813,
  "ĠUT": 9814,
  "OPIA": 9815,
  "ĠUTOPIA": 9816,
  "Ġboombox": 9817,
  "Ġundeterred": 9818,
  "ĠPM": 9819,
  "Ġsinkhole": 9820,
  "Elves": 9821,
  "Ġsavior": 9822,
  "17": 9823,
  "ĠAllian": 9824,
  "ĠAllianz": 9825,
  "Ġuntangling": 9826,
  "Ġspotters": 9827,
  "Ġcrowbar": 9828,
  "Earth": 9829,
  "Ġanxiety": 9830,
  "Neg": 9831,
  "Negros": 9832,
  "Kites": 9833,
  "SVA": 9834,
  "ĠTheatre": 9835,
  "Ġtextbook": 9836,
  "Ġsquid": 9837,
  "ĠTelecaster": 9838,
  "ĠTudor": 9839,
  "vaulting": 9840,
  "Coast": 9841,
  "ĠGas": 9842,
  "Ġbusiest": 9843,
  "ĠSuper": 9844,
  "Ġwincing": 9845,
  "Ġmovable": 9846,
  "Ġquasi": 9847,
  "Ġtousled": 9848,
  "Ġoutlandish": 9849,
  "Ġgarnished": 9850,
  "Ġpassin": 9851,
  "Ġspoonful": 9852,
  "Ġconspicuously": 9853,
  "ĠTanu": 9854,
  "ĠTanuki": 9855,
  "ĠEliz": 9856,
  "ĠElizabethan": 9857,
  "ĠWalgreen": 9858,
  "ĠAgain": 9859,
  "Ġ225": 9860,
  "Ġadjustment": 9861,
  "Ġbodyboard": 9862,
  "Bottles": 9863,
  "bngen": 9864,
  "ĠGubbngen": 9865,
  "holm": 9866,
  "ĠStockholm": 9867,
  "ĠIKEA": 9868,
  "ĠRepresentatives": 9869,
  "Ġpu": 9870,
  "Ġpuke": 9871,
  "Ġleisure": 9872,
  "Ġoutriders": 9873,
  "Ġjabbing": 9874,
  "ĠRadeo": 9875,
  "Ġdiry": 9876,
  "Ġhighland": 9877,
  "Sal": 9878,
  "Salvation": 9879,
  "Ġ1970": 9880,
  "Ġgaudy": 9881,
  "Ġcookbook": 9882,
  "Ġculottes": 9883,
  "fum": 9884,
  "fume": 9885,
  "Ġperfume": 9886,
  "Ġyams": 9887,
  "Ġinjuries": 9888,
  "sy": 9889,
  "syrup": 9890,
  "Side": 9891,
  "Carioca": 9892,
  "ĠCopenhagen": 9893,
  "ĠChevron": 9894,
  "Ġuniformly": 9895,
  "Balancing": 9896,
  "GIDD": 9897,
  "GIDDAY": 9898,
  "ĠHanson": 9899,
  "indu": 9900,
  "ĠHindu": 9901,
  "Ġprevious": 9902,
  "Ġbeiber": 9903,
  "Ġstuffing": 9904,
  "Ġdial": 9905,
  "Ġsuggestive": 9906,
  "Farmers": 9907,
  "Ġagriculture": 9908,
  "Rouleur": 9909,
  "Ġww": 9910,
  "Ġwww": 9911,
  "rouleur": 9912,
  "cc": 9913,
  "Ġloudly": 9914,
  "BEA": 9915,
  "JOLA": 9916,
  "JOLAIS": 9917,
  "BEAU": 9918,
  "BEAUJOLAIS": 9919,
  "ĠMORE": 9920,
  "OV": 9921,
  "ĠNOV": 9922,
  "Ġplucks": 9923,
  "Ġmanipulated": 9924,
  "unt": 9925,
  "Ġrestaraunt": 9926,
  "Fo": 9927,
  "ĠCamry": 9928,
  "Ġcounterbalanced": 9929,
  "ĠTexan": 9930,
  "Ġviolently": 9931,
  "Ġexecute": 9932,
  "Phone": 9933,
  "Ġconverging": 9934,
  "EB": 9935,
  "LIEB": 9936,
  "LIEBHER": 9937,
  "LIEBHERR": 9938,
  "planted": 9939,
  "Ġastrot": 9940,
  "Ġastroturf": 9941,
  "Ġgyro": 9942,
  "Juggling": 9943,
  "Ġsmell": 9944,
  "Paint": 9945,
  "Ġfrantically": 9946,
  "end": 9947,
  "sirt": 9948,
  "Ġhsirt": 9949,
  "Ġthumbnail": 9950,
  "Topless": 9951,
  "Ġphotogra": 9952,
  "Ġphotograhi": 9953,
  "Ġitalian": 9954,
  "ĠFur": 9955,
  "ĠFurby": 9956,
  "ĠNotre": 9957,
  "complexioned": 9958,
  "blowing": 9959,
  "Ġvisual": 9960,
  "PLayers": 9961,
  "Ġhutch": 9962,
  "Ġshove": 9963,
  "Ġneg": 9964,
  "ligent": 9965,
  "Ġnegligent": 9966,
  "Ġbemusement": 9967,
  "Ġidyllic": 9968,
  "Ġinsulating": 9969,
  "Ġcreeping": 9970,
  "soaked": 9971,
  "Park": 9972,
  "Ġconcentric": 9973,
  "Ġcornrowed": 9974,
  "Ġcupping": 9975,
  "Up": 9976,
  "Upward": 9977,
  "Ġburrito": 9978,
  "ĠMini": 9979,
  "Ġferns": 9980,
  "Ġleaflets": 9981,
  "Ġastonishing": 9982,
  "Ġastonishingly": 9983,
  "Ġsolvents": 9984,
  "Ġshipment": 9985,
  "Ġ84": 9986,
  "Mae": 9987,
  "ĠSallieMae": 9988,
  "ĠCaterpillar": 9989,
  "Ġcrescent": 9990,
  "broken": 9991,
  "Ġunbroken": 9992,
  "Ġsymbolism": 9993,
  "Gymnast": 9994,
  "assembled": 9995,
  "ĠQuinta": 9996,
  "Groom": 9997,
  "Ġwedded": 9998,
  "IP": 9999,
  "RIP": 10000,
  "TRIP": 10001,
  "TRIPE": 10002,
  "ĠJoshua": 10003,
  "Cariboos": 10004,
  "ĠBrew": 10005,
  "ĠBrewing": 10006,
  "ĠFossar": 10007,
  "ĠKomodo": 10008,
  "Bicyclist": 10009,
  "Ġcommitment": 10010,
  "Ġcultivated": 10011,
  "ĠSouthwest": 10012,
  "lotch": 10013,
  "Ġsplotch": 10014,
  "Ġtoothpaste": 10015,
  "ĠAngus": 10016,
  "ĠRVs": 10017,
  "Ġairstrip": 10018,
  "ĠCriterion": 10019,
  "ĠDaddy": 10020,
  "ĠPump": 10021,
  "jobs": 10022,
  "lorida": 10023,
  "ĠFlorida": 10024,
  "Ġnorthern": 10025,
  "Ġtreasure": 10026,
  "ĠGkick": 10027,
  "ĠGkickS": 10028,
  "Ġinstallment": 10029,
  "ĠWave": 10030,
  "Ġextendable": 10031,
  "Ġsuede": 10032,
  "Ġretreiver": 10033,
  "Ġdefying": 10034,
  "Ġgravity": 10035,
  "Ġdisposes": 10036,
  "arcia": 10037,
  "ĠGarcia": 10038,
  "Ġweightlifting": 10039,
  "ĠColdwell": 10040,
  "Somebody": 10041
}