{
  "Ā": 3,
  "ā": 4,
  "Ă": 5,
  "ă": 6,
  "Ą": 7,
  "ą": 8,
  "Ć": 9,
  "ć": 10,
  "Ĉ": 11,
  "ĉ": 12,
  "Ċ": 13,
  "ċ": 14,
  "Č": 15,
  "č": 16,
  "Ď": 17,
  "ď": 18,
  "Đ": 19,
  "đ": 20,
  "Ē": 21,
  "ē": 22,
  "Ĕ": 23,
  "ĕ": 24,
  "Ė": 25,
  "ė": 26,
  "Ę": 27,
  "ę": 28,
  "Ě": 29,
  "ě": 30,
  "Ĝ": 31,
  "ĝ": 32,
  "Ğ": 33,
  "ğ": 34,
  "Ġ": 35,
  "!": 36,
  "\"": 37,
  "#": 38,
  "$": 39,
  "%": 40,
  "&": 41,
  "'": 42,
  "(": 43,
  ")": 44,
  "*": 45,
  "+": 46,
  ",": 47,
  "-": 48,
  ".": 49,
  "/": 50,
  "0": 51,
  "1": 52,
  "2": 53,
  "3": 54,
  "4": 55,
  "5": 56,
  "6": 57,
  "7": 58,
  "8": 59,
  "9": 60,
  ":": 61,
  ";": 62,
  "<": 63,
  "=": 64,
  ">": 65,
  "?": 66,
  "@": 67,
  "A": 68,
  "B": 69,
  "C": 70,
  "D": 71,
  "E": 72,
  "F": 73,
  "G": 74,
  "H": 75,
  "I": 76,
  "J": 77,
  "K": 78,
  "L": 79,
  "M": 80,
  "N": 81,
  "O": 82,
  "P": 83,
  "Q": 84,
  "R": 85,
  "S": 86,
  "T": 87,
  "U": 88,
  "V": 89,
  "W": 90,
  "X": 91,
  "Y": 92,
  "Z": 93,
  "[": 94,
  "\\": 95,
  "]": 96,
  "^": 97,
  "_": 98,
  "`": 99,
  "a": 100,
  "b": 101,
  "c": 102,
  "d": 103,
  "e": 104,
  "f": 105,
  "g": 106,
  "h": 107,
  "i": 108,
  "j": 109,
  "k": 110,
  "l": 111,
  "m": 112,
  "n": 113,
  "o": 114,
  "p": 115,
  "q": 116,
  "r": 117,
  "s": 118,
  "t": 119,
  "u": 120,
  "v": 121,
  "w": 122,
  "x": 123,
  "y": 124,
  "z": 125,
  "{": 126,
  "|": 127,
  "}": 128,
  "~": 129,
  "ġ": 130,
  "Ģ": 131,
  "ģ": 132,
  "Ĥ": 133,
  "ĥ": 134,
  "Ħ": 135,
  "ħ": 136,
  "Ĩ": 137,
  "ĩ": 138,
  "Ī": 139,
  "ī": 140,
  "Ĭ": 141,
  "ĭ": 142,
  "Į": 143,
  "į": 144,
  "İ": 145,
  "ı": 146,
  "Ĳ": 147,
  "ĳ": 148,
  "Ĵ": 149,
  "ĵ": 150,
  "Ķ": 151,
  "ķ": 152,
  "ĸ": 153,
  "Ĺ": 154,
  "ĺ": 155,
  "Ļ": 156,
  "ļ": 157,
  "Ľ": 158,
  "ľ": 159,
  "Ŀ": 160,
  "ŀ": 161,
  "Ł": 162,
  "ł": 163,
  "¡": 164,
  "¢": 165,
  "£": 166,
  "¤": 167,
  "¥": 168,
  "¦": 169,
  "§": 170,
  "¨": 171,
  "©": 172,
  "ª": 173,
  "«": 174,
  "¬": 175,
  "Ń": 176,
  "®": 177,
  "¯": 178,
  "°": 179,
  "±": 180,
  "²": 181,
  "³": 182,
  "´": 183,
  "µ": 184,
  "¶": 185,
  "·": 186,
  "¸": 187,
  "¹": 188,
  "º": 189,
  "»": 190,
  "¼": 191,
  "½": 192,
  "¾": 193,
  "¿": 194,
  "À": 195,
  "Á": 196,
  "Â": 197,
  "Ã": 198,
  "Ä": 199,
  "Å": 200,
  "Æ": 201,
  "Ç": 202,
  "È": 203,
  "É": 204,
  "Ê": 205,
  "Ë": 206,
  "Ì": 207,
  "Í": 208,
  "Î": 209,
  "Ï": 210,
  "Ð": 211,
  "Ñ": 212,
  "Ò": 213,
  "Ó": 214,
  "Ô": 215,
  "Õ": 216,
  "Ö": 217,
  "×": 218,
  "Ø": 219,
  "Ù": 220,
  "Ú": 221,
  "Û": 222,
  "Ü": 223,
  "Ý": 224,
  "Þ": 225,
  "ß": 226,
  "à": 227,
  "á": 228,
  "â": 229,
  "ã": 230,
  "ä": 231,
  "å": 232,
  "æ": 233,
  "ç": 234,
  "è": 235,
  "é": 236,
  "ê": 237,
  "ë": 238,
  "ì": 239,
  "í": 240,
  "î": 241,
  "ï": 242,
  "ð": 243,
  "ñ": 244,
  "ò": 245,
  "ó": 246,
  "ô": 247,
  "õ": 248,
  "ö": 249,
  "÷": 250,
  "ø": 251,
  "ù": 252,
  "ú": 253,
  "û": 254,
  "ü": 255,
  "ý": 256,
  "þ": 257,
  "ÿ": 258,
  "<pad>": 0,
  "<bos>": 1,
  "<eos>": 2,
  "Ġt": 259,
  "he": 260,
  "Ġa": 261,
  "Ġthe": 262,
  "Ġo": 263,
  "Ġi": 264,
  "Ġs": 265,
  "re": 266,
  "Ġb": 267,
  "in": 268,
  "Ġof": 269,
  "le": 270,
  "Ġw": 271,
  "nd": 272,
  "Ġc": 273,
  "Ġis": 274,
  "er": 275,
  "ro": 276,
  "Ġf": 277,
  "it": 278,
  "ar": 279,
  "ing": 280,
  "ig": 281,
  "Ġp": 282,
  "ĠT": 283,
  "ha": 284,
  "Ġand": 285,
  "al": 286,
  "igh": 287,
  "ight": 288,
  "en": 289,
  "ac": 290,
  "Ġto": 291,
  "Ġon": 292,
  "lo": 293,
  "ĠThe": 294,
  "Ġg": 295,
  "ed": 296,
  "ra": 297,
  "Ġd": 298,
  "Ġle": 299,
  "Ġm": 300,
  "or": 301,
  "Ġl": 302,
  "Ġv": 303,
  "id": 304,
  "es": 305,
  "Ġr": 306,
  "ith": 307,
  "Ġwith": 308,
  "on": 309,
  "all": 310,
  "at": 311,
  "Ġvi": 312,
  "an": 313,
  "ge": 314,
  "ft": 315,
  "Ġleft": 316,
  "Ġbl": 317,
  "Ġright": 318,
  "ot": 319,
  "ack": 320,
  "ide": 321,
  "Ġwh": 322,
  "Ġst": 323,
  "Ġbe": 324,
  "ite": 325,
  "il": 326,
  "Ġwhite": 327,
  "ow": 328,
  "Ġthat": 329,
  "ew": 330,
  "ti": 331,
  "und": 332,
  "up": 333,
  "om": 334,
  "Ġha": 335,
  "Ġview": 336,
  "ĠA": 337,
  "Ġtop": 338,
  "Ġside": 339,
  "ur": 340,
  "ad": 341,
  "el": 342,
  "ut": 343,
  "Ġgra": 344,
  "st": 345,
  "ck": 346,
  "et": 347,
  "Ġhas": 348,
  "Ġblack": 349,
  "Ġh": 350,
  "ss": 351,
  "ir": 352,
  "Ġup": 353,
  "ble": 354,
  "Ġco": 355,
  "un": 356,
  "Ġe": 357,
  "Ġlight": 358,
  "age": 359,
  "Ġbot": 360,
  "ue": 361,
  "Ġse": 362,
  "si": 363,
  "Ġtre": 364,
  "se": 365,
  "od": 366,
  "ve": 367,
  "Ġsh": 368,
  "Ġim": 369,
  "round": 370,
  "ard": 371,
  "ark": 372,
  "Ġth": 373,
  "Ġimage": 374,
  "Ġpl": 375,
  "Ġbott": 376,
  "Ġn": 377,
  "ly": 378,
  "ter": 379,
  "Ġvisi": 380,
  "Ġbottom": 381,
  "reen": 382,
  "Ġsm": 383,
  "Ġvisible": 384,
  "ri": 385,
  "ul": 386,
  "hind": 387,
  "Ġblue": 388,
  "Ġout": 389,
  "Ġfrom": 390,
  "Ġgreen": 391,
  "Ġwall": 392,
  "Ġbu": 393,
  "ay": 394,
  "Ġclo": 395,
  "ront": 396,
  "me": 397,
  "Ġback": 398,
  "Ġfront": 399,
  "xt": 400,
  "Ġpo": 401,
  "ood": 402,
  "ct": 403,
  "Ġsmall": 404,
  "ain": 405,
  "ĠI": 406,
  "um": 407,
  "Ġits": 408,
  "bo": 409,
  "Ġsk": 410,
  "wo": 411,
  "ding": 412,
  "rown": 413,
  "Ġlar": 414,
  "oor": 415,
  "ner": 416,
  "Ġseen": 417,
  "ce": 418,
  "Ġbrown": 419,
  "Ġlarge": 420,
  "Ġbehind": 421,
  "Ġ\"": 422,
  "Ġsky": 423,
  "Ġtwo": 424,
  "Ġdark": 425,
  "Ġcorner": 426,
  "is": 427,
  "Ġbuil": 428,
  "ch": 429,
  "ted": 430,
  "Ġbuilding": 431,
  "light": 432,
  "Ġy": 433,
  "Ġtrees": 434,
  "ĠB": 435,
  "own": 436,
  "Ġsur": 437,
  "ground": 438,
  "Ġgrass": 439,
  "Ġsp": 440,
  "Ġfra": 441,
  "An": 442,
  "bove": 443,
  "Ġmetal": 444,
  "ellow": 445,
  "Ġlea": 446,
  "Ġtree": 447,
  "Ġyellow": 448,
  "Ġca": 449,
  "'s": 450,
  "Ġwind": 451,
  "la": 452,
  "dle": 453,
  "Ġas": 454,
  "Ġmid": 455,
  "Ġlin": 456,
  "Ġsign": 457,
  "Ġframe": 458,
  "Ġwooden": 459,
  "Ġdown": 460,
  "Ġmiddle": 461,
  "ows": 462,
  "Ġmo": 463,
  "Ġpar": 464,
  "Ġfac": 465,
  "ext": 466,
  "Ġbackground": 467,
  "Ġta": 468,
  "Ġover": 469,
  "ĠIt": 470,
  "Ġtoward": 471,
  "Ġfacing": 472,
  "qu": 473,
  "Ġwater": 474,
  "ĠO": 475,
  "ud": 476,
  "Ġabove": 477,
  "Ġby": 478,
  "Ġleaves": 479,
  "per": 480,
  "ru": 481,
  "ol": 482,
  "ĠS": 483,
  "Ġsun": 484,
  "to": 485,
  "ang": 486,
  "pe": 487,
  "ction": 488,
  "ĠOn": 489,
  "Ġsurf": 490,
  "ug": 491,
  "Ġcloud": 492,
  "Ġpain": 493,
  "Ġslight": 494,
  "Ġsurface": 495,
  "Ġclose": 496,
  "Ġsc": 497,
  "ff": 498,
  "door": 499,
  "ts": 500,
  "Ġalong": 501,
  "ree": 502,
  "ke": 503,
  "Ġcenter": 504,
  "ross": 505,
  "Ġhead": 506,
  "Ġoutdoor": 507,
  "us": 508,
  "ugh": 509,
  "cks": 510,
  "Ġshin": 511,
  "Ġarea": 512,
  "fle": 513,
  "Ġslightly": 514,
  "ok": 515,
  "Ġrefle": 516,
  "Ġne": 517,
  "Ġone": 518,
  "ium": 519,
  "ĠBe": 520,
  "Ġshadow": 521,
  "Ġdi": 522,
  "Ġtext": 523,
  "Ġhave": 524,
  "Ġfen": 525,
  "Ġother": 526,
  "am": 527,
  "irc": 528,
  "Ġli": 529,
  "Ġacross": 530,
  "ic": 531,
  "rough": 532,
  "Ġthem": 533,
  "Ġund": 534,
  "Ġthree": 535,
  "ĠIn": 536,
  "Ġmedium": 537,
  "Ġunder": 538,
  "ple": 539,
  "Ġconc": 540,
  "rete": 541,
  "Ġconcrete": 542,
  "Ġfo": 543,
  "alk": 544,
  "Ġpat": 545,
  "Ġfence": 546,
  "ĠBehind": 547,
  "Ġsqu": 548,
  "Ġba": 549,
  "ment": 550,
  "Ġfloor": 551,
  "Ġde": 552,
  "ade": 553,
  "Ġparti": 554,
  "Ġcur": 555,
  "Ġey": 556,
  "way": 557,
  "ward": 558,
  "Ġthrough": 559,
  "zon": 560,
  "Ġclouds": 561,
  "orizon": 562,
  "Ġhorizon": 563,
  "Ġtowards": 564,
  "Ġeach": 565,
  "ne": 566,
  "Ġbright": 567,
  "Ġmade": 568,
  "Ġpa": 569,
  "Ġbody": 570,
  "Ġroad": 571,
  "ĠTo": 572,
  "Ġwindow": 573,
  "Ġvertic": 574,
  "Ġlook": 575,
  "Ġcirc": 576,
  "Ġshot": 577,
  "Ġhorizont": 578,
  "Ġgo": 579,
  "Ġlong": 580,
  "Ġshining": 581,
  "Ġdirt": 582,
  "tion": 583,
  "Ġupper": 584,
  "Ġpi": 585,
  "Ġhalf": 586,
  "Ġcre": 587,
  "Ġportion": 588,
  "Ġpainted": 589,
  "ers": 590,
  "Ġthin": 591,
  "Ġgla": 592,
  "Ġ/": 593,
  "Ġpartially": 594,
  "Ġfi": 595,
  "other": 596,
  "ĠL": 597,
  "we": 598,
  "ctang": 599,
  "Ġrectang": 600,
  "Ġcovered": 601,
  "Ġpoin": 602,
  "Ġatt": 603,
  "Ġglass": 604,
  "Ġsome": 605,
  "time": 606,
  "Ġcement": 607,
  "ps": 608,
  "Ġread": 609,
  "as": 610,
  "Ġattached": 611,
  "Ġdo": 612,
  "ween": 613,
  "Ġbran": 614,
  "gs": 615,
  "Ġsquare": 616,
  "Ġedge": 617,
  "Ġmul": 618,
  "Ġnear": 619,
  "Ġdri": 620,
  "Ġman": 621,
  "Ġinto": 622,
  "Ġbetween": 623,
  "Ġcle": 624,
  "so": 625,
  "ĠC": 626,
  "Ġsilver": 627,
  "Ġtru": 628,
  "iling": 629,
  "Ġwhile": 630,
  "Ġvery": 631,
  "Ġclear": 632,
  "ath": 633,
  "ars": 634,
  "Ġeye": 635,
  "Ġpie": 636,
  "Ġsitting": 637,
  "Ġanother": 638,
  "Ġtruck": 639,
  "Ġstat": 640,
  "Ġap": 641,
  "Ġho": 642,
  "Ġalso": 643,
  "ry": 644,
  "Ġfar": 645,
  "aytime": 646,
  "Ġbrick": 647,
  "ĠP": 648,
  "\".": 649,
  "Ġsidewalk": 650,
  "Ġextending": 651,
  "Ġletters": 652,
  "eld": 653,
  "ag": 654,
  "pt": 655,
  "Ġonto": 656,
  "Ġmost": 657,
  "Ġtable": 658,
  "Ġbeing": 659,
  "Ġpart": 660,
  "Ġvertically": 661,
  "ĠD": 662,
  "Ġj": 663,
  "Ġdistan": 664,
  "Ġhigh": 665,
  "Ġbranches": 666,
  "Ġhorizontally": 667,
  "Ġrectangular": 668,
  "Ġinside": 669,
  "ĠM": 670,
  "ten": 671,
  "Ġrocks": 672,
  "Ġlooking": 673,
  "Ġroo": 674,
  "Ġplants": 675,
  "Ġste": 676,
  "Ġstri": 677,
  "Ġstatue": 678,
  "Ġreflection": 679,
  "Ġangled": 680,
  "Ġrock": 681,
  "ird": 682,
  "Ġreads": 683,
  "Ġmulti": 684,
  "Ġgoing": 685,
  "ks": 686,
  "Ġword": 687,
  "Ġshaped": 688,
  "Ġno": 689,
  "Ġlegs": 690,
  "Ġstreet": 691,
  "Ġroof": 692,
  "Ġhanging": 693,
  "Ġstanding": 694,
  "neath": 695,
  "Ġboth": 696,
  "Ġma": 697,
  "ort": 698,
  "Ġdiff": 699,
  "Ġtail": 700,
  "Ġtri": 701,
  "erent": 702,
  "ning": 703,
  "im": 704,
  "Ġwell": 705,
  "Ġdifferent": 706,
  "Ġfour": 707,
  "Ġmoun": 708,
  "Ġbox": 709,
  "Ġappe": 710,
  "Ġshows": 711,
  "Ġpink": 712,
  "ĠH": 713,
  "Ġdistance": 714,
  "angle": 715,
  "Ġdog": 716,
  "Ġplant": 717,
  "Ġk": 718,
  ",\"": 719,
  "ctly": 720,
  "Ġceiling": 721,
  "tern": 722,
  "bs": 723,
  "ĠW": 724,
  "ĠAt": 725,
  "Ġlike": 726,
  "urt": 727,
  "Ġfield": 728,
  "Ġtheir": 729,
  "out": 730,
  "der": 731,
  "ving": 732,
  "Ġscul": 733,
  "Ġtra": 734,
  "Ġdried": 735,
  "ĠF": 736,
  "Ġsunlight": 737,
  "Ġgrow": 738,
  "Ġdaytime": 739,
  "Ġparking": 740,
  "Ġchair": 741,
  "Ġwalk": 742,
  "Ġsection": 743,
  "Ġsculpt": 744,
  "agon": 745,
  "Ġmultiple": 746,
  "Ġarm": 747,
  "Ġshape": 748,
  "Ġthick": 749,
  "Ġunderneath": 750,
  "Ġflowers": 751,
  "Ġtrunk": 752,
  "ruct": 753,
  "raw": 754,
  "Ġmostly": 755,
  "Ġcircle": 756,
  "Ġhouse": 757,
  "Ġcream": 758,
  "Ġstruct": 759,
  "Ġpiece": 760,
  "ritten": 761,
  "art": 762,
  "Ġfe": 763,
  "Ġfilled": 764,
  "Ġwritten": 765,
  "ridge": 766,
  "Ġbench": 767,
  "Ġpur": 768,
  "colored": 769,
  "Ġbeige": 770,
  "Ġsculpture": 771,
  "Ġill": 772,
  "Ġcircular": 773,
  "Ġthis": 774,
  "ub": 775,
  "Ġvertical": 776,
  "Ġpurple": 777,
  "Ġbird": 778,
  "Ġreflecting": 779,
  "Ġsta": 780,
  "Ġblur": 781,
  "ĠAbove": 782,
  "ate": 783,
  "Ġhorizontal": 784,
  "head": 785,
  "Ġdirectly": 786,
  "umb": 787,
  "Ġbridge": 788,
  "long": 789,
  "ĠE": 790,
  "Ġpattern": 791,
  "ĠTh": 792,
  "Ġshow": 793,
  "oth": 794,
  "ĠThey": 795,
  "tain": 796,
  "Ġhis": 797,
  "Ġboard": 798,
  "Ġgold": 799,
  "Ġpost": 800,
  "ĠTwo": 801,
  "board": 802,
  "ĠG": 803,
  "Ġforward": 804,
  "Ġflag": 805,
  "Ġstructure": 806,
  "Ġagain": 807,
  "ull": 808,
  "ĠAlong": 809,
  "Ġdesign": 810,
  "Ġlevel": 811,
  "je": 812,
  "th": 813,
  "Ġthey": 814,
  "Ġgrowing": 815,
  "Ġagainst": 816,
  "by": 817,
  "Ġdraw": 818,
  "ike": 819,
  "Ġholding": 820,
  "king": 821,
  "Ġhorse": 822,
  "Ġshort": 823,
  "Ġsurround": 824,
  "Ġopen": 825,
  "hic": 826,
  "Ġmany": 827,
  "Ġob": 828,
  "Ġcut": 829,
  "Ġfish": 830,
  "Ġwheel": 831,
  "pped": 832,
  "Ġair": 833,
  "Ġoutl": 834,
  "umin": 835,
  "ĠN": 836,
  "Ġforeground": 837,
  "sc": 838,
  "Ġdiagon": 839,
  "Ġflower": 840,
  "Ġtur": 841,
  "Ġpaint": 842,
  "ĠR": 843,
  "Ġsw": 844,
  "ill": 845,
  "Ġdisp": 846,
  "pp": 847,
  "Ġdisplay": 848,
  "ity": 849,
  "Ġstra": 850,
  "Ġgro": 851,
  "Ġthroughout": 852,
  "Ġappears": 853,
  "Ġobje": 854,
  "ost": 855,
  "Ġmounted": 856,
  "Ġextends": 857,
  "lose": 858,
  "Ġflat": 859,
  "Ġcovering": 860,
  "Ġnumb": 861,
  "Ġvehic": 862,
  "for": 863,
  "Ġshelf": 864,
  "Ġbushes": 865,
  "Ġsand": 866,
  "Ġruns": 867,
  "Ġillumin": 868,
  "Ġpatch": 869,
  "Ġbush": 870,
  "ump": 871,
  "ĠU": 872,
  "Ġpaw": 873,
  "Ġcurved": 874,
  "Ġex": 875,
  "Ġonly": 876,
  "form": 877,
  "Ġrunning": 878,
  "Ġscat": 879,
  "Ġconne": 880,
  "Ġseveral": 881,
  "Ġupward": 882,
  "Ġscattered": 883,
  "umul": 884,
  "Ġ2": 885,
  "Ġun": 886,
  "ĠLight": 887,
  "umulus": 888,
  "ho": 889,
  "\",": 890,
  "Ġwearing": 891,
  "Ġbeen": 892,
  "uch": 893,
  "Ġwings": 894,
  "Ġpositioned": 895,
  "Ġwalkway": 896,
  "Ġspots": 897,
  "ER": 898,
  "Ġcurb": 899,
  "Ġwide": 900,
  "Ġpointed": 901,
  "Ġcoming": 902,
  "Ġsame": 903,
  "hi": 904,
  "Ġgre": 905,
  "Ġstraight": 906,
  "close": 907,
  "Ġlog": 908,
  "Ġborder": 909,
  "Ġdownward": 910,
  "down": 911,
  "uff": 912,
  "Ġnight": 913,
  "Ġbeam": 914,
  "ep": 915,
  "Ġwords": 916,
  "av": 917,
  "Ġshowing": 918,
  "Ġwalls": 919,
  "Ġpointing": 920,
  "Ġsurrounded": 921,
  "Ġem": 922,
  "Ġplatform": 923,
  ".\"": 924,
  "Ġdirection": 925,
  "als": 926,
  "ish": 927,
  "Ġcover": 928,
  "Ġsay": 929,
  "Ġgrey": 930,
  "Ġ3": 931,
  "Ġstem": 932,
  "Ġmir": 933,
  "Ġriver": 934,
  "Ġoverhead": 935,
  "Ġblurry": 936,
  "Ġpanels": 937,
  "quarter": 938,
  "ant": 939,
  "Ġgroup": 940,
  "Ġpoint": 941,
  "IN": 942,
  "ĠV": 943,
  "Ġsn": 944,
  "Ġpartial": 945,
  "Ġleaf": 946,
  "Ġstret": 947,
  "Ġjust": 948,
  "Ġleg": 949,
  "Ġmural": 950,
  "Ġmirror": 951,
  "Ġtoy": 952,
  "most": 953,
  "Ġstrip": 954,
  "Ġtw": 955,
  "read": 956,
  "ze": 957,
  "ĠDaytime": 958,
  "Ġaway": 959,
  "Ġte": 960,
  "Ġconsists": 961,
  "Ġplanks": 962,
  "Ġdec": 963,
  "Ġneon": 964,
  "Ġneck": 965,
  "Ġspot": 966,
  "Ġdry": 967,
  "scra": 968,
  "Ġlying": 969,
  "nis": 970,
  "Ġfoot": 971,
  "Ġcreating": 972,
  "Ġsays": 973,
  "ins": 974,
  "Ġtennis": 975,
  "ĠAl": 976,
  "Ġfeet": 977,
  "Ġskyscra": 978,
  "ak": 979,
  "Ġbig": 980,
  "Ġlaying": 981,
  "Ġarrow": 982,
  "Ġprin": 983,
  "Ġentire": 984,
  "Ġscreen": 985,
  "rical": 986,
  "Ġbike": 987,
  "Ġfall": 988,
  "Ġairp": 989,
  "Ġspray": 990,
  "Ġfaded": 991,
  "Ġgrassy": 992,
  "level": 993,
  "Ġdiagonally": 994,
  "ming": 995,
  "ffiti": 996,
  "Ġcomplet": 997,
  "Ġcl": 998,
  "Ġcolors": 999,
  "ils": 1000,
  "ON": 1001,
  "Ġfive": 1002,
  "Ġtogether": 1003,
  "Ġnumber": 1004,
  "Ġpalm": 1005,
  "Ġsec": 1006,
  "Ġorien": 1007,
  "Ġgraffiti": 1008,
  "Ġobject": 1009,
  "AR": 1010,
  "Ġlamp": 1011,
  "Ġglow": 1012,
  "yl": 1013,
  "ĠBoth": 1014,
  "Ġrear": 1015,
  "ns": 1016,
  "Ġcompletely": 1017,
  "Ġbranch": 1018,
  "Ġhighway": 1019,
  "tle": 1020,
  "Ġfull": 1021,
  "Ġdead": 1022,
  "Ġsingle": 1023,
  "Ġvehicle": 1024,
  "co": 1025,
  "Ġoutline": 1026,
  "Ġsupp": 1027,
  "sha": 1028,
  "yond": 1029,
  "Ġcumulus": 1030,
  "Ġpaper": 1031,
  "ny": 1032,
  "Ġsee": 1033,
  "ap": 1034,
  "Ġchairs": 1035,
  "fly": 1036,
  "Ġgoes": 1037,
  "Ġalmost": 1038,
  "ĠSun": 1039,
  "Ġnose": 1040,
  "Ġwire": 1041,
  "Ġpump": 1042,
  "yd": 1043,
  "Ġdoors": 1044,
  "ĠSm": 1045,
  "Ġfur": 1046,
  "Ġpaws": 1047,
  "Ġasp": 1048,
  "ling": 1049,
  "Ġspread": 1050,
  "Ġsy": 1051,
  "Ġgu": 1052,
  "Ġpro": 1053,
  "Ġfigure": 1054,
  "Ġdu": 1055,
  "Ġsla": 1056,
  "ĠAnother": 1057,
  "Ġtriangle": 1058,
  "Ġlogo": 1059,
  "AN": 1060,
  "Ġrailing": 1061,
  "halt": 1062,
  "Ġcourt": 1063,
  "Ġasphalt": 1064,
  "Ġz": 1065,
  "Ġdrawn": 1066,
  "Ġlab": 1067,
  "Ġstairc": 1068,
  "ies": 1069,
  "Ġturned": 1070,
  "Ġcab": 1071,
  "Ġsmo": 1072,
  "Ġstre": 1073,
  "Ġ1": 1074,
  "ĠSunlight": 1075,
  "ffic": 1076,
  "Ġhyd": 1077,
  "Ġtraffic": 1078,
  "ED": 1079,
  "Ġgi": 1080,
  "Ġbutter": 1081,
  "Ġpumpk": 1082,
  "te": 1083,
  "Ġstaircase": 1084,
  "ST": 1085,
  "po": 1086,
  "ople": 1087,
  "yc": 1088,
  "Ġelect": 1089,
  "Ġsl": 1090,
  "ĠUnder": 1091,
  "Ġwoman": 1092,
  "Ġilluminated": 1093,
  "Ġcloudy": 1094,
  "Ġday": 1095,
  "Ġhydrant": 1096,
  "ĠSome": 1097,
  "Ġcyl": 1098,
  "bby": 1099,
  "ĠSmall": 1100,
  "Ġsoil": 1101,
  "Ġears": 1102,
  "Ġboat": 1103,
  "ush": 1104,
  "Ġfl": 1105,
  "Ġpeople": 1106,
  "Ġgate": 1107,
  "Ġrounded": 1108,
  "Ġelev": 1109,
  "Ġdrawing": 1110,
  "Ġripples": 1111,
  "Ġairplane": 1112,
  "Ġcity": 1113,
  "Ġbushy": 1114,
  "ded": 1115,
  "Ġtwigs": 1116,
  "Ġseat": 1117,
  "Ġplank": 1118,
  "ĠSur": 1119,
  "Ġends": 1120,
  "Ġhair": 1121,
  "Ġsoft": 1122,
  "Ġtabby": 1123,
  "atural": 1124,
  "Ġsym": 1125,
  "Ġcolum": 1126,
  "Ġconnected": 1127,
  "ab": 1128,
  "Ġfoun": 1129,
  "Ġnighttime": 1130,
  "Ġtrash": 1131,
  "ĠSurrounding": 1132,
  "Ġdiv": 1133,
  "Ġsmooth": 1134,
  "Ġlink": 1135,
  "Ġwheels": 1136,
  "ball": 1137,
  "Ġcarved": 1138,
  "Ġent": 1139,
  "ĠEach": 1140,
  "Ġeng": 1141,
  "ĠJ": 1142,
  "Ġ4": 1143,
  "OR": 1144,
  "Ġswim": 1145,
  "ex": 1146,
  "umerous": 1147,
  "Ġletter": 1148,
  "avy": 1149,
  "Ġappear": 1150,
  "Ġanim": 1151,
  "Ġcup": 1152,
  "Ġraised": 1153,
  "Ġarms": 1154,
  "Ġbeams": 1155,
  "Ġconstruction": 1156,
  "Ġclock": 1157,
  "Ġbutterfly": 1158,
  "Ġtank": 1159,
  "Ġstair": 1160,
  "rier": 1161,
  "irrel": 1162,
  "ĠAll": 1163,
  "LE": 1164,
  "AT": 1165,
  "Ġsquirrel": 1166,
  "ffe": 1167,
  "room": 1168,
  "ber": 1169,
  "houet": 1170,
  "Ġlittle": 1171,
  "Ġpeb": 1172,
  "op": 1173,
  "Ġsilhouet": 1174,
  "RE": 1175,
  "fe": 1176,
  "Ġbowl": 1177,
  "ctive": 1178,
  "Ġsix": 1179,
  "Ġwas": 1180,
  "Ġswimming": 1181,
  "Ġfirst": 1182,
  "Ġfountain": 1183,
  "Ġdiagonal": 1184,
  "Ġbasket": 1185,
  "HE": 1186,
  "Ġgolden": 1187,
  "ycle": 1188,
  "Ġsymbol": 1189,
  "Ġupwards": 1190,
  "like": 1191,
  "Ġresem": 1192,
  "Ġpicture": 1193,
  "Ġglo": 1194,
  "Ġcurves": 1195,
  "Ġblurred": 1196,
  "Ġspace": 1197,
  "Ġfixt": 1198,
  "Ġleads": 1199,
  "Ġlayer": 1200,
  "Ġworn": 1201,
  "Ġblock": 1202,
  "Ġcracks": 1203,
  "Ġrail": 1204,
  "ĠPart": 1205,
  "Ġbeg": 1206,
  "Ġkit": 1207,
  "Ġwrapped": 1208,
  "oun": 1209,
  "Ġsnow": 1210,
  "Ġdirty": 1211,
  "uffy": 1212,
  "ING": 1213,
  "Ġnumerous": 1214,
  "Ġmulch": 1215,
  "lit": 1216,
  "ous": 1217,
  "Ġnatural": 1218,
  "ĠY": 1219,
  "Ġcontainer": 1220,
  "Ġcrack": 1221,
  "ms": 1222,
  "Ġweathered": 1223,
  "Ġprinted": 1224,
  "Ġsub": 1225,
  "Ġmarble": 1226,
  "Ġtub": 1227,
  "Ġpupp": 1228,
  "Ġorient": 1229,
  "aint": 1230,
  "Ġdeta": 1231,
  "IT": 1232,
  "Ġstands": 1233,
  "Ġeven": 1234,
  "Ġcausing": 1235,
  "Ġov": 1236,
  "AL": 1237,
  "Ġlimbs": 1238,
  "Ġskin": 1239,
  "Ġquarter": 1240,
  "Ġflying": 1241,
  "Ġbarrier": 1242,
  "Ġwinds": 1243,
  "Ġstyle": 1244,
  "Ġcross": 1245,
  "Ġkn": 1246,
  "Ġhands": 1247,
  "Ġzo": 1248,
  "ĠUnderneath": 1249,
  "Ġpumpkin": 1250,
  "hield": 1251,
  "Ġpuppy": 1252,
  "ĠTrees": 1253,
  "Ġwindshield": 1254,
  "Ġold": 1255,
  "Ġarch": 1256,
  "ĠTowards": 1257,
  "shot": 1258,
  "Ġbrightly": 1259,
  "ĠSt": 1260,
  "amond": 1261,
  "Ġmoon": 1262,
  "Ġmaj": 1263,
  "Ġdiamond": 1264,
  "ls": 1265,
  "Ġpebbles": 1266,
  "ĠShad": 1267,
  "Ġmountain": 1268,
  "wn": 1269,
  "sa": 1270,
  "Ġcont": 1271,
  "ou": 1272,
  "Ġmajority": 1273,
  "bed": 1274,
  "Ġpetals": 1275,
  "Ġtrail": 1276,
  "Ġelevated": 1277,
  "Ġorientated": 1278,
  "Ġhum": 1279,
  "EN": 1280,
  "ĠThree": 1281,
  "Ġwing": 1282,
  "Ġfaint": 1283,
  "Ġreflects": 1284,
  "Ġbin": 1285,
  "OU": 1286,
  "ĠShadows": 1287,
  "Ġkitten": 1288,
  "Ġshirt": 1289,
  "Ġgarage": 1290,
  "ĠSU": 1291,
  "Ġzoomed": 1292,
  "Ġcarpet": 1293,
  "Ġsem": 1294,
  "arrow": 1295,
  "Ġcardboard": 1296,
  "Ġelectrical": 1297,
  "painted": 1298,
  "exas": 1299,
  "Ġevery": 1300,
  "Ġsheet": 1301,
  "ong": 1302,
  "rance": 1303,
  "Ġlawn": 1304,
  "Ġutility": 1305,
  "Ġcrane": 1306,
  "arden": 1307,
  "Ġtilted": 1308,
  "Ġvan": 1309,
  "resent": 1310,
  "Ġbeyond": 1311,
  "Ġitself": 1312,
  "Ġbroken": 1313,
  "Ġdeer": 1314,
  "ĠTexas": 1315,
  "Ġentrance": 1316,
  "Ġoutward": 1317,
  "ca": 1318,
  "Ġheart": 1319,
  "Ġpavement": 1320,
  "radoodle": 1321,
  "Ġpipe": 1322,
  "Ġahead": 1323,
  "rail": 1324,
  "Ġdragon": 1325,
  "Ġdeep": 1326,
  "Ġgarden": 1327,
  "Ġboards": 1328,
  "Ġvari": 1329,
  "Ġfixture": 1330,
  "ĠSUV": 1331,
  "IC": 1332,
  "Ġcounter": 1333,
  "ds": 1334,
  "prin": 1335,
  "AS": 1336,
  "Ġeither": 1337,
  "Ġcir": 1338,
  "Ġbooks": 1339,
  "EL": 1340,
  "Ġdriving": 1341,
  "zz": 1342,
  "Ġfloating": 1343,
  "Ġopposite": 1344,
  "Ġpartly": 1345,
  "Ġteal": 1346,
  "OT": 1347,
  "Ġboxes": 1348,
  "Ġbent": 1349,
  "zard": 1350,
  "Ġnarrow": 1351,
  "erial": 1352,
  "Ġduck": 1353,
  "Ġphoto": 1354,
  "ĠAc": 1355,
  "pty": 1356,
  "Ġposition": 1357,
  "ĠGreen": 1358,
  "ion": 1359,
  "Ġmuch": 1360,
  "Ġempty": 1361,
  "Ġillust": 1362,
  "Ġhuman": 1363,
  "Ġextre": 1364,
  "Ġsemi": 1365,
  "Ġ'": 1366,
  "irectly": 1367,
  "Ġwar": 1368,
  "Ġspider": 1369,
  "Ġbanner": 1370,
  "ky": 1371,
  "be": 1372,
  "ĠAmerican": 1373,
  "ĠTV": 1374,
  "Ġaqu": 1375,
  "ĠDirectly": 1376,
  "ĠHe": 1377,
  "Ġtriang": 1378,
  "Ġcolumns": 1379,
  "cumulus": 1380,
  "posed": 1381,
  "Ġtriangular": 1382,
  "ĠWhite": 1383,
  "ung": 1384,
  "ĠOnly": 1385,
  "ĠCh": 1386,
  "Ġlizard": 1387,
  "Ġsize": 1388,
  "Ġtexture": 1389,
  "Ġoval": 1390,
  "Ġdriver": 1391,
  "Ġmin": 1392,
  "Ġbanan": 1393,
  "Ġbook": 1394,
  "ial": 1395,
  "Ġcreate": 1396,
  "Ġaerial": 1397,
  "ie": 1398,
  "Ġanimal": 1399,
  "terior": 1400,
  "Ġstairs": 1401,
  "Ġpassenger": 1402,
  "Ġreflective": 1403,
  "Ġcollar": 1404,
  "Ġmaroon": 1405,
  "Ġif": 1406,
  "Ġsolid": 1407,
  "ĠBeyond": 1408,
  "Ġpatio": 1409,
  "Ġobscured": 1410,
  "ix": 1411,
  "Ġinterior": 1412,
  "Ġgaps": 1413,
  "Ġbear": 1414,
  "Ġapart": 1415,
  "Ġyard": 1416,
  "Ġglowing": 1417,
  "Ġstuffed": 1418,
  "Ġdecorative": 1419,
  "ty": 1420,
  "Ġqu": 1421,
  "Ġowl": 1422,
  "Ġbeak": 1423,
  "Ġcylind": 1424,
  "Ġguit": 1425,
  "Ġbold": 1426,
  "Ġsteel": 1427,
  "mas": 1428,
  "Ġcylindrical": 1429,
  "ae": 1430,
  "ful": 1431,
  "rog": 1432,
  "Ġsilhouette": 1433,
  "Ġtinted": 1434,
  "Ġsimilar": 1435,
  "Ġsunny": 1436,
  "ffee": 1437,
  "Ġcurled": 1438,
  "Ġcactus": 1439,
  "Ġpresent": 1440,
  "Ġcloseup": 1441,
  "white": 1442,
  "eg": 1443,
  "MW": 1444,
  "Ġclearly": 1445,
  "Ġdepicting": 1446,
  "Ġskinny": 1447,
  "Ġdepicts": 1448,
  "Ġreflected": 1449,
  "Ġeverything": 1450,
  "Ġfan": 1451,
  "Ġskull": 1452,
  "Ġmoss": 1453,
  "Ġsea": 1454,
  "Ġformation": 1455,
  "ristmas": 1456,
  "nequ": 1457,
  "Ġmannequ": 1458,
  "ian": 1459,
  "ĠBMW": 1460,
  "pass": 1461,
  "Ġfeathers": 1462,
  "tral": 1463,
  "LO": 1464,
  "arent": 1465,
  "Ġcurve": 1466,
  "Ġchips": 1467,
  "Ġbron": 1468,
  "Ġskyline": 1469,
  "Ġpool": 1470,
  "ĠTall": 1471,
  "Ġbarrel": 1472,
  "ĠSe": 1473,
  "Ġdriveway": 1474,
  "tly": 1475,
  "OM": 1476,
  "Ġhardwood": 1477,
  "ĠChristmas": 1478,
  "Ġawning": 1479,
  "Ġballoon": 1480,
  "parent": 1481,
  "Ġcoffee": 1482,
  "Ġmush": 1483,
  "Ġfoc": 1484,
  "Ġfab": 1485,
  "Ġfabric": 1486,
  "Ġstu": 1487,
  "Ġrays": 1488,
  "Ġguard": 1489,
  "Ġilluminating": 1490,
  "ĠAcross": 1491,
  "AD": 1492,
  "Ġcry": 1493,
  "ĠHis": 1494,
  "Ġcabinet": 1495,
  "Ġyou": 1496,
  "Ġfluffy": 1497,
  "Ġbronze": 1498,
  "Ġworm": 1499,
  "Ġevenly": 1500,
  "Ġlabradoodle": 1501,
  "Ġtreeline": 1502,
  "Ġcryst": 1503,
  "Ġteeth": 1504,
  "Ġdoorway": 1505,
  "tage": 1506,
  "Ġleash": 1507,
  "Ġtransparent": 1508,
  "Ġshrubs": 1509,
  "ĠAustin": 1510,
  "Ġmesh": 1511,
  "Ġbuilt": 1512,
  "Ġ5": 1513,
  "Ġstretches": 1514,
  "RO": 1515,
  "cing": 1516,
  "ĠK": 1517,
  "'t": 1518,
  "Ġaccen": 1519,
  "Ġshell": 1520,
  "ĠThrough": 1521,
  "Ġguitar": 1522,
  "Ġstretched": 1523,
  "imb": 1524,
  "uzz": 1525,
  "Ġresembles": 1526,
  "Ġvarious": 1527,
  "Ġbalcony": 1528,
  "The": 1529,
  "Ġtent": 1530,
  "Ġsource": 1531,
  "RA": 1532,
  "Ġmud": 1533,
  "Ġbucket": 1534,
  "IL": 1535,
  "Ġvase": 1536,
  "ive": 1537,
  "Ġcirrus": 1538,
  "Ġbulb": 1539,
  "Ġhaw": 1540,
  "Ġchipped": 1541,
  "Ġhitting": 1542,
  "Ġporch": 1543,
  "Ġgap": 1544,
  "Ġfolded": 1545,
  "Ġtip": 1546,
  "Ġweeds": 1547,
  "Ġsharp": 1548,
  "Ġinterse": 1549,
  "Ġoverpass": 1550,
  "Ġcentral": 1551,
  "Ġsideways": 1552,
  "Ġshelves": 1553,
  "Ġamoun": 1554,
  "Ġbunch": 1555,
  "Ġsplit": 1556,
  "Ġreaching": 1557,
  "cycle": 1558,
  "Ġblanket": 1559,
  "Ġchild": 1560,
  "Ġaquarium": 1561,
  "Ġsu": 1562,
  "igator": 1563,
  "Ġfeat": 1564,
  "Ġbit": 1565,
  "Ġtarp": 1566,
  "ES": 1567,
  "Ġvintage": 1568,
  "Ġalligator": 1569,
  "Ġheav": 1570,
  "Ġear": 1571,
  "Ġbegin": 1572,
  "iage": 1573,
  "Ġengraved": 1574,
  "Ġcolumn": 1575,
  "Ġcontinues": 1576,
  "Ġracco": 1577,
  "Ġmannequin": 1578,
  "Ġfoliage": 1579,
  "Ġsetting": 1580,
  "brown": 1581,
  "Ġna": 1582,
  "Ġstuck": 1583,
  "Ġovercast": 1584,
  "Ġheavily": 1585,
  "Ġwriting": 1586,
  "Ġwaves": 1587,
  "Ġhawk": 1588,
  "Ġgrowth": 1589,
  "Ġflowing": 1590,
  "fish": 1591,
  "Ġnearby": 1592,
  "Ġcolorful": 1593,
  "green": 1594,
  "Ġitems": 1595,
  "Ġfootprin": 1596,
  "Ġ20": 1597,
  "Ġmoving": 1598,
  "Ġdam": 1599,
  "Ġpathway": 1600,
  "ip": 1601,
  "Ġbigger": 1602,
  "Ġillustration": 1603,
  "Ġledge": 1604,
  "work": 1605,
  "ĠMore": 1606,
  "gy": 1607,
  "Ġprotruding": 1608,
  "Ġbicycle": 1609,
  "Ġfocus": 1610,
  "ĠFurther": 1611,
  "sized": 1612,
  "Ġhung": 1613,
  "IS": 1614,
  "Ġoce": 1615,
  "Ġrubber": 1616,
  "Ġhue": 1617,
  "utdoor": 1618,
  "Ġcrystal": 1619,
  "Ġunseen": 1620,
  "Ġmix": 1621,
  "Ġstreaks": 1622,
  "Ġfa": 1623,
  "bris": 1624,
  "Ġconnecting": 1625,
  "Ġilluminates": 1626,
  "gae": 1627,
  "Ġexp": 1628,
  "OP": 1629,
  "EX": 1630,
  "Ġdebris": 1631,
  "Ġprint": 1632,
  "Ġmissing": 1633,
  "Ġlife": 1634,
  "Ġsmile": 1635,
  "ION": 1636,
  "Ġupright": 1637,
  "ĠPor": 1638,
  "Ġtelephone": 1639,
  "Ġdetails": 1640,
  "Ġexcept": 1641,
  "Ġdesk": 1642,
  "VE": 1643,
  "Ġlocated": 1644,
  "Ġgiving": 1645,
  "Ġrib": 1646,
  "Ġgrasshopper": 1647,
  "Ġocean": 1648,
  "ĠMost": 1649,
  "Ġarranged": 1650,
  "ĠMul": 1651,
  "Ġalgae": 1652,
  "ĠPorsche": 1653,
  "Ġfont": 1654,
  "Ġmug": 1655,
  "Ġdoes": 1656,
  "Ġshoes": 1657,
  "Ġartwork": 1658,
  "cause": 1659,
  "Ġmask": 1660,
  "Ġswir": 1661,
  "Ġspecks": 1662,
  "osa": 1663,
  "Ġbeginning": 1664,
  "Ġmanhole": 1665,
  "Ġaccents": 1666,
  "Ġfrog": 1667,
  "Ġshoulder": 1668,
  "Ġpair": 1669,
  "Ġamount": 1670,
  "Ġseparated": 1671,
  "Ġuneven": 1672,
  "Ġholds": 1673,
  "Ġbeetle": 1674,
  "ult": 1675,
  "Ġbasketball": 1676,
  "Ġoutdoors": 1677,
  "Ġleafy": 1678,
  "Ġelephant": 1679,
  "Ġgloss": 1680,
  "ET": 1681,
  "Ġcluster": 1682,
  "Ġelectric": 1683,
  "man": 1684,
  "AM": 1685,
  "ĠAround": 1686,
  "ord": 1687,
  "Ġgrill": 1688,
  "Two": 1689,
  "merged": 1690,
  "Ġbecause": 1691,
  "cl": 1692,
  "Ġwavy": 1693,
  "Ġrandom": 1694,
  "Ġcurving": 1695,
  "egas": 1696,
  "Ġfoam": 1697,
  "urky": 1698,
  "ratus": 1699,
  "Ġsubmerged": 1700,
  "Ġreflect": 1701,
  "Ġgranite": 1702,
  "Ġmurky": 1703,
  "Ġspans": 1704,
  "Ġmodel": 1705,
  "bly": 1706,
  "Ġgame": 1707,
  "ta": 1708,
  "Ġcushion": 1709,
  "Ġstream": 1710,
  "Ġindicating": 1711,
  "bit": 1712,
  "ĠBlack": 1713,
  "NO": 1714,
  "Ġmushroom": 1715,
  "Ġgoat": 1716,
  "Ġplayground": 1717,
  "US": 1718,
  "lin": 1719,
  "lue": 1720,
  "Ġseven": 1721,
  "ose": 1722,
  "gth": 1723,
  "Ġshoe": 1724,
  "Ġcanop": 1725,
  "Ġdock": 1726,
  "Ġbeach": 1727,
  "Ġcomp": 1728,
  "Ġbefore": 1729,
  "eep": 1730,
  "ature": 1731,
  "Ġmotorcycle": 1732,
  "Ġbanana": 1733,
  "Ġstretch": 1734,
  "Ġequ": 1735,
  "Ġdress": 1736,
  "ible": 1737,
  "Ġpuffy": 1738,
  "Ġengine": 1739,
  "AY": 1740,
  "Ġlaid": 1741,
  "ĠLar": 1742,
  "UT": 1743,
  "Outdoor": 1744,
  "Ġraccoon": 1745,
  "Ġsphere": 1746,
  "Ġheadlights": 1747,
  "Ġwa": 1748,
  "Ġkey": 1749,
  "Ġquad": 1750,
  "Ġembed": 1751,
  "Ġembedded": 1752,
  "Ġscooter": 1753,
  "Ġantenn": 1754,
  "Ġfloors": 1755,
  "AC": 1756,
  "Ġalig": 1757,
  "ĠPast": 1758,
  "Ġwarm": 1759,
  "Ġsuit": 1760,
  "Ġmetallic": 1761,
  "Ġexcav": 1762,
  "Ġinden": 1763,
  "Ġsandy": 1764,
  "Ġquadrant": 1765,
  "Ġscratches": 1766,
  "Ġ6": 1767,
  "key": 1768,
  "Ġeight": 1769,
  "iff": 1770,
  "tif": 1771,
  "IG": 1772,
  "Ġweb": 1773,
  "Ġ9": 1774,
  "Ġtongue": 1775,
  "Ġheight": 1776,
  "Ġstadium": 1777,
  "Ġbre": 1778,
  "irt": 1779,
  "Ġrem": 1780,
  "ĠLarge": 1781,
  "Ġdepiction": 1782,
  "Ġhelmet": 1783,
  "ĠSeveral": 1784,
  "Ġmini": 1785,
  "ĠVegas": 1786,
  "oid": 1787,
  "ĠFord": 1788,
  "ia": 1789,
  "Ġbarn": 1790,
  "Ġcanopy": 1791,
  "Ġextreme": 1792,
  "Ġresemble": 1793,
  "Ġbelly": 1794,
  "Ġbank": 1795,
  "uzzle": 1796,
  "Ġexcavator": 1797,
  "fall": 1798,
  "Ġreve": 1799,
  "Ġdivided": 1800,
  "osaur": 1801,
  "ĠTHE": 1802,
  "Ġschool": 1803,
  "cial": 1804,
  "Ġchandel": 1805,
  "Ġlength": 1806,
  "Ġgar": 1807,
  "Ġladder": 1808,
  "Ġsedan": 1809,
  "Ġseparate": 1810,
  "Ġuni": 1811,
  "Ġpy": 1812,
  "Ġjag": 1813,
  "Ġmosaic": 1814,
  "urch": 1815,
  "Ġrunway": 1816,
  "ĠGrass": 1817,
  "Ġcurren": 1818,
  "Ġegg": 1819,
  "ĠLas": 1820,
  "Ġrepl": 1821,
  "Ġdinosaur": 1822,
  "Ġfireplace": 1823,
  "ĠNew": 1824,
  "Ġglobe": 1825,
  "Ġsingular": 1826,
  "useum": 1827,
  "Ġvisibly": 1828,
  "Ġpeaco": 1829,
  "Ġmedian": 1830,
  "ĠNext": 1831,
  "Ġincl": 1832,
  "Upper": 1833,
  "Ġjagged": 1834,
  "Ġorn": 1835,
  "Ġswing": 1836,
  "Ġsnake": 1837,
  "ĠJeep": 1838,
  "Ġfog": 1839,
  "Close": 1840,
  "OL": 1841,
  "Ġpyram": 1842,
  "ual": 1843,
  "ĠX": 1844,
  "ĠShe": 1845,
  "og": 1846,
  "Ġstomach": 1847,
  "ĠRe": 1848,
  "Ġrobot": 1849,
  "road": 1850,
  "Ġdivider": 1851,
  "Ġchurch": 1852,
  "boy": 1853,
  "Ġgoal": 1854,
  "CH": 1855,
  "Ġabstract": 1856,
  "Ġcrown": 1857,
  "Ġamong": 1858,
  "ph": 1859,
  "Ġinner": 1860,
  "Ġrainbow": 1861,
  "Ġpuzzle": 1862,
  "Ġcowboy": 1863,
  "Ġcartoon": 1864,
  "Ġglossy": 1865,
  "Ġnearly": 1866,
  "Ġaligned": 1867,
  "Ġchandelier": 1868,
  "Ġconnects": 1869,
  "Ġpeacock": 1870,
  "Ġplaying": 1871,
  "Ġribbon": 1872,
  "Ġproje": 1873,
  "Ġcommer": 1874,
  "Ġcommercial": 1875,
  "Ġcabin": 1876,
  "Ġspeck": 1877,
  "ĠFour": 1878,
  "dy": 1879,
  "os": 1880,
  "Ġboots": 1881,
  "umulonimb": 1882,
  "umulonimbus": 1883,
  "Ġtu": 1884,
  "mon": 1885,
  "Ġoverg": 1886,
  "Ġceramic": 1887,
  "Ġbutton": 1888,
  "50": 1889,
  "Ġfootprint": 1890,
  "Ġperfe": 1891,
  "Ġfencing": 1892,
  "Ġholder": 1893,
  "Ġperched": 1894,
  "Ġbill": 1895,
  "if": 1896,
  "ash": 1897,
  "ging": 1898,
  "Ġrabbit": 1899,
  "Ġchrome": 1900,
  "Ġcaterp": 1901,
  "ley": 1902,
  "Ġhelicopter": 1903,
  "Ġcube": 1904,
  "ino": 1905,
  "Ġcurrently": 1906,
  "Ġvary": 1907,
  "Ġwaterfall": 1908,
  "front": 1909,
  "Ġturns": 1910,
  "Ġtint": 1911,
  "Ġintersection": 1912,
  "Ġpud": 1913,
  "pective": 1914,
  "ob": 1915,
  "Ġvent": 1916,
  "Ġovergrown": 1917,
  "Ġscrew": 1918,
  "Ġseems": 1919,
  "Ġpyramid": 1920,
  "box": 1921,
  "IR": 1922,
  "Ġthinner": 1923,
  "tifiable": 1924,
  "ARK": 1925,
  "Ġtrimming": 1926,
  "ĠLam": 1927,
  "Ġhandrail": 1928,
  "Ġsimple": 1929,
  "ĠNe": 1930,
  "Ġdowntown": 1931,
  "DE": 1932,
  "covered": 1933,
  "Ġfootball": 1934,
  "nic": 1935,
  "Ġcliff": 1936,
  "Ġwine": 1937,
  "Ġhowever": 1938,
  "Ġentry": 1939,
  "Ġimmed": 1940,
  "ĠTheir": 1941,
  "Ġ19": 1942,
  "iv": 1943,
  "Ġinches": 1944,
  "Ġmainly": 1945,
  "uc": 1946,
  "Ġbolted": 1947,
  "Ġadj": 1948,
  "Ġspan": 1949,
  "Ġused": 1950,
  "Ġsoc": 1951,
  "view": 1952,
  "Ġidentical": 1953,
  "Ġreaches": 1954,
  "Ġelevator": 1955,
  "Ġpicnic": 1956,
  "kles": 1957,
  "ĠCon": 1958,
  "Ġeffe": 1959,
  "Ġcumulonimbus": 1960,
  "Ġresidential": 1961,
  "ized": 1962,
  "Ġsoccer": 1963,
  "Ġstool": 1964,
  "Ġsink": 1965,
  "ĠJust": 1966,
  "go": 1967,
  "IM": 1968,
  "Ġsegment": 1969,
  "OW": 1970,
  "ĠDried": 1971,
  "Ġcaterpillar": 1972,
  "Ġslee": 1973,
  "Ġunidentifiable": 1974,
  "Low": 1975,
  "ĠVol": 1976,
  "Ġpee": 1977,
  "Ġcalm": 1978,
  "LY": 1979,
  "Ġmuseum": 1980,
  "Ġbackboard": 1981,
  "Ġreplica": 1982,
  "Ġalto": 1983,
  "Ġperspective": 1984,
  "Ġcro": 1985,
  "inal": 1986,
  "dish": 1987,
  "Ġboot": 1988,
  "Ġcann": 1989,
  "Ġcarving": 1990,
  "Ġmixed": 1991,
  "lyph": 1992,
  "uminum": 1993,
  "ban": 1994,
  "Ġeffect": 1995,
  "Ġbubbles": 1996,
  "Ġroofs": 1997,
  "Ġtunnel": 1998,
  "oves": 1999,
  "Ġumb": 2000,
  "Ġumbrel": 2001,
  "Ġbeer": 2002,
  "Ġ7": 2003,
  "ĠLambor": 2004,
  "ĠLamborg": 2005,
  "framed": 2006,
  "Ġfurn": 2007,
  "Ġaluminum": 2008,
  "OUR": 2009,
  "olding": 2010,
  "igg": 2011,
  "Ġstratocumulus": 2012,
  "Ġmeets": 2013,
  "Ġbaseboard": 2014,
  "hini": 2015,
  "ĠLamborghini": 2016,
  "Ġclaw": 2017,
  "Ġhorns": 2018,
  "Ġhook": 2019,
  "Ġswit": 2020,
  "ENT": 2021,
  "Ġsubway": 2022,
  "ney": 2023,
  "EXIT": 2024,
  "UM": 2025,
  "zy": 2026,
  "Ġinsect": 2027,
  "Ġloader": 2028,
  "Ġmatte": 2029,
  "rib": 2030,
  "ild": 2031,
  "Ġslide": 2032,
  "conies": 2033,
  "ient": 2034,
  "Ġpup": 2035,
  "Ġbackwards": 2036,
  "link": 2037,
  "acent": 2038,
  "Ġtypes": 2039,
  "Ġcursive": 2040,
  "Ġreddish": 2041,
  "yal": 2042,
  "Ġgolf": 2043,
  "Ġguardrail": 2044,
  "Ġbubble": 2045,
  "Ġ201": 2046,
  "ĠTree": 2047,
  "Ġbalconies": 2048,
  "Ġdroplets": 2049,
  "Ġconnect": 2050,
  "Ġseparating": 2051,
  "Ġtoilet": 2052,
  "ALL": 2053,
  "Ġroyal": 2054,
  "ĠUn": 2055,
  "Ġpickup": 2056,
  "Ġcorrug": 2057,
  "ĠLab": 2058,
  "Ġscratched": 2059,
  "Ġadjacent": 2060,
  "ĠMany": 2061,
  "Ġaltern": 2062,
  "Ġimprin": 2063,
  "ĠZ": 2064,
  "CK": 2065,
  "Ġwrin": 2066,
  "RI": 2067,
  "Ġlush": 2068,
  "agle": 2069,
  "ĠWhe": 2070,
  "Ġrailroad": 2071,
  "Ġtrimmed": 2072,
  "Ġincluding": 2073,
  "Ġdisplaying": 2074,
  "ĠBu": 2075,
  "CA": 2076,
  "Ġolive": 2077,
  "Ġmove": 2078,
  "Ġfixed": 2079,
  "Ġspotlight": 2080,
  "Ġcorrugated": 2081,
  "Ġpuddle": 2082,
  "CE": 2083,
  "Ġsplot": 2084,
  "Ġelongated": 2085,
  "Ġaltocumulus": 2086,
  "Ġsquigg": 2087,
  "Ġapartment": 2088,
  "Ġturf": 2089,
  "ĠOF": 2090,
  "ĠCo": 2091,
  "Ġhazy": 2092,
  "Ġdragonfly": 2093,
  "Ġafter": 2094,
  "of": 2095,
  "ONE": 2096,
  "PE": 2097,
  "Ġbaseball": 2098,
  "Ġwhiskers": 2099,
  "Ġliqu": 2100,
  "Ġeagle": 2101,
  "00": 2102,
  "Ġsold": 2103,
  "Ġchocolate": 2104,
  "Ġlock": 2105,
  "Ġhalfway": 2106,
  "ARKING": 2107,
  "homb": 2108,
  "Ġfigurine": 2109,
  "Ġdomino": 2110,
  "ĠYor": 2111,
  "Ġturn": 2112,
  "ĠBetween": 2113,
  "Ġisland": 2114,
  "Ġstainless": 2115,
  "Ġfru": 2116,
  "Ġclimb": 2117,
  "iture": 2118,
  "Ġfurniture": 2119,
  "Ġdarkness": 2120,
  "Ġpulled": 2121,
  "Ġcanv": 2122,
  "Ġnine": 2123,
  "Ġhandleb": 2124,
  "ude": 2125,
  "RU": 2126,
  "Ġhold": 2127,
  "Ġbodies": 2128,
  "Ġsmiling": 2129,
  "Ġjacket": 2130,
  "OD": 2131,
  "ĠWheels": 2132,
  "Ġda": 2133,
  "Ġskies": 2134,
  "ĠCen": 2135,
  "Ġrhomb": 2136,
  "ĠDirt": 2137,
  "ĠRefle": 2138,
  "Ġstreetlight": 2139,
  "icular": 2140,
  "cil": 2141,
  "Ġmeet": 2142,
  "Ġwaist": 2143,
  "CT": 2144,
  "Ġboulder": 2145,
  "alth": 2146,
  "Ġillegible": 2147,
  "UR": 2148,
  "Ġsaddle": 2149,
  "Ġembossed": 2150,
  "my": 2151,
  "Ġperpend": 2152,
  "Ġperpendicular": 2153,
  "ĠSp": 2154,
  "Ġyellowish": 2155,
  "py": 2156,
  "Ġpedestal": 2157,
  "Ġnailed": 2158,
  "Ġforefront": 2159,
  "Ġcoat": 2160,
  "Ġrevealing": 2161,
  "Ġplaque": 2162,
  "Ġjo": 2163,
  "Ġbookshel": 2164,
  "Ġcanvas": 2165,
  "Ġinter": 2166,
  "Ġeyeb": 2167,
  "Ġentryway": 2168,
  "Ġdividing": 2169,
  "Ġcrev": 2170,
  "28": 2171,
  "Ġmail": 2172,
  "Ġfork": 2173,
  "Ġpiano": 2174,
  "Ġscrib": 2175,
  "Ġstreak": 2176,
  "Ġtrol": 2177,
  "ĠLabradoodle": 2178,
  "Indoor": 2179,
  "STOP": 2180,
  "ĠLe": 2181,
  "Ġcheckered": 2182,
  "Ġpeeking": 2183,
  "Ġramp": 2184,
  "Ġtrolley": 2185,
  "Long": 2186,
  "ĠChev": 2187,
  "Ġloose": 2188,
  "Ġstairway": 2189,
  "Ġdamaged": 2190,
  "HEEL": 2191,
  "Ġshowroom": 2192,
  "ĠFrom": 2193,
  "Ġclimbing": 2194,
  "Ġstrong": 2195,
  "In": 2196,
  "ĠVisible": 2197,
  "ĠYork": 2198,
  "Ġdolphin": 2199,
  "omin": 2200,
  "Ġjump": 2201,
  "Ġpre": 2202,
  "Ġarchway": 2203,
  "Ġknee": 2204,
  "fo": 2205,
  "Ġtoys": 2206,
  "althy": 2207,
  "ĠAttached": 2208,
  "HT": 2209,
  "Ġinward": 2210,
  "Ġsplotches": 2211,
  "Ġblonde": 2212,
  "Ġpedals": 2213,
  "Ġhooves": 2214,
  "Ġshut": 2215,
  "Ġwis": 2216,
  "HOT": 2217,
  "Ġprov": 2218,
  "ĠNatural": 2219,
  "Ġhealthy": 2220,
  "lies": 2221,
  "bage": 2222,
  "itting": 2223,
  "Ġshrub": 2224,
  "GE": 2225,
  "Ġcontrail": 2226,
  "Ġbookshelf": 2227,
  "ĠTH": 2228,
  "Ġdisplays": 2229,
  "Ġartificial": 2230,
  "Ġsuspended": 2231,
  "Ġjack": 2232,
  "Ġclean": 2233,
  "TA": 2234,
  "Ġtax": 2235,
  "11": 2236,
  "ĠHond": 2237,
  "ĠHonda": 2238,
  "Ġgrid": 2239,
  "KE": 2240,
  "Ġhoop": 2241,
  "Ġcolle": 2242,
  "Ġsunshine": 2243,
  "int": 2244,
  "Ġkay": 2245,
  "Ġcraw": 2246,
  "Ġsmud": 2247,
  "Ġ8": 2248,
  "Ġspiral": 2249,
  "HEELS": 2250,
  "Ġimmediate": 2251,
  "Ġwoven": 2252,
  "Ġonion": 2253,
  "bling": 2254,
  "gray": 2255,
  "Ġcorn": 2256,
  "ĠBright": 2257,
  "Ġscrews": 2258,
  "Ġswitch": 2259,
  "Ġexpression": 2260,
  "Ġdigital": 2261,
  "Ġhorn": 2262,
  "Ġmailbox": 2263,
  "Ġslim": 2264,
  "ĠBlue": 2265,
  "Ġmarsh": 2266,
  "roglyph": 2267,
  "Ġalco": 2268,
  "Ġtoo": 2269,
  "Ġspikes": 2270,
  "ĠPark": 2271,
  "ĠOr": 2272,
  "Ġscratch": 2273,
  "Ġsprouting": 2274,
  "ĠChevrolet": 2275,
  "Ġumbrella": 2276,
  "Th": 2277,
  "Ġ&": 2278,
  "Ġchee": 2279,
  "Ġbrass": 2280,
  "Ġprofile": 2281,
  "Ġpitch": 2282,
  "Ġmonkey": 2283,
  "Ġdetailed": 2284,
  "Ġ18": 2285,
  "quo": 2286,
  "Ġmirrors": 2287,
  "brary": 2288,
  "Ġdrum": 2289,
  "Ġgrackle": 2290,
  "TH": 2291,
  "20": 2292,
  "Ġsofa": 2293,
  "Ġbecome": 2294,
  "drop": 2295,
  "Ġwid": 2296,
  "ĠBrown": 2297,
  "Ġindoors": 2298,
  "Ġvarying": 2299,
  "Ġzig": 2300,
  "nt": 2301,
  "Ġforehead": 2302,
  "Ġemble": 2303,
  "Ġdesert": 2304,
  "Ġbackp": 2305,
  "Ġavo": 2306,
  "Ġavocad": 2307,
  "ulture": 2308,
  "ĠDark": 2309,
  "Ġpetroglyph": 2310,
  "LI": 2311,
  "Ġgradient": 2312,
  "viron": 2313,
  "Ġenviron": 2314,
  "Ġdetailing": 2315,
  "Ġbackdrop": 2316,
  "Ġwidth": 2317,
  "Ġeyebrows": 2318,
  "Ġbolts": 2319,
  "Ġgirl": 2320,
  "bre": 2321,
  "Ġemblem": 2322,
  "COM": 2323,
  "Three": 2324,
  "Ġcrushed": 2325,
  "Ġbillboard": 2326,
  "28i": 2327,
  "Ġspeckled": 2328,
  "Ġmuddy": 2329,
  "through": 2330,
  "quoise": 2331,
  "Ġturquoise": 2332,
  "Ġbell": 2333,
  "ld": 2334,
  "Ġsnout": 2335,
  "itional": 2336,
  "Ġcountertop": 2337,
  "Ġ3D": 2338,
  "Ġsquiggly": 2339,
  "Ġoverhanging": 2340,
  "Ġyet": 2341,
  "Ġsomewhat": 2342,
  "Ġwispy": 2343,
  "Ġsunglasses": 2344,
  "Ġmodern": 2345,
  "Ġinf": 2346,
  "Ġdrain": 2347,
  "Ġpeak": 2348,
  "Ġliquid": 2349,
  "Ġdisplayed": 2350,
  "ucca": 2351,
  "Ġcreek": 2352,
  "Ġthumb": 2353,
  "Ġenvironment": 2354,
  "Ġtoes": 2355,
  "Ġspeaker": 2356,
  "Ġcreature": 2357,
  "Ġcontrol": 2358,
  "Ġbackpack": 2359,
  "Ġreally": 2360,
  "ipment": 2361,
  "Ġtorso": 2362,
  "Ġtype": 2363,
  "ka": 2364,
  "Ġroadway": 2365,
  "ĠDe": 2366,
  "Ġnut": 2367,
  "Ġreal": 2368,
  "Ġwild": 2369,
  "ĠConne": 2370,
  "oh": 2371,
  "ĠAnole": 2372,
  "ogle": 2373,
  "ĠTO": 2374,
  "Ġvib": 2375,
  "Ġneigh": 2376,
  "water": 2377,
  "Ġsail": 2378,
  "Ġreach": 2379,
  "Ġchimney": 2380,
  "Ġterm": 2381,
  "Ġdepicted": 2382,
  "Ġombre": 2383,
  "rying": 2384,
  "19": 2385,
  "Ġperfectly": 2386,
  "ĠPARKING": 2387,
  "Ġcano": 2388,
  "Ġequipment": 2389,
  "ivid": 2390,
  "Ġcutting": 2391,
  "Ġclaws": 2392,
  "Ġflu": 2393,
  "Ġvulture": 2394,
  "Ġbee": 2395,
  "Ġsketch": 2396,
  "LOS": 2397,
  "Ġtwig": 2398,
  "ĠHot": 2399,
  "Ġdistinct": 2400,
  "Ġtrashcan": 2401,
  "Ġpeach": 2402,
  "UN": 2403,
  "ĠCity": 2404,
  "ail": 2405,
  "vy": 2406,
  "ĠONLY": 2407,
  "Ġspell": 2408,
  "Ġantennas": 2409,
  "Ġmonitor": 2410,
  "Ġsafety": 2411,
  "ĠNear": 2412,
  "Ġindivid": 2413,
  "walk": 2414,
  "Ġhexagon": 2415,
  "Ġ428i": 2416,
  "ĠWater": 2417,
  "flies": 2418,
  "Ġsyste": 2419,
  "Ġknight": 2420,
  "Ġhedge": 2421,
  "Ġdotted": 2422,
  "Ġgas": 2423,
  "Ġobscuring": 2424,
  "Ġbrush": 2425,
  "Ġoak": 2426,
  "oogle": 2427,
  "Ġloop": 2428,
  "Ġrhombus": 2429,
  "Ġpupils": 2430,
  "Ġneighbor": 2431,
  "Ġscoreboard": 2432,
  "Ġtorn": 2433,
  "Ġgl": 2434,
  "Ġfollow": 2435,
  "Ġpredomin": 2436,
  "Ġchalkboard": 2437,
  "metrical": 2438,
  "Ġcontrast": 2439,
  "ĠLi": 2440,
  "zag": 2441,
  "Ġsnowman": 2442,
  "Ġblooming": 2443,
  "Ġsystem": 2444,
  "Ġfoggy": 2445,
  "Ġcargo": 2446,
  "ctopus": 2447,
  "Ġoctopus": 2448,
  "Ġblank": 2449,
  "Ġscaffolding": 2450,
  "Ġwatermelon": 2451,
  "Ġantique": 2452,
  "Ġvibrant": 2453,
  "Ġanimated": 2454,
  "Ġhandlebars": 2455,
  "Ġtorch": 2456,
  "blue": 2457,
  "YC": 2458,
  "Ġbolt": 2459,
  "Ġjumping": 2460,
  "Ġsunlit": 2461,
  "Ġsmears": 2462,
  "gage": 2463,
  "ĠAs": 2464,
  "Ġeating": 2465,
  "Ġmilitary": 2466,
  "berty": 2467,
  "ĠWar": 2468,
  "Ġsloping": 2469,
  "Ġpolished": 2470,
  "Ġsplat": 2471,
  "Ġgarbage": 2472,
  "Ġfuzzy": 2473,
  "Ġsprouts": 2474,
  "Ġgiraffe": 2475,
  "Ġmoist": 2476,
  "ĠFer": 2477,
  "Ġlibrary": 2478,
  "UL": 2479,
  "Ġharsh": 2480,
  "Ġflipped": 2481,
  "Ġburnt": 2482,
  "Ġisn": 2483,
  "Ġpebble": 2484,
  "hoe": 2485,
  "Ġexit": 2486,
  "Ġswam": 2487,
  "Ġaqua": 2488,
  "Ġga": 2489,
  "ĠCLOS": 2490,
  "Ġpear": 2491,
  "Ġmatching": 2492,
  "Ġspec": 2493,
  "Ġsleeve": 2494,
  "ĠWood": 2495,
  "Ġallowing": 2496,
  "Ġoctagon": 2497,
  "Ġrestaurant": 2498,
  "Side": 2499,
  "Ġfem": 2500,
  "Ġscuff": 2501,
  "10": 2502,
  "Ġjelly": 2503,
  "urban": 2504,
  "raft": 2505,
  "Ġarmor": 2506,
  "Ġresolution": 2507,
  "Ġalcove": 2508,
  "Ġorb": 2509,
  "ĠWAY": 2510,
  "Ġplug": 2511,
  "Ġswirl": 2512,
  "ĠHar": 2513,
  "mp": 2514,
  "ĠBuilding": 2515,
  "Ġviolet": 2516,
  "Ġwrist": 2517,
  "ĠRiver": 2518,
  "ĠOutside": 2519,
  "Ġcourse": 2520,
  "LAN": 2521,
  "FF": 2522,
  "Front": 2523,
  "Ġshopping": 2524,
  "Ġwrinkles": 2525,
  "ĠMustang": 2526,
  "ĠSitting": 2527,
  "Ġcannon": 2528,
  "Ġcrocod": 2529,
  "Ġgetting": 2530,
  "ious": 2531,
  "Ġparrot": 2532,
  "Ġcanyon": 2533,
  "Ġdirect": 2534,
  "Ġshipping": 2535,
  "Ġgradually": 2536,
  "ASE": 2537,
  "Ġcy": 2538,
  "Ġmic": 2539,
  "Ġbrake": 2540,
  "UTION": 2541,
  "rocumulus": 2542,
  "Ġearly": 2543,
  "lapping": 2544,
  "Ġoverlapping": 2545,
  "Ġlug": 2546,
  "ĠEvery": 2547,
  "Ġtortoise": 2548,
  "edium": 2549,
  "aw": 2550,
  "Ġpolka": 2551,
  "Ġslice": 2552,
  "chair": 2553,
  "Ġ2016": 2554,
  "Ġcurly": 2555,
  "ĠAir": 2556,
  "Ġrepresent": 2557,
  "ĠMetal": 2558,
  "flower": 2559,
  "Ġcrocodile": 2560,
  "Ġbackrest": 2561,
  "PLE": 2562,
  "Ġleftmost": 2563,
  "Ġstaggered": 2564,
  "Ġpigeon": 2565,
  "Ġunderwater": 2566,
  "Ġcrate": 2567,
  "Ġ(": 2568,
  "EP": 2569,
  "ĠYellow": 2570,
  "Ġornate": 2571,
  "Ġterminal": 2572,
  "ĠWhile": 2573,
  "zing": 2574,
  "kin": 2575,
  "Ġcapital": 2576,
  "Ġgrouping": 2577,
  "Ġsomeone": 2578,
  "DO": 2579,
  "Ġshingles": 2580,
  "Ġpulling": 2581,
  "Ġbutterflies": 2582,
  "Ġsoldier": 2583,
  "ye": 2584,
  "ĠPe": 2585,
  "Ġcinder": 2586,
  "ĠNot": 2587,
  "Ġgloomy": 2588,
  "ĠOther": 2589,
  "CO": 2590,
  "Ġpushed": 2591,
  "Ġrec": 2592,
  "Ġcomb": 2593,
  "type": 2594,
  "Ġrigid": 2595,
  "Ġavocado": 2596,
  "Ġwasp": 2597,
  "ĠNumerous": 2598,
  "Ġnude": 2599,
  "Ġcanal": 2600,
  "Ġfluorescent": 2601,
  "Ġperfect": 2602,
  "ĠFive": 2603,
  "Ġpotted": 2604,
  "wagen": 2605,
  "Ġknot": 2606,
  "Ġskirt": 2607,
  "Ġgrassland": 2608,
  "iky": 2609,
  "Ġspiky": 2610,
  "Ġantennae": 2611,
  "SP": 2612,
  "Ġdegree": 2613,
  "Ġdoesn": 2614,
  "Ġconver": 2615,
  "Ġclump": 2616,
  "ĠAbout": 2617,
  "Ġblowing": 2618,
  "Ġknife": 2619,
  "Ġfruit": 2620,
  "glass": 2621,
  "ĠWith": 2622,
  "mo": 2623,
  "Ġbarricade": 2624,
  "Ġresembling": 2625,
  "Ġnumeral": 2626,
  "pat": 2627,
  "Ġshooting": 2628,
  "horn": 2629,
  "Ġhandicap": 2630,
  "kswagen": 2631,
  "ĠVolkswagen": 2632,
  "Ġbreak": 2633,
  "Ġviews": 2634,
  "Ġkeys": 2635,
  "Ġpedest": 2636,
  "ĠEgy": 2637,
  "ĠMan": 2638,
  "LA": 2639,
  "Ġelbow": 2640,
  "Ġdripping": 2641,
  "Ġplywood": 2642,
  "Ġcontinue": 2643,
  "Ġseem": 2644,
  "Ġbleachers": 2645,
  "ĠPlaced": 2646,
  "ERS": 2647,
  "Ġcanoe": 2648,
  "looking": 2649,
  "Ġindividual": 2650,
  "Ġfaucet": 2651,
  "Medium": 2652,
  "Ġillustrated": 2653,
  "screen": 2654,
  "rostratus": 2655,
  "Ġhardly": 2656,
  "Ġunicorn": 2657,
  "ĠExtending": 2658,
  "Ġhallway": 2659,
  "Ġcrab": 2660,
  "ĠAr": 2661,
  "Ġspotted": 2662,
  "unched": 2663,
  "lock": 2664,
  "Ġhovering": 2665,
  "Ġenough": 2666,
  "Ġpavil": 2667,
  "Ġyucca": 2668,
  "Ġmonument": 2669,
  "ĠToy": 2670,
  "ĠRo": 2671,
  "Ġcrawling": 2672,
  "ĠEgyptian": 2673,
  "Ġgreat": 2674,
  "Ġcharco": 2675,
  "Ġcharcoal": 2676,
  "leans": 2677,
  "CAUTION": 2678,
  "ux": 2679,
  "Ġtaxider": 2680,
  "Ġoil": 2681,
  "Ġsmudges": 2682,
  "ĠIndoors": 2683,
  "EM": 2684,
  "Ġsymmetrical": 2685,
  "ĠWHEELS": 2686,
  "Ġwears": 2687,
  "Ġhollow": 2688,
  "Ġhammer": 2689,
  "Ġpatchy": 2690,
  "Ġbirdhouse": 2691,
  "io": 2692,
  "kled": 2693,
  "Ġsnail": 2694,
  "Ġseashells": 2695,
  "ĠSc": 2696,
  "Ġtrapez": 2697,
  "BUS": 2698,
  "FT": 2699,
  "Ġhumanoid": 2700,
  "Ġcomic": 2701,
  "ĠWor": 2702,
  "Ġgeese": 2703,
  "left": 2704,
  "ĠToyota": 2705,
  "Ġchildren": 2706,
  "TO": 2707,
  "ĠReflections": 2708,
  "Ġneighborhood": 2709,
  "Ġpotatoes": 2710,
  "Ġunique": 2711,
  "vo": 2712,
  "Ġpolice": 2713,
  "ĠOrleans": 2714,
  "Ġtoad": 2715,
  "ĠCir": 2716,
  "SH": 2717,
  "Ġluggage": 2718,
  "EW": 2719,
  "ĠGray": 2720,
  "Ġmusic": 2721,
  "ĠTes": 2722,
  "ĠTesla": 2723,
  "ĠQ": 2724,
  "Ġfern": 2725,
  "Ġkitchen": 2726,
  "Ġcirrocumulus": 2727,
  "Ġharness": 2728,
  "Ġstrol": 2729,
  "Ġbloom": 2730,
  "patterned": 2731,
  "Ġdominoes": 2732,
  "ĠStreet": 2733,
  "arch": 2734,
  "Ġhub": 2735,
  "Ġcarriage": 2736,
  "retched": 2737,
  "Ġinch": 2738,
  "ĠSix": 2739,
  "Ġbouncing": 2740,
  "ĠSanta": 2741,
  "Ġfair": 2742,
  "ught": 2743,
  "Ġcaught": 2744,
  "Ġfres": 2745,
  "Ġinstead": 2746,
  "Ġfox": 2747,
  "Ġdraped": 2748,
  "ĠLiberty": 2749,
  "Ġovular": 2750,
  "MA": 2751,
  "Ġcollection": 2752,
  "Ġput": 2753,
  "Ġstroller": 2754,
  "Ġsplash": 2755,
  "Ġscribbles": 2756,
  "Ġrolled": 2757,
  "ĠEverything": 2758,
  "Ġcommon": 2759,
  "Ġbunny": 2760,
  "Ġgn": 2761,
  "Ġbelt": 2762,
  "Ġkeyboard": 2763,
  "Ġoutstretched": 2764,
  "Ġbusy": 2765,
  "Ġstencil": 2766,
  "Ġemanating": 2767,
  "Ġtroph": 2768,
  "Ġtrophy": 2769,
  "Ġknob": 2770,
  "30": 2771,
  "Ġhalves": 2772,
  "Ġunlit": 2773,
  "Ġjellyfish": 2774,
  "textured": 2775,
  "Ġwrap": 2776,
  "Ġbathroom": 2777,
  "Ġjeans": 2778,
  "ĠOver": 2779,
  "ĠStatue": 2780,
  "Ġcock": 2781,
  "Ġscrol": 2782,
  "Ġrailway": 2783,
  "ĠFar": 2784,
  "Ġprojected": 2785,
  "oi": 2786,
  "Ġalternating": 2787,
  "MO": 2788,
  "Ġinserted": 2789,
  "Ġnetting": 2790,
  "inn": 2791,
  "ĠFerrari": 2792,
  "Ġpaddle": 2793,
  "Ġpavilion": 2794,
  "Ġgrayish": 2795,
  "press": 2796,
  "Ġkayak": 2797,
  "PLEASE": 2798,
  "ulf": 2799,
  "Ġhours": 2800,
  "ĠYOUR": 2801,
  "Ġwarped": 2802,
  "Ġporcelain": 2803,
  "Ġflattened": 2804,
  "Ġwarning": 2805,
  "ĠVolvo": 2806,
  "Ġaltostratus": 2807,
  "Ġpredominantly": 2808,
  "Ġspraw": 2809,
  "Ġmeant": 2810,
  "den": 2811,
  "ĠAND": 2812,
  "TS": 2813,
  "Ġarmad": 2814,
  "Ġfresh": 2815,
  "Ġusing": 2816,
  "Ġfree": 2817,
  "Ġtheater": 2818,
  "Ġchun": 2819,
  "Ġcrosswalk": 2820,
  "lish": 2821,
  "Ġhandw": 2822,
  "Ġfridge": 2823,
  "Ġwhereas": 2824,
  "Ġsignif": 2825,
  "Ġsunrise": 2826,
  "Ġspanning": 2827,
  "Ġdrinking": 2828,
  "Ġportra": 2829,
  "Ġcrevice": 2830,
  "Ġstaff": 2831,
  "Ġconvex": 2832,
  "Ġheadboard": 2833,
  "Ġtulips": 2834,
  "Ġopa": 2835,
  "Ġopaque": 2836,
  "Ġcricket": 2837,
  "Ġscheme": 2838,
  "pit": 2839,
  "ying": 2840,
  "imbostratus": 2841,
  "EXAS": 2842,
  "Ġetched": 2843,
  "Ġpencil": 2844,
  "Ġseaweed": 2845,
  "ĠCars": 2846,
  "Ġtrapezoid": 2847,
  "bra": 2848,
  "ROAD": 2849,
  "bur": 2850,
  "ĠPower": 2851,
  "',": 2852,
  "Hot": 2853,
  "Ġmov": 2854,
  "Ġdusk": 2855,
  "Ġ12": 2856,
  "ĠMon": 2857,
  "Ġabd": 2858,
  "Ġabdomen": 2859,
  "Ġpendant": 2860,
  "ĠFOR": 2861,
  "Ġcomforter": 2862,
  "Ġpriv": 2863,
  "Ġwindm": 2864,
  "Ġkid": 2865,
  "Ġmonorail": 2866,
  "Ġsoap": 2867,
  "Ġspine": 2868,
  "BO": 2869,
  "Ġsliding": 2870,
  "air": 2871,
  "Ġremaining": 2872,
  "Ġalternate": 2873,
  "Ġrippling": 2874,
  "Ġfoundation": 2875,
  "Ġmagn": 2876,
  "Ġfollowing": 2877,
  "REC": 2878,
  "COME": 2879,
  "anized": 2880,
  "Ġrearview": 2881,
  "Ġgeod": 2882,
  "Ġtea": 2883,
  "ĠCumulus": 2884,
  "Ġdef": 2885,
  "Ġeighteen": 2886,
  "Ġplush": 2887,
  "Ġinflatable": 2888,
  "Ġnecklace": 2889,
  "Ġoblong": 2890,
  "ĠSpanish": 2891,
  "Ġhunched": 2892,
  "Ġbatht": 2893,
  "Ġbathtub": 2894,
  "Ġalien": 2895,
  "Ġpea": 2896,
  "Ġmuted": 2897,
  "Ġfemale": 2898,
  "Ġtwin": 2899,
  "Ġmustang": 2900,
  "Ġtraditional": 2901,
  "Ġtomato": 2902,
  "Ġcreases": 2903,
  "Ġrandomly": 2904,
  "Ġ45": 2905,
  "lucent": 2906,
  "Ġarmadillo": 2907,
  "rey": 2908,
  "Ġconvertible": 2909,
  "ĠWOR": 2910,
  "Ġsuitcase": 2911,
  "az": 2912,
  "Ġhuge": 2913,
  "Ġroller": 2914,
  "Ġcoaster": 2915,
  "23": 2916,
  "BE": 2917,
  "lic": 2918,
  "ĠIs": 2919,
  "ĠYOU": 2920,
  "14": 2921,
  "Ġroll": 2922,
  "barrow": 2923,
  "Ġwheelbarrow": 2924,
  "Ġtoe": 2925,
  "Ġaircraft": 2926,
  "Ġpull": 2927,
  "Ġzigzag": 2928,
  "ĠEiffel": 2929,
  "facing": 2930,
  "Ġcarrier": 2931,
  "Ġlamb": 2932,
  "Ġ911": 2933,
  "ĠConnected": 2934,
  "Ġornaments": 2935,
  "ĠWorld": 2936,
  "Ġtarget": 2937,
  "inch": 2938,
  "cy": 2939,
  "ĠHolding": 2940,
  "Ġengulf": 2941,
  "Ġdiscern": 2942,
  "Ġtelev": 2943,
  "Ġcontinu": 2944,
  "Ġax": 2945,
  "Ġwrapping": 2946,
  "Ġdummy": 2947,
  "ĠManhat": 2948,
  "ĠManhattan": 2949,
  "Ġuse": 2950,
  "ĠCam": 2951,
  "Ġhidden": 2952,
  "arm": 2953,
  "Ġtranslucent": 2954,
  "Ġx": 2955,
  "Ġprev": 2956,
  "rona": 2957,
  "Ġastrona": 2958,
  "Ġsteer": 2959,
  "JE": 2960,
  "CKS": 2961,
  "Ġcamouf": 2962,
  "90": 2963,
  "Ġheadlight": 2964,
  "Ġenclosed": 2965,
  "urf": 2966,
  "roof": 2967,
  "Ġdoll": 2968,
  "Ġtwisted": 2969,
  "Ġcray": 2970,
  "Ġadver": 2971,
  "laid": 2972,
  "Rex": 2973,
  "Ġparticularly": 2974,
  "Ġspire": 2975,
  "USTIN": 2976,
  "Ġthread": 2977,
  "made": 2978,
  "Ġtelevision": 2979,
  "bank": 2980,
  "reek": 2981,
  "ilt": 2982,
  "lequ": 2983,
  "lequin": 2984,
  "rowing": 2985,
  "RAIL": 2986,
  "Ġshutters": 2987,
  "URN": 2988,
  "Ġregular": 2989,
  "WEL": 2990,
  "Ġ15": 2991,
  "Ġactual": 2992,
  "Ġproviding": 2993,
  "ĠSqu": 2994,
  "cus": 2995,
  "Ġcheeks": 2996,
  "Ġskid": 2997,
  "Ġwicker": 2998,
  "Ġfrosted": 2999,
  "Ġ-": 3000,
  "Ġcourtyard": 3001,
  "ĠLANE": 3002,
  "Ġref": 3003,
  "ĠSeen": 3004,
  "Ġflatbed": 3005,
  "mal": 3006,
  "Ġillusion": 3007,
  "Ġthemselves": 3008,
  "Ġbarbed": 3009,
  "Ġmovie": 3010,
  "ada": 3011,
  "ĠColorado": 3012,
  "Ġfeeder": 3013,
  "ĠNissan": 3014,
  "Ġhighways": 3015,
  "Ġadult": 3016,
  "Ġitem": 3017,
  "22": 3018,
  "Ġscript": 3019,
  "Ġsprout": 3020,
  "Ġcheek": 3021,
  "paper": 3022,
  "ĠBudd": 3023,
  "ĠBuddha": 3024,
  "Ġgutter": 3025,
  "QU": 3026,
  "Ġprivacy": 3027,
  "Ġperked": 3028,
  "Ġgreenhouse": 3029,
  "Ġdrapery": 3030,
  "Ġbedding": 3031,
  "Ġrightmost": 3032,
  "Ġorca": 3033,
  "RECYC": 3034,
  "ink": 3035,
  "Ġstorm": 3036,
  "Ġtrying": 3037,
  "Ġoutc": 3038,
  "Ġdamage": 3039,
  "Ġastronaut": 3040,
  "ĠCovering": 3041,
  "Ġcru": 3042,
  "12": 3043,
  "gu": 3044,
  "kn": 3045,
  "150": 3046,
  "Ġspeed": 3047,
  "Ġhorseshoe": 3048,
  "Ġveins": 3049,
  "Ġroofing": 3050,
  "rangement": 3051,
  "Ġarrangement": 3052,
  "frame": 3053,
  "Ġwre": 3054,
  "OOD": 3055,
  "Ġrectangularly": 3056,
  "Ġintersect": 3057,
  "ounced": 3058,
  "Ġpronounced": 3059,
  "Ġtarmac": 3060,
  "Ġpaths": 3061,
  "artment": 3062,
  "HA": 3063,
  "foot": 3064,
  "Ġdashboard": 3065,
  "Ġgeode": 3066,
  "ĠAP": 3067,
  "Ġsunflower": 3068,
  "Ġditch": 3069,
  "Ġsucc": 3070,
  "Ġdaffod": 3071,
  "Ġseemingly": 3072,
  "Google": 3073,
  "Ġseparation": 3074,
  "Ġpedestrian": 3075,
  "68": 3076,
  "isk": 3077,
  "Ġadd": 3078,
  "Ġnimbostratus": 3079,
  "Ġrelax": 3080,
  "Ġbackyard": 3081,
  "Ġtwice": 3082,
  "ĠSil": 3083,
  "oon": 3084,
  "Ġfilm": 3085,
  "Ġdonkey": 3086,
  "book": 3087,
  "WELCOME": 3088,
  "Ġoutcropp": 3089,
  "Ġflagpole": 3090,
  "ĠAd": 3091,
  "Ġoutf": 3092,
  "Ġgondola": 3093,
  "Ġcirrostratus": 3094,
  "Ġweed": 3095,
  "ĠLeaves": 3096,
  "Ġzebra": 3097,
  "vice": 3098,
  "Ġneedles": 3099,
  "INT": 3100,
  "Ġunderbel": 3101,
  "Ġstreetcar": 3102,
  "Ġhighly": 3103,
  "Ġus": 3104,
  "PO": 3105,
  "ILL": 3106,
  "Ġlonghorn": 3107,
  "Ġ0": 3108,
  "Ġcotton": 3109,
  "uscovy": 3110,
  "ĠUniversity": 3111,
  "Ġlandscaping": 3112,
  "..": 3113,
  "Ġmonarch": 3114,
  "Ġcompared": 3115,
  "Ġstucco": 3116,
  "Ġsliver": 3117,
  "Ġmanner": 3118,
  "Ġcrayfish": 3119,
  "Ġmill": 3120,
  "Ġinlaid": 3121,
  "Ġsleeping": 3122,
  "'S": 3123,
  "Ġsunroof": 3124,
  "finished": 3125,
  "ational": 3126,
  "Ġobscures": 3127,
  "Ġplugged": 3128,
  "Ġpropeller": 3129,
  "over": 3130,
  "ĠGreek": 3131,
  "ustrial": 3132,
  "Ġmicrophone": 3133,
  "Ġnoticeable": 3134,
  "WAT": 3135,
  "ĠRipples": 3136,
  "berry": 3137,
  "Ġforearm": 3138,
  "Ġprojector": 3139,
  "Ġank": 3140,
  "five": 3141,
  "Ġdram": 3142,
  "pie": 3143,
  "Ġwheelchair": 3144,
  "filled": 3145,
  "RY": 3146,
  "Over": 3147,
  "STER": 3148,
  "boat": 3149,
  "Ġhighlighted": 3150,
  "HEAD": 3151,
  "FOR": 3152,
  "Ġhairs": 3153,
  "circle": 3154,
  "Ġdove": 3155,
  "vette": 3156,
  "Ġwaiting": 3157,
  "ĠNev": 3158,
  "ĠNevada": 3159,
  "ILD": 3160,
  "Ġpupil": 3161,
  "sle": 3162,
  "slee": 3163,
  "Ġportrait": 3164,
  "Ġmatch": 3165,
  "Ġbonnet": 3166,
  "pion": 3167,
  "Ġscorpion": 3168,
  "Ġunderbelly": 3169,
  "rimmed": 3170,
  "Ġrestroom": 3171,
  "hammer": 3172,
  "ĠWarhammer": 3173,
  "Ġ25": 3174,
  "deg": 3175,
  "degree": 3176,
  "ma": 3177,
  "70": 3178,
  "Ġgnome": 3179,
  "Ġwatch": 3180,
  "Ġphotograph": 3181,
  "Ġweathering": 3182,
  "Ġlays": 3183,
  "ART": 3184,
  "Ġsplayed": 3185,
  "Ġsteam": 3186,
  "ĠNo": 3187,
  "Ġindustrial": 3188,
  "ĠEmp": 3189,
  "FIRE": 3190,
  "Ġindex": 3191,
  "ĠVarious": 3192,
  "Ġcurvy": 3193,
  "Ġbea": 3194,
  "Ġseverely": 3195,
  "truck": 3196,
  "Ġhighlights": 3197,
  "ATION": 3198,
  "ĠSquare": 3199,
  "Ġcaution": 3200,
  "Ġvelvet": 3201,
  "Overhead": 3202,
  "oak": 3203,
  "Ġcannot": 3204,
  "ĠReflecting": 3205,
  "ĠSouth": 3206,
  "Ġoc": 3207,
  "Ġcavern": 3208,
  "Ġshelving": 3209,
  "Ġmovement": 3210,
  "'re": 3211,
  "Ġdimly": 3212,
  "'.": 3213,
  "ĠMuscovy": 3214,
  "Ġwear": 3215,
  "ĠBo": 3216,
  "Ġwallpaper": 3217,
  "bing": 3218,
  "Ġadvertise": 3219,
  "back": 3220,
  "LU": 3221,
  "Ġtrop": 3222,
  "SI": 3223,
  "Ġfours": 3224,
  "urn": 3225,
  "ĠPal": 3226,
  "Ġquart": 3227,
  "Ġlamin": 3228,
  "FE": 3229,
  "Ġradiating": 3230,
  "Ġdangling": 3231,
  "Ġodd": 3232,
  "ROOM": 3233,
  "ZZ": 3234,
  "Ġviewable": 3235,
  "Ġrelaxed": 3236,
  "ometric": 3237,
  "Ġgeometric": 3238,
  "Ġfaux": 3239,
  "SE": 3240,
  "bell": 3241,
  "Ġcell": 3242,
  "Ġfairly": 3243,
  "ĠSoft": 3244,
  "Ġoutfit": 3245,
  "Ġ$": 3246,
  "Ġteddy": 3247,
  "18": 3248,
  "flight": 3249,
  "OB": 3250,
  "Ġpengu": 3251,
  "striped": 3252,
  "Ġsecurity": 3253,
  "RUCKS": 3254,
  "Ġlegible": 3255,
  "BUSCAR": 3256,
  "Ġmorning": 3257,
  "cracker": 3258,
  "Ġnutcracker": 3259,
  "Ġnormal": 3260,
  "Ġcupboard": 3261,
  "Ġcockpit": 3262,
  "Ġsconce": 3263,
  "Ġsalmon": 3264,
  "inde": 3265,
  "urple": 3266,
  "Ġcarrying": 3267,
  "Ġprotrude": 3268,
  "ĠNight": 3269,
  "Ġantenna": 3270,
  "Ġorg": 3271,
  "MC": 3272,
  "Ġmixture": 3273,
  "ĠBeetle": 3274,
  "Re": 3275,
  "Ġtropical": 3276,
  "ĠOutdoors": 3277,
  "ĠSig": 3278,
  "Ġenclos": 3279,
  "Ġexposure": 3280,
  "IRROR": 3281,
  "Ġwindmill": 3282,
  "Ġladyb": 3283,
  "ream": 3284,
  "Ġmist": 3285,
  "ĠBridge": 3286,
  "Ġdozen": 3287,
  "Ġjar": 3288,
  "Ġmeas": 3289,
  "Ġquartz": 3290,
  "Ġonce": 3291,
  "WAY": 3292,
  "ĠEmpire": 3293,
  "Ġsprawled": 3294,
  "de": 3295,
  "Ġtaxiderm": 3296,
  "Ġtaxidermied": 3297,
  "Ġju": 3298,
  "Ġoriginal": 3299,
  "ĠEn": 3300,
  "60": 3301,
  "Ġsparse": 3302,
  "Ġplatter": 3303,
  "ĠUnited": 3304,
  "piece": 3305,
  "Ġeat": 3306,
  "SPEED": 3307,
  "Ġcruiser": 3308,
  "half": 3309,
  "Ġfloat": 3310,
  "Ġstepping": 3311,
  "ĠDead": 3312,
  "black": 3313,
  "Ġspilling": 3314,
  "Lo": 3315,
  "On": 3316,
  "Ġgear": 3317,
  "Ġstorefront": 3318,
  "Ġsmear": 3319,
  "Ġmustache": 3320,
  "Ġgazebo": 3321,
  "Ġfalcon": 3322,
  "ARD": 3323,
  "Ġarena": 3324,
  "Ġzip": 3325,
  "ĠHalloween": 3326,
  "Ġhangar": 3327,
  "Ġsphinx": 3328,
  "Ġautomob": 3329,
  "Ġchecker": 3330,
  "Ġsauce": 3331,
  "Ġarchitect": 3332,
  "ĠCe": 3333,
  "Ġsniff": 3334,
  "Ġstreetlamp": 3335,
  "Ġrhino": 3336,
  "Ġprevious": 3337,
  "Ġsignal": 3338,
  "Ġroadrun": 3339,
  "Ġroadrunner": 3340,
  "da": 3341,
  "ĠCan": 3342,
  "ĠJoh": 3343,
  "Ġoverhang": 3344,
  "Ġenclosure": 3345,
  "Ġanchor": 3346,
  "Ġyach": 3347,
  "Ġmoose": 3348,
  "Ġconstructed": 3349,
  "Ġamb": 3350,
  "Ġgoose": 3351,
  "Ġdoe": 3352,
  "Ġspecs": 3353,
  "AUSTIN": 3354,
  "alf": 3355,
  "Ġcyan": 3356,
  "size": 3357,
  "Ġintert": 3358,
  "Ġintertw": 3359,
  "Ġdorsal": 3360,
  "Ġcontinuing": 3361,
  "Ġhandlebar": 3362,
  "Ġstabil": 3363,
  "Ġstabili": 3364,
  "Ġbeautiful": 3365,
  "Ġbadge": 3366,
  "FO": 3367,
  "ience": 3368,
  "Ġankle": 3369,
  "wise": 3370,
  "ROS": 3371,
  "ĠSeven": 3372,
  "Ġreveals": 3373,
  "focus": 3374,
  "ĠWest": 3375,
  "Ġoverlooking": 3376,
  "ublic": 3377,
  "Ġestablish": 3378,
  "cient": 3379,
  "WHEELS": 3380,
  "Ġrefrigerator": 3381,
  "Ġseashell": 3382,
  "Ġcountry": 3383,
  "ĠIsland": 3384,
  "Ġfeaturing": 3385,
  "Ġkoi": 3386,
  "Ġrealistic": 3387,
  "Ġshaft": 3388,
  "Ġautomobile": 3389,
  "ĠHigh": 3390,
  "NING": 3391,
  "ĠRun": 3392,
  "Ġslowly": 3393,
  "Ġclubs": 3394,
  "Ġsniffing": 3395,
  "Ġsparing": 3396,
  "Ġsparingly": 3397,
  "well": 3398,
  "ummer": 3399,
  "rickly": 3400,
  "Ġprickly": 3401,
  "81": 3402,
  "Ġdro": 3403,
  "Ġsuspension": 3404,
  "Ġstarfish": 3405,
  "Ġguy": 3406,
  "Ġbouquet": 3407,
  "uve": 3408,
  "Ġmauve": 3409,
  "Ġelevation": 3410,
  "mun": 3411,
  "Ġextinguisher": 3412,
  "Ġmustard": 3413,
  "Ġcompartment": 3414,
  "Ġpenguin": 3415,
  "Ġever": 3416,
  "ĠAventad": 3417,
  "ĠAventador": 3418,
  "OBJE": 3419,
  "ĠMIRROR": 3420,
  "ĠTHEY": 3421,
  "PEAR": 3422,
  "ĠAPPEAR": 3423,
  "Ġexhi": 3424,
  "Ġcypress": 3425,
  "Ġilluminate": 3426,
  "Ġrubble": 3427,
  "known": 3428,
  "Ġunknown": 3429,
  "Ġappro": 3430,
  "Ġstylized": 3431,
  "Ġspiked": 3432,
  "Ġobelisk": 3433,
  "Ġunfinished": 3434,
  "ĠHalf": 3435,
  "Ġeasily": 3436,
  "adillac": 3437,
  "Ġpineapple": 3438,
  "Ġtwelve": 3439,
  "ĠWrangler": 3440,
  "Ġtomatoes": 3441,
  "Ġsubtle": 3442,
  "RESTROOM": 3443,
  "Ġcool": 3444,
  "Ġmagnif": 3445,
  "ĠHarlequin": 3446,
  "ID": 3447,
  "Ġsubmarine": 3448,
  "TEXAS": 3449,
  "Ġafternoon": 3450,
  "Ġbattle": 3451,
  "haust": 3452,
  "bar": 3453,
  "ripping": 3454,
  "Ġgripping": 3455,
  "Ġturret": 3456,
  "ĠLake": 3457,
  "Ġapron": 3458,
  "RANCE": 3459,
  "Ġkatydid": 3460,
  "ĠLIMIT": 3461,
  "Ġpraying": 3462,
  "ways": 3463,
  "IEL": 3464,
  "IELD": 3465,
  "ĠMuseum": 3466,
  "American": 3467,
  "arn": 3468,
  "High": 3469,
  "ĠMe": 3470,
  "Ġlengths": 3471,
  "Ġspark": 3472,
  "Ġsnowf": 3473,
  "ĠTen": 3474,
  "Ġdrainage": 3475,
  "Ġscribble": 3476,
  "Ġabandoned": 3477,
  "Ġlimit": 3478,
  "Ã±": 3479,
  "BLE": 3480,
  "35": 3481,
  "Ġbackward": 3482,
  "ĠDry": 3483,
  "Ġocc": 3484,
  "ĠEx": 3485,
  "sleeve": 3486,
  "Ġwreath": 3487,
  "Ġstrung": 3488,
  "ĠRunning": 3489,
  "Ġornament": 3490,
  "Ġsubstance": 3491,
  "boo": 3492,
  "Ġbamboo": 3493,
  "LOVE": 3494,
  "Ġsweet": 3495,
  "ĠHummer": 3496,
  "Ġinclude": 3497,
  "Ġoutcropping": 3498,
  "OBJECTS": 3499,
  "BIG": 3500,
  "Ġbecoming": 3501,
  "Ġexhibit": 3502,
  "hell": 3503,
  "Ġdevelop": 3504,
  "Ġpeahen": 3505,
  "berries": 3506,
  "Ġpergola": 3507,
  "Ġvolley": 3508,
  "Ġcook": 3509,
  "ulance": 3510,
  "Ġambulance": 3511,
  "PARKING": 3512,
  "ĠCadillac": 3513,
  "Ġadditional": 3514,
  "Ġglistening": 3515,
  "Ġmagnifying": 3516,
  "Ġunderlined": 3517,
  "Ġconcentrated": 3518,
  "ĠZONE": 3519,
  "Ġbulldo": 3520,
  "TY": 3521,
  "17": 3522,
  "TRASH": 3523,
  "ination": 3524,
  "PH": 3525,
  "25": 3526,
  "Ġexhaust": 3527,
  "Ġengulfs": 3528,
  "Ġfreshly": 3529,
  "ĠCaesar": 3530,
  "lease": 3531,
  "Ġmouths": 3532,
  "ware": 3533,
  "Ġstemming": 3534,
  "Ġyarn": 3535,
  "BA": 3536,
  "ki": 3537,
  "Ġhut": 3538,
  "Ġancient": 3539,
  "Ġzoom": 3540,
  "ville": 3541,
  "Ġroughly": 3542,
  "Ġfre": 3543,
  "vanized": 3544,
  "Ġbarber": 3545,
  "NE": 3546,
  "LAND": 3547,
  "Ġspaceship": 3548,
  "ĠGre": 3549,
  "Ġgrooves": 3550,
  "Ġsplatters": 3551,
  "Ġelements": 3552,
  "Ġgrip": 3553,
  "Ġviewing": 3554,
  "bankment": 3555,
  "Ġembankment": 3556,
  "Ġdepict": 3557,
  "ĠConnecting": 3558,
  "Ġarmchair": 3559,
  "whe": 3560,
  "Ġhus": 3561,
  "Ġmelted": 3562,
  "Ġjaw": 3563,
  "ĠBig": 3564,
  "Ġkettle": 3565,
  "rtle": 3566,
  "oping": 3567,
  "ĠFo": 3568,
  "Ġtablecloth": 3569,
  "ĠCar": 3570,
  "Ġweather": 3571,
  "Ġlooming": 3572,
  "ĠAge": 3573,
  "indeer": 3574,
  "ĠWA": 3575,
  "PA": 3576,
  "Ġcobblestone": 3577,
  "Ġshingled": 3578,
  "ĠpiÃ±": 3579,
  "Ġscroll": 3580,
  "Ġyacht": 3581,
  "Ġcig": 3582,
  "Ġghost": 3583,
  "bird": 3584,
  "Ġpushing": 3585,
  "Ġoverlap": 3586,
  "ĠPeople": 3587,
  "acu": 3588,
  "Ġvacu": 3589,
  "Ġengraving": 3590,
  "Ġstove": 3591,
  "Ġparagraph": 3592,
  "acinth": 3593,
  "yacinth": 3594,
  "Ġattachment": 3595,
  "Ġtopiary": 3596,
  "Ġpairs": 3597,
  "Ġlightning": 3598,
  "Ġspare": 3599,
  "Ġmakeshift": 3600,
  "Ġquilt": 3601,
  "KS": 3602,
  "Ġcombination": 3603,
  "Ġstitching": 3604,
  "OME": 3605,
  "Ġspades": 3606,
  "ĠLady": 3607,
  "ĠBird": 3608,
  "Ġbroad": 3609,
  "af": 3610,
  "Ġangry": 3611,
  "nants": 3612,
  "Ġscarf": 3613,
  "ashville": 3614,
  "ĠNashville": 3615,
  "LIVE": 3616,
  "Ġdirectional": 3617,
  "Ġpocket": 3618,
  "Ġflecks": 3619,
  "Four": 3620,
  "Ġhandwritten": 3621,
  "ĠAHEAD": 3622,
  "au": 3623,
  "Ġshadowy": 3624,
  "Ġrobin": 3625,
  "Ġgalvanized": 3626,
  "Ġastrot": 3627,
  "ĠPlants": 3628,
  "ĠUSA": 3629,
  "Ġacrylic": 3630,
  "Ġshelter": 3631,
  "Ġscub": 3632,
  "Ġscuba": 3633,
  "Ġhumming": 3634,
  "ĠDod": 3635,
  "ĠDodge": 3636,
  "Ġterrier": 3637,
  "Ġprojection": 3638,
  "ARNING": 3639,
  "GA": 3640,
  "Ġstairwell": 3641,
  "lis": 3642,
  "Ġsaturated": 3643,
  "CY": 3644,
  "Ġchipping": 3645,
  "ĠDallas": 3646,
  "Ġintricate": 3647,
  "Ġindigo": 3648,
  "Ġcrease": 3649,
  "Ġplus": 3650,
  "Ġswan": 3651,
  "Ġexc": 3652,
  "Ġagave": 3653,
  "ĠJap": 3654,
  "crete": 3655,
  "ĠConcrete": 3656,
  "Ġreef": 3657,
  "lift": 3658,
  "HO": 3659,
  "Ġflip": 3660,
  "Ġreindeer": 3661,
  "ĠAud": 3662,
  "Ex": 3663,
  "Ġspiderwe": 3664,
  "REE": 3665,
  "Ġemb": 3666,
  "ĠSUVs": 3667,
  "ĠNighttime": 3668,
  "Ġhubcap": 3669,
  "Ġhammo": 3670,
  "Ġmarshmallow": 3671,
  "Ġmatt": 3672,
  "Ġvacuum": 3673,
  "Ġpuffer": 3674,
  "ĠAf": 3675,
  "Ġpearl": 3676,
  "ĠJohn": 3677,
  "Ġdaffodils": 3678,
  "Ġkhaki": 3679,
  "Ġsleigh": 3680,
  "Ġsatellite": 3681,
  "Ġsucculents": 3682,
  "munity": 3683,
  "Top": 3684,
  "Ġdarkly": 3685,
  "Ġflanked": 3686,
  "Ġkeeping": 3687,
  "Ġwebbed": 3688,
  "shirt": 3689,
  "ĠWind": 3690,
  "RECYCLE": 3691,
  "ĠBat": 3692,
  "drawn": 3693,
  "Ġfringe": 3694,
  "ik": 3695,
  "GU": 3696,
  "DELTA": 3697,
  "Ġwipers": 3698,
  "ĠCapitol": 3699,
  "Ġcertain": 3700,
  "Ġprotected": 3701,
  "Ġnapkin": 3702,
  "ĠCasino": 3703,
  "ĠUtility": 3704,
  "Ġaskew": 3705,
  "YIELD": 3706,
  "21": 3707,
  "Ġdefined": 3708,
  "TERS": 3709,
  "Ġpublic": 3710,
  "Ġchannel": 3711,
  "Ġestablishment": 3712,
  "Ġhandwriting": 3713,
  "val": 3714,
  "zu": 3715,
  "Ġresidue": 3716,
  "ĠUp": 3717,
  "Ġedging": 3718,
  "Ġprotective": 3719,
  "Ġswallow": 3720,
  "Ġleop": 3721,
  "IME": 3722,
  "MONSTER": 3723,
  "GO": 3724,
  "Ġpurse": 3725,
  "KING": 3726,
  "Ġtaxi": 3727,
  "Ġcheckerboard": 3728,
  "Ġprovides": 3729,
  "Ġclasp": 3730,
  "Ġcontraction": 3731,
  "Ġanalog": 3732,
  "ĠRight": 3733,
  "ĠCement": 3734,
  "ĠRocks": 3735,
  "wheeler": 3736,
  "Ġstabilizer": 3737,
  "Ġferry": 3738,
  "ĠBy": 3739,
  "Ġturb": 3740,
  "ĠMy": 3741,
  "Ġ185": 3742,
  "Ġanole": 3743,
  "BU": 3744,
  "Ġindicate": 3745,
  "Ġcarrot": 3746,
  "Ġyears": 3747,
  "Ġdaisies": 3748,
  "Ġvast": 3749,
  "Ġrepeating": 3750,
  "Ġmim": 3751,
  "Ġreveal": 3752,
  "Ġshaggy": 3753,
  "Ġcomputer": 3754,
  "AV": 3755,
  "Ġalb": 3756,
  "ĠParthenon": 3757,
  "ĠSigmar": 3758,
  "Ġgarland": 3759,
  "ĠClouds": 3760,
  "ĠTrade": 3761,
  "Ġspiderweb": 3762,
  "16": 3763,
  "Ġlittered": 3764,
  "Ġfancy": 3765,
  "ĠDis": 3766,
  "Ġemitting": 3767,
  "Ġmenu": 3768,
  "Ġdimensional": 3769,
  "ĠPalm": 3770,
  "Ġcostume": 3771,
  "Ġdais": 3772,
  "Ġdaisy": 3773,
  "ĠTe": 3774,
  "Ġspinning": 3775,
  "SU": 3776,
  "Ġaxle": 3777,
  "ini": 3778,
  "ĠLittle": 3779,
  "ĠMercedes": 3780,
  "Ġremoved": 3781,
  "ĠEng": 3782,
  "38": 3783,
  "Ġrotted": 3784,
  "Ġcircularly": 3785,
  "prey": 3786,
  "ĠWORK": 3787,
  "ĠSuper": 3788,
  "Ġuppercase": 3789,
  "gate": 3790,
  "Ġsharply": 3791,
  "Ġknives": 3792,
  "BI": 3793,
  "Ġchunks": 3794,
  "Ġserves": 3795,
  "Ġfreezer": 3796,
  "Ġinstrument": 3797,
  "Ġlinear": 3798,
  "Ġsplattered": 3799,
  "Ġleopard": 3800,
  "Ġshovel": 3801,
  "Ġconcentric": 3802,
  "pecially": 3803,
  "Ġespecially": 3804,
  "Ġastroturf": 3805,
  "ISS": 3806,
  "Ġcircum": 3807,
  "Ġlatch": 3808,
  "Ġglove": 3809,
  "Ġcork": 3810,
  "ĠCorvette": 3811,
  "ĠVenetian": 3812,
  "Eye": 3813,
  "Ġhighlighting": 3814,
  "Ġlemon": 3815,
  "WARNING": 3816,
  "Ġshadowing": 3817,
  "Ġeel": 3818,
  "Ġphrase": 3819,
  "ĠAirlines": 3820,
  "Ġturkey": 3821,
  "Aerial": 3822,
  "ĠSlightly": 3823,
  "Ġshingle": 3824,
  "Ġpropping": 3825,
  "ĠCamry": 3826,
  "Ġfung": 3827,
  "ĠPV": 3828,
  "ĠDifferent": 3829,
  "ĠPac": 3830,
  "Ġpetroglyphs": 3831,
  "Ġadvertisement": 3832,
  "Ġminute": 3833,
  "Ġshoots": 3834,
  "Ġpris": 3835,
  "Ġdifficult": 3836,
  "Ġweight": 3837,
  "Ġforklift": 3838,
  "Ġhieroglyphs": 3839,
  "ĠShaker": 3840,
  "paved": 3841,
  "Ġcicada": 3842,
  "Ġcigaret": 3843,
  "Ġcigarette": 3844,
  "Ġworld": 3845,
  "Ġtowing": 3846,
  "Ġlaminated": 3847,
  "Ġhammock": 3848,
  "ĠLouisian": 3849,
  "ĠLouisiana": 3850,
  "RAIN": 3851,
  "Ġbison": 3852,
  "Ġwaterway": 3853,
  "Ġsailboat": 3854,
  "innia": 3855,
  "Ġproperty": 3856,
  "tuce": 3857,
  "Ġlettuce": 3858,
  "ĠBlock": 3859,
  "Ġbrim": 3860,
  "Ġvolleyball": 3861,
  "ĠGrand": 3862,
  "ĠAcura": 3863,
  "Ġmattress": 3864,
  "Ġcatapult": 3865,
  "Ġregion": 3866,
  "zza": 3867,
  "Ġcrissc": 3868,
  "xy": 3869,
  "och": 3870,
  "CEPT": 3871,
  "ĠWE": 3872,
  "Ġcuc": 3873,
  "uit": 3874,
  "Ġlattice": 3875,
  "orned": 3876,
  "ĠPink": 3877,
  "Ġlove": 3878,
  "WE": 3879,
  "ĠMPH": 3880,
  "Ġbillowing": 3881,
  "ANS": 3882,
  "Ġmossy": 3883,
  "Please": 3884,
  "ius": 3885,
  "Ġmagaz": 3886,
  "Ġchunk": 3887,
  "SON": 3888,
  "Ġvisib": 3889,
  "Ġheel": 3890,
  "ĠTX": 3891,
  "conut": 3892,
  "ĠUP": 3893,
  "Ġhexagonal": 3894,
  "Ġscoop": 3895,
  "burst": 3896,
  "Ġgym": 3897,
  "ĠMo": 3898,
  "YOU": 3899,
  "ĠKing": 3900,
  "Ġsalt": 3901,
  "C90": 3902,
  "ĠGrowing": 3903,
  "Ġwool": 3904,
  "goyle": 3905,
  "Ġgargoyle": 3906,
  "Ġwit": 3907,
  "ference": 3908,
  "Ġcircumference": 3909,
  "Ġpeeks": 3910,
  "ym": 3911,
  "Ġroofline": 3912,
  "ĠPaint": 3913,
  "24": 3914,
  "rozen": 3915,
  "ENN": 3916,
  "Ġfurry": 3917,
  "Ġloading": 3918,
  "Ġspiny": 3919,
  "ĠPVC": 3920,
  "Ġrhinoceros": 3921,
  "Ġirregular": 3922,
  "istinguishable": 3923,
  "bee": 3924,
  "Ġpush": 3925,
  "rocanthosaurus": 3926,
  "ĠAcrocanthosaurus": 3927,
  "Ġthickly": 3928,
  "Ġcheetah": 3929,
  "Ġprotects": 3930,
  "ĠJapanese": 3931,
  "ĠSMO": 3932,
  "Ġexag": 3933,
  "Ġsince": 3934,
  "ĠCirrus": 3935,
  "Ġfamily": 3936,
  "Ġheadphones": 3937,
  "ĠGu": 3938,
  "Ġconditioning": 3939,
  "Ġsugar": 3940,
  "Ġevergreen": 3941,
  "ĠYucca": 3942,
  "Ġfirefly": 3943,
  "Ġdiscernible": 3944,
  "IA": 3945,
  "Do": 3946,
  "ĠHudson": 3947,
  "Ġskateboard": 3948,
  "Ġkangaro": 3949,
  "ĠTRUCKS": 3950,
  "Ġburgundy": 3951,
  "IX": 3952,
  "Ġetching": 3953,
  "ĠDisney": 3954,
  "uga": 3955,
  "Ġterrain": 3956,
  "Ġottoman": 3957,
  "REAM": 3958,
  "ĠENTER": 3959,
  "Ġmammoth": 3960,
  "wall": 3961,
  "Ġzapper": 3962,
  "Ġfreight": 3963,
  "Ġcalc": 3964,
  "Ġdevelopment": 3965,
  "Ġcommunity": 3966,
  "Ġcrooked": 3967,
  "ĠKoi": 3968,
  "Ġpizza": 3969,
  "Ġcupcake": 3970,
  "intendo": 3971,
  "Ġwilted": 3972,
  "Ġcompact": 3973,
  "ĠLIGHT": 3974,
  "ĠRub": 3975,
  "Ġbacklit": 3976,
  "Ġnostril": 3977,
  "ĠPan": 3978,
  "Ġadorned": 3979,
  "Ġthrowing": 3980,
  "WATCH": 3981,
  "DS": 3982,
  "Ġexpansion": 3983,
  "Se": 3984,
  "LEANS": 3985,
  "LASS": 3986,
  "ĠBran": 3987,
  "ĠBranches": 3988,
  "bags": 3989,
  "Ġemerging": 3990,
  "Ġfrosting": 3991,
  "ĠTw": 3992,
  "Ġtwilight": 3993,
  "Ġradio": 3994,
  "now": 3995,
  "Ġspind": 3996,
  "Ġspindly": 3997,
  "Ġteepee": 3998,
  "Ã©": 3999,
  "Ġremnants": 4000,
  "leaved": 4001,
  "Ġexcavators": 4002,
  "Ġvisibility": 4003,
  "ief": 4004,
  "Ġrelief": 4005,
  "Ġcoconut": 4006,
  "Ġfirm": 4007,
  "ieval": 4008,
  "ĠAmong": 4009,
  "Ġdevice": 4010,
  "Ġ\"#": 4011,
  "Ġbroom": 4012,
  "ĠiP": 4013,
  "Ġmead": 4014,
  "uated": 4015,
  "Ġswallowtail": 4016,
  "Ġcamouflage": 4017,
  "40": 4018,
  "eye": 4019,
  "Ġwolf": 4020,
  "ĠView": 4021,
  "Ġunevenly": 4022,
  "Ġtusks": 4023,
  "Ġshrubbery": 4024,
  "zzle": 4025,
  "ĠXC90": 4026,
  "Ġllama": 4027,
  "ĠPiran": 4028,
  "Ġreins": 4029,
  "Ġ2D": 4030,
  "ĠPurple": 4031,
  "iz": 4032,
  "53": 4033,
  "Ġblueish": 4034,
  "TE": 4035,
  "RIGHT": 4036,
  "Ġsprinkler": 4037,
  "Ġfrozen": 4038,
  "GENCY": 4039,
  "Ġcuff": 4040,
  "MER": 4041,
  "ĠVer": 4042,
  "rotecting": 4043,
  "ĠProtecting": 4044,
  "Ġqueen": 4045,
  "bie": 4046,
  "Ġindistinguishable": 4047,
  "Ġcatch": 4048,
  "ĠGMC": 4049,
  "ĠMc": 4050,
  "RESTROOMS": 4051,
  "ĠYou": 4052,
  "Ġscuffs": 4053,
  "Ġbrow": 4054,
  "Ġobscure": 4055,
  "Ġprism": 4056,
  "Ġexaggerated": 4057,
  "ĠCy": 4058,
  "ĠPie": 4059,
  "Ġhatch": 4060,
  "lur": 4061,
  "Ġgradu": 4062,
  "Man": 4063,
  "Ġalready": 4064,
  "haraoh": 4065,
  "ĠPharaoh": 4066,
  "DEAD": 4067,
  "AK": 4068,
  "ĠEastern": 4069,
  "View": 4070,
  "ĠHanging": 4071,
  "Ġplayhouse": 4072,
  "Ġ2nd": 4073,
  "Ġgingerbread": 4074,
  "Ġdealers": 4075,
  "Ġfitted": 4076,
  "Ġcubby": 4077,
  "Ġprice": 4078,
  "ilk": 4079,
  "Ġferris": 4080,
  "Ġsheer": 4081,
  "ax": 4082,
  "ĠFal": 4083,
  "ĠFalcon": 4084,
  "Ġpasture": 4085,
  "Ġcathedral": 4086,
  "Ġherring": 4087,
  "Ġherringbone": 4088,
  "toe": 4089,
  "ĠWonder": 4090,
  "15": 4091,
  "azda": 4092,
  "Ġcentury": 4093,
  "Ġcrawfish": 4094,
  "ĠCirrostratus": 4095,
  "Ġpadlock": 4096,
  "IV": 4097,
  "verado": 4098,
  "ĠSilverado": 4099,
  "Ġmeasuring": 4100,
  "Ġspecif": 4101,
  "va": 4102,
  "ĠPegasus": 4103,
  "Ġdishw": 4104,
  "HI": 4105,
  "Ġoctagonal": 4106,
  "Ġvanilla": 4107,
  "Ġintertwined": 4108,
  "Ġwrought": 4109,
  "Ġlance": 4110,
  "Ġfeminine": 4111,
  "Ġprocess": 4112,
  "Ġbandana": 4113,
  "ĠNYC": 4114,
  "ĠWindows": 4115,
  "BOO": 4116,
  "ĠBatman": 4117,
  "Ġbalanced": 4118,
  "!!": 4119,
  "length": 4120,
  "ĠORLEANS": 4121,
  "Ġpamphlet": 4122,
  "Ġosprey": 4123,
  "ĠPLAN": 4124,
  "ĠFren": 4125,
  "ĠFrench": 4126,
  "nment": 4127,
  "Cola": 4128,
  "ĠOut": 4129,
  "ĠTa": 4130,
  "Ġlowercase": 4131,
  "Ġserving": 4132,
  "Ġspike": 4133,
  "Ġsnowflake": 4134,
  "Ġclub": 4135,
  "Ġmedieval": 4136,
  "Ġfanned": 4137,
  "grass": 4138,
  "Ġconf": 4139,
  "Ġprovide": 4140,
  "Ġblotches": 4141,
  "Ġmeadow": 4142,
  "Ġoverf": 4143,
  "Ġsituated": 4144,
  "Ġexplosion": 4145,
  "Ġstarburst": 4146,
  "UF": 4147,
  "HOTWHEELS": 4148,
  "PS": 4149,
  "Ġsubje": 4150,
  "RESS": 4151,
  "ĠGreat": 4152,
  "Wor": 4153,
  "ĠPolaris": 4154,
  "Ġsquat": 4155,
  "Ġliberty": 4156,
  "Ġjam": 4157,
  "mite": 4158,
  "nut": 4159,
  "Ġclip": 4160,
  "LD": 4161,
  "ĠMega": 4162,
  "ĠWrex": 4163,
  "ME": 4164,
  "ĠRV": 4165,
  "Ġtailgate": 4166,
  "SK": 4167,
  "vil": 4168,
  "Ġturbines": 4169,
  "ĠVertical": 4170,
  "Ġbackhoe": 4171,
  "Ġlocation": 4172,
  "No": 4173,
  "Ġcucumber": 4174,
  "Ġgrabbing": 4175,
  "Ġsunken": 4176,
  "Wrex": 4177,
  "ĠBigfoot": 4178,
  "ĠBlan": 4179,
  "Ġspotting": 4180,
  "Ġyak": 4181,
  "Ġmimic": 4182,
  "Ġsplatter": 4183,
  "Ġcrashing": 4184,
  "Ġwildflowers": 4185,
  "ĠVW": 4186,
  "Ġelectronic": 4187,
  "Ġsheen": 4188,
  "ĠGe": 4189,
  "ĠGeor": 4190,
  "Ġ198": 4191,
  "\"\"": 4192,
  "imensional": 4193,
  "dimensional": 4194,
  "Ġammon": 4195,
  "Ġammonite": 4196,
  "Ġcocoon": 4197,
  "unch": 4198,
  "Ġcabbage": 4199,
  "ĠPieces": 4200,
  "Ġsquinted": 4201,
  "45": 4202,
  "ALK": 4203,
  "Ġdealership": 4204,
  "Ġbutt": 4205,
  "Ġutensils": 4206,
  "cream": 4207,
  "ee": 4208,
  "LS": 4209,
  "ĠPat": 4210,
  "ĠTRAIL": 4211,
  "MY": 4212,
  "mosphere": 4213,
  "Ġatmosphere": 4214,
  "Ġmillipede": 4215,
  "Ġcurls": 4216,
  "ĠLonghorn": 4217,
  "Ġunreadable": 4218,
  "Ġslatted": 4219,
  "Ġconstruct": 4220,
  "oy": 4221,
  "rooper": 4222,
  "ĠMazda": 4223,
  "Ġdiscs": 4224,
  "Daytime": 4225,
  "JO": 4226,
  "Ġboardwalk": 4227,
  "ĠCypress": 4228,
  "Ġfibers": 4229,
  "Ġhitch": 4230,
  "Ġhyacinth": 4231,
  "Ġprior": 4232,
  "Ġrecre": 4233,
  "Ġhug": 4234,
  "Ġshrimp": 4235,
  "Ġoverexposed": 4236,
  "Ġshutter": 4237,
  "Ġpreparing": 4238,
  "zilla": 4239,
  "ami": 4240,
  "Ġstriping": 4241,
  "Ġ64": 4242,
  "Ġpegboard": 4243,
  "Ġutensil": 4244,
  "Ġboar": 4245,
  "asure": 4246,
  "ĠANY": 4247,
  "Ġcherry": 4248,
  "Ġegret": 4249,
  "ĠMini": 4250,
  "Ġsplotch": 4251,
  "ĠEl": 4252,
  "Ġjuice": 4253,
  "Ġbulldozer": 4254,
  "ĠSilver": 4255,
  "ĠSky": 4256,
  "uish": 4257,
  "ĠCR": 4258,
  "Ġeast": 4259,
  "Ġsprawling": 4260,
  "Several": 4261,
  "Ġnotebook": 4262,
  "Ġradiate": 4263,
  "Ġcrossbar": 4264,
  "CTION": 4265,
  "Ġbetter": 4266,
  "Ġkaleid": 4267,
  "Ġmessy": 4268,
  "gin": 4269,
  "ĠUk": 4270,
  "Ġchampag": 4271,
  "Ġchampagne": 4272,
  "Ġsmudge": 4273,
  "ulius": 4274,
  "Ġspear": 4275,
  "Ġrepeated": 4276,
  "Ġsquiggles": 4277,
  "orse": 4278,
  "Ġtemporary": 4279,
  "Ġthrow": 4280,
  "ĠDelta": 4281,
  "Ġmixer": 4282,
  "ĠENTRANCE": 4283,
  "Ġoverflow": 4284,
  "Ġconcentration": 4285,
  "ĠShark": 4286,
  "ĠEaster": 4287,
  "Ġcarnival": 4288,
  "Ġjunction": 4289,
  "Ġfixated": 4290,
  "Ġbobcat": 4291,
  "ĠHo": 4292,
  "iddle": 4293,
  "Ġhund": 4294,
  "TOASTY": 4295,
  "ĠMartin": 4296,
  "Ġcrowd": 4297,
  "ĠTURN": 4298,
  "ĠTiger": 4299,
  "ĠFerris": 4300,
  "Ġtrays": 4301,
  "GI": 4302,
  "Ġwheat": 4303,
  "clear": 4304,
  "paneled": 4305,
  "ĠTire": 4306,
  "Ġnook": 4307,
  "ĠCooper": 4308,
  "Ġdrooping": 4309,
  "ombie": 4310,
  "ĠZombie": 4311,
  "Ġbedroom": 4312,
  "Ġsimilarly": 4313,
  "Ġsecured": 4314,
  "ĠIndian": 4315,
  "Ġinterlocking": 4316,
  "Ġdespite": 4317,
  "Ġspecies": 4318,
  "ĠCanad": 4319,
  "ĠCanadian": 4320,
  "ado": 4321,
  "LUE": 4322,
  "Lime": 4323,
  "ĠSMOKING": 4324,
  "Ġsignboard": 4325,
  "Ġbarcode": 4326,
  "Ġmagazine": 4327,
  "nies": 4328,
  "Ġbunnies": 4329,
  "ĠSLOW": 4330,
  "ĠAudi": 4331,
  "42": 4332,
  "ĠLux": 4333,
  "Ġweapons": 4334,
  "ĠHarris": 4335,
  "Ġformatted": 4336,
  "Ġgroundhog": 4337,
  "ĠpiÃ±ata": 4338,
  "ĠJack": 4339,
  "FOOT": 4340,
  "Ġsandbox": 4341,
  "Ġladybug": 4342,
  "Ġacorn": 4343,
  "bridge": 4344,
  "Ġhaystack": 4345,
  "Ġfried": 4346,
  "Ġembroidered": 4347,
  "Ġunpainted": 4348,
  "Ġunderline": 4349,
  "Five": 4350,
  "Ġsweater": 4351,
  "Ġbuckle": 4352,
  "Ġstrokes": 4353,
  "Ġcampus": 4354,
  "Looking": 4355,
  "PP": 4356,
  "95": 4357,
  "Ġextra": 4358,
  "Ġotters": 4359,
  "Ġswung": 4360,
  "Ġmoisture": 4361,
  "Outside": 4362,
  "na": 4363,
  "Ġapproaching": 4364,
  "ĠArt": 4365,
  "Ġ2022": 4366,
  "Ġstitched": 4367,
  "Ġcurl": 4368,
  "mt": 4369,
  "Ġpodium": 4370,
  "Ġeyebrow": 4371,
  "bu": 4372,
  "Ġhusk": 4373,
  "FORD": 4374,
  "ymmetrical": 4375,
  "Ġbleached": 4376,
  "Ġmeat": 4377,
  "Ġinscribed": 4378,
  "Ġprotect": 4379,
  "Ġhourglass": 4380,
  "ridor": 4381,
  "Ġcorridor": 4382,
  "GY": 4383,
  "Ġcharred": 4384,
  "Ġwiper": 4385,
  "ĠBron": 4386,
  "Ġdrywall": 4387,
  "ĠAfrican": 4388,
  "ĠLush": 4389,
  "Ġeggshell": 4390,
  "Ġriverbed": 4391,
  "Ġheadd": 4392,
  "Ġheaddress": 4393,
  "Ġarchitecture": 4394,
  "Ġbleacher": 4395,
  "ĠFrost": 4396,
  "ĠGod": 4397,
  "ĠCumulonimbus": 4398,
  "ĠFran": 4399,
  "ĠVe": 4400,
  "Ġcottage": 4401,
  "Ġrugged": 4402,
  "Ġproduce": 4403,
  "Ġcul": 4404,
  "Ġorigami": 4405,
  "ĠNintendo": 4406,
  "Ġlotus": 4407,
  "Ġorgan": 4408,
  "Ġcrisscross": 4409,
  "Ġwinter": 4410,
  "Ġashy": 4411,
  "Ġunderpass": 4412,
  "ĠStarbucks": 4413,
  "Ġthermostat": 4414,
  "Ġriverbank": 4415,
  "Ġfun": 4416,
  "olf": 4417,
  "),": 4418,
  "VO": 4419,
  "Ġsnowy": 4420,
  "Ġtulip": 4421,
  "Co": 4422,
  "Ġbluish": 4423,
  "Ġsunbe": 4424,
  "REAT": 4425,
  "Ġscruffy": 4426,
  "Ġcuboid": 4427,
  "ĠSand": 4428,
  "ĠVines": 4429,
  "Ġvisual": 4430,
  "Ġrainfall": 4431,
  "Ġpretty": 4432,
  "AIR": 4433,
  "Ġvalve": 4434,
  "winged": 4435,
  "Ġcapitalized": 4436,
  "Ġsequen": 4437,
  "ĠSnow": 4438,
  "ĠCracks": 4439,
  "Ġlongways": 4440,
  "cut": 4441,
  "ĠJulius": 4442,
  "Ġmuzzle": 4443,
  "Ġshoot": 4444,
  "Ġtoddler": 4445,
  "Ġweave": 4446,
  "ĠUrus": 4447,
  "ZE": 4448,
  "Ġfirmly": 4449,
  "ĠTennessee": 4450,
  "chanism": 4451,
  "Ġmechanism": 4452,
  "Ġfiber": 4453,
  "YS": 4454,
  "uzu": 4455,
  "Ġaccess": 4456,
  "Ġ75": 4457,
  "Ġrubbed": 4458,
  "Ġoverflowing": 4459,
  "âĢ": 4460,
  "Ġmufflers": 4461,
  "ĠSO": 4462,
  "CONT": 4463,
  "ĠTIME": 4464,
  "Ġbiscot": 4465,
  "Ġbiscotti": 4466,
  "Ġsubject": 4467,
  "ĠHoover": 4468,
  "ĠDam": 4469,
  "Ġox": 4470,
  "Ġalligators": 4471,
  "CU": 4472,
  "Ġerected": 4473,
  "Ġhoodie": 4474,
  "Ġ2023": 4475,
  "ĠKEEP": 4476,
  "Ġusually": 4477,
  "POST": 4478,
  "Ġblotch": 4479,
  "Ġ13": 4480,
  "ĠWORLD": 4481,
  "Ġanything": 4482,
  "Ġarmchairs": 4483,
  "Ġarchitectural": 4484,
  "USEUM": 4485,
  "Ġmarquee": 4486,
  "Ġpixel": 4487,
  "Graffiti": 4488,
  "BY": 4489,
  "Ġchewing": 4490,
  "Ġarmrest": 4491,
  "IO": 4492,
  "visible": 4493,
  "large": 4494,
  "Ġcoast": 4495,
  "Ġwoodsy": 4496,
  "Ġbalancing": 4497,
  "Ġinflated": 4498,
  "laza": 4499,
  "ĠPlaza": 4500,
  "issance": 4501,
  "Ġbridle": 4502,
  "ILDING": 4503,
  "edged": 4504,
  "CHALLENGE": 4505,
  "ĠACCEPTED": 4506,
  "Ġbarren": 4507,
  "Ġmildew": 4508,
  "Ġbumblebee": 4509,
  "Ġbarb": 4510,
  "Ġgigantic": 4511,
  "pronged": 4512,
  "Ġalert": 4513,
  "ĠBushy": 4514,
  "DAN": 4515,
  "Ġdesktop": 4516,
  "Ġpossibly": 4517,
  "Ġgraduates": 4518,
  "Ġdrapes": 4519,
  "Ġhull": 4520,
  "37": 4521,
  "ĠLuxor": 4522,
  "ĠOak": 4523,
  "SIBLE": 4524,
  "night": 4525,
  "'T": 4526,
  "Ġgnarled": 4527,
  "Ġlengthy": 4528,
  "war": 4529,
  "BIGFOOT": 4530,
  "Ġfootbridge": 4531,
  "Ġtissue": 4532,
  "Ġassortment": 4533,
  "Ġfungi": 4534,
  "ĠPRO": 4535,
  "Ġ+": 4536,
  "Ġgrays": 4537,
  "Ġkangaroo": 4538,
  "Ġpollen": 4539,
  "Ġ\"$": 4540,
  "EMERGENCY": 4541,
  "hh": 4542,
  "hhh": 4543,
  "Ġmilk": 4544,
  "ĠPatches": 4545,
  "ĠF150": 4546,
  "UG": 4547,
  "ĠEnglish": 4548,
  "Ġdoormat": 4549,
  "ĠII": 4550,
  "Ġlandmass": 4551,
  "Ġhelp": 4552,
  "Ġneutral": 4553,
  "Ġzinnia": 4554,
  "SLOW": 4555,
  "Ġmetro": 4556,
  "Ġgrowths": 4557,
  "IUM": 4558,
  "Ġcauldron": 4559,
  "ĠCle": 4560,
  "RESERV": 4561,
  "RESERVATION": 4562,
  "Ġcityscape": 4563,
  "Ġsignificant": 4564,
  "Ġsucculent": 4565,
  "ADING": 4566,
  "Ġflowerbed": 4567,
  "Blue": 4568,
  "KEEP": 4569,
  "Ġthrone": 4570,
  "ĠMG": 4571,
  "Ġko": 4572,
  "Ġsoaring": 4573,
  "riever": 4574,
  "Ġfrowning": 4575,
  "Ġequilateral": 4576,
  "Ġpleated": 4577,
  "ARM": 4578,
  "Ġveining": 4579,
  "beige": 4580,
  "ĠCoca": 4581,
  "ULL": 4582,
  "Ġfloorboards": 4583,
  "Ġdaffodil": 4584,
  "Ġcorvette": 4585,
  "Ġcontroller": 4586,
  "Ġbreast": 4587,
  "Ġurn": 4588,
  "ĠFaded": 4589,
  "HN": 4590,
  "Ġglitter": 4591,
  "ĠFiat": 4592,
  "Ġspurting": 4593,
  "ĠGoing": 4594,
  "Ġblunt": 4595,
  "CHOOL": 4596,
  "ONLY": 4597,
  "Ġgroo": 4598,
  "Ġ2020": 4599,
  "Ġotherwise": 4600,
  "ĠCRV": 4601,
  "ĠRubik": 4602,
  "Ġsandw": 4603,
  "Ġfossilized": 4604,
  "Ġperpendicularly": 4605,
  "Ġbulky": 4606,
  "Ġalignment": 4607,
  "rowth": 4608,
  "Ġretracted": 4609,
  "ĠSw": 4610,
  "pa": 4611,
  "SA": 4612,
  "RD": 4613,
  "Ġbaggage": 4614,
  "gly": 4615,
  "ĠTimes": 4616,
  "YE": 4617,
  "ĠHuracan": 4618,
  "Ġcarbon": 4619,
  "TLE": 4620,
  "ai": 4621,
  "Ġthighs": 4622,
  "Ġshimmering": 4623,
  "ĠDemo": 4624,
  "ĠDerby": 4625,
  "Ġsignifying": 4626,
  "Ġswivel": 4627,
  "ĠTVs": 4628,
  "Ġunke": 4629,
  "Ġunkempt": 4630,
  "MAUF": 4631,
  "RAIS": 4632,
  "MAUFRAIS": 4633,
  "ĠOff": 4634,
  "Ġaloe": 4635,
  "Ġgliding": 4636,
  "Ġdishwasher": 4637,
  "Ġcraft": 4638,
  "Ġnozzle": 4639,
  "PRESS": 4640,
  "middle": 4641,
  "Ġhundreds": 4642,
  "ĠFlag": 4643,
  "IGHT": 4644,
  "Ġnetwork": 4645,
  "ĠQR": 4646,
  "Ġwitch": 4647,
  "uscular": 4648,
  "Ġmuscular": 4649,
  "55": 4650,
  "Ġflatter": 4651,
  "ĠTiny": 4652,
  "purple": 4653,
  "SO": 4654,
  "COMPOST": 4655,
  "Ġconeflowers": 4656,
  "ĠWREX": 4657,
  "Ġhammerhead": 4658,
  "ĠSuperman": 4659,
  "Ġcollage": 4660,
  "Ġcomics": 4661,
  "Ġbeveled": 4662,
  "Ġvanity": 4663,
  "TENNIS": 4664,
  "Ġletting": 4665,
  "Ġprayer": 4666,
  "Ġyellowing": 4667,
  "Ġcub": 4668,
  "ĠAmerica": 4669,
  "Ġharlequin": 4670,
  "Ġdrape": 4671,
  "Ġfleece": 4672,
  "Ġfilig": 4673,
  "Ġfiligree": 4674,
  "Ġcombat": 4675,
  "Ġbayou": 4676,
  "Ġbalust": 4677,
  "Ġdriftwood": 4678,
  "ĠBethesda": 4679,
  "BLUE": 4680,
  "Ġangling": 4681,
  "Ġdinosaurs": 4682,
  "Ġmermaid": 4683,
  "razil": 4684,
  "ĠBrazil": 4685,
  "Ġ1970": 4686,
  "Ġalbino": 4687,
  "lurry": 4688,
  "ĠAccord": 4689,
  "pecker": 4690,
  "Ġwoodpecker": 4691,
  "ah": 4692,
  "ĠNative": 4693,
  "ĠAz": 4694,
  "ĠAzte": 4695,
  "ĠAztec": 4696,
  "carved": 4697,
  "ĠWAIT": 4698,
  "ĠSERV": 4699,
  "Ġexpressway": 4700,
  "Ġdeity": 4701,
  "ĠMar": 4702,
  "ĠGeorge": 4703,
  "Ġcondition": 4704,
  "Ġmight": 4705,
  "outlined": 4706,
  "Ġmidnight": 4707,
  "Ġcoyote": 4708,
  "TRE": 4709,
  "Ġdwar": 4710,
  "ĠClaus": 4711,
  "Ġtemple": 4712,
  "rann": 4713,
  "rannosaurus": 4714,
  "Ġeverywhere": 4715,
  "Ġtransport": 4716,
  "Ġentertainment": 4717,
  "Ġstrawberry": 4718,
  "Ġcheesecake": 4719,
  "ĠSan": 4720,
  "Ahhh": 4721,
  "Ġstance": 4722,
  "Ġservice": 4723,
  "ammoth": 4724,
  "atch": 4725,
  "TOWN": 4726,
  "&\"": 4727,
  "trans": 4728,
  "ĠCrown": 4729,
  "Ġfleur": 4730,
  "South": 4731,
  "Ġbarred": 4732,
  "Ġfloorboard": 4733,
  "ĠWoman": 4734,
  "ĠAustral": 4735,
  "67": 4736,
  "Ġknotted": 4737,
  "Land": 4738,
  "potted": 4739,
  "Ġstrawberries": 4740,
  "Ġsanitizer": 4741,
  "Ġburlap": 4742,
  "PRESERVATION": 4743,
  "SW": 4744,
  "Ġalleyway": 4745,
  "ĠKaw": 4746,
  "ĠKawasaki": 4747,
  "Ġaj": 4748,
  "Ġajar": 4749,
  "Ġaudience": 4750,
  "Ġcatfish": 4751,
  "ĠGT": 4752,
  "ĠVEGAS": 4753,
  "DU": 4754,
  "66": 4755,
  "ĠBRID": 4756,
  "Ġtractors": 4757,
  "Ġretriever": 4758,
  "cano": 4759,
  "ĠBronco": 4760,
  "ĠNational": 4761,
  "Ġpansy": 4762,
  "Ġlocomotive": 4763,
  "Ġchef": 4764,
  "Ġexactly": 4765,
  "trimmed": 4766,
  "osball": 4767,
  "ĠRay": 4768,
  "ĠAREA": 4769,
  "ĠLIFE": 4770,
  "ĠGodzilla": 4771,
  "ĠFranc": 4772,
  "ĠTre": 4773,
  "edEx": 4774,
  "Ġheadstock": 4775,
  "Ġlarva": 4776,
  "Ġflank": 4777,
  "Ġtusk": 4778,
  "ĠDarth": 4779,
  "ĠVader": 4780,
  "Ġpours": 4781,
  "Ġwatercolor": 4782,
  "Ġotter": 4783,
  "ĠScion": 4784,
  "Ġheadpiece": 4785,
  "ĠMic": 4786,
  "ĠMicrobus": 4787,
  "Ġhugging": 4788,
  "Ġterrace": 4789,
  "Ġundergoing": 4790,
  "Ġscorecard": 4791,
  "Ġwedding": 4792,
  "asy": 4793,
  "Ġsandpit": 4794,
  "NY": 4795,
  "Ġmuscle": 4796,
  "Ġdemolished": 4797,
  "ĠMad": 4798,
  "HELLO": 4799,
  "ĠHul": 4800,
  "ĠHulk": 4801,
  "ĠGREAT": 4802,
  "ĠCube": 4803,
  "IP": 4804,
  "ĠGarden": 4805,
  "idon": 4806,
  "Ġdipping": 4807,
  "trailer": 4808,
  "FFEE": 4809,
  "IND": 4810,
  "growth": 4811,
  "Ġundergrowth": 4812,
  "OX": 4813,
  "ĠCat": 4814,
  "99": 4815,
  "DOG": 4816,
  "racotta": 4817,
  "Ġterracotta": 4818,
  "ĠDaylight": 4819,
  "Ġscraggly": 4820,
  "lied": 4821,
  "Ġdisappears": 4822,
  "Ġserifs": 4823,
  "Ġscissor": 4824,
  "ZA": 4825,
  "Ġsimplistic": 4826,
  "ĠEd": 4827,
  "ITCHEN": 4828,
  "Ġspool": 4829,
  "corn": 4830,
  "TRUCKS": 4831,
  "Ġbeverages": 4832,
  "Ġrightward": 4833,
  "Ġcontinuous": 4834,
  "ĠCal": 4835,
  "Ġsleek": 4836,
  "ll": 4837,
  "ĠSouthwest": 4838,
  "\"'": 4839,
  "ĠGlass": 4840,
  "Ġsmir": 4841,
  "x4": 4842,
  "Ġstalagmite": 4843,
  "Ġwarp": 4844,
  "ĠKia": 4845,
  "ank": 4846,
  "Ġslung": 4847,
  "Ġsquinting": 4848,
  "Ġcorres": 4849,
  "ĠFinally": 4850,
  "Ġabn": 4851,
  "Ġabnor": 4852,
  "ĠCharger": 4853,
  "Ġwrecked": 4854,
  "TRAIL": 4855,
  "ĠPekin": 4856,
  "Ġcharging": 4857,
  "Ġcardinal": 4858,
  "TX": 4859,
  "ĠGroup": 4860,
  "RECYCLING": 4861,
  "MEGA": 4862,
  "Ġturkeys": 4863,
  "Ġurban": 4864,
  "Ġicicles": 4865,
  "Ġlever": 4866,
  "Ġinvisible": 4867,
  "ĠTur": 4868,
  "Ġcollecting": 4869,
  "29": 4870,
  "leafed": 4871,
  "Ġequid": 4872,
  "ĠTwigs": 4873,
  "no": 4874,
  "Ġvideo": 4875,
  "Ġdenim": 4876,
  "ĠWILL": 4877,
  "aldi": 4878,
  "ĠGarib": 4879,
  "ĠGaribaldi": 4880,
  "Ġtrench": 4881,
  "leaf": 4882,
  "iN": 4883,
  "Fi": 4884,
  "Ġupwardly": 4885,
  "Ġthermos": 4886,
  "Ġpowder": 4887,
  "Ġsilverware": 4888,
  "Ġpork": 4889,
  "TENTION": 4890,
  "Ġeventually": 4891,
  "88": 4892,
  "Worm": 4893,
  "Ġfuel": 4894,
  "ĠAdd": 4895,
  "Ġhomemade": 4896,
  "ceiling": 4897,
  "Ġescalators": 4898,
  "PM": 4899,
  "urbed": 4900,
  "Ġencased": 4901,
  "Ġboxed": 4902,
  "mmed": 4903,
  "ĠImmed": 4904,
  "ĠImmediately": 4905,
  "WHAT": 4906,
  "Ġsandbags": 4907,
  "Ġfut": 4908,
  "ĠSpider": 4909,
  "ĠAk": 4910,
  "Ġjutting": 4911,
  "Ġwarrior": 4912,
  "rd": 4913,
  "ĠSh": 4914,
  "Ġpreviously": 4915,
  "You": 4916,
  "Ġexcited": 4917,
  "ĠFlorida": 4918,
  "VAN": 4919,
  "CESSIBLE": 4920,
  "Ġmidway": 4921,
  "Ġmoonlight": 4922,
  "Ġthro": 4923,
  "Ġthroat": 4924,
  "Ġcairn": 4925,
  "Ġdwarfed": 4926,
  "MOODY": 4927,
  "FU": 4928,
  "ĠOld": 4929,
  "Ġtransformer": 4930,
  "Ġrotting": 4931,
  "ĠIndia": 4932,
  "tocumulus": 4933,
  "ĠAltocumulus": 4934,
  "Ġearring": 4935,
  "ĠRock": 4936,
  "cur": 4937,
  "CROS": 4938,
  "RAFF": 4939,
  "ĠTRAFF": 4940,
  "ĠTRAFFIC": 4941,
  "QUE": 4942,
  "Ġcriss": 4943,
  "Ġleafs": 4944,
  "ĠHy": 4945,
  "Ġseamless": 4946,
  "turned": 4947,
  "Ġdevil": 4948,
  "...": 4949,
  "field": 4950,
  "Ġ\"&\"": 4951,
  "elcome": 4952,
  "Ġtattered": 4953,
  "ĠMillen": 4954,
  "ĠMillenn": 4955,
  "ĠMillennium": 4956,
  "Ġfourths": 4957,
  "ĠSphinx": 4958,
  "ĠChry": 4959,
  "ĠChrysler": 4960,
  "Ġdumbbell": 4961,
  "Ġbeluga": 4962,
  "Ġlatte": 4963,
  "Ġlollipop": 4964,
  "between": 4965,
  "Ġprogressively": 4966,
  "ĠBecause": 4967,
  "ĠIF": 4968,
  "vious": 4969,
  "Ġobvious": 4970,
  "Happy": 4971,
  "ĠStormt": 4972,
  "ĠR2": 4973,
  "Ġsentence": 4974,
  "Ġmicrow": 4975,
  "Ġgrime": 4976,
  "Ġtrom": 4977,
  "Ġtrombone": 4978,
  "Ġoutbu": 4979,
  "Ġcrock": 4980,
  "ĠLibrary": 4981,
  "LOCK": 4982,
  "Ġwedge": 4983,
  "Ġexact": 4984,
  "ĠStreetlights": 4985,
  "ĠWashing": 4986,
  "ĠWashington": 4987,
  "Ġcask": 4988,
  "Ġ32": 4989,
  "OK": 4990,
  "ĠOs": 4991,
  "inea": 4992,
  "NESS": 4993,
  "Ġtoga": 4994,
  "ĠWild": 4995,
  "Ġplateaus": 4996,
  "We": 4997,
  "Ġrecreational": 4998,
  "Ġlegged": 4999,
  "Ġabacus": 5000,
  "Ġgarlic": 5001,
  "Ġrattan": 5002,
  "ĠGravel": 5003,
  "Ġcalcite": 5004,
  "Ġbilliard": 5005,
  "Ġpride": 5006,
  "pink": 5007,
  "Ġserve": 5008,
  "Ġstanchions": 5009,
  "Ġstraws": 5010,
  "CS": 5011,
  "Turf": 5012,
  "ĠAstro": 5013,
  "ĠAstroTurf": 5014,
  "Ġsalv": 5015,
  "Ġsalvia": 5016,
  "Ġgrinder": 5017,
  "Ġvolcano": 5018,
  "Ġcauliflower": 5019,
  "ĠAuston": 5020,
  "ĠAustonian": 5021,
  "DREAM": 5022,
  "Ġtelehandler": 5023,
  "Ġstocking": 5024,
  "Ġsporadically": 5025,
  "Ġattraction": 5026,
  "Ġhowit": 5027,
  "Ġhowitzer": 5028,
  "Ġtreasure": 5029,
  "ĠIbex": 5030,
  "Ġfootpath": 5031,
  "Ġtadpole": 5032,
  "Ġagg": 5033,
  "TOO": 5034,
  "Ġunderlining": 5035,
  "ĠAnub": 5036,
  "ĠAnubis": 5037,
  "ĠRace": 5038,
  "Ġhydrange": 5039,
  "Ġsettled": 5040,
  "okaburra": 5041,
  "IE": 5042,
  "Ġindication": 5043,
  "Ġeasy": 5044,
  "Ġfrit": 5045,
  "ĠHill": 5046,
  "Ġboxing": 5047,
  "Ġshowcasing": 5048,
  "ĠHall": 5049,
  "WA": 5050,
  "Ġbist": 5051,
  "Ġbistro": 5052,
  "Ġpiping": 5053,
  "PALAZZ": 5054,
  "PALAZZO": 5055,
  "SCHOOL": 5056,
  "Ġfarmland": 5057,
  "ĠCirrocumulus": 5058,
  "13": 5059,
  "ĠSkyscrapers": 5060,
  "Ġstroke": 5061,
  "ĠIron": 5062,
  "Ġprec": 5063,
  "Ġcheck": 5064,
  "ĠMexican": 5065,
  "ĠOpen": 5066,
  "A1": 5067,
  "ĠM3": 5068,
  "bleached": 5069,
  "Ġblacktop": 5070,
  "Ġoverlo": 5071,
  "COFFEE": 5072,
  "x3": 5073,
  "Ġbiking": 5074,
  "Ġsequence": 5075,
  "Ġhardware": 5076,
  "ĠVir": 5077,
  "ĠFRIEN": 5078,
  "flap": 5079,
  "ified": 5080,
  "80": 5081,
  "ĠSlight": 5082,
  "Ġsquash": 5083,
  "Ġplume": 5084,
  "DEERE": 5085,
  "Ġapplied": 5086,
  "ĠMemorial": 5087,
  "ĠNike": 5088,
  "ORK": 5089,
  "ĠWHEN": 5090,
  "uzuki": 5091,
  "ĠSuzuki": 5092,
  "Ġhoof": 5093,
  "KITCHEN": 5094,
  "Ġspin": 5095,
  "Ġzucchini": 5096,
  "Ġpopcorn": 5097,
  "\"-": 5098,
  "Ġsheath": 5099,
  "He": 5100,
  "Ġgroove": 5101,
  "nia": 5102,
  "Ġjigsaw": 5103,
  "Ġcandies": 5104,
  "uarter": 5105,
  "Ġblurring": 5106,
  "CTV": 5107,
  "ĠCCTV": 5108,
  "ĠTied": 5109,
  "ĠApple": 5110,
  "ĠSlingshot": 5111,
  "ĠPy": 5112,
  "UNITED": 5113,
  "Ġprojectors": 5114,
  "Ġprojecting": 5115,
  "Ġpuff": 5116,
  "Ġcorresponding": 5117,
  "ĠMUSIC": 5118,
  "ĠChinook": 5119,
  "Ġdoughnut": 5120,
  "Ġsandwich": 5121,
  "tling": 5122,
  "Ġloaded": 5123,
  "ĠDOOR": 5124,
  "Hub": 5125,
  "Ġ27": 5126,
  "Ġenlarged": 5127,
  "Ġmust": 5128,
  "Ġdragonflies": 5129,
  "ĠWON": 5130,
  "Ġperch": 5131,
  "ĠElect": 5132,
  "Ġmelting": 5133,
  "ĠCITY": 5134,
  "Ġdrag": 5135,
  "floor": 5136,
  "Ġtwists": 5137,
  "ĠCrepe": 5138,
  "ĠMyrtle": 5139,
  "Ġcubic": 5140,
  "ĠBank": 5141,
  "Texas": 5142,
  "ĠEarth": 5143,
  "FK": 5144,
  "Ġcollected": 5145,
  "Ġgraphics": 5146,
  "ĠUnion": 5147,
  "BUILDING": 5148,
  "Ġdungeon": 5149,
  "Ġribbed": 5150,
  "Ġpopping": 5151,
  "ĠOrn": 5152,
  "ĠGolden": 5153,
  "Ġbudding": 5154,
  "Ġdevoid": 5155,
  "PUSH": 5156,
  "utto": 5157,
  "ĠSchool": 5158,
  "Ġpadd": 5159,
  "Rear": 5160,
  "Ġcoco": 5161,
  "Ġinver": 5162,
  "Ġinverted": 5163,
  "ĠTrail": 5164,
  "Ġpermanent": 5165,
  "ĠTerrace": 5166,
  "Ġfrost": 5167,
  "ĠStud": 5168,
  "ĠBlurry": 5169,
  "ĠJet": 5170,
  "DA": 5171,
  "HICLES": 5172,
  "Ġgambling": 5173,
  "Ġwiring": 5174,
  "Ġamethy": 5175,
  "Ġamethyst": 5176,
  "63": 5177,
  "ĠNimbostratus": 5178,
  "ĠChocolate": 5179,
  "ĠZe": 5180,
  "ĠZebra": 5181,
  "Ġ3rd": 5182,
  "CL": 5183,
  "WOOD": 5184,
  "Ġproducing": 5185,
  "ĠPlant": 5186,
  "FREE": 5187,
  "Ġincandescent": 5188,
  "Ġpetting": 5189,
  "Ġplanner": 5190,
  "Ġborderline": 5191,
  "Ġhasn": 5192,
  "Ġsweat": 5193,
  "Ġplexiglass": 5194,
  "Ġcoach": 5195,
  "Ġoddly": 5196,
  "Ġtufts": 5197,
  "WOMEN": 5198,
  "ĠHead": 5199,
  "Ġgrinning": 5200,
  "Ġleggings": 5201,
  "Life": 5202,
  "Ġnur": 5203,
  "Ġnursery": 5204,
  "ĠGold": 5205,
  "Ġchili": 5206,
  "Ġoccupies": 5207,
  "Ġgrove": 5208,
  "ĠVictorian": 5209,
  "Ġsupplies": 5210,
  "Ġshrouded": 5211,
  "Ġrunner": 5212,
  "Ġtransm": 5213,
  "Ġtransmission": 5214,
  "Ġyear": 5215,
  "ĠDay": 5216,
  "Ġoverturned": 5217,
  "KA": 5218,
  "GLE": 5219,
  "mine": 5220,
  "Ġlitter": 5221,
  "DOWN": 5222,
  "Ġperforated": 5223,
  "Ġhieroglyphics": 5224,
  "Ġlunch": 5225,
  "ibur": 5226,
  "ĠExcal": 5227,
  "ĠExcalibur": 5228,
  "Ġcongestus": 5229,
  "BC": 5230,
  "Ġterra": 5231,
  "WIN": 5232,
  "ZON": 5233,
  "Ġquick": 5234,
  "Ġtatto": 5235,
  "Ġfingertips": 5236,
  "Ġsketchy": 5237,
  "LOOR": 5238,
  "ZING": 5239,
  "ĠEurope": 5240,
  "Ġsquid": 5241,
  "ĠEven": 5242,
  "Ġdistressed": 5243,
  "wing": 5244,
  "Ġeyelids": 5245,
  "Ġhoneycomb": 5246,
  "D2": 5247,
  "Ġ19th": 5248,
  "Ġprobably": 5249,
  "Ġembroidery": 5250,
  "spotted": 5251,
  "IF": 5252,
  "Ġweaving": 5253,
  "Ġblueberries": 5254,
  "ĠClear": 5255,
  "Ġmicrowave": 5256,
  "ĠMallard": 5257,
  "TIME": 5258,
  "ĠAhead": 5259,
  "gency": 5260,
  "Ġemergency": 5261,
  "ĠInf": 5262,
  "Ġvein": 5263,
  "Ġfarinacea": 5264,
  "raping": 5265,
  "Ġdraping": 5266,
  "Ġsparkle": 5267,
  "Ġlumpy": 5268,
  "Ġbluebon": 5269,
  "jetBlue": 5270,
  "Ġtotem": 5271,
  "lip": 5272,
  "ĠBomber": 5273,
  "Ġtopmost": 5274,
  "tron": 5275,
  "Ġinsulation": 5276,
  "UB": 5277,
  "RINK": 5278,
  "Ġfronds": 5279,
  "Ġguinea": 5280,
  "Ġequidistant": 5281,
  "flop": 5282,
  "Ġhippopotamus": 5283,
  "worn": 5284,
  "Ġbalance": 5285,
  "AE": 5286,
  "Landf": 5287,
  "Landfill": 5288,
  "Ġchessboard": 5289,
  "Ġharp": 5290,
  "rofoam": 5291,
  "Ġdeparture": 5292,
  "ĠCanyon": 5293,
  "Ġanemone": 5294,
  "Ġomelette": 5295,
  "Ġoccupied": 5296,
  "Ġelectricity": 5297,
  "ĠBRIDGE": 5298,
  "ĠYorkshire": 5299,
  "unk": 5300,
  "LEFT": 5301,
  "Ġstigma": 5302,
  "Ġspur": 5303,
  "ĠTy": 5304,
  "Ġalmond": 5305,
  "Ġusual": 5306,
  "Ġblurs": 5307,
  "Ġwardrobe": 5308,
  "ĠFrancis": 5309,
  "Ġmemorial": 5310,
  "Ġdeployed": 5311,
  "Ġpunched": 5312,
  "Ġjersey": 5313,
  "ĠCich": 5314,
  "ĠCichl": 5315,
  "coat": 5316,
  "NA": 5317,
  "Ġ\"@": 5318,
  "ĠBuick": 5319,
  "Ġinc": 5320,
  "Ġweeping": 5321,
  "Ġpictogram": 5322,
  "Ġfoal": 5323,
  "Ġpancake": 5324,
  "Ġwisps": 5325,
  "Ġnoticeably": 5326,
  "geon": 5327,
  "Ġsturgeon": 5328,
  "Ġdartboard": 5329,
  "Ġsketchbook": 5330,
  "Ġmyrtle": 5331,
  "Ġmotorb": 5332,
  "icators": 5333,
  "Ġindicators": 5334,
  "POOL": 5335,
  "pus": 5336,
  "Ġbookcase": 5337,
  "Ġhummingbird": 5338,
  "Ġunderground": 5339,
  "Ġironwood": 5340,
  "Ġalphabet": 5341,
  "Ġtanning": 5342,
  "Ġspecific": 5343,
  "Ġwhiteboard": 5344,
  "coach": 5345,
  "ĠTic": 5346,
  "Ġscabbard": 5347,
  "Ġboxcar": 5348,
  "_k": 5349,
  "kebox": 5350,
  "Ġjukebox": 5351,
  "face": 5352,
  "ĠAlgae": 5353,
  "Ġpecking": 5354,
  "Ġbreakf": 5355,
  "Ġbreakfast": 5356,
  "Ġhydrangea": 5357,
  "Ġfunnel": 5358,
  "efferson": 5359,
  "Ġoutermost": 5360,
  "fined": 5361,
  "rofile": 5362,
  "profile": 5363,
  "cheveria": 5364,
  "venience": 5365,
  "LIB": 5366,
  "Ġitalicized": 5367,
  "Ġsunbeam": 5368,
  "Ġsuperhero": 5369,
  "TING": 5370,
  "ĠWW": 5371,
  "Ġclockwise": 5372,
  "41": 5373,
  "ĠFROM": 5374,
  "ĠChelsea": 5375,
  "Ġnortheast": 5376,
  "CITY": 5377,
  "193": 5378,
  "Ġkaleidoscope": 5379,
  "ĠPlastic": 5380,
  "ixed": 5381,
  "Ġforce": 5382,
  "Ġspeech": 5383,
  "Ġwatermarks": 5384,
  "Ġperforming": 5385,
  "ĠUkraine": 5386,
  "DRIVE": 5387,
  "ĠSuburban": 5388,
  "Ġfroth": 5389,
  "Pers": 5390,
  "Perspective": 5391,
  "Ġcocktail": 5392,
  "COUNTERS": 5393,
  "Ġsparkly": 5394,
  "Ġskinnier": 5395,
  "Ġeager": 5396,
  "TRA": 5397,
  "Ġcondominium": 5398,
  "Ġstooped": 5399,
  "ĠAtlanta": 5400,
  "Ġsouthern": 5401,
  "EMP": 5402,
  "TRUCKSLIVE": 5403,
  "section": 5404,
  "Ġproperly": 5405,
  "Ġjungle": 5406,
  "lossus": 5407,
  "Ġeasier": 5408,
  "Ġmarbling": 5409,
  "Ġfrench": 5410,
  "Ġelk": 5411,
  "Ġunre": 5412,
  "Ġcrash": 5413,
  "Ġbeanie": 5414,
  "Ġchristmas": 5415,
  "Ġbanj": 5416,
  "Ġbanjo": 5417,
  "Ġchimpanzee": 5418,
  "ĠYORK": 5419,
  "Ġcurvature": 5420,
  "Ġfriend": 5421,
  "Ġsmirk": 5422,
  "Ġ#": 5423,
  "Ġ4x4": 5424,
  "Ġ3x3": 5425,
  "Ġsagging": 5426,
  "Ġlifeguard": 5427,
  "Ġproducts": 5428,
  "ĠSoil": 5429,
  "Ġoncoming": 5430,
  "ĠPave": 5431,
  "ĠPavement": 5432,
  "ĠAWAY": 5433,
  "Six": 5434,
  "Ġnub": 5435,
  "actus": 5436,
  "ĠCactus": 5437,
  "TICKETS": 5438,
  "BLIND": 5439,
  "ĠMonument": 5440,
  "Ġsettling": 5441,
  "BIKE": 5442,
  "26": 5443,
  "84": 5444,
  "ĠBar": 5445,
  "ĠGLASS": 5446,
  "ĠBeige": 5447,
  "Ġpounce": 5448,
  "Ġsouthwest": 5449,
  "Ġmerging": 5450,
  "ĠMUST": 5451,
  "Ġsprig": 5452,
  "ĠHighline": 5453,
  "Ġtaxiing": 5454,
  "ĠCoast": 5455,
  "Ġmasculine": 5456,
  "ĠHaw": 5457,
  "HY": 5458,
  "Ġpalette": 5459,
  "Ġcontemporary": 5460,
  "White": 5461,
  "Ġcrimson": 5462,
  "ĠGrassy": 5463,
  "ĠcafÃ©": 5464,
  "Ġleaping": 5465,
  "UNG": 5466,
  "Ġproject": 5467,
  "Ġtech": 5468,
  "Ġdance": 5469,
  "Ġdancing": 5470,
  "Ġsquiggle": 5471,
  "Ġoutwardly": 5472,
  "BMW": 5473,
  "ĠSea": 5474,
  "mlin": 5475,
  "ĠGremlin": 5476,
  "56": 5477,
  "ĠEV": 5478,
  "Ġpetunias": 5479,
  "ĠOrnithopod": 5480,
  "igned": 5481,
  "Ġnetted": 5482,
  "ĠQueen": 5483,
  "stratus": 5484,
  "OFF": 5485,
  "Ġpaddling": 5486,
  "Ġswooping": 5487,
  "ĠWARS": 5488,
  "TAIN": 5489,
  "ĠLeave": 5490,
  "ĠFle": 5491,
  "Ġgoogly": 5492,
  "ĠOf": 5493,
  "DANGER": 5494,
  "Ġ\"(": 5495,
  ")\"": 5496,
  "ĠMexico": 5497,
  "ĠSmooth": 5498,
  "Ġmosquito": 5499,
  "ĠWill": 5500,
  "Ġmis": 5501,
  "Ġuncovered": 5502,
  "Ġfuzz": 5503,
  "Ġmechanical": 5504,
  "pecting": 5505,
  "ĠUniversal": 5506,
  "ĠStudios": 5507,
  "ĠBrazilian": 5508,
  "Ġpinpoint": 5509,
  "Ġbookshelves": 5510,
  "LASTIC": 5511,
  "NORTH": 5512,
  "ĠAkhenaten": 5513,
  "Austin": 5514,
  "ĠStratus": 5515,
  "Ġbarefoot": 5516,
  "ĠSEC": 5517,
  "ĠMoving": 5518,
  "âĢĶ": 5519,
  "ĠMUSEUM": 5520,
  "ĠGUIDE": 5521,
  "ĠCHARLES": 5522,
  "ĠCurious": 5523,
  "ĠButter": 5524,
  "Ġlusc": 5525,
  "Ġluscious": 5526,
  "Ġexcitedly": 5527,
  "ĠWritten": 5528,
  "ĠFl": 5529,
  "Ġspectators": 5530,
  "Ġfloodlight": 5531,
  "PLAY": 5532,
  "Ġkaleidoscop": 5533,
  "Ġkaleidoscopic": 5534,
  "ĠBrain": 5535,
  ").": 5536,
  "Ġgib": 5537,
  "Ġzoo": 5538,
  "ittle": 5539,
  "Little": 5540,
  "AHEAD": 5541,
  "ĠUkrainian": 5542,
  "Ġupcoming": 5543,
  "ĠXs": 5544,
  "Ġcavities": 5545,
  "Ġnews": 5546,
  "Ġexcite": 5547,
  "Ġexcitement": 5548,
  "ĠAirbus": 5549,
  "Ġblush": 5550,
  "Ġclamshell": 5551,
  "ĠRam": 5552,
  "ROWN": 5553,
  "ĠWITH": 5554,
  "ĠYin": 5555,
  "ĠTRESPASSING": 5556,
  "Ġharbor": 5557,
  "Ġload": 5558,
  "Ġmimics": 5559,
  "Ġfennel": 5560,
  "OXO": 5561,
  "Bee": 5562,
  "DLE": 5563,
  "ZOM": 5564,
  "ĠChurch": 5565,
  "ĠAngel": 5566,
  "ĠAdidas": 5567,
  "Ġglides": 5568,
  "Ġsignpost": 5569,
  "Ġsubtly": 5570,
  "HAPP": 5571,
  "Ġsneakers": 5572,
  "Ġdelivery": 5573,
  "SS": 5574,
  "Ġwinking": 5575,
  "ĠCommander": 5576,
  "'-": 5577,
  "MIX": 5578,
  "Ġjade": 5579,
  "Ġtoasted": 5580,
  "Ġ197": 5581,
  "Ġmus": 5582,
  "2022": 5583,
  "Ġstitch": 5584,
  "ersey": 5585,
  "ĠJersey": 5586,
  "Ġseamlessly": 5587,
  "Ġpenins": 5588,
  "asmine": 5589,
  "Ġglimpse": 5590,
  "Ġwagging": 5591,
  "Ġhopscotch": 5592,
  "Ġtombs": 5593,
  "sp": 5594,
  "Ġretro": 5595,
  "bi": 5596,
  "Ġcountries": 5597,
  "Ġarc": 5598,
  "Ġbulges": 5599,
  "ĠFLOOD": 5600,
  "Ġmock": 5601,
  "Ġscratchpad": 5602,
  "unct": 5603,
  "Ġpunct": 5604,
  "TRU": 5605,
  "ĠLOCAL": 5606,
  "AU": 5607,
  "Ġtetras": 5608,
  "Ġapproaches": 5609,
  "Ġfuturistic": 5610,
  "ĠCafe": 5611,
  "Ġabundance": 5612,
  "cotta": 5613,
  "ĠZinnia": 5614,
  "ĠTOUCH": 5615,
  "Ġdelta": 5616,
  "Ġquickly": 5617,
  "Ġtattoo": 5618,
  "ĠConstruction": 5619,
  "VISITOR": 5620,
  "ĠFLOOR": 5621,
  "Ġemits": 5622,
  "Ġtrough": 5623,
  "Ġscattering": 5624,
  "fruit": 5625,
  "Ġparagraphs": 5626,
  "ĠAMAZING": 5627,
  "ĠSPIDER": 5628,
  "Ġdre": 5629,
  "Ġdreary": 5630,
  "ĠHand": 5631,
  "Ġjetting": 5632,
  "ĠAfrica": 5633,
  "Ġcommode": 5634,
  "Ġplunger": 5635,
  "Ġchutes": 5636,
  "Ġfifths": 5637,
  "ĠStormtrooper": 5638,
  "IRST": 5639,
  "Ġwill": 5640,
  "Ġscrubby": 5641,
  "Ġslid": 5642,
  "Ġweapon": 5643,
  "conne": 5644,
  "Ġchev": 5645,
  "ĠCapital": 5646,
  "144": 5647,
  "Ġcrackle": 5648,
  "ĠiPad": 5649,
  "LEVEL": 5650,
  "PING": 5651,
  "cup": 5652,
  "Ġdandelion": 5653,
  "Ġbuildup": 5654,
  "ĠEARTH": 5655,
  "AZZ": 5656,
  "ĠBAND": 5657,
  "Ġputting": 5658,
  "ĠCathedral": 5659,
  "Ġcoals": 5660,
  "Ġcenterpiece": 5661,
  "ĠSV": 5662,
  "Ġtrout": 5663,
  "ĠWhat": 5664,
  "De": 5665,
  "ĠCream": 5666,
  "ĠBLOCK": 5667,
  "figure": 5668,
  "Ġheadband": 5669,
  "Ġdepths": 5670,
  "Ġmagnolia": 5671,
  "ĠEuropean": 5672,
  "Ġmottled": 5673,
  "Ġcumulous": 5674,
  "rook": 5675,
  "ĠCarrera": 5676,
  "Ġgeck": 5677,
  "Ġgecko": 5678,
  "TREK": 5679,
  "slip": 5680,
  "BRID": 5681,
  "CRA": 5682,
  "UBLIC": 5683,
  "ierra": 5684,
  "ĠSierra": 5685,
  "GMC": 5686,
  "ĠLock": 5687,
  "BUD": 5688,
  "Ġbarbw": 5689,
  "myrtle": 5690,
  "ĠCayman": 5691,
  "BRY": 5692,
  "ANT": 5693,
  "ĠHermes": 5694,
  "Ġboxwood": 5695,
  "Ġpurpose": 5696,
  "Ġhyacinths": 5697,
  "Ġundercar": 5698,
  "Ġundercarriage": 5699,
  "Recycle": 5700,
  "ciclar": 5701,
  "asura": 5702,
  "Ġchameleon": 5703,
  "ĠBoxter": 5704,
  "raphy": 5705,
  "ĠYoda": 5706,
  "Ġkidney": 5707,
  "resolution": 5708,
  "fl": 5709,
  "WILD": 5710,
  "\"/": 5711,
  "Ġshimmer": 5712,
  "Ġstyrofoam": 5713,
  "Ġclownfish": 5714,
  "Ġmedallion": 5715,
  "Ġwrinkly": 5716,
  "ĠTerrier": 5717,
  "LEY": 5718,
  "69": 5719,
  "ĠVEHICLES": 5720,
  "Ġgems": 5721,
  "ĠPony": 5722,
  "Ġairline": 5723,
  "Ġfoosball": 5724,
  "ĠJetta": 5725,
  "ĠWi": 5726,
  "BRE": 5727,
  "ĠAdirondack": 5728,
  "Ġwattle": 5729,
  "Ġwildflower": 5730,
  "ĠBritish": 5731,
  "ĠTime": 5732,
  "ĠAustralian": 5733,
  "lus": 5734,
  "ĠVehicles": 5735,
  "ĠFedEx": 5736,
  "gles": 5737,
  "Ġgoggles": 5738,
  "irror": 5739,
  "ĠLexus": 5740,
  "UP": 5741,
  "ĠLeaning": 5742,
  "Ġcaptures": 5743,
  "STRUCTION": 5744,
  "Ġseeping": 5745,
  "Ġkookaburra": 5746,
  "Ġscatter": 5747,
  "Ġbuoy": 5748,
  "ĠPop": 5749,
  "Ġbatten": 5750,
  "Ġneatly": 5751,
  "Ġrhod": 5752,
  "Ġequation": 5753,
  "Ġbulging": 5754,
  "ATTENTION": 5755,
  "ĠiPhone": 5756,
  "themed": 5757,
  "Ġgrocery": 5758,
  "ĠBeluga": 5759,
  "cro": 5760,
  "Ġpastries": 5761,
  "axis": 5762,
  "shouldered": 5763,
  "Ġ737": 5764,
  "ĠTaj": 5765,
  "ĠMahal": 5766,
  "chandise": 5767,
  "Ġmerchandise": 5768,
  "ĠStratocumulus": 5769,
  "Ġtoolbox": 5770,
  "Ġbandanna": 5771,
  "ĠKeep": 5772,
  "weiler": 5773,
  "tweiler": 5774,
  "Ġrottweiler": 5775,
  "Ġfluorite": 5776,
  "33": 5777,
  "Ġcomfort": 5778,
  "NOTICE": 5779,
  "Ġspilled": 5780,
  "Ġpeafowl": 5781,
  "carpus": 5782,
  "Ġshred": 5783,
  "Ġshredded": 5784,
  "Ġeyeholes": 5785,
  "Ġspice": 5786,
  "Ġtutus": 5787,
  "Ġtutu": 5788,
  "vert": 5789,
  "Ġculvert": 5790,
  "rove": 5791,
  "P30": 5792,
  "ĠFoo": 5793,
  "ĠToe": 5794,
  "Ġcruise": 5795,
  "Ġurinal": 5796,
  "Ġfuschia": 5797,
  "ĠApes": 5798,
  "ascadia": 5799,
  "ĠCascadia": 5800,
  "ĠPikach": 5801,
  "ĠPikachu": 5802,
  "agwort": 5803,
  "ĠRagwort": 5804,
  "roj": 5805,
  "ĠTroj": 5806,
  "ĠTrojan": 5807,
  "Ġtribal": 5808,
  "ĠNeither": 5809,
  "Light": 5810,
  "ĠAg": 5811,
  "forward": 5812,
  "Ġhandmade": 5813,
  "Ġfingernails": 5814,
  "Ġscrambled": 5815,
  "Ġshriveled": 5816,
  "ĠRisk": 5817,
  "Ã¤": 5818,
  "blo": 5819,
  "iping": 5820,
  "Golf": 5821,
  "VOLVO": 5822,
  "27": 5823,
  "JI": 5824,
  "Ġrowboats": 5825,
  "ĠNine": 5826,
  "ĠFet": 5827,
  "ĠDust": 5828,
  "ĠPLUME": 5829,
  "ĠGothic": 5830,
  "Banana": 5831,
  "Ġaltit": 5832,
  "Ġaltitude": 5833,
  "ĠSPEC": 5834,
  "clockwise": 5835,
  "ĠGi": 5836,
  "ILTON": 5837,
  "AMILY": 5838,
  "PORT": 5839,
  "Ġmedical": 5840,
  "Wilson": 5841,
  "Ġracetrack": 5842,
  "ĠM3A1": 5843,
  "auroposeidon": 5844,
  "ĠSauroposeidon": 5845,
  "ganized": 5846,
  "Ġmaintenance": 5847,
  "kerchief": 5848,
  "Ġhandkerchief": 5849,
  "GUEST": 5850,
  "Coca": 5851,
  "Ġmargin": 5852,
  "oo": 5853,
  "union": 5854,
  "Ġrepeat": 5855,
  "Ġreferred": 5856,
  "ĠVirgin": 5857,
  "RAGILE": 5858,
  "Ġchildlike": 5859,
  "EAT": 5860,
  "Ġslimmer": 5861,
  "ĠSwiss": 5862,
  "Ġwig": 5863,
  "ĠRan": 5864,
  "Ġcollie": 5865,
  "Ġencircles": 5866,
  "bottomed": 5867,
  "JUN": 5868,
  "CAJUN": 5869,
  "ulpt": 5870,
  "ulpture": 5871,
  "ĠSculpture": 5872,
  "Ġspotty": 5873,
  "ĠHV": 5874,
  "ĠHVAC": 5875,
  "36": 5876,
  "ĠCircular": 5877,
  "Ġtwist": 5878,
  "Ġ2005": 5879,
  "ĠEdison": 5880,
  "Ġmixing": 5881,
  "ĠRomeo": 5882,
  "Ġcrinkled": 5883,
  "ĠGran": 5884,
  "Ġtoothp": 5885,
  "CAFE": 5886,
  "Ġglim": 5887,
  "Ġglimmering": 5888,
  "ruiser": 5889,
  "ĠCruiser": 5890,
  "Ġcountryside": 5891,
  "shing": 5892,
  "shingled": 5893,
  "Black": 5894,
  "Ġbeverage": 5895,
  "fourths": 5896,
  "Ġcharger": 5897,
  "âĢĵ": 5898,
  "RIVATE": 5899,
  "ĠIf": 5900,
  "Ġzonatus": 5901,
  "ĠVintage": 5902,
  "ĠQuarter": 5903,
  "Ġorchid": 5904,
  "ĠNorthern": 5905,
  "ĠPLOT": 5906,
  "Ġbayonets": 5907,
  "ĠSEE": 5908,
  "Ġacc": 5909,
  "ĠReflection": 5910,
  "reme": 5911,
  "Extreme": 5912,
  "HOTWHEELSMONSTER": 5913,
  "'RE": 5914,
  "ĠPyramid": 5915,
  "Ġ1950s": 5916,
  "Ġsparkling": 5917,
  "ĠDappled": 5918,
  "Ġgem": 5919,
  "woven": 5920,
  "06": 5921,
  "ĠZ06": 5922,
  "Ġpediment": 5923,
  "Ġabnormal": 5924,
  "Ford": 5925,
  "LANDF": 5926,
  "LANDFILL": 5927,
  "KOMATSU": 5928,
  "ĠExp": 5929,
  "ĠExplorer": 5930,
  "Ġselection": 5931,
  "Ġcomplexion": 5932,
  "Ġrotors": 5933,
  "izable": 5934,
  "nizable": 5935,
  "squ": 5936,
  "Ġoutre": 5937,
  "Ġoutreached": 5938,
  "gling": 5939,
  "Ġsquatting": 5940,
  "MUSEUM": 5941,
  "ĠLeaf": 5942,
  "Ġmarshy": 5943,
  "Ġintertwining": 5944,
  "Ġyin": 5945,
  "Ġadjustable": 5946,
  "Ġheat": 5947,
  "Ġhealed": 5948,
  "ĠEntrance": 5949,
  "ATT": 5950,
  "ĠTurkish": 5951,
  "Ġbaggy": 5952,
  "vival": 5953,
  "KUNG": 5954,
  "att": 5955,
  "Ġmahogany": 5956,
  "Ġwalnut": 5957,
  "Ġsuv": 5958,
  "ĠAlcohol": 5959,
  "ĠPoint": 5960,
  "Ġjuniper": 5961,
  "Glass": 5962,
  "ĠJFK": 5963,
  "ĠAirport": 5964,
  "Ġwheelie": 5965,
  "ific": 5966,
  "ĠPacific": 5967,
  "ĠVan": 5968,
  "Ġbevel": 5969,
  "mic": 5970,
  "Ġenergy": 5971,
  "Te": 5972,
  "FIN": 5973,
  "Ġgoddess": 5974,
  "Ġfanning": 5975,
  "Ġdimmer": 5976,
  "51": 5977,
  "ĠBUTTON": 5978,
  "iNG": 5979,
  "Ġbalustrade": 5980,
  "ĠSunshine": 5981,
  "umn": 5982,
  "Ġautumn": 5983,
  "Ġcocoa": 5984,
  "Ġcrag": 5985,
  "ĠFleur": 5986,
  "glades": 5987,
  "ĠEver": 5988,
  "Ġcorroded": 5989,
  "ĠHarry": 5990,
  "Ġidentify": 5991,
  "Ġenormous": 5992,
  "Ġnotch": 5993,
  "Ġshocks": 5994,
  "ĠCastle": 5995,
  "riffin": 5996,
  "Ġforef": 5997,
  "Ġforefinger": 5998,
  "Ġ1970s": 5999,
  "Ġhatchback": 6000,
  "Eight": 6001,
  "ĠPeb": 6002,
  "skinned": 6003,
  "PLASTIC": 6004,
  "Ġdisturbed": 6005,
  "01": 6006,
  "Ġencasing": 6007,
  "Ġcassette": 6008,
  "ĠGuadal": 6009,
  "ĠGuadalupe": 6010,
  "Ġherself": 6011,
  "ROADWAY": 6012,
  "Ġundulating": 6013,
  "Ġstemware": 6014,
  "Ġgenie": 6015,
  "Ġdroppings": 6016,
  "ĠEm": 6017,
  "ĠRectangular": 6018,
  "Ben": 6019,
  "Benz": 6020,
  "ĠROCKS": 6021,
  "LINGTON": 6022,
  "Ġgesture": 6023,
  "Ġdecipher": 6024,
  "ĠRTA": 6025,
  "07": 6026,
  "ĠHave": 6027,
  "ĠTracks": 6028,
  "ĠOAK": 6029,
  "Ġpennants": 6030,
  "Ġsprays": 6031,
  "ĠACCESSIBLE": 6032,
  "Ġinterlocked": 6033,
  "roach": 6034,
  "Ġcockroach": 6035,
  "Ġrapid": 6036,
  "Ġcollect": 6037,
  "Ġguide": 6038,
  "Ġrosy": 6039,
  "Ġcalves": 6040,
  "flective": 6041,
  "reflective": 6042,
  "ĠPOINT": 6043,
  "ĠDav": 6044,
  "Ġrebar": 6045,
  "Ġcaptured": 6046,
  "Ġdimming": 6047,
  "Ġtyrannosaurus": 6048,
  "ĠTHRU": 6049,
  "Ġsweatpants": 6050,
  "ĠAlthough": 6051,
  "Ġdelphinium": 6052,
  "Ġbroke": 6053,
  "SERV": 6054,
  "SERVICE": 6055,
  "ii": 6056,
  "Ġsignifies": 6057,
  "ĠEQU": 6058,
  "Ġlepre": 6059,
  "Ġleprechaun": 6060,
  "Ġmeal": 6061,
  "ĠSin": 6062,
  "Ġ25th": 6063,
  "Ġfragments": 6064,
  "runsw": 6065,
  "ĠBrunsw": 6066,
  "ĠBrunswick": 6067,
  "ĠService": 6068,
  "ZOMBIE": 6069,
  "Ġcubbyhole": 6070,
  "Ġbrief": 6071,
  "ĠMAGIC": 6072,
  "BOYS": 6073,
  "ĠJULY": 6074,
  "YAL": 6075,
  "ROYAL": 6076,
  "ĠH2": 6077,
  "Ġstreambed": 6078,
  "Ġblackboard": 6079,
  "Mammoth": 6080,
  "Ġstomachs": 6081,
  "ĠLG": 6082,
  "Ġprairie": 6083,
  "SM": 6084,
  "STAFF": 6085,
  "Ġnewly": 6086,
  "Las": 6087,
  "Ġcarried": 6088,
  "WO": 6089,
  "Ġpunching": 6090,
  "Ġdestroyed": 6091,
  "viden": 6092,
  "vidence": 6093,
  "Ġcoffin": 6094,
  "yang": 6095,
  "Ġcemetery": 6096,
  "Ġstingrays": 6097,
  "ladiator": 6098,
  "ĠGladiator": 6099,
  "Ġinfinity": 6100,
  "Ġwrite": 6101,
  "LIBERTY": 6102,
  "Ġaudio": 6103,
  "ĠHD": 6104,
  "Ġwhoever": 6105,
  "Ġsimply": 6106,
  "Ġdragging": 6107,
  "DOWNTOWN": 6108,
  "TRUCK": 6109,
  "Ġthinly": 6110,
  "ĠCiv": 6111,
  "ĠCivic": 6112,
  "Ġglyphs": 6113,
  "Southwest": 6114,
  "Ġcandleholder": 6115,
  "ĠLAB": 6116,
  "Ġdappling": 6117,
  "Ġ1960": 6118,
  "ĠGerman": 6119,
  "Ġsetup": 6120,
  "catraz": 6121,
  "ĠAlcatraz": 6122,
  "alt": 6123,
  "New": 6124,
  "webs": 6125,
  "ĠTrack": 6126,
  "ĠAtlantic": 6127,
  "ĠBrick": 6128,
  "ĠTurnberry": 6129,
  "MUN": 6130,
  "ni": 6131,
  "Ġdescription": 6132,
  "ĠYEAR": 6133,
  "ĠAqu": 6134,
  "Run": 6135,
  "Runner": 6136,
  "INUM": 6137,
  "ĠHung": 6138,
  "Ġmerge": 6139,
  "FA": 6140,
  "Ġsmoothly": 6141,
  "CHILDREN": 6142,
  "ear": 6143,
  "Ġintervals": 6144,
  "Buscar": 6145,
  "Ġundertone": 6146,
  "Ġdecre": 6147,
  "Ġhighlight": 6148,
  "ĠSubaru": 6149,
  "edo": 6150,
  "Ġtuxedo": 6151,
  "ĠRaptor": 6152,
  "ĠMonro": 6153,
  "ĠMonroe": 6154,
  "COURAGE": 6155,
  "Ġwizard": 6156,
  "Ġingred": 6157,
  "Ġingredients": 6158,
  "Ġcoleus": 6159,
  "craft": 6160,
  "ĠPigeon": 6161,
  "Ġmean": 6162,
  "Ġeggp": 6163,
  "Ġinteriors": 6164,
  "Ġbrittle": 6165,
  "Ġvertebrae": 6166,
  "SPITAL": 6167,
  "Ġnectar": 6168,
  "ĠPot": 6169,
  "ĠAlmost": 6170,
  "ĠAm": 6171,
  "Ġnorthwest": 6172,
  "Ġpastry": 6173,
  "Ġmusician": 6174,
  "brimmed": 6175,
  "-\"": 6176,
  "Ġplateau": 6177,
  "ign": 6178,
  "Ġoutbuilding": 6179,
  "ĠDue": 6180,
  "Ġpottery": 6181,
  "ĠLouis": 6182,
  "ja": 6183,
  "Ġknuckles": 6184,
  "veillan": 6185,
  "Ġsurveillan": 6186,
  "Ġsurveillance": 6187,
  "Ġemit": 6188,
  "ĠCaterp": 6189,
  "ĠCaterpillar": 6190,
  "Ġstructural": 6191,
  "YARD": 6192,
  "Ġmandibles": 6193,
  "ĠWay": 6194,
  "MISSION": 6195,
  "ĠPU": 6196,
  "ĠINSIDE": 6197,
  "JOHN": 6198,
  "DRAIN": 6199,
  "DY": 6200,
  "ĠBald": 6201,
  "posure": 6202,
  "ĠBl": 6203,
  "ĠGatorade": 6204,
  "ĠMacan": 6205,
  "Ġconfetti": 6206,
  "cino": 6207,
  "ĠMGM": 6208,
  "rookly": 6209,
  "ĠBrookly": 6210,
  "ĠBrooklyn": 6211,
  "gret": 6212,
  "ĠEgret": 6213,
  "ĠAsh": 6214,
  "ROUND": 6215,
  "Ġspill": 6216,
  "VIV": 6217,
  "ĠHowever": 6218,
  "Ġinfant": 6219,
  "ĠBefore": 6220,
  "Ġkoala": 6221,
  "Ġlumps": 6222,
  "ĠFederal": 6223,
  "Ġhorseback": 6224,
  "Ġpavillion": 6225,
  "PORS": 6226,
  "PORSCHE": 6227,
  "Ġphy": 6228,
  "Ġphysical": 6229,
  "Ġbarbwire": 6230,
  "ĠBEFORE": 6231,
  "stuffed": 6232,
  "Ġtarantula": 6233,
  "Ġpne": 6234,
  "Ġpneumatic": 6235,
  "Ġsediments": 6236,
  "Ġunderbody": 6237,
  "Ġtramcar": 6238,
  "ismar": 6239,
  "ĠBismar": 6240,
  "ĠBismarck": 6241,
  "rieze": 6242,
  "ĠSpray": 6243,
  "CUIDADO": 6244,
  "Ġdissects": 6245,
  "Ġtypewriter": 6246,
  "Ġglassblower": 6247,
  "Ġarrival": 6248,
  "bottom": 6249,
  "piper": 6250,
  "Ġsandpiper": 6251,
  "Ġtreble": 6252,
  "ĠChrome": 6253,
  "Ġmullein": 6254,
  "Ġmile": 6255,
  "EF": 6256,
  "CAESARS": 6257,
  "Ġhimself": 6258,
  "Ġspurge": 6259,
  "ĠOVER": 6260,
  "Ġfascicles": 6261,
  "Ġaffixed": 6262,
  "Li": 6263,
  "SELECT": 6264,
  "ĠRays": 6265,
  "Ġflashlight": 6266,
  "JAZZ": 6267,
  "Ġroasted": 6268,
  "uk": 6269,
  "Ġconj": 6270,
  "roc": 6271,
  "Ġneat": 6272,
  "ĠArch": 6273,
  "Ġramekin": 6274,
  "ĠMirror": 6275,
  "hu": 6276,
  "BUSCA": 6277,
  "hly": 6278,
  "ĠMu": 6279,
  "ĠMuhly": 6280,
  "Ġuniformly": 6281,
  "Ġlandmarks": 6282,
  "ĠFocus": 6283,
  "Ġfiberglass": 6284,
  "ĠYamaha": 6285,
  "ĠWrapped": 6286,
  "Ġencircled": 6287,
  "ĠCichlid": 6288,
  "Ġovercoat": 6289,
  "Ġchipboard": 6290,
  "Ġrevol": 6291,
  "ircular": 6292,
  "odendron": 6293,
  "Ġrhododendron": 6294,
  "Ġarachnid": 6295,
  "ĠSpecks": 6296,
  "Ġprehistoric": 6297,
  "Fer": 6298,
  "ĠROCK": 6299,
  "CSX": 6300,
  "ĠArea": 6301,
  "Ġ4th": 6302,
  "Ġshuttle": 6303,
  "Ġbooklet": 6304,
  "Ġmidground": 6305,
  "ĠGRASS": 6306,
  "Ġhilltops": 6307,
  "F150": 6308,
  "ĠBand": 6309,
  "ĠImpala": 6310,
  "Ġluminaries": 6311,
  "Night": 6312,
  "ĠDIV": 6313,
  "ĠDIVING": 6314,
  "VING": 6315,
  "ĠHalfway": 6316,
  "Ġcuffs": 6317,
  "ĠMetro": 6318,
  "Ġfiref": 6319,
  "Ġprimary": 6320,
  "eing": 6321,
  "ĠBoeing": 6322,
  "Ġshowcases": 6323,
  "Ġprogress": 6324,
  "Ġcowrie": 6325,
  "Ġspiderwort": 6326,
  "Ġu": 6327,
  "Ġfelt": 6328,
  "ĠMardi": 6329,
  "ĠGras": 6330,
  "height": 6331,
  "ĠTyrannosaurus": 6332,
  "ĠHatter": 6333,
  "Ġsurfboard": 6334,
  "PAPER": 6335,
  "fin": 6336,
  "Ġencircle": 6337,
  "cules": 6338,
  "KN": 6339,
  "Ġcrape": 6340,
  "ĠDr": 6341,
  "SPOON": 6342,
  "Ġmarlin": 6343,
  "Ġmangoes": 6344,
  "grey": 6345,
  "Ġpecan": 6346,
  "GP": 6347,
  "Ġcaulk": 6348,
  "wide": 6349,
  "ĠTabasco": 6350,
  "'d": 6351,
  "ĠTund": 6352,
  "ĠTundra": 6353,
  "Ġconnectors": 6354,
  "Ġperidot": 6355,
  "Ġemu": 6356,
  "Ġplayful": 6357,
  "track": 6358,
  "KEY": 6359,
  "Ġbulge": 6360,
  "Che": 6361,
  "ngo": 6362,
  "Ġeryngo": 6363,
  "ĠENERGY": 6364,
  "Ġconductor": 6365,
  "XOR": 6366,
  "Ġtweezers": 6367,
  "Ġmythical": 6368,
  "Ġquaver": 6369,
  "Ġmangrove": 6370,
  "ĠLondon": 6371,
  "Ġbackup": 6372,
  "JP": 6373,
  "fifth": 6374,
  "Ġstagecoach": 6375,
  "Ġupstairs": 6376,
  "ĠGuate": 6377,
  "Ġmohawk": 6378,
  "ĠBW": 6379,
  "ĠBWM": 6380,
  "ĠAlp": 6381,
  "ĠAlpine": 6382,
  "ĠFrag": 6383,
  "Ġbedsheet": 6384,
  "Ġbatfish": 6385,
  "modore": 6386,
  "ĠDROP": 6387,
  "Ġrecreation": 6388,
  "Hickie": 6389,
  "76": 6390,
  "Ġwinch": 6391,
  "esus": 6392,
  "ĠJesus": 6393,
  "65": 6394,
  "ĠBeethoven": 6395,
  "HUGO": 6396,
  "ĠPlanet": 6397,
  "UCH": 6398,
  "Ġcalculator": 6399,
  "Ġportafilter": 6400,
  "ĠSycamore": 6401,
  "Ġwrenches": 6402,
  "IDEO": 6403,
  "ĠRobocop": 6404,
  "Ġstuntman": 6405,
  "ĠBrass": 6406,
  "ĠStroke": 6407,
  "Ġsterlet": 6408,
  "hodoch": 6409,
  "ĠRhodoch": 6410,
  "ĠRhodochrosite": 6411,
  "ĠNav": 6412,
  "Ġpopup": 6413,
  "Ġstraightforward": 6414,
  "Ġforcing": 6415,
  "Ġaggregate": 6416,
  "ĠDC": 6417,
  "ĠLantern": 6418,
  "Ġbiscuit": 6419,
  "ĠCentury": 6420,
  "Ġbreeze": 6421,
  "Ġenhan": 6422,
  "fur": 6423,
  "VA": 6424,
  "Ġburrow": 6425,
  "Ġlanceolate": 6426,
  "wim": 6427,
  "ĠDuty": 6428,
  "Jefferson": 6429,
  "Ġshocked": 6430,
  "CENTURY": 6431,
  "Ġpeek": 6432,
  "ĠAW": 6433,
  "ĠHAND": 6434,
  "Ġcognac": 6435,
  "Ġsevere": 6436,
  "irect": 6437,
  "Ġindirect": 6438,
  "Ġimitation": 6439,
  "Ġheadrest": 6440,
  "Ġecheveria": 6441,
  "ĠPrius": 6442,
  "ĠKIT": 6443,
  "ĠKITTY": 6444,
  "RETURN": 6445,
  "VOLVER": 6446,
  "DEVOLVER": 6447,
  "Ġtranslation": 6448,
  "LIBROS": 6449,
  "Ġtwir": 6450,
  "Ġprecipitation": 6451,
  "Ġbattlement": 6452,
  "Ġcounterclockwise": 6453,
  "Ġlionfish": 6454,
  "ĠZilker": 6455,
  "ĠDEPT": 6456,
  "CHECK": 6457,
  "ĠHIGH": 6458,
  "ĠTHEIR": 6459,
  "ĠREMEMBER": 6460,
  "Ġkeyhole": 6461,
  "ĠTwizzlers": 6462,
  "Ġsewage": 6463,
  "ĠPride": 6464,
  "ĠSuperdome": 6465,
  "LL": 6466,
  "Ġloaf": 6467,
  "ĠGrogu": 6468,
  "Ġtuft": 6469,
  "Ġragged": 6470,
  "DLY": 6471,
  "ĠFRIENDLY": 6472,
  "Ġstruts": 6473,
  "Ġaltoc": 6474,
  "Ġwinglet": 6475,
  "Ġpalmetto": 6476,
  "Ġ2021": 6477,
  "grown": 6478,
  "wrapped": 6479,
  "Ġunz": 6480,
  "Ġunzipped": 6481,
  "Ġserrated": 6482,
  "ĠStairs": 6483,
  "GATORBA": 6484,
  "GATORBAIT": 6485,
  "II": 6486,
  "ĠENCOUNTERS": 6487,
  "Ġjean": 6488,
  "PI": 6489,
  "CONCESSION": 6490,
  "CONCESSIONS": 6491,
  "HINI": 6492,
  "GHINI": 6493,
  "BORGHINI": 6494,
  "LAMBORGHINI": 6495,
  "Love": 6496,
  "Ġveloc": 6497,
  "ĠSLIPPERY": 6498,
  "fa": 6499,
  "ĠAUTHORIZED": 6500,
  "Ġeagerly": 6501,
  "Ġtoothpicks": 6502,
  "noticeable": 6503,
  "Ġunnoticeable": 6504,
  "WEAR": 6505,
  "Ġcolorless": 6506,
  "Ġconfused": 6507,
  "WHEEL": 6508,
  "Ġsteamboat": 6509,
  "olid": 6510,
  "Ġkung": 6511,
  "Ġfu": 6512,
  "ĠAloe": 6513,
  "Ġtakeoff": 6514,
  "ĠOil": 6515,
  "romelia": 6516,
  "ĠBromelia": 6517,
  "MX": 6518,
  "ĠHeavy": 6519,
  "ifornia": 6520,
  "ĠCalifornia": 6521,
  "vine": 6522,
  "PRIVATE": 6523,
  "ĠAugustine": 6524,
  "lluminated": 6525,
  "ĠIlluminated": 6526,
  "Ġtextbook": 6527,
  "Ġequator": 6528,
  "Ġgoldfish": 6529,
  "Ġaxe": 6530,
  "Ġcomprised": 6531,
  "Ġstabbed": 6532,
  "Bob": 6533,
  "Bobcat": 6534,
  "ĠCANCER": 6535,
  "PUR": 6536,
  "ĠMARTIN": 6537,
  "UARY": 6538,
  "CTUARY": 6539,
  "retch": 6540,
  "ĠXING": 6541,
  "uckle": 6542,
  "HOTWHEELSMONSTERTRUCKSLIVE": 6543,
  "inkle": 6544,
  "winkle": 6545,
  "Ġperiwinkle": 6546,
  "ĠPiranhas": 6547,
  "ĠATM": 6548,
  "Ġbomb": 6549,
  "Ġhibiscus": 6550,
  "ĠSunflower": 6551,
  "Ġbarracudas": 6552,
  "Ġchamber": 6553,
  "ĠRain": 6554,
  "Ġconverging": 6555,
  "ĠBits": 6556,
  "Ġsyrup": 6557,
  "Ġwaterline": 6558,
  "Ġscissors": 6559,
  "Ġconfiguration": 6560,
  "PLACE": 6561,
  "ĠCURB": 6562,
  "--": 6563,
  "Ġoyster": 6564,
  "Ġmild": 6565,
  "Ġregularly": 6566,
  "RONT": 6567,
  "Ġfilthy": 6568,
  "TTX": 6569,
  "Ġwiped": 6570,
  "Ġjuggling": 6571,
  "ĠLeafy": 6572,
  "ĠDIST": 6573,
  "ĠElectric": 6574,
  "Ġpliers": 6575,
  "43": 6576,
  "ĠFaint": 6577,
  "fire": 6578,
  "Ġskyward": 6579,
  "Ġbadly": 6580,
  "Ġcapturing": 6581,
  "HYATT": 6582,
  "Ġposture": 6583,
  "Ġswipe": 6584,
  "Ġstirrups": 6585,
  "ĠCOMPLETE": 6586,
  "Ġfunghi": 6587,
  "ĠELM": 6588,
  "MUS": 6589,
  "Ġfragile": 6590,
  "Ġunclear": 6591,
  "SELF": 6592,
  "ĠYOURSELF": 6593,
  "WESTIN": 6594,
  "ĠTennis": 6595,
  "Ġpercent": 6596,
  "64": 6597,
  "Ġcrammed": 6598,
  "BW": 6599,
  "ĠFRIENDS": 6600,
  "ĠPhoenix": 6601,
  "love": 6602,
  "ĠTruck": 6603,
  "Ġawaiting": 6604,
  "Ġsimpl": 6605,
  "Ġsimplified": 6606,
  "Ġ81st": 6607,
  "Ġmisaligned": 6608,
  "ĠWHE": 6609,
  "Ġwaistline": 6610,
  "ĠDal": 6611,
  "OFFICE": 6612,
  "grond": 6613,
  "Ġbackgrond": 6614,
  "PRO": 6615,
  "INDEED": 6616,
  "ĠHutto": 6617,
  "Hutto": 6618,
  "Ġmonochrome": 6619,
  "Ġsquarish": 6620,
  "Ġwiggle": 6621,
  "ĠCaptain": 6622,
  "ĠWalking": 6623,
  "Ġduckweed": 6624,
  "ĠRussian": 6625,
  "Ġsurp": 6626,
  "Ġgingham": 6627,
  "Ġtanned": 6628,
  "potty": 6629,
  "ĠReturning": 6630,
  "Ġunorganized": 6631,
  "Ġdiagram": 6632,
  "Ġhy": 6633,
  "brush": 6634,
  "ĠEverglades": 6635,
  "ramÃ©": 6636,
  "ĠmacramÃ©": 6637,
  "Ġpewter": 6638,
  "57": 6639,
  "Ġleftward": 6640,
  "ĠJen": 6641,
  "Ġmismatched": 6642,
  "Ġreefs": 6643,
  "ĠAdditionally": 6644,
  "Ġindiscer": 6645,
  "Ġindiscernible": 6646,
  "Privy": 6647,
  "SOUTHWEST": 6648,
  "ĠFan": 6649,
  "ĠHogwarts": 6650,
  "ĠLeading": 6651,
  "Ġfretboard": 6652,
  "ENGINE": 6653,
  "ĠMIN": 6654,
  "ĠPebbles": 6655,
  "Ġgarb": 6656,
  "ĠTAMMANY": 6657,
  "Birds": 6658,
  "ĠCab": 6659,
  "ARLINGTON": 6660,
  "Ġdesserts": 6661,
  "Free": 6662,
  "Park": 6663,
  "ĠHam": 6664,
  "ĠFurthermore": 6665,
  "IZ": 6666,
  "TCL": 6667,
  "Ġflexible": 6668,
  "ĠCreek": 6669,
  "HEART": 6670,
  "Ġplacement": 6671,
  "Ġflesh": 6672,
  "ruises": 6673,
  "ĠEurasian": 6674,
  "owl": 6675,
  "Ġscrunched": 6676,
  "ĠCommon": 6677,
  "uorescent": 6678,
  "ĠFluorescent": 6679,
  "Ġstanchion": 6680,
  "Ġmajor": 6681,
  "KISS": 6682,
  "Ġcautiously": 6683,
  "ieve": 6684,
  "VS": 6685,
  "CVS": 6686,
  "Ġinterchange": 6687,
  "ĠHealth": 6688,
  "dot": 6689,
  "free": 6690,
  "ĠPont": 6691,
  "C17": 6692,
  "TREASURE": 6693,
  "ĠCl": 6694,
  "Ġearthmovers": 6695,
  "Ġearthmover": 6696,
  "FUJI": 6697,
  "ĠBEY": 6698,
  "ĠBEYON": 6699,
  "ĠBEYOND": 6700,
  "ĠHarley": 6701,
  "Ġfrown": 6702,
  "LIONS": 6703,
  "Ġrainwater": 6704,
  "Ġgriffin": 6705,
  "FEET": 6706,
  "ĠCoat": 6707,
  "Ġobserving": 6708,
  "ĠBobtail": 6709,
  "Ġrubbing": 6710,
  "Ġpinnules": 6711,
  "Ġpepperm": 6712,
  "Ġsoundbar": 6713,
  "SALEEN": 6714,
  "ĠPROHI": 6715,
  "ĠEQUIPMENT": 6716,
  "ĠWagon": 6717,
  "ĠYang": 6718,
  "Ġgravity": 6719,
  "ĠSince": 6720,
  "ĠLeptoglossus": 6721,
  "Ġunlike": 6722,
  "AF": 6723,
  "EDUCATION": 6724,
  "Ġcongress": 6725,
  "grained": 6726,
  "Ġwireframe": 6727,
  "ĠKind": 6728,
  "ĠFLAT": 6729,
  "Ġmockingbird": 6730,
  "GIRLS": 6731,
  "ĠGuard": 6732,
  "curved": 6733,
  "ĠImagen": 6734,
  "Ġjockey": 6735,
  "ĠVictory": 6736,
  "''": 6737,
  "ĠDOES": 6738,
  "Ġdodo": 6739,
  "ĠAltostratus": 6740,
  "ĠBEING": 6741,
  "forced": 6742,
  "COWBOYS": 6743,
  "VROLET": 6744,
  "CHEVROLET": 6745,
  "HAPPY": 6746,
  "Ġhockey": 6747,
  "ĠMiami": 6748,
  "ĠM4": 6749,
  "Ġpeaceful": 6750,
  "ĠScience": 6751,
  "Ġbubbly": 6752,
  "Ġsapling": 6753,
  "yn": 6754,
  "ĠWyn": 6755,
  "ĠWynn": 6756,
  "ayenne": 6757,
  "ĠCayenne": 6758,
  "MIXED": 6759,
  "Ġtoasting": 6760,
  "brous": 6761,
  "Ġfibrous": 6762,
  "Ġcontemp": 6763,
  "Ġlaundry": 6764,
  "Ġrockfish": 6765,
  "Ġlumber": 6766,
  "ĠPEOPLE": 6767,
  "Ġpeninsulas": 6768,
  "OGLE": 6769,
  "ourbon": 6770,
  "Bourbon": 6771,
  "It": 6772,
  "Ġprincess": 6773,
  "ĠJasmine": 6774,
  "Ġunrecog": 6775,
  "Ġunrecognizable": 6776,
  "SUMMER": 6777,
  "ĠTABLE": 6778,
  "Ġbattlefield": 6779,
  "RANGLER": 6780,
  "BRU": 6781,
  "Ġdescribes": 6782,
  "Ġuncolored": 6783,
  "Ġmem": 6784,
  "Ġshih": 6785,
  "Ġtzu": 6786,
  "ĠLeft": 6787,
  "ACCESSIBLE": 6788,
  "Ġdatura": 6789,
  "Ġstatus": 6790,
  "TR": 6791,
  "ĠDuring": 6792,
  "GNE": 6793,
  "ĠSahara": 6794,
  "Ġdyson": 6795,
  "heit": 6796,
  "renheit": 6797,
  "Ġpressure": 6798,
  "ĠTHANK": 6799,
  "Ġoffs": 6800,
  "Ġoffshoots": 6801,
  "wind": 6802,
  "ĠRud": 6803,
  "urbance": 6804,
  "Ġdisturbance": 6805,
  "All": 6806,
  "ĠMcDonald": 6807,
  "From": 6808,
  "ĠBeach": 6809,
  "Ġcobwebs": 6810,
  "St": 6811,
  "Ġobt": 6812,
  "73": 6813,
  "Ġfireman": 6814,
  "ZONF": 6815,
  "AMAZONF": 6816,
  "ĠBlanchard": 6817,
  "ĠEliz": 6818,
  "Ġkib": 6819,
  "Ġkibble": 6820,
  "Ġviewpoint": 6821,
  "Keep": 6822,
  "Ġplump": 6823,
  "Ġexploding": 6824,
  "Ġcompl": 6825,
  "Ġpaperwe": 6826,
  "Ġpaperweight": 6827,
  "Ġgrapefruit": 6828,
  "ĠAustralia": 6829,
  "Ġnegative": 6830,
  "Ġarray": 6831,
  "Ġ4Runner": 6832,
  "ĠEND": 6833,
  "Ġcleanly": 6834,
  "ALUMINUM": 6835,
  "ĠUber": 6836,
  "Ġdetermined": 6837,
  "Haul": 6838,
  "Ġhydraulic": 6839,
  "LT": 6840,
  "ĠFIRST": 6841,
  "Ġheavier": 6842,
  "uercus": 6843,
  "Ġsuggesting": 6844,
  "Ġcavity": 6845,
  "Ġresult": 6846,
  "Ġsput": 6847,
  "Ġsputnik": 6848,
  "ĠSYSTEM": 6849,
  "Ġdecreasing": 6850,
  "ĠFirst": 6851,
  "reases": 6852,
  "Ġinterconne": 6853,
  "ĠBill": 6854,
  "ĠCeiling": 6855,
  "oga": 6856,
  "Ġyoga": 6857,
  "Ġskimmer": 6858,
  "NISSAN": 6859,
  "YONEX": 6860,
  "JOE": 6861,
  "Ġswiftly": 6862,
  "cs": 6863,
  "inecraft": 6864,
  "ĠMinecraft": 6865,
  "Ġeggplant": 6866,
  "Ġmanual": 6867,
  "SAMSUNG": 6868,
  "BS": 6869,
  "ĠBEER": 6870,
  "Ġglancing": 6871,
  "HOSPITAL": 6872,
  "Ġsplay": 6873,
  "PEACE": 6874,
  "Ġsoutheast": 6875,
  "ĠAust": 6876,
  "SHORT": 6877,
  "ock": 6878,
  "Ġwarehouse": 6879,
  "05": 6880,
  "Ġexteriors": 6881,
  "98": 6882,
  "lington": 6883,
  "ĠArlington": 6884,
  "ĠFoam": 6885,
  "Ġcorduroy": 6886,
  "AMAHA": 6887,
  "RAND": 6888,
  "Ġfoldout": 6889,
  "ĠBernese": 6890,
  "runette": 6891,
  "Ġbrunette": 6892,
  "RTA": 6893,
  "LOADING": 6894,
  "Ġvodka": 6895,
  "DEEP": 6896,
  "ĠEDDY": 6897,
  "Real": 6898,
  "ĠApartments": 6899,
  "XOXO": 6900,
  "Ġexaggeratedly": 6901,
  "Ġbluebonnet": 6902,
  "CAA": 6903,
  "Ġrosemary": 6904,
  "beam": 6905,
  "Ġplasma": 6906,
  "ELEVATOR": 6907,
  "Ġtechni": 6908,
  "reech": 6909,
  "Ġscreech": 6910,
  "ĠHunt": 6911,
  "FISH": 6912,
  "Ġcali": 6913,
  "Ġcalibers": 6914,
  "Ġlandmark": 6915,
  "uccino": 6916,
  "Ġcappuccino": 6917,
  "LETTERS": 6918,
  "INS": 6919,
  "ryant": 6920,
  "ĠBryant": 6921,
  "Ġinspired": 6922,
  "GREEN": 6923,
  "ĠEast": 6924,
  "trunk": 6925,
  "ĠV8": 6926,
  "planet": 6927,
  "Hilton": 6928,
  "ĠParis": 6929,
  "Ġlyre": 6930,
  "Ġcapsule": 6931,
  "exit": 6932,
  "Ġbounce": 6933,
  "Ġpolygonal": 6934,
  "DRINK": 6935,
  "To": 6936,
  "Ġ2009": 6937,
  "Ġcrawls": 6938,
  "dom": 6939,
  "46": 6940,
  "Ġplumbing": 6941,
  "Ġ=": 6942,
  "Way": 6943,
  "Ġtrapezium": 6944,
  "RAUGHT": 6945,
  "DRAUGHT": 6946,
  "Ġdebossed": 6947,
  "Ġcoastline": 6948,
  "Slabs": 6949,
  "Ġfishtail": 6950,
  "ĠNICE": 6951,
  "ĠPotter": 6952,
  "Ġdoorframe": 6953,
  "Ġfondue": 6954,
  "Ġarmless": 6955,
  "Â°": 6956,
  "BRYANT": 6957,
  "ĠBenches": 6958,
  "apybara": 6959,
  "ĠCapybara": 6960,
  "Ġfrieze": 6961,
  "Ġexcrement": 6962,
  "Ġparkway": 6963,
  "ĠImpatiens": 6964,
  "ĠBack": 6965,
  "BD": 6966,
  "Ġcoelacanth": 6967,
  "Ġlightbul": 6968,
  "gan": 6969,
  "ĠPostal": 6970,
  "ĠDICKEY": 6971,
  "Ġ430i": 6972,
  "Ġankh": 6973,
  "Ġoutboard": 6974,
  "Ġcrotchet": 6975,
  "ox": 6976,
  "4s": 6977,
  "ĠHyatt": 6978,
  "Ġmegaphone": 6979,
  "Ġlanguages": 6980,
  "ĠAndroid": 6981,
  "ELECTRIC": 6982,
  "AA": 6983,
  "Ġ1969": 6984,
  "Ġsawhorses": 6985,
  "ĠLockheed": 6986,
  "Jeep": 6987,
  "Raw": 6988,
  "ĠTonka": 6989,
  "ĠVictoria": 6990,
  "Ġpreservation": 6991,
  "Ġpotties": 6992,
  "Ġpectoral": 6993,
  "Ġflowerpot": 6994,
  "OF": 6995,
  "Ġrotten": 6996,
  "ĠCap": 6997,
  "ĠBacalar": 6998,
  "inoc": 6999,
  "ĠPinoc": 7000,
  "ĠPinocchio": 7001,
  "Ġstatute": 7002,
  "CAMP": 7003,
  "ĠBumblebee": 7004,
  "CEAN": 7005,
  "chagodzilla": 7006,
  "ĠMechagodzilla": 7007,
  "ĠTech": 7008,
  "ĠKurnoth": 7009,
  "Ġcircuit": 7010,
  "ĠWilliam": 7011,
  "ĠPecan": 7012,
  "Ġobserved": 7013,
  "ĠUs": 7014,
  "Ca": 7015,
  "Yellow": 7016,
  "ĠTrefoil": 7017,
  "ĠGator": 7018,
  "Ġfries": 7019,
  "Ġbroth": 7020,
  "Ġranch": 7021,
  "atsun": 7022,
  "ĠDatsun": 7023,
  "ĠOWN": 7024,
  "Sc": 7025,
  "distan": 7026,
  "distance": 7027,
  "Ġforeign": 7028,
  "ĠFOUND": 7029,
  "ĠScrab": 7030,
  "ĠScrabble": 7031,
  "ĠColosseum": 7032,
  "ĠACCESS": 7033,
  "ĠMcC": 7034,
  "ĠMcClaren": 7035,
  "34": 7036,
  "legged": 7037,
  "Paris": 7038,
  "Ġagric": 7039,
  "Ġagricult": 7040,
  "Ġagricultural": 7041,
  "reddish": 7042,
  "Ġchevron": 7043,
  "ĠALRIGHT": 7044,
  "Ġcorrosion": 7045,
  "JACK": 7046,
  "Ġnonchalantly": 7047,
  "Ġrevolver": 7048,
  "circular": 7049,
  "Chico": 7050,
  "ĠBOY": 7051,
  "Peter": 7052,
  "ĠGar": 7053,
  "Ġdisgu": 7054,
  "Ġsloppily": 7055,
  "Ġsquinty": 7056,
  "BJ": 7057,
  "ĠLBJ": 7058,
  "ĠNature": 7059,
  "Ġauditorium": 7060,
  "Ġcigar": 7061,
  "utch": 7062,
  "Ġnightfall": 7063,
  "Ġtandem": 7064,
  "ĠIsuzu": 7065,
  "Ġmarshland": 7066,
  "Ġlunchbox": 7067,
  "ĠMail": 7068,
  "ĠSOON": 7069,
  "ĠEVIL": 7070,
  "Ġ6th": 7071,
  "ĠIris": 7072,
  "fections": 7073,
  "Ġimperfections": 7074,
  "Ġgrasping": 7075,
  "Ġhandful": 7076,
  "Ġbarnyard": 7077,
  "JOY": 7078,
  "Ġblueberry": 7079,
  "ĠGeorg": 7080,
  "BLACK": 7081,
  "ĠLavender": 7082,
  "ĠMetLife": 7083,
  "Ġ1930s": 7084,
  "ĠLetters": 7085,
  "Ġcereal": 7086,
  "ĠUnl": 7087,
  "ĠUnlimited": 7088,
  "Ġmudflaps": 7089,
  "Ġstrop": 7090,
  "ĠKung": 7091,
  "ĠAdditional": 7092,
  "BEER": 7093,
  "Ġpopulated": 7094,
  "Broad": 7095,
  "Broadway": 7096,
  "ĠBANK": 7097,
  "Ġcraggy": 7098,
  "ĠOposs": 7099,
  "ĠOpossum": 7100,
  "Ġwebbing": 7101,
  "ĠMojave": 7102,
  "ĠMantra": 7103,
  "Reciclar": 7104,
  "Basura": 7105,
  "HR": 7106,
  "91": 7107,
  "Closeup": 7108,
  "Ġinterrupted": 7109,
  "Ġcrawl": 7110,
  "ĠWonderland": 7111,
  "Ġcondiments": 7112,
  "Ġgrin": 7113,
  "istinct": 7114,
  "DING": 7115,
  "ĠKIA": 7116,
  "ĠSOC": 7117,
  "Take": 7118,
  "ĠKeeping": 7119,
  "SPOONS": 7120,
  "REMIUM": 7121,
  "Ġpomegranates": 7122,
  "ĠMarriot": 7123,
  "ĠMarriott": 7124,
  "TITAN": 7125,
  "Ġhandcrafted": 7126,
  "Ġscion": 7127,
  "ĠHOURS": 7128,
  "ĠxB": 7129,
  "venue": 7130,
  "ĠAvenue": 7131,
  "ĠCarlisle": 7132,
  "Ġoverlay": 7133,
  "FedEx": 7134,
  "Ġdoggy": 7135,
  "YO": 7136,
  "ubber": 7137,
  "Ġadjusted": 7138,
  "Ġspigot": 7139,
  "itchen": 7140,
  "Ġobstructed": 7141,
  "Ġpollution": 7142,
  "Ġjaguar": 7143,
  "anyan": 7144,
  "ĠBanyan": 7145,
  "ĠBR": 7146,
  "Ġillustrating": 7147,
  "EVER": 7148,
  "ARMPIT": 7149,
  "Ġelement": 7150,
  "Ġhousefly": 7151,
  "Ġsqueezed": 7152,
  "BROADWAY": 7153,
  "Ġmailboxes": 7154,
  "Ġunripened": 7155,
  "ciated": 7156,
  "Sm": 7157,
  "Ġincred": 7158,
  "Check": 7159,
  "ippling": 7160,
  "ĠRippling": 7161,
  "letter": 7162,
  "BL": 7163,
  "Ġberm": 7164,
  "Ġclipboard": 7165,
  "ĠFred": 7166,
  "ĠPAINT": 7167,
  "RONG": 7168,
  "KID": 7169,
  "Ġcrossbones": 7170,
  "ĠFe": 7171,
  "Ġspicebush": 7172,
  "Ġwormwood": 7173,
  "RECYCLABLES": 7174,
  "ĠR2D2": 7175,
  "ĠLOOP": 7176,
  "Ġoxygen": 7177,
  "ĠMac": 7178,
  "ĠMacB": 7179,
  "ĠMacBook": 7180,
  "HeeLS": 7181,
  "ĠWHeeLS": 7182,
  "Master": 7183,
  "Ġphiomia": 7184,
  "COMPACT": 7185,
  "QUEE": 7186,
  "fifths": 7187,
  "Ġdigits": 7188,
  "Ġchamomiles": 7189,
  "Very": 7190,
  "ĠFragile": 7191,
  "Ġponytail": 7192,
  "BAG": 7193,
  "Ne": 7194,
  "Ãª": 7195,
  "Ãªpe": 7196,
  "rÃªpe": 7197,
  "Ġexer": 7198,
  "cise": 7199,
  "Ġexercise": 7200,
  "ĠWork": 7201,
  "Ġfishbowl": 7202,
  "Ġtenderloin": 7203,
  "worm": 7204,
  "Ġkomodo": 7205,
  "Ġlung": 7206,
  "Ġstrongman": 7207,
  "Ġchimneys": 7208,
  "Ġcrystallized": 7209,
  "Ġboughs": 7210,
  "Ġpurlin": 7211,
  "ĠCarved": 7212,
  "Ġicicle": 7213,
  "Ġtopping": 7214,
  "Ġhalocarpus": 7215,
  "Ġcleats": 7216,
  "Ġrein": 7217,
  "ĠOpera": 7218,
  "Un": 7219,
  "ĠButterfly": 7220,
  "Ġprimarily": 7221,
  "Ġretractable": 7222,
  "Ġtrooper": 7223,
  "planked": 7224,
  "Ġroulette": 7225,
  "ĠLaw": 7226,
  "ĠExcavator": 7227,
  "JW": 7228,
  "ĠMARRIOT": 7229,
  "ĠMS": 7230,
  "ĠMSG": 7231,
  "Ġenveloped": 7232,
  "Ġintegral": 7233,
  "Ġx_k": 7234,
  "ĠLUXOR": 7235,
  "Ġmiscellaneous": 7236,
  "izs": 7237,
  "ĠVizs": 7238,
  "ĠVizsla": 7239,
  "Ġmolecules": 7240,
  "Ġalways": 7241,
  "Ġzipline": 7242,
  "Ġexamples": 7243,
  "roduction": 7244,
  "ucifer": 7245,
  "ĠLucifer": 7246,
  "Ġcilantro": 7247,
  "ĠMil": 7248,
  "ĠCongress": 7249,
  "Ġintertwine": 7250,
  ".\"#": 7251,
  "Ġdoyleite": 7252,
  "isturbed": 7253,
  "Ġundisturbed": 7254,
  "Ġ\"!": 7255,
  "KABOOM": 7256,
  "ĠRepublic": 7257,
  "Ġgymnasium": 7258,
  "ĠVIDEO": 7259,
  "ĠHind": 7260,
  "Ġcolosseum": 7261,
  "Ġbedframe": 7262,
  "ĠTriceratops": 7263,
  "ĠGled": 7264,
  "ĠGleditsia": 7265,
  "ĠAnemone": 7266,
  "Ġsymbolizing": 7267,
  "Ġbureau": 7268,
  "Ġbrahea": 7269,
  "Ġcoal": 7270,
  "ĠShowy": 7271,
  "How": 7272,
  "ĠPlate": 7273,
  "PRACT": 7274,
  "PRACTICE": 7275,
  "ĠKer": 7276,
  "ĠKerr": 7277,
  "ĠFetzer": 7278,
  "UMMY": 7279,
  "self": 7280,
  "NAILS": 7281,
  "Ġdapperling": 7282,
  "Ġmuskets": 7283,
  "ĠPi": 7284,
  "ĠEncore": 7285,
  "Ġtransparency": 7286,
  "ĠHiker": 7287,
  "ĠFLUSH": 7288,
  "ĠANYTHING": 7289,
  "ĠEXCEPT": 7290,
  "ĠCEILING": 7291,
  "ĠAgave": 7292,
  "COHN": 7293,
  "ĠScottish": 7294,
  "Ġbisecting": 7295,
  "Ġlacquered": 7296,
  "Ġstagnant": 7297,
  "Ġstuffies": 7298,
  "Ġplays": 7299,
  "IK": 7300,
  "duty": 7301,
  "bal": 7302,
  "Ġerecting": 7303,
  "ĠChalce": 7304,
  "ĠChalceus": 7305,
  "Swim": 7306,
  "ĠOwn": 7307,
  "ĠLifeguard": 7308,
  "angerh": 7309,
  "angerhÃ¤": 7310,
  "SangerhÃ¤": 7311,
  "SangerhÃ¤user": 7312,
  "ubilÃ¤": 7313,
  "umsrose": 7314,
  "ĠJubilÃ¤": 7315,
  "ĠJubilÃ¤umsrose": 7316,
  "Ġapricot": 7317,
  "Ġswiping": 7318,
  "PD": 7319,
  "NYPD": 7320,
  "ACAB": 7321,
  "ĠHYD": 7322,
  "CREW": 7323,
  "ĠAWWA": 7324,
  "defined": 7325,
  "Ġobstructing": 7326,
  "Ġcasual": 7327,
  "realistic": 7328,
  "BB": 7329,
  "ĠBOTTLES": 7330,
  "Ġconvenience": 7331,
  "quil": 7332,
  "Ġjonquil": 7333,
  "LIBRARY": 7334,
  "Ġ2008": 7335,
  "Sp": 7336,
  "RUMP": 7337,
  "ĠSPECIAL": 7338,
  "ĠEngland": 7339,
  "!!!": 7340,
  "ĠGibson": 7341,
  "102": 7342,
  "DN": 7343,
  "Ġaggressive": 7344,
  "GREAT": 7345,
  "plated": 7346,
  "TIGER": 7347,
  "FRANCE": 7348,
  "AIRFRANCE": 7349,
  "Delta": 7350,
  "ĠANIMAL": 7351,
  "ĠLayers": 7352,
  "Ġknitted": 7353,
  "Dr": 7354,
  "But": 7355,
  "Butter": 7356,
  "Ġcuckoo": 7357,
  "ĠReunion": 7358,
  "ĠWestgate": 7359,
  "ĠAdjacent": 7360,
  "Ġlandsl": 7361,
  "Ġlandslide": 7362,
  "AND": 7363,
  "ĠFRAGILE": 7364,
  "Ġfurs": 7365,
  "Ġillustrates": 7366,
  "Ġaltocir": 7367,
  "Ġaltocirrus": 7368,
  "ĠOvergrown": 7369,
  "smallest": 7370,
  "hao": 7371,
  "Ġpointillism": 7372,
  "23RD": 7373,
  "ĠSaw": 7374,
  "ĠVII": 7375,
  "WESTGATE": 7376,
  "EARTH": 7377,
  "Ġreappears": 7378,
  "Ġsunsetting": 7379,
  "ĠGIRL": 7380,
  "Ġfootrest": 7381,
  "VEZA": 7382,
  "Ġovergrow": 7383,
  "xes": 7384,
  "Axes": 7385,
  "ĠAlfa": 7386,
  "ulia": 7387,
  "ĠGiulia": 7388,
  "bag": 7389,
  "ĠWriting": 7390,
  "shoulder": 7391,
  "Ġcalmly": 7392,
  "iC": 7393,
  "ĠSanderling": 7394,
  "Ġmaidenhair": 7395,
  "Ġsawgrass": 7396,
  "Ġbubbling": 7397,
  "ĠStudeb": 7398,
  "ĠStudebaker": 7399,
  "3000": 7400,
  "ĠSteam": 7401,
  "ĠSolid": 7402,
  "ĠYankee": 7403,
  "Pe": 7404,
  "FLOWER": 7405,
  "ĠFIELD": 7406,
  "Ġpipevine": 7407,
  "Ġequipped": 7408,
  "Ġ48": 7409,
  "ivision": 7410,
  "ĠWhale": 7411,
  "PLANETARIUM": 7412,
  "ĠJigsaw": 7413,
  "nauzer": 7414,
  "Ġinscriptions": 7415,
  "ĠMoai": 7416,
  "ĠCC": 7417,
  "Flamingos": 7418,
  "Ġbarge": 7419,
  "Ġbargeboards": 7420,
  "ĠRanch": 7421,
  "ĠSage": 7422,
  "Ġbri": 7423,
  "quettes": 7424,
  "Ġbriquettes": 7425,
  "El": 7426,
  "ĠHUM": 7427,
  "ĠHUMPS": 7428,
  "Ġfortress": 7429,
  "Ġpopulate": 7430,
  "FRAN": 7431,
  "Ġaccumulated": 7432,
  "ĠMD": 7433,
  "PURPLE": 7434,
  "SANCTUARY": 7435,
  "ĠSpiny": 7436,
  "HORSE": 7437,
  "C7": 7438,
  "Ġsedimentary": 7439,
  "Ġknuckle": 7440,
  "LAW": 7441,
  "ĠENFOR": 7442,
  "ĠENFORCEMENT": 7443,
  "Ġfriendly": 7444,
  "Ġsplotchy": 7445,
  "Work": 7446,
  "WorkH": 7447,
  "WorkHorse": 7448,
  "Ġrostrum": 7449,
  ",\"#": 7450,
  "Ġ1990s": 7451,
  "quater": 7452,
  "ĠUMLAUF": 7453,
  "ĠRailing": 7454,
  "iE": 7455,
  "UNION": 7456,
  "truth": 7457,
  "Ġpuffs": 7458,
  "ĠGym": 7459,
  "ĠSoul": 7460,
  "History": 7461,
  "Ġridden": 7462,
  "Ġwoodland": 7463,
  "Ġhappily": 7464,
  "plate": 7465,
  "Ġfingerprints": 7466,
  "ĠOrca": 7467,
  "ĠBonnet": 7468,
  "ROCK": 7469,
  "ĠGrad": 7470,
  "ĠChallenger": 7471,
  "ĠCOMM": 7472,
  "ĠCOMMINGLE": 7473,
  "Golden": 7474,
  "ĠHedge": 7475,
  "Ġclasping": 7476,
  "ĠCardinal": 7477,
  "ĠDorkie": 7478,
  "grid": 7479,
  "Ġmildly": 7480,
  "DTTX": 7481,
  "Image": 7482,
  "proof": 7483,
  "squared": 7484,
  "SY": 7485,
  "Ġguardian": 7486,
  "Ġneither": 7487,
  "Ġcrayon": 7488,
  "Ġwheatgrass": 7489,
  "Ġagape": 7490,
  "ĠSquiggly": 7491,
  "NEXT": 7492,
  "CN": 7493,
  "Ġstoplight": 7494,
  "RADIO": 7495,
  "Ġscurry": 7496,
  "ĠSpirit": 7497,
  "ĠWren": 7498,
  "Ġrotunda": 7499,
  "Ġdragged": 7500,
  "Ġpekin": 7501,
  "TOYOTA": 7502,
  "Ġwildly": 7503,
  "ACC": 7504,
  "ĠREGENCY": 7505,
  "ĠVs": 7506,
  "Ġevil": 7507,
  "ĠLoyola": 7508,
  "closeup": 7509,
  "vin": 7510,
  "Ġshowcase": 7511,
  "Ġlute": 7512,
  "Ġsawhorse": 7513,
  "ĠM2": 7514,
  "MOO": 7515,
  "Ġrugby": 7516,
  "Ġmeowing": 7517,
  "Ġmushy": 7518,
  "RBW": 7519,
  "RBWY": 7520,
  "Tie": 7521,
  "ĠJUM": 7522,
  "Ġtendrils": 7523,
  "ĠMcL": 7524,
  "ĠMcLaren": 7525,
  "Turner": 7526,
  "Ġacrobat": 7527,
  "ĠCosmic": 7528,
  "Ġscarlet": 7529,
  "Sugar": 7530,
  "Ġoverlaid": 7531,
  "Ġtransfer": 7532,
  "ĠSILVER": 7533,
  "ĠAnne": 7534,
  "Ġruddy": 7535,
  "HU": 7536,
  "with": 7537,
  "ĠTike": 7538,
  "Ġpeony": 7539,
  "GODZ": 7540,
  "GODZILLA": 7541,
  "CONRAD": 7542,
  "Ġshedding": 7543,
  "ĠWash": 7544,
  "Ġpyrite": 7545,
  "SINCE": 7546,
  "SOLVE": 7547,
  "Ġ440": 7548,
  "Ġsecretary": 7549,
  "Ġspringtime": 7550,
  "ĠBluebon": 7551,
  "ĠLiguus": 7552,
  "Ġfasciat": 7553,
  "Ġfasciatus": 7554,
  "Ground": 7555,
  "ĠINC": 7556,
  "52": 7557,
  "ĠJenny": 7558,
  "ĠSauropod": 7559,
  "Ġheaps": 7560,
  "Ġprotrusions": 7561,
  "win": 7562,
  "Twin": 7563,
  "ĠTrans": 7564,
  "ĠJavan": 7565,
  "MAG": 7566,
  "ĠPose": 7567,
  "ĠPoseidon": 7568,
  "Ġcurricular": 7569,
  "Ġatrium": 7570,
  "Ġrelaxing": 7571,
  "ĠBOTTLE": 7572,
  "Ġrv": 7573,
  "Ġi8": 7574,
  "ĠTruth": 7575,
  "ĠBlanco": 7576,
  "Ġrevival": 7577,
  "Ġhalved": 7578,
  "Ġchairlifts": 7579,
  "Ġchairlift": 7580,
  "VIS": 7581,
  "ELVIS": 7582,
  "USTICE": 7583,
  "Ġtagged": 7584,
  "Ġknotty": 7585,
  "iber": 7586,
  "Ġmicrofiber": 7587,
  "AQU": 7588,
  "Ġbedspread": 7589,
  "ĠINSERT": 7590,
  "ĠR8": 7591,
  "Ġinconvenience": 7592,
  "ĠBubbles": 7593,
  "ĠCabriolet": 7594,
  "quis": 7595,
  "ĠMarquis": 7596,
  "ĠExact": 7597,
  "ĠPass": 7598,
  "ĠReady": 7599,
  "Ġmuffin": 7600,
  "ĠPeanut": 7601,
  "Exit": 7602,
  "Visitor": 7603,
  "Ġsurprised": 7604,
  "Ġstarboard": 7605,
  "gie": 7606,
  "ĠCompaq": 7607,
  "pro": 7608,
  "kpro": 7609,
  "Ġ286": 7610,
  "Ġresidual": 7611,
  "ĠShrine": 7612,
  "Ġshrine": 7613,
  "Ġreleasing": 7614,
  "Ġhelium": 7615,
  "Ġlux": 7616,
  "Ġluxurious": 7617,
  "IZIO": 7618,
  "Ġ194": 7619,
  "Ġ1947": 7620,
  "Dinosaur": 7621,
  "Ġworried": 7622,
  "KIR": 7623,
  "KLAND": 7624,
  "KIRKLAND": 7625,
  "ND": 7626,
  "ĠSkinny": 7627,
  "Ġnovel": 7628,
  "Ġtwirling": 7629,
  "Ġhunchback": 7630,
  "1954": 7631,
  "based": 7632,
  "Ġconvexed": 7633,
  "elieve": 7634,
  "Believe": 7635,
  "ĠF250": 7636,
  "ĠWavy": 7637,
  "Ġunnatural": 7638,
  "Bone": 7639,
  "Ġpeeping": 7640,
  "Ġbonfire": 7641,
  "ĠPontchart": 7642,
  "ĠPontchartrain": 7643,
  "N12": 7644,
  "C19": 7645,
  "ĠArkansas": 7646,
  "ruf": 7647,
  "Ġastrotruf": 7648,
  "ISLAND": 7649,
  "ĠRu": 7650,
  "ĠRuvo": 7651,
  "wl": 7652,
  "ĠOwl": 7653,
  "ĠSpoilpox": 7654,
  "ĠScrivener": 7655,
  "ĠCur": 7656,
  "ĠDavidson": 7657,
  "Ġprim": 7658,
  "Ġminiscule": 7659,
  "edge": 7660,
  "ĠLEARNING": 7661,
  "Ġlanguage": 7662,
  "Ġgibbon": 7663,
  "Ġpetted": 7664,
  "bladed": 7665,
  "Ġoar": 7666,
  "Ġfletchings": 7667,
  "Ġmausoleum": 7668,
  "ĠAncient": 7669,
  "Ġsomber": 7670,
  "FRESH": 7671,
  "Ġdormer": 7672,
  "unshine": 7673,
  "Sunshine": 7674,
  "Ġalpaca": 7675,
  "Ġwaxing": 7676,
  "Ġpeppermint": 7677,
  "Blurry": 7678,
  "Ġcumuls": 7679,
  "Ġhardcover": 7680,
  "BOARDING": 7681,
  "ĠPROHIBITED": 7682,
  "Ġlayout": 7683,
  "ĠINDIA": 7684,
  "ĠWAGON": 7685,
  "TURN": 7686,
  "ĠDROWN": 7687,
  "ĠVIEW": 7688,
  "Ġpsychedelic": 7689,
  "fir": 7690,
  "first": 7691,
  "Ġobf": 7692,
  "Ġobfuscated": 7693,
  "Ġmeid": 7694,
  "ĠVanderbilt": 7695,
  "ĠRABBIT": 7696,
  "Ġloving": 7697,
  "Ġsignify": 7698,
  "Kind": 7699,
  "BEE": 7700,
  "ĠGuardian": 7701,
  "Ġbodys": 7702,
  "Ġbodysuit": 7703,
  "Tile": 7704,
  "Ġwrote": 7705,
  "Ġideal": 7706,
  "tE": 7707,
  "tEAR": 7708,
  "ydney": 7709,
  "ĠSydney": 7710,
  "adidas": 7711,
  "ĠMuertos": 7712,
  "Ġgracefully": 7713,
  "ĠWrinkles": 7714,
  "Ġathletic": 7715,
  "ĠPatchy": 7716,
  "ITI": 7717,
  "TOYS": 7718,
  "ĠQUALITY": 7719,
  "Ġeuro": 7720,
  "ĠGilroy": 7721,
  "Ġtrolleys": 7722,
  "ĠSTILL": 7723,
  "ĠBELIEVE": 7724,
  "ĠE350": 7725,
  "Ġreserved": 7726,
  "ĠHawk": 7727,
  "waved": 7728,
  "Ġdropping": 7729,
  "Ġcornflower": 7730,
  "ĠBluebird": 7731,
  "ĠSat": 7732,
  "ĠSaturn": 7733,
  "emale": 7734,
  "Female": 7735,
  "Gates": 7736,
  "ĠD14": 7737,
  "Ġ//": 7738,
  "ĠRestrooms": 7739,
  "Watch": 7740,
  "alkway": 7741,
  "ĠWalkway": 7742,
  "0M": 7743,
  "NORTHWEST": 7744,
  "Ġtapestry": 7745,
  "Ġinnermost": 7746,
  "SMILE": 7747,
  "MECON": 7748,
  "Ġ1972": 7749,
  "RUNNER": 7750,
  "ĠINK": 7751,
  "Ġpigtails": 7752,
  "Ġbib": 7753,
  "ĠHyper": 7754,
  "America": 7755,
  "HYPER": 7756,
  "ĠInserted": 7757,
  "Ġgrimacing": 7758,
  "Ġpotch": 7759,
  "Ġcontemplating": 7760,
  "Ġbrushy": 7761,
  "GRAM": 7762,
  "Jim": 7763,
  "Ġbungalow": 7764,
  "Ġostriches": 7765,
  "Ġostrich": 7766,
  "ĠPro": 7767,
  "ĠProvidence": 7768,
  "zagging": 7769,
  "incl": 7770,
  "ĠJU": 7771,
  "WHITE": 7772,
  "ĠRippled": 7773,
  "ĠDawn": 7774,
  "Ġhoove": 7775,
  "WRANGLER": 7776,
  "Ġswath": 7777,
  "Ġtrickling": 7778,
  "ĠPalmetto": 7779,
  "mipepsis": 7780,
  "ĠHemipepsis": 7781,
  "ĠUstulata": 7782,
  "MI": 7783,
  "ĠHDMI": 7784,
  "31": 7785,
  "LAVORS": 7786,
  "ĠEmirates": 7787,
  "Ġinlay": 7788,
  "GAPE": 7789,
  "AGAPE": 7790,
  "ĠWONDERFUL": 7791,
  "alisz": 7792,
  "ĠKalisz": 7793,
  "ZINE": 7794,
  "MAGAZINE": 7795,
  "Ġmistflowers": 7796,
  "Ġcontinuously": 7797,
  "Ġtetra": 7798,
  "ĠFah": 7799,
  "ĠFahrenheit": 7800,
  "ĠRef": 7801,
  "Ġremove": 7802,
  "Ġsteeply": 7803,
  "ĠREQU": 7804,
  "ĠREQUIRED": 7805,
  "ĠRudol": 7806,
  "ĠRudolph": 7807,
  "PALEO": 7808,
  "Ġphotographs": 7809,
  "TRUCKLIVE": 7810,
  "ĠRid": 7811,
  "Ġallergy": 7812,
  "Ġmonochromatic": 7813,
  "Ġheadwear": 7814,
  "CHANGE": 7815,
  "Ġfenestration": 7816,
  "flecked": 7817,
  "Ġpul": 7818,
  "Ġdoc": 7819,
  "ĠGautam": 7820,
  "Ġgranules": 7821,
  "aA": 7822,
  "Ġobtuse": 7823,
  "Ġarthem": 7824,
  "Ġarthemis": 7825,
  "1973": 7826,
  "1989": 7827,
  "Ġlucky": 7828,
  "ĠWatts": 7829,
  "speckled": 7830,
  "CTOURS": 7831,
  "AMAZONFCTOURS": 7832,
  "ĠDOORS": 7833,
  "ĠA330": 7834,
  "irgin": 7835,
  "Ġerect": 7836,
  "ARCHER": 7837,
  "Ġreplacements": 7838,
  "ĠElizabeth": 7839,
  "Ġpincers": 7840,
  "blade": 7841,
  "Ġoverhand": 7842,
  "SPEC": 7843,
  "ĠFEED": 7844,
  "ĠSpotlights": 7845,
  "DITORIUM": 7846,
  "ĠScratches": 7847,
  "you": 7848,
  "OMN": 7849,
  "ĠSwir": 7850,
  "ĠSwirls": 7851,
  "LM": 7852,
  "Ġochre": 7853,
  "Ġscolec": 7854,
  "Ġscolecite": 7855,
  "ĠFinland": 7856,
  "ĠSPIDERMAN": 7857,
  "Ġsomebody": 7858,
  "Sub": 7859,
  "Subway": 7860,
  "Ġcommonly": 7861,
  "Ġcobble": 7862,
  "ĠCotinus": 7863,
  "gria": 7864,
  "gygria": 7865,
  "Ġhandheld": 7866,
  "COURTS": 7867,
  "Ġunderwing": 7868,
  "Ġevidence": 7869,
  "MUNITY": 7870,
  "COMMUNITY": 7871,
  "Ġmollusk": 7872,
  "3PO": 7873,
  "Giraffe": 7874,
  "Ġbramble": 7875,
  "ĠMONITORED": 7876,
  "Ġpinstripe": 7877,
  "Me": 7878,
  "Quercus": 7879,
  "Ġfreck": 7880,
  "Ġfreckling": 7881,
  "engine": 7882,
  "Ġenglish": 7883,
  "ĠConcent": 7884,
  "ĠCHARCO": 7885,
  "ĠCHARCOAL": 7886,
  "1963": 7887,
  "ĠHs": 7888,
  "Ġinterchanging": 7889,
  "LOO": 7890,
  "IGLOO": 7891,
  "ĠPle": 7892,
  "ĠBaptist": 7893,
  "Ġcrass": 7894,
  "ĠCreases": 7895,
  "Ġconeflower": 7896,
  "Ġinterconnecting": 7897,
  "Ġenvelope": 7898,
  "Ġsporadic": 7899,
  "ĠViolator": 7900,
  "ĠViolators": 7901,
  "GS": 7902,
  "ĠEG": 7903,
  "Ġunbuttoned": 7904,
  "Ġparallelogram": 7905,
  "ĠAltima": 7906,
  "trooper": 7907,
  "ĠSkeletor": 7908,
  "Ġserpentine": 7909,
  "Ġwiry": 7910,
  "ENCOURAGE": 7911,
  "Ġwidths": 7912,
  "ĠPlace": 7913,
  "rem": 7914,
  "VILLE": 7915,
  "DIAMOND": 7916,
  "IRCLE": 7917,
  "SQU": 7918,
  "SQUARE": 7919,
  "Ġaspect": 7920,
  "MERLIN": 7921,
  "ĠKore": 7922,
  "ĠSlo": 7923,
  "symmetrical": 7924,
  "Ġattributes": 7925,
  "ĠSpecs": 7926,
  "Ġdidn": 7927,
  "ĠNEAR": 7928,
  "gium": 7929,
  "ĠBelgium": 7930,
  "ĠAgainst": 7931,
  "Campbell": 7932,
  "CONTINENTAL": 7933,
  "SRO": 7934,
  "ĠGROUP": 7935,
  "amsung": 7936,
  "ĠSamsung": 7937,
  "ĠPrego": 7938,
  "Shiner": 7939,
  "Ġwilt": 7940,
  "GUA": 7941,
  "Ġfuchsia": 7942,
  "Ġdemar": 7943,
  "Ġherbs": 7944,
  "ĠAustria": 7945,
  "Ġ1800s": 7946,
  "Ġsipping": 7947,
  "ĠYule": 7948,
  "Ġblackberries": 7949,
  "Ġwillemite": 7950,
  "Ġforged": 7951,
  "Ġladil": 7952,
  "Mini": 7953,
  "ĠConverse": 7954,
  "Ġslotted": 7955,
  "xious": 7956,
  "Ġanxious": 7957,
  "inja": 7958,
  "Ġroar": 7959,
  "Ġaftermath": 7960,
  "Ġsalavia": 7961,
  "INEYARD": 7962,
  "VINEYARD": 7963,
  "ENCOUNTERS": 7964,
  "YAMAHA": 7965,
  "Ġattempts": 7966,
  "AVIER": 7967,
  "Ġbrightness": 7968,
  "venture": 7969,
  "ĠTractor": 7970,
  "%\".": 7971,
  "Ġputty": 7972,
  "Ġtexturing": 7973,
  "rapefruit": 7974,
  "ĠGrapefruit": 7975,
  "Ġconcerned": 7976,
  "shore": 7977,
  "ĠNorthshore": 7978,
  "Ġsaliva": 7979,
  "Ġdeeply": 7980,
  "Outdoors": 7981,
  "Ġoverexposure": 7982,
  "ĠA380": 7983,
  "Ġemployees": 7984,
  "Ġgrommets": 7985,
  "Ġscruff": 7986,
  "NCAA": 7987,
  "PIGGY": 7988,
  "Ġtechnique": 7989,
  "Ġhyb": 7990,
  "Ġhybrid": 7991,
  "blur": 7992,
  "blurred": 7993,
  "QUEUR": 7994,
  "Ġdoorknocker": 7995,
  "rs": 7996,
  "lauf": 7997,
  "ĠUm": 7998,
  "ĠUmlauf": 7999,
  "03": 8000,
  "ĠSaints": 8001,
  "Ġterrazzo": 8002,
  "coaster": 8003,
  "Ġrollercoaster": 8004,
  "Ġminus": 8005,
  "ĠLambs": 8006,
  "ĠEar": 8007,
  "ĠReplica": 8008,
  "Ġenhances": 8009,
  "vously": 8010,
  "ĠGROUND": 8011,
  "ĠCOUNTY": 8012,
  "ĠDu": 8013,
  "ĠMix": 8014,
  "DUCK": 8015,
  "Ġtherefore": 8016,
  "ĠBUILT": 8017,
  "Ġhelping": 8018,
  "ĠDecorative": 8019,
  "ĠPUZZ": 8020,
  "ĠCountry": 8021,
  "ĠMature": 8022,
  "ĠCacao": 8023,
  "Ġmotifs": 8024,
  "ĠCleopat": 8025,
  "ĠVoltron": 8026,
  "ĠHebe": 8027,
  "ĠOlymp": 8028,
  "Ġrattlesnake": 8029,
  "ĠThunderbird": 8030,
  "ĠNetherlands": 8031,
  "MAX": 8032,
  "R1": 8033,
  "ĠDISHES": 8034,
  "ĠDavid": 8035,
  "ĠBowie": 8036,
  "Ġloaves": 8037,
  "ĠChannel": 8038,
  "ottom": 8039,
  "Bottom": 8040,
  "Use": 8041,
  "BMC": 8042,
  "ĠGRAND": 8043,
  "Ġpurslane": 8044,
  "ĠMirage": 8045,
  "963": 8046,
  "ĠConnection": 8047,
  "ĠYard": 8048,
  "HIGH": 8049,
  "TQ": 8050,
  "BTQ": 8051,
  "ĠLGBTQ": 8052,
  "ga": 8053,
  "ĠDryWay": 8054,
  "Ġ4S": 8055,
  "Ġdealer": 8056,
  "GRU": 8057,
  "GRUVE": 8058,
  "TIL": 8059,
  "ĠUNTIL": 8060,
  "ĠCOURT": 8061,
  "Ġplainly": 8062,
  ",\"$": 8063,
  "x2": 8064,
  "CRO": 8065,
  "aguar": 8066,
  "ĠJaguar": 8067,
  "TULIP": 8068,
  "ĠPOPLAR": 8069,
  "CKINGBIRD": 8070,
  "MOCKINGBIRD": 8071,
  "RACCOON": 8072,
  "ĠDar": 8073,
  "PT": 8074,
  "wag": 8075,
  "ĠWhit": 8076,
  "Ġserpent": 8077,
  "1942": 8078,
  "Har": 8079,
  "Ġexpressionless": 8080,
  "WREX": 8081,
  "Ġ718": 8082,
  "ĠStrips": 8083,
  "Ġbrittlebush": 8084,
  "STORM": 8085,
  "Ġsoggy": 8086,
  "CIATION": 8087,
  "ASSOCIATION": 8088,
  "ASSOCIATIONS": 8089,
  "74": 8090,
  "Ġpeninsula": 8091,
  "do": 8092,
  "Ġpiranha": 8093,
  "ĠAbono": 8094,
  "Ġsudden": 8095,
  "ĠDUMPING": 8096,
  "ĠONLINE": 8097,
  "ĠColumbian": 8098,
  "Brown": 8099,
  "Ġoccidentalis": 8100,
  "Ġdescribing": 8101,
  "ĠSoon": 8102,
  "ĠFleetwood": 8103,
  "Ġpenny": 8104,
  "ĠLug": 8105,
  "ĠLuggage": 8106,
  "Ġsuburb": 8107,
  "SIGNAL": 8108,
  "\"/\"": 8109,
  "ĠTrash": 8110,
  "Ġhuddled": 8111,
  "ĠWaterloo": 8112,
  "ĠBoats": 8113,
  "CRU": 8114,
  "Ġlightbulb": 8115,
  "ĠMorgan": 8116,
  "ĠBlurred": 8117,
  "MEDIUM": 8118,
  "mtrails": 8119,
  "Ġchemtrails": 8120,
  "YA": 8121,
  "Ġfisherman": 8122,
  "ĠBellagio": 8123,
  "ĠChromebook": 8124,
  "ĠTraffic": 8125,
  "crescent": 8126,
  "ĠCORNER": 8127,
  "exposure": 8128,
  "Ġferries": 8129,
  "smeared": 8130,
  "2187": 8131,
  "Ġfootboard": 8132,
  "ĠWillys": 8133,
  "ĠMB": 8134,
  "Air": 8135,
  "Ġtoxic": 8136,
  "Ġpierces": 8137,
  "Dav": 8138,
  "V8": 8139,
  "Ġmembers": 8140,
  "Ġpunctured": 8141,
  "ĠSyl": 8142,
  "ĠTzu": 8143,
  "ĠRoku": 8144,
  "ĠInstead": 8145,
  "DODGE": 8146,
  "Ġcinnamon": 8147,
  "XX": 8148,
  "JETBLUE": 8149,
  "ĠInc": 8150,
  "ĠBirch": 8151,
  "7F": 8152,
  "147F": 8153,
  "147FW": 8154,
  "Ġunobstructed": 8155,
  "STUT": 8156,
  "STUTT": 8157,
  "dusted": 8158,
  "Ġcockscomb": 8159,
  "ĠDisplay": 8160,
  "Dallas": 8161,
  "ĠFair": 8162,
  "08": 8163,
  "Ġcellphone": 8164,
  "Ġnuclear": 8165,
  "Ġtambourine": 8166,
  "ĠPearl": 8167,
  "ĠInky": 8168,
  "ĠInn": 8169,
  "6002": 8170,
  "AKFAST": 8171,
  "BREAKFAST": 8172,
  "Ġpatchwork": 8173,
  "BM": 8174,
  "Ġjoystick": 8175,
  "ĠMABRY": 8176,
  "ĠLEASH": 8177,
  "ĠAlligator": 8178,
  "ĠPosts": 8179,
  "ĠBlv": 8180,
  "ĠBlvd": 8181,
  "Ar": 8182,
  "ĠAv": 8183,
  "Curious": 8184,
  "Crazy": 8185,
  "ĠKent": 8186,
  "ĠShelf": 8187,
  "MUSTANG": 8188,
  "Ġinlet": 8189,
  "Ġresemb": 8190,
  "Ġresemblan": 8191,
  "Ġresemblance": 8192,
  "ĠCREEK": 8193,
  "Ġcit": 8194,
  "ĠJames": 8195,
  "Ġneo": 8196,
  "Ġneoclassical": 8197,
  "ĠIlleg": 8198,
  "ĠIllegible": 8199,
  "Ġcirroc": 8200,
  "Ġcirrocum": 8201,
  "ĠTru": 8202,
  "ĠTruist": 8203,
  "Ġladies": 8204,
  "BUSCa": 8205,
  "ĠModern": 8206,
  "ĠSaint": 8207,
  "Ġslug": 8208,
  "ĠSolo": 8209,
  "Ġketchup": 8210,
  "ĠAquarium": 8211,
  "ĠCup": 8212,
  "A6": 8213,
  "ĠAtlantis": 8214,
  "SWIM": 8215,
  "Super": 8216,
  "Ġflipping": 8217,
  "GT": 8218,
  "Ġchihu": 8219,
  "ahua": 8220,
  "Ġchihuahua": 8221,
  "ĠMay": 8222,
  "Ġsuggests": 8223,
  "Science": 8224,
  "ĠSpikes": 8225,
  "ĠJumbotron": 8226,
  "ĠExtra": 8227,
  "Ġanywhere": 8228,
  "ĠPedestrian": 8229,
  "ĠMOVE": 8230,
  "Ġsurre": 8231,
  "Ġsurreal": 8232,
  "Ġexperiencing": 8233,
  "ths": 8234,
  "Ġfirebox": 8235,
  "Ġcarw": 8236,
  "Ġcarwash": 8237,
  "Ġponcho": 8238,
  "Ġsplintered": 8239,
  "MAIN": 8240,
  "HULK": 8241,
  "ĠUPRIGHT": 8242,
  "ĠCYPRESS": 8243,
  "TAX": 8244,
  "ĠChristian": 8245,
  "Ġpennant": 8246,
  "Ġgibbous": 8247,
  "ĠShrubs": 8248,
  "Ġ458": 8249,
  "Ġeyelid": 8250,
  "MS": 8251,
  "from": 8252,
  "Ġgovernment": 8253,
  "Ġvariously": 8254,
  "Ġexample": 8255,
  "Sal": 8256,
  "Salva": 8257,
  "ĠHack": 8258,
  "ĠHackberry": 8259,
  "Ġtelescopic": 8260,
  "ĠCONSTRUCTION": 8261,
  "AAA": 8262,
  "ĠShrubbery": 8263,
  "Ġmullion": 8264,
  "ITNESS": 8265,
  "FITNESS": 8266,
  "ĠFluffy": 8267,
  "WINK": 8268,
  "TWINK": 8269,
  "TWINKLE": 8270,
  "Ġsnug": 8271,
  "Ġpiecing": 8272,
  "force": 8273,
  "weaver": 8274,
  "STAGE": 8275,
  "ĠSIGN": 8276,
  "Ġanvil": 8277,
  "GARDENS": 8278,
  "Ġpresence": 8279,
  "ĠString": 8280,
  "ĠNeon": 8281,
  "LONG": 8282,
  "Ġinterlaced": 8283,
  "READ": 8284,
  "ĠRAINBOW": 8285,
  "Ġdilapidated": 8286,
  "Ġdribbling": 8287,
  "SKIZZ": 8288,
  "SKIZZLE": 8289,
  "ĠGood": 8290,
  "iobunum": 8291,
  "Ġdisguised": 8292,
  "urbing": 8293,
  "F50": 8294,
  "ĠCHF50": 8295,
  "OVER": 8296,
  "Ġheadlamps": 8297,
  "BRIDGESTONE": 8298,
  "Ġprospector": 8299,
  "Ġcliffs": 8300,
  "ĠGarfield": 8301,
  "Ġovercome": 8302,
  "abbit": 8303,
  "ĠRabbit": 8304,
  "Ġ1980s": 8305,
  "SCH": 8306,
  "die": 8307,
  "ĠSomeone": 8308,
  "ĠApatosaurus": 8309,
  "Ġslipping": 8310,
  "Ġbladder": 8311,
  "accessible": 8312,
  "Ferromex": 8313,
  "ĠDiagonally": 8314,
  "Ġwhy": 8315,
  "Ġcorg": 8316,
  "Ġcorgi": 8317,
  "brick": 8318,
  "Ġnondescript": 8319,
  "ĠNATURAL": 8320,
  "Ġlem": 8321,
  "Ġlemur": 8322,
  "Ġ1993": 8323,
  "ĠYouT": 8324,
  "ĠYouTube": 8325,
  "Mobile": 8326,
  "ĠMailchimp": 8327,
  "Yang": 8328,
  "ĠAwesome": 8329,
  "JADO": 8330,
  "ĠMOJADO": 8331,
  "SOON": 8332,
  "ĠVulture": 8333,
  "Ġsapwood": 8334,
  "Ġ5th": 8335,
  "Ġpurposeful": 8336,
  "FRAGILE": 8337,
  "Ġmudflap": 8338,
  "Ġearthy": 8339,
  "area": 8340,
  "put": 8341,
  "Ġcamping": 8342,
  "ĠMotorcycle": 8343,
  "Ġ648": 8344,
  "ĠTWO": 8345,
  "Ġcheckout": 8346,
  "ĠSF": 8347,
  "A2": 8348,
  "Ġsnapping": 8349,
  "ĠJr": 8350,
  "Ġcivil": 8351,
  "Ġconfidently": 8352,
  "Ġsideburns": 8353,
  "Ġmakeup": 8354,
  "Ġjaws": 8355,
  "MINUTE": 8356,
  "Quarter": 8357,
  "Ġthumbnail": 8358,
  "Ġkiw": 8359,
  "Ġkiwi": 8360,
  "Ġbathmat": 8361,
  "ĠLC": 8362,
  "ĠLCD": 8363,
  "X4": 8364,
  "ĠMax": 8365,
  "Ġfairways": 8366,
  "ĠStraight": 8367,
  "gle": 8368,
  "Ġgaggle": 8369,
  "reatening": 8370,
  "Ġsnarl": 8371,
  "rease": 8372,
  "Ġincrease": 8373,
  "Ġbitten": 8374,
  "Ġblurb": 8375,
  "Ġrudders": 8376,
  "Ġdoorknob": 8377,
  "ummy": 8378,
  "Ġmummy": 8379,
  "ĠVeins": 8380,
  "ĠD11": 8381,
  "Ġ96": 8382,
  "Ġrapidly": 8383,
  "Ġvelcro": 8384,
  "Ġcartridge": 8385,
  "Parad": 8386,
  "Paradise": 8387,
  "effe": 8388,
  "effect": 8389,
  "ĠBillboards": 8390,
  "ĠDIN": 8391,
  "ĠDINNER": 8392,
  "AREA": 8393,
  "Nighttime": 8394,
  "OUTDO": 8395,
  "OUTDOOR": 8396,
  "Ġhardtop": 8397,
  "ĠRUNNING": 8398,
  "Ġlev": 8399,
  "Ġlevitating": 8400,
  "ĠMOVING": 8401,
  "ĠTrek": 8402,
  "ITU": 8403,
  "ITUDE": 8404,
  "ĠEVERYTHING": 8405,
  "Ġoxalis": 8406,
  "ĠHit": 8407,
  "ĠSir": 8408,
  "ĠMulch": 8409,
  "NOVA": 8410,
  "ĠTOTIVS": 8411,
  "VLA": 8412,
  "ĠMiata": 8413,
  "ĠFu": 8414,
  "ĠWaco": 8415,
  "ADVANTA": 8416,
  "Ġhalve": 8417,
  "ĠAkhenaton": 8418,
  "Ġfurrowed": 8419,
  "GRESSO": 8420,
  "Ġfirefighter": 8421,
  "ĠEAST": 8422,
  "ĠRiverSouth": 8423,
  "ĠChakra": 8424,
  "SILVERADO": 8425,
  "ĠDIS": 8426,
  "Ġaddress": 8427,
  "Ġsmurf": 8428,
  "VACANCY": 8429,
  "Ġflexing": 8430,
  "Ġcorrelate": 8431,
  "Ġpreserver": 8432,
  "ĠNissian": 8433,
  "ĠVehicle": 8434,
  "Ġdistrict": 8435,
  "Ġleeks": 8436,
  "ĠPraying": 8437,
  "Ġ44": 8438,
  "ĠUH": 8439,
  "ĠIro": 8440,
  "ĠIroquois": 8441,
  "ĠHuman": 8442,
  "JFK": 8443,
  "ĠParallel": 8444,
  "At": 8445,
  "Ġrudder": 8446,
  "Ġhove": 8447,
  "YEZ": 8448,
  "Ġunusable": 8449,
  "ĠPhantom": 8450,
  "ulum": 8451,
  "Ġpendulum": 8452,
  "ĠItalian": 8453,
  "ĠGeorgia": 8454,
  "Ġspotlit": 8455,
  "Ġhundred": 8456,
  "Ġwashboard": 8457,
  "ĠSilhouet": 8458,
  "ĠSilhouettes": 8459,
  "ENERGY": 8460,
  "Ġcockle": 8461,
  "Ġcocklebur": 8462,
  "rackle": 8463,
  "ĠGrackle": 8464,
  "Ġhilltop": 8465,
  "Ġwarping": 8466,
  "potties": 8467,
  "Ġfurred": 8468,
  "ĠGate": 8469,
  "Ġmuraena": 8470,
  "Ġcoca": 8471,
  "Ġrhinestones": 8472,
  "ĠBarbary": 8473,
  "Ġmagic": 8474,
  "Ġflask": 8475,
  "Ġbitters": 8476,
  "Ġwhenever": 8477,
  "BULANCE": 8478,
  "AMBULANCE": 8479,
  "BOTTLES": 8480,
  "Ġforrest": 8481,
  "Ġexamining": 8482,
  "Ġdagger": 8483,
  "Ġindistinct": 8484,
  "ĠRail": 8485,
  "KNIGHTS": 8486,
  "ĠGRAIL": 8487,
  "travel": 8488,
  "Al": 8489,
  "Ġsubd": 8490,
  "hle": 8491,
  "hleha": 8492,
  "ĠVhleha": 8493,
  "ĠGrace": 8494,
  "Cities": 8495,
  "ĠMarble": 8496,
  "Ġinterlinked": 8497,
  "rysalis": 8498,
  "Ġchrysalis": 8499,
  "ĠSOCCER": 8500,
  "Wal": 8501,
  "Walgreens": 8502,
  "Ġcreation": 8503,
  "824": 8504,
  "KNIVES": 8505,
  "PULL": 8506,
  "ĠPLUG": 8507,
  "pl": 8508,
  "TV": 8509,
  "ĠScrew": 8510,
  "ayaks": 8511,
  "ĠKayaks": 8512,
  "Ġrefrigerated": 8513,
  "ĠLLC": 8514,
  "ĠPREMIUM": 8515,
  "ĠFRONT": 8516,
  "Ġrefection": 8517,
  "only": 8518,
  "ĠCharles": 8519,
  "ccasional": 8520,
  "ĠOccasional": 8521,
  "BUMP": 8522,
  "ĠArbor": 8523,
  "ĠVitae": 8524,
  "Ġstopping": 8525,
  "Ġencompasses": 8526,
  "ĠTaegeuk": 8527,
  "preted": 8528,
  "COHOL": 8529,
  "ubmerged": 8530,
  "submerged": 8531,
  "ĠSmud": 8532,
  "Ġuncut": 8533,
  "ĠSUC": 8534,
  "Locally": 8535,
  "ĠGrown": 8536,
  "ĠRio": 8537,
  "ĠAirstream": 8538,
  "thru": 8539,
  "DensGlass": 8540,
  "ĠChristi": 8541,
  "ĠPerforming": 8542,
  "Ġattempting": 8543,
  "BRIDGE": 8544,
  "Multiple": 8545,
  "Fed": 8546,
  "ĠTempus": 8547,
  "ĠFugit": 8548,
  "Ġscallion": 8549,
  "Ġbeignets": 8550,
  "ĠANYTIME": 8551,
  "ĠCeaser": 8552,
  "ĠPRETEND": 8553,
  "EFLOP": 8554,
  "TOEFLOP": 8555,
  "YTRAK": 8556,
  "SKYTRAK": 8557,
  "Ġattempt": 8558,
  "ibracho": 8559,
  "ĠCalibracho": 8560,
  "ĠCalibrachoa": 8561,
  "usement": 8562,
  "Ġamusement": 8563,
  "ĠGLIM": 8564,
  "ĠGLIMMER": 8565,
  "Ferrari": 8566,
  "ĠSaber": 8567,
  "Ġcheddar": 8568,
  "ĠREAL": 8569,
  "CAFFEINE": 8570,
  "Sun": 8571,
  "ĠKitchen": 8572,
  "Ġturtleneck": 8573,
  "Ġskunks": 8574,
  "Ġstudded": 8575,
  "Ġtorpedo": 8576,
  "rays": 8577,
  "Ġsunrays": 8578,
  "Ġraspberries": 8579,
  "Ġoptometrist": 8580,
  "Ġtriangularly": 8581,
  "fluger": 8582,
  "ĠPfluger": 8583,
  "Ġpetticoat": 8584,
  "ĠREPUBLIC": 8585,
  "Ġgey": 8586,
  "Ġgeyser": 8587,
  "Ġinhabit": 8588,
  "Ġpodocarpus": 8589,
  "Ġsailfish": 8590,
  "Ġpunctures": 8591,
  "ĠSor": 8592,
  "connected": 8593,
  "Ġunconnected": 8594,
  "Ġfogged": 8595,
  "Ġspruce": 8596,
  "ĠLindt": 8597,
  "ĠAlexander": 8598,
  "ĠSUBJECT": 8599,
  "ĠFLASH": 8600,
  "Ġcheetahs": 8601,
  "Ġshaping": 8602,
  "AWESOME": 8603,
  "Ġconcentrate": 8604,
  "Ġartemesia": 8605,
  "ĠBoseman": 8606,
  "Ġcustomized": 8607,
  "ĠApp": 8608,
  "reciated": 8609,
  "ĠAppreciated": 8610,
  "Ġverbena": 8611,
  "ĠFJ": 8612,
  "Ġincredi": 8613,
  "Ġincredibly": 8614,
  "uine": 8615,
  "Ġgenuine": 8616,
  "ĠLeavenworth": 8617,
  "ĠScrib": 8618,
  "ĠAlert": 8619,
  "ĠSentra": 8620,
  "Ġclutching": 8621,
  "ĠSago": 8622,
  "mber": 8623,
  "member": 8624,
  "ĠLatin": 8625,
  "ĠStreetlight": 8626,
  "56B": 8627,
  "Ġbriefcase": 8628,
  "ĠFORT": 8629,
  "ĠFORTUNE": 8630,
  "ĠX3": 8631,
  "Ġ11th": 8632,
  "Ġpossum": 8633,
  "Ġunhappy": 8634,
  "Ġshattuckite": 8635,
  "Ġcreeping": 8636,
  "ĠWRONG": 8637,
  "ĠCheshire": 8638,
  "ĠOwen": 8639,
  "ĠBradley": 8640,
  "TURE": 8641,
  "URTURE": 8642,
  "NURTURE": 8643,
  "SHORTCUT": 8644,
  "INSTRUCTIONS": 8645,
  "ABC": 8646,
  "Ġtranslate": 8647,
  "Ġluck": 8648,
  "Ġstrategically": 8649,
  "ĠCOMP": 8650,
  "ĠQUIT": 8651,
  "ĠVis": 8652,
  "Ġnumerical": 8653,
  "Ġhairline": 8654,
  "ĠSo": 8655,
  "ĠCross": 8656,
  "Ġ000": 8657,
  "Ġlubber": 8658,
  "VT": 8659,
  "PVT": 8660,
  "ĠAIRCRAFT": 8661,
  "ĠTreasure": 8662,
  "GX": 8663,
  "Ġfairground": 8664,
  "Ġmelt": 8665,
  "PAINT": 8666,
  "Ġcallig": 8667,
  "Ġcalligraphy": 8668,
  "Ġgriffon": 8669,
  "RT": 8670,
  "curving": 8671,
  "Play": 8672,
  "GOOGLE": 8673,
  "ĠSherman": 8674,
  "stride": 8675,
  "SLIPPERY": 8676,
  "Both": 8677,
  "Ġ27R": 8678,
  "Ġ9L": 8679,
  "ĠPar": 8680,
  "Ġbreathing": 8681,
  "HOt": 8682,
  "vite": 8683,
  "Plastic": 8684,
  "Ġ22nd": 8685,
  "ĠMiddle": 8686,
  "ĠLane": 8687,
  "Cologne": 8688,
  "ĠBible": 8689,
  "Ġinfrared": 8690,
  "ropomorphic": 8691,
  "Ġanthropomorphic": 8692,
  "Hand": 8693,
  "ĠEcheveria": 8694,
  "YMOUR": 8695,
  "Ġyawn": 8696,
  "ĠMEDICAL": 8697,
  "Ġcraftsman": 8698,
  "CX": 8699,
  "LANTIC": 8700,
  "ĠATLANTIC": 8701,
  "ĠOCEAN": 8702,
  "Ġchamomile": 8703,
  "ĠStagecoach": 8704,
  "PUT": 8705,
  "ĠKINDNESS": 8706,
  "ĠMimosa": 8707,
  "Ġgenerously": 8708,
  "ĠGuatemalan": 8709,
  "undifol": 8710,
  "Ġrotundifol": 8711,
  "OAVE": 8712,
  "ĠFIX": 8713,
  "AMAICA": 8714,
  "JAMAICA": 8715,
  "ĠMazinger": 8716,
  "anderwing": 8717,
  "ĠMeanderwing": 8718,
  "ĠGok": 8719,
  "ĠGoku": 8720,
  "Ġwaterm": 8721,
  "Ġwatermill": 8722,
  "Ġ2020s": 8723,
  "Ġhighline": 8724,
  "FRO": 8725,
  "ĠYet": 8726,
  "Ġblackberry": 8727,
  "WRINK": 8728,
  "Ġ154": 8729,
  "Ġgoldenrod": 8730,
  "Ġmodified": 8731,
  "Ġbrooch": 8732,
  "Ġmaxi": 8733,
  "ĠOnce": 8734,
  "ĠDyckia": 8735,
  "ĠSedum": 8736,
  "Ġadolphi": 8737,
  "Ġporkfish": 8738,
  "IENCE": 8739,
  "ĠBirth": 8740,
  "ĠBirthday": 8741,
  "logged": 8742,
  "Ġwaterlogged": 8743,
  "Ġstarling": 8744,
  "ĠJANSPORT": 8745,
  "Ġpayload": 8746,
  "Lake": 8747,
  "Ġcopious": 8748,
  "Ġelm": 8749,
  "Ġwrench": 8750,
  "igious": 8751,
  "Ġreligious": 8752,
  "ĠCommodore": 8753,
  "Commodore": 8754,
  "Ġshackle": 8755,
  "CRAPS": 8756,
  "inefish": 8757,
  "cupinefish": 8758,
  "Ġporcupinefish": 8759,
  "Ġrefract": 8760,
  "ĠYEARS": 8761,
  "vie": 8762,
  "ĠVaughan": 8763,
  "Ġpolypterus": 8764,
  "THANK": 8765,
  "Ġweak": 8766,
  "Ġdominoe": 8767,
  "aal": 8768,
  "ĠMasala": 8769,
  "ĠWorn": 8770,
  "topia": 8771,
  "ĠUtopia": 8772,
  "Longhorn": 8773,
  "ĠSim": 8774,
  "MONKEY": 8775,
  "ĠCommunity": 8776,
  "NEVADA": 8777,
  "ĠNearby": 8778,
  "ba": 8779,
  "ĠLaid": 8780,
  "ĠBluegill": 8781,
  "Ġentr": 8782,
  "ĠentrÃ©": 8783,
  "ĠentrÃ©e": 8784,
  "Ġcutworm": 8785,
  "ĠMIRAGE": 8786,
  "breaker": 8787,
  "A380": 8788,
  "ĠDesert": 8789,
  "Ġpomegranate": 8790,
  "BARBIE": 8791,
  "PBL": 8792,
  "Ġreason": 8793,
  "Ġworkout": 8794,
  "Ġibis": 8795,
  "ĠEos": 8796,
  "GRO": 8797,
  "ĠRX": 8798,
  "Ġtopographic": 8799,
  "ĠElement": 8800,
  "Ġtreat": 8801,
  "Necessary": 8802,
  "SUTTON": 8803,
  "MOVING": 8804,
  "ĠXLT": 8805,
  "Ġvelociraptor": 8806,
  "ĠResidence": 8807,
  "ĠConcorde": 8808,
  "Ġcoarse": 8809,
  ".\"$": 8810,
  "Ġmm": 8811,
  "Ġreceiving": 8812,
  "Ġcirculating": 8813,
  "Ġtemperature": 8814,
  "ĠRecessed": 8815,
  "KINS": 8816,
  "BERKINS": 8817,
  "Ġoutbound": 8818,
  "Ġblackletter": 8819,
  "Ġelectrode": 8820,
  "Ġreinforced": 8821,
  "Phantom": 8822,
  "ĠBay": 8823,
  "FIRST": 8824,
  "ĠBicycle": 8825,
  "SGONE": 8826,
  "ko": 8827,
  "FINISHED": 8828,
  "ĠFLOORS": 8829,
  "ĠSUBCONTRACTORS": 8830,
  "ĠRESPONSIBLE": 8831,
  "ĠSax": 8832,
  "ĠSaxony": 8833,
  "LEBAS": 8834,
  "Ġburgers": 8835,
  "selective": 8836,
  "Ġ18th": 8837,
  "PGIM": 8838,
  "Ġmayfly": 8839,
  "Ġcrookedly": 8840,
  "REAL": 8841,
  "ĠFrankenstein": 8842,
  "ORGE": 8843,
  "ĠGEORGE": 8844,
  "Ġbeck": 8845,
  "ĠDaffod": 8846,
  "ĠDaffodils": 8847,
  "Only": 8848,
  "gman": 8849,
  "ĠBurgman": 8850,
  "BURG": 8851,
  "BURGMAN": 8852,
  "ĠVelcro": 8853,
  "Power": 8854,
  "Ġdumping": 8855,
  "Ġdalmation": 8856,
  "FLIP": 8857,
  "WHEN": 8858,
  "ĠThru": 8859,
  "ĠAshton": 8860,
  "ĠHans": 8861,
  "Ġmodular": 8862,
  "ĠRhombile": 8863,
  "Ġmathematical": 8864,
  "Ġc_k": 8865,
  "ĠCrescent": 8866,
  "ĠStereo": 8867,
  "ĠHuffy": 8868,
  "ĠConservation": 8869,
  "roPen": 8870,
  "ProPen": 8871,
  "ProPenn": 8872,
  "Ġjoyfully": 8873,
  "Ġbuggy": 8874,
  "Ġsmithsonite": 8875,
  "ĠcrÃªpe": 8876,
  "ĠTANK": 8877,
  "ĠMatch": 8878,
  "ightliner": 8879,
  "Ġevident": 8880,
  "Ġdessert": 8881,
  "ĠMaverick": 8882,
  "ĠDIFF": 8883,
  "ĠDIFFICULT": 8884,
  "ĠBam": 8885,
  "ĠBambi": 8886,
  "ĠJurassic": 8887,
  "waukee": 8888,
  "Ġcupping": 8889,
  "upward": 8890,
  "ĠPiedmont": 8891,
  "ĠSaguaro": 8892,
  "INSTITUTE": 8893,
  "Fu": 8894,
  "Ġbirdcage": 8895,
  "HONK": 8896,
  "Ġbullhorns": 8897,
  "ĠGuatemala": 8898,
  "MUCH": 8899,
  "Ġwiping": 8900,
  "Lar": 8901,
  "Large": 8902,
  "KIA": 8903,
  "ĠLEDs": 8904,
  "reshold": 8905,
  "Ġthreshold": 8906,
  "ĠTitanic": 8907,
  "Ġ/...": 8908,
  "ĠUFOs": 8909,
  "DRIFT": 8910,
  "Ġtaffy": 8911,
  "Ġunicornfish": 8912,
  "Ġsawd": 8913,
  "Ġsawdust": 8914,
  "drivers": 8915,
  "Ġscrewdrivers": 8916,
  "ĠDEPARTMENT": 8917,
  "ĠCannon": 8918,
  "ĠHyundai": 8919,
  "ĠCOSMOPOLITAN": 8920,
  "Ġmonkeys": 8921,
  "ĠBeehive": 8922,
  "Ġriverboat": 8923,
  "TEACUP": 8924,
  "XPRESSPA": 8925,
  "VEILLAN": 8926,
  "ĠSURVEILLAN": 8927,
  "ĠSURVEILLANCE": 8928,
  "ĠHindi": 8929,
  "Ġscythe": 8930,
  "ĠLEE": 8931,
  "ĠBOWLS": 8932,
  "MIXING": 8933,
  "ivian": 8934,
  "ĠRivian": 8935,
  "ĠGo": 8936,
  "ĠRice": 8937,
  "ĠBurrough": 8938,
  "ĠBurroughs": 8939,
  "INDEPENDENCE": 8940,
  "UMHO": 8941,
  "ĠTemple": 8942,
  "Trans": 8943,
  "Be": 8944,
  "udgy": 8945,
  "Ġeh": 8946,
  "Ġhackberry": 8947,
  "Ġeggio": 8948,
  "Ġtequila": 8949,
  "ĠDalmatian": 8950,
  "Ġmums": 8951,
  "Ġreunion": 8952,
  "Ġangelfish": 8953,
  "ĠRedbud": 8954,
  "ĠEbony": 8955,
  "furred": 8956,
  "airstre": 8957,
  "airstreak": 8958,
  "ĠHairstreak": 8959,
  "Ġpaddleboarder": 8960,
  "HRMAN": 8961,
  "DC": 8962,
  "curve": 8963,
  "ĠSHOOT": 8964,
  "Ġbroadcast": 8965,
  "Ġ10th": 8966,
  "ĠFICTION": 8967,
  "\";": 8968,
  "ĠYUMMY": 8969,
  "Ġwhitewashed": 8970,
  "ĠPetroglyph": 8971,
  "alcoat": 8972,
  "Ġquetz": 8973,
  "alcoatlus": 8974,
  "Ġquetzalcoatlus": 8975,
  "ĠMondrian": 8976,
  "WAYNE": 8977,
  "FRED": 8978,
  "XING": 8979,
  "ĠMilburn": 8980,
  "ĠPenny": 8981,
  "ĠPennybags": 8982,
  "hev": 8983,
  "heviks": 8984,
  "ĠApalachee": 8985,
  "ĠMARRIOTT": 8986,
  "Ġplantpot": 8987,
  "GM": 8988,
  "ĠTriplane": 8989,
  "Ġcraps": 8990,
  "Ġcomplian": 8991,
  "Ġcompliance": 8992,
  "ĠStelv": 8993,
  "ĠStelvio": 8994,
  "Ryder": 8995,
  "UnDEAD": 8996,
  "overlaps": 8997,
  "FS": 8998,
  "Ġpoorly": 8999,
  "mian": 9000,
  "ĠBohemian": 9001,
  "ĠPopulous": 9002,
  "ĠHeterophylla": 9003,
  "bringer": 9004,
  "ĠLawbringer": 9005,
  "ĠHan": 9006,
  "ĠHanuman": 9007,
  "life": 9008,
  "ĠWildlife": 9009,
  "Ġbarracuda": 9010,
  "Toe": 9011,
  "ĠCatalpas": 9012,
  "EY": 9013,
  "Ġdownrod": 9014,
  "ĠTurk": 9015,
  "C15": 9016,
  "Smithsonian": 9017,
  "Ġjockeys": 9018,
  "Ġcannonballs": 9019,
  "Ġbottlenecks": 9020,
  "Ġdishwashing": 9021,
  "Ġwintry": 9022,
  "ĠMid": 9023,
  "Ġefflorescen": 9024,
  "Ġefflorescence": 9025,
  "Ġcreator": 9026,
  "ĠTOILET": 9027,
  "20th": 9028,
  "ĠEVENTFUL": 9029,
  "ĠNavicularis": 9030,
  "Ġpipping": 9031,
  "ĠHolmes": 9032,
  "TUR": 9033,
  "TURBO": 9034,
  "TATTOOS": 9035,
  "ĠPlanks": 9036,
  "Ġmacrophylla": 9037,
  "ĠNIK": 9038,
  "Ġincorporated": 9039,
  "Ġsilverfish": 9040,
  "ĠKookaburra": 9041,
  "Ġunfolded": 9042,
  "Ġenhancing": 9043,
  "furled": 9044,
  "Ġunfurled": 9045,
  "MEDIE": 9046,
  "MEDIEVA": 9047,
  "ĠMUNCH": 9048,
  "ĠBeebal": 9049,
  "ĠBeebalm": 9050,
  "Ġnativity": 9051,
  "Ġwipe": 9052,
  "CHASCO": 9053,
  "which": 9054,
  "275": 9055,
  "Ġ/,": 9056,
  "BERTAZZONI": 9057,
  "Ġheadgear": 9058,
  "Ġundisputed": 9059,
  "ĠGall": 9060,
  "ĠGallier": 9061,
  "ĠHYDRANT": 9062,
  "Ġhangnail": 9063,
  "ĠHANDRAIL": 9064,
  "Ġraspberry": 9065,
  "ĠPalazzo": 9066,
  "JIBB": 9067,
  "ĠSAID": 9068,
  "bellion": 9069,
  "Ġrebellion": 9070,
  "ĠFett": 9071,
  "ĠRhinoceros": 9072,
  "Jack": 9073,
  "Convenience": 9074,
  "Ġicebox": 9075,
  "ĠGLA": 9076,
  "ĠLeonardo": 9077,
  "ĠAW13": 9078,
  "ĠAW139": 9079,
  "Ġmargarita": 9080,
  "latz": 9081,
  "Blatz": 9082,
  "Ġdonkeys": 9083,
  "Ġplunged": 9084,
  "Ġ80s": 9085,
  "ĠGroot": 9086,
  "Ġtwirl": 9087,
  "Ġthumbprint": 9088,
  "GRUMPY": 9089,
  "ĠLimit": 9090,
  "NOTTING": 9091,
  "NOTTINGHAM": 9092,
  "ĠFiacre": 9093,
  "Ġdays": 9094,
  "Ġweek": 9095,
  "Sat": 9096,
  "Saturday": 9097,
  "Ġcheckmark": 9098,
  "GUITARTOWN": 9099,
  "ĠGUITAR": 9100,
  "ĠGUITARRA": 9101,
  "ĠVERRET": 9102,
  "ĠCRUISING": 9103,
  "ĠAIRPORT": 9104,
  "102DN": 9105,
  "N102DN": 9106,
  "Ġstubbier": 9107,
  "ZIP": 9108,
  "Ġpentagram": 9109,
  "ĠPROTECTION": 9110,
  "Ġreferencing": 9111,
  "ĠTROOPS": 9112,
  "REMEMBER": 9113,
  "ĠSandbags": 9114,
  "Ġconsecutive": 9115,
  "JEDUNN": 9116,
  "LIARS": 9117,
  "Ġdisorganized": 9118,
  "Ġhighpoint": 9119,
  "cumuls": 9120,
  "ĠStrato": 9121,
  "ĠStratocumuls": 9122,
  "ĠDOLLARS": 9123,
  "Makin": 9124,
  "'LL": 9125,
  "Ġswimsuit": 9126,
  "bunny": 9127,
  "Ġquarterly": 9128,
  "Time": 9129,
  "Nut": 9130,
  "SIMPLE": 9131,
  "ĠSTUFF": 9132,
  "STUFF": 9133,
  "Ġfrontward": 9134,
  "Ġsudsy": 9135,
  "ronze": 9136,
  "bronze": 9137,
  "Ġ2x3": 9138,
  "CHEERS": 9139,
  "Ġactivities": 9140,
  "ĠNormandy": 9141,
  "Ġsitter": 9142,
  "Ġ299D": 9143,
  "circling": 9144,
  "Ġencircling": 9145,
  "ĠPaz": 9146,
  "Sie": 9147,
  "mpre": 9148,
  "Siempre": 9149,
  "Ġmi": 9150,
  "CANOPY": 9151,
  "Ġcradle": 9152,
  "Ġsolidified": 9153,
  "ĠGV80": 9154,
  "ĠPok": 9155,
  "ĠPokÃ©": 9156,
  "ĠPokÃ©mon": 9157,
  "ĠUnnatural": 9158,
  "ĠBeauty": 9159,
  "ĠBeautyberry": 9160,
  "ĠCallicarpa": 9161,
  "ĠKhao": 9162,
  "Ġrespiratory": 9163,
  "PiER": 9164,
  "ĠPaella": 9165,
  "ĠMeat": 9166,
  "VERONICA": 9167,
  "799": 9168,
  "BIOSA": 9169,
  "CABIOSA": 9170,
  "SCABIOSA": 9171,
  "999": 9172,
  "entry": 9173,
  "ptus": 9174,
  "ĠEucaly": 9175,
  "ĠEucalyptus": 9176,
  "TRIBE": 9177,
  "JEEP": 9178,
  "ĠColorful": 9179,
  "Ġbacklighting": 9180,
  "ĠHades": 9181,
  "Ġdecolorization": 9182,
  "1836": 9183,
  "VERACRUZ": 9184,
  "Ġ3RD": 9185,
  "Ġcosmetic": 9186,
  "ĠPonder": 9187,
  "bje": 9188,
  "ĠObje": 9189,
  "ĠObjects": 9190,
  "580": 9191,
  "P580": 9192,
  "ĠLP580": 9193,
  "ĠSEZE": 9194,
  "ĠDandel": 9195,
  "ĠDandelion": 9196,
  "infested": 9197,
  "Ġwarring": 9198,
  "ĠSterling": 9199,
  "ĠLT9500": 9200,
  "CERVEZA": 9201,
  "ĠEXTRA": 9202,
  "Ġvelocity": 9203,
  "Ġwrong": 9204,
  "VENARDOS": 9205,
  "Ġswoosh": 9206,
  "LOCATION": 9207,
  "Knives": 9208,
  "uad": 9209,
  "lio": 9210,
  "uadrifog": 9211,
  "ĠQuadrifog": 9212,
  "ĠQuadrifoglio": 9213,
  "Ġboulevard": 9214,
  "Ġsaddlebag": 9215,
  "Ġtrailhead": 9216,
  "Ġsnowmen": 9217,
  "ĠMiss": 9218,
  "ĠKETTLE": 9219,
  "acienda": 9220,
  "ĠHacienda": 9221,
  "Ġhoofs": 9222,
  "Ġrestricted": 9223,
  "ĠUNLESS": 9224,
  "VOGU": 9225,
  "VOGUE": 9226,
  "ĠKwe": 9227,
  "ĠKweiC": 9228,
  "ĠKweiChow": 9229,
  "Tai": 9230,
  "ĠMouTai": 9231,
  ">\"": 9232,
  "rUST": 9233,
  "CrUST": 9234,
  "WEARS": 9235,
  "HOTWHEEL": 9236,
  "Ġstraightness": 9237,
  "allegiant": 9238,
  "ĠNatche": 9239,
  "ĠNatchez": 9240,
  "ĠSteamboat": 9241,
  "Grapes": 9242,
  "Peach": 9243,
  "watermelon": 9244,
  "304": 9245,
  "ufa": 9246,
  "ĠTufa": 9247,
  "ASHLY": 9248,
  "DMX": 9249,
  "RDM": 9250,
  "DMXJ": 9251,
  "DMXJRDM": 9252,
  "ONTROL": 9253,
  "PROKONTROL": 9254,
  "Ġexists": 9255,
  "Ġammo": 9256,
  "ĠGraham": 9257,
  "Ġ48th": 9258,
  "ĠArmed": 9259,
  "ĠDivision": 9260,
  "2004": 9261,
  "ĠGrumpy": 9262,
  "SLIP": 9263,
  "Poke": 9264,
  "Ġschnauzer": 9265,
  "Ġleptoglossus": 9266,
  "BADGER": 9267,
  "ĠM8": 9268,
  "Ġfrequently": 9269,
  "MONUMENTAL": 9270,
  "lier": 9271,
  "Ġearlier": 9272,
  "Ġgrunt": 9273,
  "2054": 9274,
  "Ġhighschool": 9275,
  "Ġcu": 9276,
  "Ġcuat": 9277,
  "Ġcuatro": 9278,
  "rique": 9279,
  "Ġpuer": 9280,
  "torrique": 9281,
  "Ġpuertorrique": 9282,
  "ĠpuertorriqueÃ±": 9283,
  "ĠpuertorriqueÃ±o": 9284,
  "True": 9285,
  "NORSE": 9286,
  "ĠAirline": 9287,
  "MOST": 9288,
  "FRANCA": 9289,
  "FRANCAISE": 9290,
  "GUYENNE": 9291,
  "NORMAND": 9292,
  "NORMANDIE": 9293,
  "ANJOU": 9294,
  "FLAND": 9295,
  "FLANDRE": 9296,
  "Ġcowboys": 9297,
  "S250": 9298,
  "LAZA": 9299,
  "ĠPLAZA": 9300,
  "Ġcancer": 9301,
  "XPRESS": 9302,
  "ĠJOINT": 9303,
  "ĠCHIROPRACTIC": 9304,
  "stretch": 9305,
  "FORZA": 9306,
  "Bin": 9307,
  "dump": 9308,
  "EXPANDER": 9309,
  "GODDARD": 9310,
  "BABBLE": 9311,
  "babble": 9312,
  "By": 9313,
  "idized": 9314,
  "Ġoxidized": 9315,
  "ĠLifeP": 9316,
  "ĠLifeProof": 9317,
  "ĠRANGER": 9318,
  "Ġcurg": 9319,
  "P3": 9320,
  "ĠTIGHT": 9321,
  "My": 9322,
  "ĠLlama": 9323,
  "Ġ#\"": 9324,
  "Rubik": 9325,
  "venge": 9326,
  "ĠRevenge": 9327,
  "Ġsadly": 9328,
  "ĠMerm": 9329,
  "ĠMermiria": 9330,
  "Ġbivit": 9331,
  "Ġbivittata": 9332,
  "CUIDAD": 9333,
  "Ġ1500FT": 9334,
  "Mother": 9335,
  "Ġbobble": 9336,
  "ANN": 9337,
  "ANNiE": 9338,
  "LoL": 9339,
  "Ġjamb": 9340,
  "Ġ4D": 9341,
  "ĠTURNPIKE": 9342,
  "ĠGymnopus": 9343,
  "shortest": 9344,
  "ĠConquest": 9345,
  "Ġdeflector": 9346,
  "Ġwelt": 9347,
  "Ġbenchs": 9348,
  "Tacos": 9349,
  "SOC": 9350,
  "andA": 9351,
  "BandA": 9352,
  "BandAid": 9353,
  "ĠBrothels": 9354,
  "Ġstudio": 9355,
  "Ġinterlock": 9356,
  "tun": 9357,
  "tunnel": 9358,
  "Ġsouthernmost": 9359,
  "Ġbulldoze": 9360,
  "Ġtaxiway": 9361,
  "Ġsoundsuit": 9362,
  "ĠRainbow": 9363,
  "ĠHedgehog": 9364,
  "chinocereus": 9365,
  "Echinocereus": 9366,
  "asyacanthus": 9367,
  "ĠDasyacanthus": 9368,
  "Ġdalmatian": 9369,
  "ĠPitbull": 9370,
  "Ġcin": 9371,
  "Ġcinque": 9372,
  "Ġcinquefoil": 9373,
  "ĠISD": 9374,
  "602": 9375,
  "ĠGay": 9376,
  "MONIN": 9377,
  "Ġgourmet": 9378,
  "GACCINO": 9379,
  "CHAGACCINO": 9380,
  "sideburn": 9381,
  "ĠBETTER": 9382,
  "---": 9383,
  "Ġblurrier": 9384,
  "ĠAH": 9385,
  "ĠAttack": 9386,
  "Ġbalm": 9387,
  "Ġrecognizable": 9388,
  "ĠBeat": 9389,
  "ĠLeon": 9390,
  "ĠPolish": 9391,
  "DL": 9392,
  "EC": 9393,
  "ĠSTORAGE": 9394,
  "PLEASANT": 9395,
  "26994": 9396,
  "Ġ726994": 9397,
  "HGI": 9398,
  "HGIU": 9399,
  "Ġ520848": 9400,
  "Group": 9401,
  "Ġimproperly": 9402,
  "Ġ111": 9403,
  "Ġ57th": 9404,
  "fil": 9405,
  "ĠBarbed": 9406,
  "Ġbulletproof": 9407,
  "Souvenirs": 9408,
  "Ġfogginess": 9409,
  "9700": 9410,
  "SYM": 9411,
  "Ġutilizes": 9412,
  "Ġairless": 9413,
  "YANMAR": 9414,
  "Ġdemolition": 9415,
  "Ġmudrack": 9416,
  "WHISKEY": 9417,
  "Bug": 9418,
  "BEDHED": 9419,
  "BYTE": 9420,
  "ALLBYTE": 9421,
  "ĠDISTURB": 9422,
  "ĠWandering": 9423,
  "ĠJew": 9424,
  "Ġchainrings": 9425,
  "Ġpenetrating": 9426,
  "Ġwildfires": 9427,
  "UK": 9428,
  "PIMUK": 9429,
  "WAMPIMUK": 9430,
  "Ġinvestigating": 9431,
  "ranklin": 9432,
  "Franklin": 9433,
  "decal": 9434,
  "OOT": 9435,
  "ĠXOOT": 9436,
  "10k": 9437,
  "10kg": 9438,
  "Ġcampfire": 9439,
  "Valero": 9440,
  "Ġtrowel": 9441,
  "Ġanyone": 9442,
  "ĠHawaiian": 9443,
  "ĠHIGHLAND": 9444,
  "Ġidly": 9445,
  "SKO": 9446,
  "ĠQ2": 9447,
  "Ġpierce": 9448,
  "Hour": 9449,
  "iaeval": 9450,
  "Ġmediaeval": 9451,
  "ĠRevival": 9452,
  "Ġdisrepair": 9453,
  "cotton": 9454,
  "Ġcarefully": 9455,
  "ĠCalvin": 9456,
  "ĠHobbes": 9457,
  "ĠSummer": 9458,
  "ĠBetrayal": 9459,
  "Ġpantry": 9460,
  "BALANCEFROM": 9461,
  "ĠBoat": 9462,
  "ĠPhalaenopsis": 9463,
  "Ġoccludes": 9464,
  "ĠAgua": 9465,
  "ĠCaliente": 9466,
  "Ġmegawatt": 9467,
  "voltaic": 9468,
  "Ġphotovoltaic": 9469,
  "Ġhandgun": 9470,
  "SAAG": 9471,
  "Ġtechno": 9472,
  "nopilus": 9473,
  "Ġgymnopilus": 9474,
  "ofolius": 9475,
  "Ġluteofolius": 9476,
  "Ġiceber": 9477,
  "Ġiceberg": 9478,
  "Ġchartre": 9479,
  "Ġchartreuse": 9480,
  "Wasabi": 9481,
  "ĠPossi": 9482,
  "ĠPossibly": 9483,
  "Ġunlined": 9484,
  "Ġeveryone": 9485,
  "slice": 9486,
  "964": 9487,
  "Ġplushy": 9488,
  "ĠCollie": 9489,
  "ĠSeaGlass": 9490,
  "IHOP": 9491,
  "Ġkelp": 9492,
  "ĠRW": 9493,
  "ĠRWBY": 9494,
  "NEWS": 9495,
  "oCo": 9496,
  "ĠJoCo": 9497,
  "ĠMarsh": 9498,
  "ĠJUMP": 9499,
  "Ġnerves": 9500,
  "Iron": 9501,
  "ĠTrinidad": 9502,
  "OI": 9503,
  "ĠKOI": 9504,
  "NU": 9505,
  "NUESTRA": 9506,
  "5619": 9507,
  "ĠShaggy": 9508,
  "glove": 9509,
  "ĠFoxglove": 9510,
  "Ġsimulates": 9511,
  "Ġabruptly": 9512,
  "seater": 9513,
  "Ġherm": 9514,
  "Ġhermit": 9515,
  "mediary": 9516,
  "Ġintermediary": 9517,
  "pin": 9518,
  "Ġhairpin": 9519,
  "Ġutters": 9520,
  "aPer": 9521,
  "aPerm": 9522,
  "ĠLaPerm": 9523,
  "ĠFoliage": 9524,
  "Ġ720": 9525,
  "Ġ720S": 9526,
  "shut": 9527,
  "shutter": 9528,
  "Tea": 9529,
  "FINNAIR": 9530,
  "RESCU": 9531,
  "RESCUE": 9532,
  "ĠThread": 9533,
  "Ġmaggots": 9534,
  "Ġunscrewed": 9535,
  "ĠDali": 9536,
  "UNITS": 9537,
  "ucco": 9538,
  "ĠStucco": 9539,
  "ĠE450": 9540,
  "A51": 9541,
  "ĠRECEPTION": 9542,
  "SILVER": 9543,
  "ĠCentaurea": 9544,
  "Ġvirgata": 9545,
  "Ġescutcheon": 9546,
  "KiNG": 9547,
  "ĠIMPRO": 9548,
  "ĠIMPROVEMENTS": 9549,
  "ĠHimalay": 9550,
  "ĠHimalayan": 9551,
  "imalyans": 9552,
  "ĠHimalyans": 9553,
  "ĠHighschool": 9554,
  "Brick": 9555,
  "Ġoverloaded": 9556,
  "CBA": 9557,
  "BUTTON": 9558,
  "SNOW": 9559,
  "Ġflannel": 9560,
  "Rearview": 9561,
  "MAPS": 9562,
  "Ġautographed": 9563,
  "CAPTAIN": 9564,
  "ĠMARVEL": 9565,
  "ĠRONIN": 9566,
  "ĠKNIGHT": 9567,
  "Ġentwined": 9568,
  "FiSCHER": 9569,
  "Ġoutdent": 9570,
  "Ġconve": 9571,
  "Ġconvey": 9572,
  "Ġsurprise": 9573,
  "Ġexciting": 9574,
  "milion": 9575,
  "Ġvermilion": 9576,
  "Honey": 9577,
  "Must": 9578,
  "ĠWhiptail": 9579,
  "FERRARI": 9580,
  "Ġtobacco": 9581,
  "Ġbimini": 9582,
  "BELIEVE": 9583,
  "Partly": 9584,
  "ĠNiCE": 9585,
  "DR": 9586,
  "Ġfixate": 9587,
  "Parts": 9588,
  "pnotic": 9589,
  "Ġhypnotic": 9590,
  "Ġcolorization": 9591,
  "Ġ440i": 9592,
  "RAZ": 9593,
  "RAZY": 9594,
  "ĠKRAZY": 9595,
  "ORNER": 9596,
  "ĠKORNER": 9597,
  "ĠBluebonnets": 9598,
  "ĠPaintbrush": 9599,
  "Ġslump": 9600,
  "emotive": 9601,
  "Ġhaloed": 9602,
  "ĠHelmet": 9603,
  "ĠReid": 9604,
  "Ġvalleys": 9605,
  "Ġjutted": 9606,
  "ĠMOUNTAIN": 9607,
  "ĠLEANDER": 9608,
  "DOT2057": 9609,
  "DOT205752": 9610,
  "ĠUSDOT205752": 9611,
  "ĠStretch": 9612,
  "ĠWillie": 9613,
  "Ġunmatched": 9614,
  "Ġprotrusion": 9615,
  "Construction": 9616,
  "FOOL": 9617,
  "ĠHarsh": 9618,
  "Phil": 9619,
  "Ġfuzzier": 9620,
  "Ġgrindelia": 9621,
  "ĠTranslucent": 9622,
  "ĠCorrugated": 9623,
  "ĠCyan": 9624,
  "ĠAluminum": 9625,
  "MAGNAVOX": 9626,
  "AUTOCAD": 9627,
  "ĠFancy": 9628,
  "Ġcoreopsis": 9629,
  "ĠGriffin": 9630,
  "HTL": 9631,
  "ĠMint": 9632,
  "Try": 9633,
  "7AM": 9634,
  "Ġ7PM": 9635,
  "Ġlimeade": 9636,
  "Ġchipmunk": 9637,
  "Ġpedisphere": 9638,
  "Ġgoalie": 9639,
  "KWAKE": 9640,
  "Ġluchador": 9641,
  "9200701": 9642,
  "2259200701": 9643,
  "ĠFEB": 9644,
  "perception": 9645,
  "GUMBO": 9646,
  "ĠChairdrobe": 9647,
  "ĠCSL": 9648,
  "Ds": 9649,
  "ĠCDs": 9650,
  "Ġdecoys": 9651,
  "villea": 9652,
  "ĠBougainvillea": 9653,
  "Ġaxillary": 9654,
  "ĠGalaxy": 9655,
  "Ġbreakwaters": 9656,
  "ĠLanard": 9657,
  "ĠCorps": 9658,
  "ĠStorm": 9659,
  "ĠStrike": 9660,
  "ĠPlane": 9661,
  "familiar": 9662,
  "Ġunfamiliar": 9663,
  "ĠPALOOZA": 9664,
  "RHO": 9665,
  "VEHICLES": 9666,
  "Ġ'?": 9667,
  "Ġfracture": 9668,
  "Ġsmudging": 9669,
  "Ġsimulating": 9670,
  "Ġdisinfe": 9671,
  "Ġdisinfectant": 9672,
  "Rol": 9673,
  "JUSTICE": 9674,
  "idgen": 9675,
  "Ġsmidgen": 9676,
  "Ġtexturized": 9677,
  "urism": 9678,
  "Ġfuturism": 9679,
  "ĠFL": 9680,
  "BONGAN": 9681,
  "BONGANG": 9682,
  "Ġsuncast": 9683,
  "piled": 9684,
  "Ġbobtail": 9685,
  "AQUARIUM": 9686,
  "ĠGENIE": 9687,
  "ĠBAZAAR": 9688,
  "haroah": 9689,
  "ĠPharoah": 9690,
  "ĠKachina": 9691,
  "Statesman": 9692,
  "ĠEmbraer": 9693,
  "ĠERJ": 9694,
  "ĠEagle": 9695,
  "Ġsorry": 9696,
  "MARGARITAVILLE": 9697,
  "ĠC300": 9698,
  "ĠSLICK": 9699,
  "Ġfragment": 9700,
  "CHAPTER": 9701,
  "375": 9702,
  "ĠStrands": 9703,
  "Ġinstructions": 9704,
  "ALOHA": 9705,
  "ĠOHA": 9706,
  "eggie": 9707,
  "Veggie": 9708,
  "ĠDeskpro": 9709,
  "Deskpro": 9710,
  "Ġ1987": 9711,
  "Ġwindchime": 9712,
  "ĠBichon": 9713,
  "Ġnutshells": 9714,
  "ĠVIZIO": 9715,
  "VIZIO": 9716,
  "Ġyogurt": 9717,
  "Ġmoscheutos": 9718,
  "Ġmuer": 9719,
  "Ġmuertos": 9720,
  "ĠEXCUSES": 9721,
  "UH": 9722,
  "HEARTWOOD": 9723,
  "Heartwood": 9724,
  "ĠLOUIS": 9725,
  "Twel": 9726,
  "Twelve": 9727,
  "ACETUM": 9728,
  "Ġbruises": 9729,
  "ARCADE": 9730,
  "Ġwishbone": 9731,
  "Blackwell": 9732,
  "laND": 9733,
  "ĠISlaND": 9734,
  "Ġstereo": 9735,
  "Ġwhirl": 9736,
  "Ġwhirlpool": 9737,
  "Ġmottling": 9738,
  "ucocoprin": 9739,
  "ucocoprinus": 9740,
  "Ġleucocoprinus": 9741,
  "Ġcretaceous": 9742,
  "Ġnovelty": 9743,
  "velties": 9744,
  "ĠNovelties": 9745,
  "194": 9746,
  "1948": 9747,
  "mbly": 9748,
  "Ġassembly": 9749,
  "ĠPosted": 9750,
  "Solid": 9751,
  "ĠDefender": 9752,
  "GARAGE": 9753,
  "ĠWORRY": 9754,
  "ĠWORRYING": 9755,
  "ĠABOUT": 9756,
  "ĠREACTION": 9757,
  "ĠREACTIONS": 9758,
  "ĠINSTEAD": 9759,
  "Kiss": 9760,
  "squint": 9761,
  "ĠGrated": 9762,
  "kking": 9763,
  "Ġtrekking": 9764,
  "ĠBrougham": 9765,
  "Ġoxidation": 9766,
  "Ġviewport": 9767,
  "Ġ85": 9768,
  "TC": 9769,
  "TCF": 9770,
  "YL": 9771,
  "JEk": 9772,
  "JEkYL": 9773,
  "NORCO": 9774,
  "Ġrefurbished": 9775,
  "Ġflyover": 9776,
  "Ac": 9777,
  "Accessible": 9778,
  "healthy": 9779,
  "healthyhorns": 9780,
  "BEBO": 9781,
  "ĠIcarus": 9782,
  "2PLAYA": 9783,
  "SLIME": 9784,
  "OA": 9785,
  "yOA": 9786,
  "Ġgesturing": 9787,
  "IU": 9788,
  "IUW": 9789,
  "N12IUW": 9790,
  "zark": 9791,
  "ĠOzark": 9792,
  "Spider": 9793,
  "ĠFOUNTAIN": 9794,
  "Ġvirtual": 9795,
  "Ġholograms": 9796,
  "galvanize": 9797,
  "ĠDem": 9798,
  "ĠDemitasse": 9799,
  "ĠSaucers": 9800,
  "ĠClubs": 9801,
  "ĠAMPHITHEATER": 9802,
  "ĠCurved": 9803,
  "Ġdetected": 9804,
  "RP": 9805,
  "6E": 9806,
  "Ġroundness": 9807,
  "Ġmolten": 9808,
  "Ġparkland": 9809,
  "Ġopossum": 9810,
  "Ġannoyed": 9811,
  "Ġprimrose": 9812,
  "Ġwefts": 9813,
  "ippopotamus": 9814,
  "ĠHippopotamus": 9815,
  "ĠHippo": 9816,
  "ĠINTERNATIONAL": 9817,
  "ĠTEXT": 9818,
  "Ġconverge": 9819,
  "Ġdownright": 9820,
  "ijer": 9821,
  "ĠMeijer": 9822,
  "ĠArrow": 9823,
  "Ġdonning": 9824,
  "ĠNamaste": 9825,
  "ombre": 9826,
  "Ġunbleached": 9827,
  "ĠEntrada": 9828,
  "3890": 9829,
  "8853": 9830,
  "Ġfriction": 9831,
  "Ġmarring": 9832,
  "Ġaccentuated": 9833,
  "ĠA3": 9834,
  "ĠA321": 9835,
  "Ġairbus": 9836,
  "Ġmultistemed": 9837,
  "Ġexos": 9838,
  "Ġexoskeleton": 9839,
  "ĠPoles": 9840,
  "PAPEL": 9841,
  "street": 9842,
  "Ġfrills": 9843,
  "ĠWISH": 9844,
  "Ġnavigation": 9845,
  "Ġfurthermore": 9846,
  "ĠBuy": 9847,
  "ĠPlantpot": 9848,
  "ĠDapper": 9849,
  "ĠDapperling": 9850,
  "ATM": 9851,
  "Ġbigelov": 9852,
  "Ġbigelovii": 9853,
  "ĠSKATEBOARDING": 9854,
  "Ġfierce": 9855,
  "DHAN": 9856,
  "DHANIS": 9857,
  "WILLIAMS": 9858,
  "FLASHER": 9859,
  "Ġlump": 9860,
  "TIPS": 9861,
  "ĠAPPREC": 9862,
  "ĠAPPRECIATED": 9863,
  "FUEL": 9864,
  "ĠGOV": 9865,
  "YTSENO": 9866,
  "YTSENOH": 9867,
  "EXPERIENCE": 9868,
  "ĠEXC": 9869,
  "ĠEXCITEMENT": 9870,
  "Bay": 9871,
  "eBay": 9872,
  "Ġmeidum": 9873,
  "ammat": 9874,
  "ĠMammat": 9875,
  "ĠMammatus": 9876,
  "TELEONE": 9877,
  "ĠMONTELEONE": 9878,
  "ĠWeapons": 9879,
  "Ġgulp": 9880,
  "ĠLEAF": 9881,
  "Ġgraduation": 9882,
  "ĠAvicennia": 9883,
  "MENLO": 9884,
  "ĠETTER": 9885,
  "ĠPURPOSE": 9886,
  "Ġtransform": 9887,
  "Ġbenef": 9888,
  "Ġbenefit": 9889,
  "Ġsociety": 9890,
  "ĠMagen": 9891,
  "Ġliguus": 9892,
  "BUNNY": 9893,
  "expansive": 9894,
  "Loving": 9895,
  "Ġginormous": 9896,
  "BEEKind": 9897,
  "BeeKind": 9898,
  "YouR": 9899,
  "Ġeyehole": 9900,
  "Ġfluffs": 9901,
  "POLIZEI": 9902,
  "Kangaroo": 9903,
  "Ġfainly": 9904,
  "ĠSanbot": 9905,
  "ĠNano": 9906,
  "ĠHeadlights": 9907,
  "Ġruins": 9908,
  "peace": 9909,
  "web": 9910,
  "ĠDias": 9911,
  "ĠDIAL": 9912,
  "CLOUDS": 9913,
  "Ġinscribing": 9914,
  "lime": 9915,
  "rowds": 9916,
  "ĠCrowds": 9917,
  "HAITI": 9918,
  "Ġ178": 9919,
  "Ġ1785": 9920,
  "Ġinterleaved": 9921,
  "BUCK": 9922,
  "Winnie": 9923,
  "Gazing": 9924,
  "FLY": 9925,
  "FLYING": 9926,
  "Ġdiffused": 9927,
  "ĠSkyt": 9928,
  "ĠSkytrail": 9929,
  "ĠPassengers": 9930,
  "Ġdecided": 9931,
  "IQUE": 9932,
  "ĠUNIQUE": 9933,
  "Ġenforced": 9934,
  "Ġcenturion": 9935,
  "Ġscutum": 9936,
  "RANGERS": 9937,
  "Ġweimaraner": 9938,
  "Ġlabyrinth": 9939,
  "4TH": 9940,
  "ĠArmor": 9941,
  "ĠCloverleaf": 9942,
  "395": 9943,
  "Ġlengthwise": 9944,
  "boyan": 9945,
  "Ġflamboyan": 9946,
  "Ġflamboyance": 9947,
  "Ġtelecom": 9948,
  "Ġtelecommunication": 9949,
  "rinkly": 9950,
  "Ġcrinkly": 9951,
  "204": 9952,
  "20488": 9953,
  "Ġoutdor": 9954,
  "ĠAutomobiles": 9955,
  "ĠRising": 9956,
  "ĠSunburst": 9957,
  "ĠD7": 9958,
  "ĠD6": 9959,
  "General": 9960,
  "ĠNUMBERS": 9961,
  "sw": 9962,
  "swissport": 9963,
  "ERB": 9964,
  "yERB": 9965,
  "yERBa": 9966,
  "0MPH": 9967,
  "ĠUpright": 9968,
  "Ġcatwalk": 9969,
  "CRY": 9970,
  "genhe": 9971,
  "ĠGuggenhe": 9972,
  "ĠGuggenheim": 9973,
  "Ġmusk": 9974,
  "Ġrosette": 9975,
  "Ġmarred": 9976,
  "RADPOWERBIKES": 9977,
  "Museum": 9978,
  "em": 9979,
  "Ġpoem": 9980,
  "LOUISIANA": 9981,
  "INK": 9982,
  "ĠReverse": 9983,
  "Ġdetergent": 9984,
  "Ġavigo": 9985,
  "Ġsearchlight": 9986,
  "Talent": 9987,
  "grain": 9988,
  "ĠEyeholes": 9989,
  "HIBITIO": 9990,
  "ĠEXHIBITIO": 9991,
  "Ġstandoffs": 9992,
  "ĠRac": 9993,
  "ĠRaccoons": 9994,
  "Ġunpolished": 9995,
  "ĠSprigs": 9996,
  "IKAI": 9997,
  "JU": 9998,
  "IKAIJU": 9999,
  "DAIKAIJU": 10000,
  "ĠMedusa": 10001,
  "DAVEFEST4": 10002,
  "AP": 10003,
  "APRIL": 10004,
  "Ġ19TH": 10005,
  "REA": 10006,
  "REAGAN": 10007,
  "ĠMARCH": 10008,
  "Ġ16TH": 10009,
  "TWO": 10010,
  "ĠSECRET": 10011,
  "ACid": 10012,
  "ACidi": 10013,
  "ACidiZ": 10014,
  "ĠMASSACRE": 10015,
  "Ġghoulish": 10016,
  "ĠDiamonds": 10017,
  "ĠAI": 10018,
  "ĠRESIDENCY": 10019,
  "ĠPROGRAM": 10020,
  "Ġknead": 10021,
  "EASURE": 10022,
  "ĠRy": 10023,
  "ĠRyon": 10024,
  "ĠCAGE": 10025,
  "They": 10026,
  "ĠCozy": 10027,
  "ĠCLIMB": 10028,
  "ĠFENCE": 10029,
  "Ġmute": 10030,
  "Ġrunny": 10031,
  "BeeR": 10032,
  "Ġabsorbing": 10033,
  "Ġperiodic": 10034,
  "PERIODIC": 10035,
  "inclu": 10036,
  "incluidos": 10037,
  "Ġoxigeno": 10038,
  "Ġsilicio": 10039,
  "Ġaluminio": 10040,
  "Ġhierro": 10041,
  "SAINT": 10042,
  "ĠARNOLD": 10043,
  "ĠJUICY": 10044,
  "supported": 10045,
  "ĠHenry": 10046,
  "ĠARRIVED": 10047,
  "BRIE": 10048,
  "Ġscorched": 10049,
  "Ġhedgehog": 10050,
  "Dime": 10051,
  "ĠMalaw": 10052,
  "ĠMalawisaurus": 10053,
  "sprayed": 10054,
  "ĠBruder": 10055,
  "BRUDER": 10056,
  "Ġscavenging": 10057,
  "Ġpreached": 10058,
  "ĠHOLLYWOOD": 10059,
  "ĠTOY": 10060,
  "ĠUbi": 10061,
  "ĠUbiquiti": 10062,
  "Ġyellowtail": 10063,
  "Ġvolutes": 10064,
  "Ġcrabgrass": 10065,
  "Ġinsulated": 10066,
  "Ġneedlefish": 10067,
  "ĠBerserk": 10068,
  "ĠUSB": 10069,
  "Ġcoax": 10070,
  "Ġmembrane": 10071,
  "TEBW": 10072,
  "2E": 10073,
  "J2E": 10074,
  "31J2E": 10075,
  "ĠINSPECTIONS": 10076,
  "FLAVORS": 10077,
  "Ġluminary": 10078,
  "Trust": 10079,
  "ĠJourney": 10080,
  "spray": 10081,
  "Ġcontiguous": 10082,
  "Ġvolume": 10083,
  "Ġabsorption": 10084,
  "Ġperky": 10085,
  "Ġmammal": 10086,
  "Ġetches": 10087,
  "ĠCustom": 10088,
  "SIGN": 10089,
  "Ġsaggy": 10090,
  "ĠAfg": 10091,
  "ĠAfghan": 10092,
  "ĠAbrath": 10093,
  "ĠPoland": 10094,
  "QTR": 10095,
  "uation": 10096,
  "Ġpunctuation": 10097,
  "ĠCharging": 10098,
  "ĠHELLPORT": 10099,
  "Tulane": 10100,
  "CHAMPA": 10101,
  "CHAMPAGNE": 10102,
  "NAVARRE": 10103,
  "SAINTONGE": 10104,
  "GASCO": 10105,
  "GASCOGNE": 10106,
  "VERGNE": 10107,
  "AUVERGNE": 10108,
  "ih": 10109,
  "iht": 10110,
  "Ġwiht": 10111,
  "SAHARA": 10112,
  "AQUA": 10113,
  "Ġflashy": 10114,
  "GOLF": 10115,
  "Ġrivulets": 10116,
  "GRINO": 10117,
  "ĠPELLEGRINO": 10118,
  "ĠPure": 10119,
  "ĠRefrigerator": 10120,
  "Ġaccordion": 10121,
  "QUICK": 10122,
  "ĠPharaohs": 10123,
  "ĠJANE": 10124,
  "ĠMEET": 10125,
  "TICKET": 10126,
  "Ġtailwind": 10127,
  "ĠReindeer": 10128,
  "ĠSigma": 10129,
  "Ġ1960s": 10130,
  "Ġkitty": 10131,
  "Ġclyton": 10132,
  "ĠRidged": 10133,
  "1895": 10134,
  "ĠStudio": 10135,
  "ONSTER": 10136,
  "ĠSurround": 10137,
  "Table": 10138,
  "Ġposh": 10139,
  "Gent": 10140,
  "Ġamphitheater": 10141,
  "Ġcabinetry": 10142,
  "Ġspatula": 10143,
  "SKI": 10144,
  "Yosemite": 10145,
  "Ġsaxophone": 10146,
  "Pinnacle": 10147,
  "Ġambiance": 10148,
  "Ġbelladonna": 10149,
  "SBC": 10150,
  "HSBC": 10151,
  "Ġpulp": 10152,
  "ĠCrushed": 10153,
  "ĠGramer": 10154,
  "ĠGramercy": 10155,
  "ĠCirrostat": 10156,
  "ĠCirrostatus": 10157,
  "Striding": 10158,
  "Rome": 10159,
  "Ġthermoplastic": 10160,
  "Aa": 10161,
  "ctful": 10162,
  "Ġrespectful": 10163,
  "E25": 10164,
  "ĠVolunteer": 10165,
  "CRITICS": 10166,
  "Ġjudge": 10167,
  "ĠNarrow": 10168,
  "AMAZONFC": 10169,
  "ĠPaul": 10170,
  "GRUNTLED": 10171,
  "ĠNLESS": 10172,
  "ĠSANITARY": 10173,
  "virgin": 10174,
  "Ġatlantic": 10175,
  "Virgin": 10176,
  "ructures": 10177,
  "ĠStructures": 10178,
  "weathered": 10179,
  "Ġsweetgum": 10180,
  "Ġdeification": 10181,
  "ĠSTIFF": 10182,
  "joying": 10183,
  "Ġenjoying": 10184,
  "Ġhandbag": 10185,
  "ĠHershe": 10186,
  "ĠHershey": 10187,
  "BARCLAYS": 10188,
  "ĠSad": 10189,
  "ĠSaddle": 10190,
  "Ġbewildered": 10191,
  "SPECIAL": 10192,
  "ĠDIET": 10193,
  "328": 10194,
  "8328": 10195,
  "Excavation": 10196,
  "Danger": 10197,
  "ĠSTRAIT": 10198,
  "MUNIC": 10199,
  "MUNICIPAL": 10200,
  "ĠAUDITORIUM": 10201,
  "SHUTTLE": 10202,
  "Ġerratically": 10203,
  "Ġpicaxe": 10204,
  "Ġjoyful": 10205,
  "Ġpm": 10206,
  "FIGHT": 10207,
  "ĠDONT": 10208,
  "OMNI": 10209,
  "mni": 10210,
  "ĠOmni": 10211,
  "KLM": 10212,
  "ĠEdward": 10213,
  "ĠPage": 10214,
  "Ġbrodie": 10215,
  "Ġbookmark": 10216,
  "3x": 10217,
  "BRATE": 10218,
  "CELEBRATE": 10219,
  "ĠHandfuls": 10220,
  "Ġexist": 10221,
  "Ġpercussion": 10222,
  "Ġtimey": 10223,
  "Ġparchment": 10224,
  "Ġ(\"": 10225,
  "Risk": 10226,
  "Ġcavalry": 10227,
  ".).": 10228,
  "ĠAquaman": 10229,
  "ANYTHING": 10230,
  "'VE": 10231,
  "ĠBAIT": 10232,
  "GONG": 10233,
  "ĠSODIUM": 10234,
  "Ġwingtip": 10235,
  "Ġfrothy": 10236,
  "Ġcaladium": 10237,
  "Ġcoggygria": 10238,
  "ĠCoggygria": 10239,
  "Ġmaneuvering": 10240,
  "STEVE": 10241,
  "Yor": 10242,
  "Yorks": 10243,
  "ĠEstab": 10244,
  "Ġ888": 10245,
  "Ġextraterrest": 10246,
  "Ġextraterrestrial": 10247,
  "OVO": 10248,
  "WI": 10249,
  "Ġnutmeg": 10250,
  "ĠLEAVE": 10251,
  "3OP": 10252,
  "CACTUS": 10253,
  "ĠFP": 10254,
  "CHEETA": 10255,
  "CHEETAH": 10256,
  "ĠVancouver": 10257,
  "Boy": 10258,
  "Gir": 10259,
  "Girl": 10260,
  "12345678": 10261,
  "Butterfly": 10262,
  "BOH": 10263,
  "Ġcleanliness": 10264,
  "ĠYear": 10265,
  "ĠCracked": 10266,
  "11D": 10267,
  "ĠSTORMTRO": 10268,
  "ĠSTORMTROOPERS": 10269,
  "ĠKenobi": 10270,
  "Ġrebel": 10271,
  "SPELEOTHEM": 10272,
  "MATIONS": 10273,
  "ĠFORMATIONS": 10274,
  "smoky": 10275,
  "Ġrequ": 10276,
  "Ġrequired": 10277,
  "Ġchibi": 10278,
  "Ġsettles": 10279,
  "imini": 10280,
  "ĠBimini": 10281,
  "Ġantigrav": 10282,
  "Ġantigravity": 10283,
  "MeStickems": 10284,
  "Ġcollide": 10285,
  "OMBAT": 10286,
  "KOMBAT": 10287,
  "Ġlavish": 10288,
  "ĠWERNER": 10289,
  "Ġdiffuse": 10290,
  "ĠCOCONUT": 10291,
  "ĠConcentrate": 10292,
  "ĠDARLING": 10293,
  "ĠVALVE": 10294,
  "ĠISR": 10295,
  "MUSCULAR": 10296,
  "Ġskinless": 10297,
  "VASCULAR": 10298,
  "IOVASCULAR": 10299,
  "CARDIOVASCULAR": 10300,
  "ĠPleated": 10301,
  "rek": 10302,
  "ĠCrosstrek": 10303,
  "ĠMbu": 10304,
  "ĠGas": 10305,
  "Ġhindwings": 10306,
  "IDEAL": 10307,
  "Ġfluttering": 10308,
  "fect": 10309,
  "perfect": 10310,
  "ĠEGGS": 10311,
  "rumming": 10312,
  "Ġstrumming": 10313,
  "BEAVER": 10314,
  "Id": 10315,
  "Ġunfocused": 10316,
  "Mazda": 10317,
  "Nissan": 10318,
  "BAO": 10319,
  "BILBAO": 10320,
  "Ġreduction": 10321,
  "Ġgantry": 10322,
  "Ġlightsource": 10323,
  "Ġsodium": 10324,
  "Ġpopulating": 10325,
  "ĠSymphony": 10326,
  "Prem": 10327,
  "Premier": 10328,
  "ĠKNOWS": 10329,
  "ĠNASHVILLE": 10330,
  "CIRCLE": 10331,
  "ĠDarkly": 10332,
  "ĠHodges": 10333,
  "X3": 10334,
  "Ġ4X3": 10335,
  "ĠKorean": 10336,
  "ĠSlovakia": 10337,
  "Ġheadlines": 10338,
  "City": 10339,
  "Ġ1P": 10340,
  "Ġ1P456": 10341,
  "Ġ1P45629": 10342,
  "ĠC6": 10343,
  "inspired": 10344,
  "Ġsurvival": 10345,
  "ĠEDGE": 10346,
  "ĠCaptured": 10347,
  "Ġorchest": 10348,
  "Ġorchestrating": 10349,
  "Ġfootwork": 10350,
  "ĠCro": 10351,
  "ĠCroatia": 10352,
  "ĠEBC": 10353,
  "RF": 10354,
  "ĠMOTORSPORTS": 10355,
  "Ġ39": 10356,
  "LIGHTBUL": 10357,
  "LIGHTBULBS": 10358,
  "DAYTONA": 10359,
  "rr": 10360,
  "ĠPyrr": 10361,
  "ĠPyrrhulox": 10362,
  "ĠPyrrhuloxia": 10363,
  "ĠEchinace": 10364,
  "ĠEchinacea": 10365,
  "Ġpanhandle": 10366,
  "Ġpolypropylene": 10367,
  "CACAO": 10368,
  "ICARAGUA": 10369,
  "ĠNICARAGUA": 10370,
  "Crossing": 10371,
  "ĠDj": 10372,
  "ĠDjoser": 10373,
  "iminating": 10374,
  "Ġeliminating": 10375,
  "Ġgrapevine": 10376,
  "ĠPotted": 10377,
  "hriveled": 10378,
  "shriveled": 10379,
  "ĠAmmolite": 10380,
  "Ġimbedded": 10381,
  "Ġoldsmobile": 10382,
  "Ġdemarcating": 10383,
  "Ġfudge": 10384,
  "vitae": 10385,
  "Ġarbor": 10386,
  "Ġarborvitae": 10387,
  "nual": 10388,
  "Ġannual": 10389,
  "ĠKites": 10390,
  "Ġcymbal": 10391,
  "ĠVien": 10392,
  "ĠVienna": 10393,
  "Ġbridging": 10394,
  "Ġteh": 10395,
  "Ġluminous": 10396,
  "Ġoxeye": 10397,
  "protected": 10398,
  "Ġreign": 10399,
  "Ġpyredoodle": 10400,
  "Ġreview": 10401,
  "unbranded": 10402,
  "accents": 10403,
  "Ġanxiously": 10404,
  "Ġfireball": 10405,
  "Ġpotteries": 10406,
  "Ninja": 10407,
  "ĠNey": 10408,
  "Ġustulata": 10409,
  ",?": 10410,
  ",?.\"": 10411,
  "Ġcartoonlike": 10412,
  "MARNELLI": 10413,
  "Ġsoundly": 10414,
  "REGORYS": 10415,
  "GREGORYS": 10416,
  "Ġsnowcaps": 10417,
  "ĠWo": 10418,
  "ĠWoven": 10419,
  "398": 10420,
  "Years": 10421,
  "Ġfarnacea": 10422,
  "Zeg": 10423,
  "Blaze": 10424,
  "Ġtrousers": 10425,
  "2502": 10426,
  "INTERMISSION": 10427,
  "Zero": 10428,
  "Ġâ": 10429,
  "Ĵ\"": 10430,
  "ĨĴ\"": 10431,
  "ĠâĨĴ\"": 10432,
  "pipe": 10433,
  "Ġstandpipe": 10434,
  "fighter": 10435,
  "Ġbullfighter": 10436,
  "Pla": 10437,
  "RANDIO": 10438,
  "CORRIDA": 10439,
  "avs": 10440,
  "avsTor": 10441,
  "ĠPUERTA": 10442,
  "ĠSANCHE": 10443,
  "ĠSANCHEZ": 10444,
  "ĠJAVIER": 10445,
  "OUE": 10446,
  "OUEZ": 10447,
  "ZOUEZ": 10448,
  "ĠVAZOUEZ": 10449,
  "MOS": 10450,
  "ĠRMOS": 10451,
  "Ġx5": 10452,
  "Ġbism": 10453,
  "Ġbismuth": 10454,
  "Ġstays": 10455,
  "TX5": 10456,
  "Ġadventure": 10457,
  "Ġsteady": 10458,
  "Ġ622": 10459,
  "Ġtailpipes": 10460,
  "ĠSEEKERS": 10461,
  "ĠCORN": 10462,
  "Ġdiagnol": 10463,
  "ĠRAMP": 10464,
  "ĠUNLOADING": 10465,
  "RUIT": 10466,
  "RAPEFRUIT": 10467,
  "ĠGRAPEFRUIT": 10468,
  "ĠVODKA": 10469,
  "Ġordinary": 10470,
  "XO": 10471,
  "Painted": 10472,
  "Mush": 10473,
  "Mushroom": 10474,
  "Ul": 10475,
  "Ulm": 10476,
  "Ulmus": 10477,
  "ĠRoad": 10478,
  "Ġwherever": 10479,
  "EE": 10480,
  "BEEEEEP": 10481,
  "chinstrap": 10482,
  "4K": 10483,
  "KAWASAK": 10484,
  "KAWASAKI": 10485,
  "Ġjellybe": 10486,
  "Ġjellybeans": 10487,
  "HL": 10488,
  "DHL": 10489,
  "Ġpitted": 10490,
  "Ġhornbeam": 10491,
  "Ġinosculation": 10492,
  "phologically": 10493,
  "Ġmorphologically": 10494,
  "Kipo": 10495,
  "Ġcowardly": 10496,
  "ĠBallad": 10497,
  "ĠNewton": 10498,
  "ĠBluff": 10499,
  "NOVEL": 10500,
  "FOCUS": 10501,
  "Ġsilouhet": 10502,
  "Ġsilouhetted": 10503,
  "Ġvariances": 10504,
  "ivia": 10505,
  "ĠOl": 10506,
  "ĠOlivia": 10507,
  "Ġredder": 10508,
  "ĠRichard": 10509,
  "Ġpreserved": 10510,
  "INTRODUCTION": 10511,
  "ASTERN": 10512,
  "EASTERN": 10513,
  "Ġcoonhound": 10514,
  "BLUETICK": 10515,
  "ĠCOON": 10516,
  "ĠCOONHOUND": 10517,
  "ĠCATFISH": 10518,
  "Ġml": 10519,
  "Ġliqueur": 10520,
  "LUX": 10521,
  "LUXARDO": 10522,
  "TRIPLUM": 10523,
  "ĠORANGE": 10524,
  "ĠLuxardo": 10525,
  "ĠENTERTAINME": 10526,
  "ĠAppleyard": 10527,
  "EXCAVATOR": 10528,
  "ĠIsamu": 10529,
  "Ġscarc": 10530,
  "Ġscarcity": 10531,
  "ĠeT": 10532,
  "ĠeTron": 10533,
  "Mrs": 10534,
  "ĠJOHNSON": 10535,
  "ĠGLIT": 10536,
  "ĠGLITTERS": 10537,
  "Ġforlor": 10538,
  "nly": 10539,
  "Ġforlornly": 10540,
  "Get": 10541,
  "HIBITS": 10542,
  "EXHIBITS": 10543,
  "eia": 10544,
  "Ġonomatopoeia": 10545,
  "Skyline": 10546,
  "ĠLever": 10547,
  "ĠSeagram": 10548,
  "ĠCBS": 10549,
  "ĠSailors": 10550,
  "ĠTerm": 10551,
  "ĠTerminal": 10552,
  "ĠHORRI": 10553,
  "ĠHORRIBLE": 10554,
  "ĠIDEA": 10555,
  "ĠSnowy": 10556,
  "ĠSpread": 10557,
  "EXCALIBUR": 10558,
  "ĠTut": 10559,
  "ĠSar": 10560,
  "ĠSarcophagus": 10561,
  "Ġnervously": 10562,
  "ĠDecoration": 10563,
  "Ġconsume": 10564,
  "ĠFormica": 10565,
  "blind": 10566,
  "D8": 10567,
  "ĠESD8": 10568,
  "804": 10569,
  "ĠACTIVATE": 10570,
  "/\"": 10571,
  "''/\"": 10572,
  "INDIAN": 10573,
  "ĠSCOUT": 10574,
  "ĠBeignet": 10575,
  "Karat": 10576,
  "1966": 10577,
  "ĠPeperomia": 10578,
  "Ġ710": 10579,
  "ĠFRAMES": 10580,
  "Ġnewbor": 10581,
  "Ġnewborn": 10582,
  "belts": 10583,
  "Ġseatbelts": 10584,
  "diving": 10585,
  "ĠAntique": 10586,
  "ĠEarly": 10587,
  "KI": 10588,
  "ĠPUZZLE": 10589,
  "Ġsundry": 10590,
  "Ġenrich": 10591,
  "Ġ2d": 10592,
  "NIMO": 10593,
  "aND": 10594,
  "aNDa": 10595,
  "MaNDa": 10596,
  "ĠLogget": 10597,
  "ĠLoggetta": 10598,
  "ĠSansovino": 10599,
  "ĠSections": 10600,
  "Ġfrescoes": 10601,
  "Ġwhatever": 10602,
  "ĠCleopatras": 10603,
  "arivalaya": 10604,
  "ĠNarivalaya": 10605,
  "antra": 10606,
  "ĠYantra": 10607,
  "ĠVacations": 10608,
  "ĠVolr": 10609,
  "ĠVolrton": 10610,
  "WR": 10611,
  "Ġtench": 10612,
  "Rio": 10613,
  "CRAW": 10614,
  "CRAWFISH": 10615,
  "Ġplatycladus": 10616,
  "ĠRETURNS": 10617,
  "ĠSHOES": 10618,
  "ĠRACQUETS": 10619,
  "ĠOlympian": 10620,
  "Ġ1968": 10621,
  "Gum": 10622,
  "ĠBumelia": 10623,
  "Bumel": 10624,
  "Bumelia": 10625,
  "Ġlanuginosa": 10626,
  "Ġunw": 10627,
  "Ġunwashed": 10628,
  "ĠUKRAINE": 10629,
  "ĠSUPPLIED": 10630,
  "CLEARANCE": 10631,
  "puffy": 10632,
  "ĠBABY": 10633,
  "REPUBLIC": 10634,
  "MAXIM": 10635,
  "MAXIMUM": 10636,
  "Ġglide": 10637,
  "enj": 10638,
  "enjoy": 10639,
  "ĠMiel": 10640,
  "ZR1": 10641,
  "ĠAIRWAYS": 10642,
  "Ġintercom": 10643,
  "ĠZiggy": 10644,
  "ĠStardust": 10645,
  "ĠGreenbacks": 10646,
  "Ġigloo": 10647,
  "Chill": 10648,
  "ĠPOSSE": 10649,
  "spiked": 10650,
  "fs": 10651,
  "Ġdwarfs": 10652,
  "ĠLying": 10653,
  "Ġquack": 10654,
  "DRINKWELL": 10655,
  "Jimmy": 10656,
  "ĠKim": 10657,
  "ĠKimmel": 10658,
  "Ġbluebelle": 10659,
  "Ġshyly": 10660,
  "ahres": 10661,
  "ĠJahres": 10662,
  "ublisher": 10663,
  "Ġpublisher": 10664,
  "Ġidentifier": 10665,
  "Ġknockdown": 10666,
  "ĠHuracon": 10667,
  "comfortably": 10668,
  "Ġuncomfortably": 10669,
  "RUMPUS": 10670,
  "BUDGET": 10671,
  "MCM": 10672,
  "ĠKingdom": 10673,
  "ĠMichaelmas": 10674,
  "ĠVolcano": 10675,
  "Ġbreaching": 10676,
  "Ġsimulate": 10677,
  "Ġoasis": 10678,
  "bleau": 10679,
  "ĠFontainebleau": 10680,
  "ĠStirling": 10681,
  "ĠClub": 10682,
  "461": 10683,
  "Human": 10684,
  "ĠVOLTAGE": 10685,
  "Ġtransgender": 10686,
  "ĠJenga": 10687,
  "Apple": 10688,
  "Ġblockbuster": 10689,
  "ĠADJ": 10690,
  "ĠADJACENT": 10691,
  "Ġ302": 10692,
  "4000": 10693,
  "LN": 10694,
  "Ġsillohuette": 10695,
  "Ġbluefish": 10696,
  "opcorn": 10697,
  "Popcorn": 10698,
  "ĠTHROUGH": 10699,
  ",\"$\"": 10700,
  "noel": 10701,
  "16x2": 10702,
  "CROOK": 10703,
  "ĠXK": 10704,
  "ĠXK8": 10705,
  "Ġtry": 10706,
  "Ġmutton": 10707,
  "Ġnelumbo": 10708,
  "cifera": 10709,
  "Ġnecifera": 10710,
  "Ġseval": 10711,
  "wpangina": 10712,
  "wp": 10713,
  "Ġaccumulate": 10714,
  "TEACHER": 10715,
  "ĠMONTH": 10716,
  "Ġebony": 10717,
  "Ġjewelwing": 10718,
  "ĠDarling": 10719,
  "ECUTIVE": 10720,
  "EXECUTIVE": 10721,
  "hollywood": 10722,
  "PTNESS": 10723,
  "PROMPTNESS": 10724,
  "cove": 10725,
  "ĠAlcove": 10726,
  "STACKTRAIN": 10727,
  "ĠIntricate": 10728,
  "Ġadjusting": 10729,
  "ĠiX": 10730,
  "Ġi4": 10731,
  "ufacturer": 10732,
  "Ġmanufacturer": 10733,
  "ĠWhitney": 10734,
  "Decorated": 10735,
  "Ġunblocked": 10736,
  "Ġfingernail": 10737,
  "mtb": 10738,
  "Ġfrizzy": 10739,
  "Ġmunicipal": 10740,
  "Ġsmartphone": 10741,
  "CARLIS": 10742,
  "CARLISLE": 10743,
  "ĠPICNIC": 10744,
  "Ġprecariously": 10745,
  "HERMES": 10746,
  "ĠL1707": 10747,
  "ĠL1707S": 10748,
  "VBS": 10749,
  "ĠL1707SVBS": 10750,
  "three": 10751,
  "ĠJUICE": 10752,
  "SCOUT": 10753,
  "dozen": 10754,
  "FLOUR": 10755,
  "Ġtv": 10756,
  "ĠEXACT": 10757,
  "Ġdemonstrates": 10758,
  "Â¾": 10759,
  "ĠÂ¾": 10760,
  "PUB": 10761,
  "247": 10762,
  "MOY": 10763,
  "ĠZ3": 10764,
  "Z3": 10765,
  "Ġlocust": 10766,
  "Ġsugilite": 10767,
  "Ġfeasting": 10768,
  "PEANUT": 10769,
  "ĠBUTTER": 10770,
  "Ġderby": 10771,
  "Ġsoar": 10772,
  "Ġecar": 10773,
  "ĠEleven": 10774,
  "Ġtopography": 10775,
  "ĠBaby": 10776,
  "ĠGARBAGE": 10777,
  "ĠMDX": 10778,
  "ĠPelecan": 10779,
  "ĠPelecanus": 10780,
  "Ġscrubber": 10781,
  "ĠColumbia": 10782,
  "ĠSalmon": 10783,
  "ĠCOLUMBIA": 10784,
  "Ġvoltage": 10785,
  "JOUSTiNG": 10786,
  "Ġsideview": 10787,
  "94": 10788,
  "GRAY": 10789,
  "938": 10790,
  "MR": 10791,
  "spire": 10792,
  "lively": 10793,
  "Ġreadj": 10794,
  "Ġreadjusting": 10795,
  "Ġplumbers": 10796,
  "LAB": 10797,
  "ĠSLAB": 10798,
  "Ġdrastically": 10799,
  "PLANTING": 10800,
  "Ġrudbe": 10801,
  "Ġrudbeckia": 10802,
  "Ġfulg": 10803,
  "Ġfulgida": 10804,
  "CRUDE": 10805,
  "ĠVihart": 10806,
  "ĠKinesis": 10807,
  "vantage2": 10808,
  "ĠAdvantage2": 10809,
  "ĠBoulevard": 10810,
  "Ġdissolves": 10811,
  "3RD": 10812,
  "TOE": 10813,
  "Ġcabriole": 10814,
  "Ġcolonnade": 10815,
  "weave": 10816,
  "Ġbasketweave": 10817,
  "Seabear": 10818,
  "Ġgulch": 10819,
  "Ġarmbands": 10820,
  "Ġtrashbins": 10821,
  "Ġleftt": 10822,
  "Ġblotchy": 10823,
  "ĠArmy": 10824,
  "ĠVH": 10825,
  "1726": 10826,
  "71726": 10827,
  "ĠSohmer": 10828,
  "ĠXU": 10829,
  "ĠXUV": 10830,
  "25M": 10831,
  "Ġ825M": 10832,
  "ĠS4": 10833,
  "ĠRAV4": 10834,
  "ĠCOWGIRLS": 10835,
  "COWGIRLS": 10836,
  "ĠGOTTA": 10837,
  "Ġmuddied": 10838,
  "CKY": 10839,
  "LUCKY": 10840,
  "IBER": 10841,
  "YEA": 10842,
  "ĠBIGGER": 10843,
  "Rhina": 10844,
  "Ġancylostoma": 10845,
  "ĠSheepshead": 10846,
  "ĠBream": 10847,
  "ĠMall": 10848,
  "ĠScreen": 10849,
  "Touchscreen": 10850,
  "ĠIcons": 10851,
  "Ġtouchpad": 10852,
  "DNI": 10853,
  "JAMIS": 10854,
  "Ġxox": 10855,
  "Ġxoxox": 10856,
  "oxox": 10857,
  "oxx": 10858,
  "Ġxoxoxoxoxx": 10859,
  "N167": 10860,
  "N1675": 10861,
  "N1675J": 10862,
  "Ġokapi": 10863,
  "Ġneglected": 10864,
  "Ġdestructed": 10865,
  "BASKETBALL": 10866,
  "COUNSELOR": 10867,
  "ĠBluish": 10868,
  "lub": 10869,
  "Club": 10870,
  "Ġscarves": 10871,
  "MP": 10872,
  "MPC": 10873,
  "Ġcosmic": 10874,
  "Ġdigit": 10875,
  "ĠYaris": 10876,
  "Ġsplays": 10877,
  "Ġsolidly": 10878,
  "¡n": 10879,
  "uracÃ": 10880,
  "uracÃ¡n": 10881,
  "ĠHuracÃ¡n": 10882,
  "Ġsupposedly": 10883,
  "ĠBOURBON": 10884,
  "Elevator": 10885,
  "2186": 10886,
  "MTA": 10887,
  "Ġcosmo": 10888,
  "Ġmacbook": 10889,
  "Abacus": 10890,
  "Ġslapdash": 10891,
  "Ġhazelnut": 10892,
  "Ġunlevel": 10893,
  "ĠStray": 10894,
  "Ġargyle": 10895,
  "Ġthyme": 10896,
  "INCE": 10897,
  "VINCE": 10898,
  "toxic": 10899,
  "Oak": 10900,
  "ĠKrewe": 10901,
  "Ġridging": 10902,
  "Fee": 10903,
  "Davidson": 10904,
  "HARLEY": 10905,
  "DAVIDSON": 10906,
  "SADDLEMEN": 10907,
  "ĠTraining": 10908,
[...]
