{
  "Ā": 3,
  "ā": 4,
  "Ă": 5,
  "ă": 6,
  "Ą": 7,
  "ą": 8,
  "Ć": 9,
  "ć": 10,
  "Ĉ": 11,
  "ĉ": 12,
  "Ċ": 13,
  "ċ": 14,
  "Č": 15,
  "č": 16,
  "Ď": 17,
  "ď": 18,
  "Đ": 19,
  "đ": 20,
  "Ē": 21,
  "ē": 22,
  "Ĕ": 23,
  "ĕ": 24,
  "Ė": 25,
  "ė": 26,
  "Ę": 27,
  "ę": 28,
  "Ě": 29,
  "ě": 30,
  "Ĝ": 31,
  "ĝ": 32,
  "Ğ": 33,
  "ğ": 34,
  "Ġ": 35,
  "!": 36,
  "\"": 37,
  "#": 38,
  "$": 39,
  "%": 40,
  "&": 41,
  "'": 42,
  "(": 43,
  ")": 44,
  "*": 45,
  "+": 46,
  ",": 47,
  "-": 48,
  ".": 49,
  "/": 50,
  "0": 51,
  "1": 52,
  "2": 53,
  "3": 54,
  "4": 55,
  "5": 56,
  "6": 57,
  "7": 58,
  "8": 59,
  "9": 60,
  ":": 61,
  ";": 62,
  "<": 63,
  "=": 64,
  ">": 65,
  "?": 66,
  "@": 67,
  "A": 68,
  "B": 69,
  "C": 70,
  "D": 71,
  "E": 72,
  "F": 73,
  "G": 74,
  "H": 75,
  "I": 76,
  "J": 77,
  "K": 78,
  "L": 79,
  "M": 80,
  "N": 81,
  "O": 82,
  "P": 83,
  "Q": 84,
  "R": 85,
  "S": 86,
  "T": 87,
  "U": 88,
  "V": 89,
  "W": 90,
  "X": 91,
  "Y": 92,
  "Z": 93,
  "[": 94,
  "\\": 95,
  "]": 96,
  "^": 97,
  "_": 98,
  "`": 99,
  "a": 100,
  "b": 101,
  "c": 102,
  "d": 103,
  "e": 104,
  "f": 105,
  "g": 106,
  "h": 107,
  "i": 108,
  "j": 109,
  "k": 110,
  "l": 111,
  "m": 112,
  "n": 113,
  "o": 114,
  "p": 115,
  "q": 116,
  "r": 117,
  "s": 118,
  "t": 119,
  "u": 120,
  "v": 121,
  "w": 122,
  "x": 123,
  "y": 124,
  "z": 125,
  "{": 126,
  "|": 127,
  "}": 128,
  "~": 129,
  "ġ": 130,
  "Ģ": 131,
  "ģ": 132,
  "Ĥ": 133,
  "ĥ": 134,
  "Ħ": 135,
  "ħ": 136,
  "Ĩ": 137,
  "ĩ": 138,
  "Ī": 139,
  "ī": 140,
  "Ĭ": 141,
  "ĭ": 142,
  "Į": 143,
  "į": 144,
  "İ": 145,
  "ı": 146,
  "Ĳ": 147,
  "ĳ": 148,
  "Ĵ": 149,
  "ĵ": 150,
  "Ķ": 151,
  "ķ": 152,
  "ĸ": 153,
  "Ĺ": 154,
  "ĺ": 155,
  "Ļ": 156,
  "ļ": 157,
  "Ľ": 158,
  "ľ": 159,
  "Ŀ": 160,
  "ŀ": 161,
  "Ł": 162,
  "ł": 163,
  "¡": 164,
  "¢": 165,
  "£": 166,
  "¤": 167,
  "¥": 168,
  "¦": 169,
  "§": 170,
  "¨": 171,
  "©": 172,
  "ª": 173,
  "«": 174,
  "¬": 175,
  "Ń": 176,
  "®": 177,
  "¯": 178,
  "°": 179,
  "±": 180,
  "²": 181,
  "³": 182,
  "´": 183,
  "µ": 184,
  "¶": 185,
  "·": 186,
  "¸": 187,
  "¹": 188,
  "º": 189,
  "»": 190,
  "¼": 191,
  "½": 192,
  "¾": 193,
  "¿": 194,
  "À": 195,
  "Á": 196,
  "Â": 197,
  "Ã": 198,
  "Ä": 199,
  "Å": 200,
  "Æ": 201,
  "Ç": 202,
  "È": 203,
  "É": 204,
  "Ê": 205,
  "Ë": 206,
  "Ì": 207,
  "Í": 208,
  "Î": 209,
  "Ï": 210,
  "Ð": 211,
  "Ñ": 212,
  "Ò": 213,
  "Ó": 214,
  "Ô": 215,
  "Õ": 216,
  "Ö": 217,
  "×": 218,
  "Ø": 219,
  "Ù": 220,
  "Ú": 221,
  "Û": 222,
  "Ü": 223,
  "Ý": 224,
  "Þ": 225,
  "ß": 226,
  "à": 227,
  "á": 228,
  "â": 229,
  "ã": 230,
  "ä": 231,
  "å": 232,
  "æ": 233,
  "ç": 234,
  "è": 235,
  "é": 236,
  "ê": 237,
  "ë": 238,
  "ì": 239,
  "í": 240,
  "î": 241,
  "ï": 242,
  "ð": 243,
  "ñ": 244,
  "ò": 245,
  "ó": 246,
  "ô": 247,
  "õ": 248,
  "ö": 249,
  "÷": 250,
  "ø": 251,
  "ù": 252,
  "ú": 253,
  "û": 254,
  "ü": 255,
  "ý": 256,
  "þ": 257,
  "ÿ": 258,
  "<pad>": 0,
  "<bos>": 1,
  "<eos>": 2,
  "Ġa": 259,
  "in": 260,
  "Ġw": 261,
  "Ġs": 262,
  "th": 263,
  "ing": 264,
  "Ġo": 265,
  "Ġb": 266,
  "an": 267,
  "er": 268,
  "re": 269,
  "Ġin": 270,
  "hi": 271,
  "Ġth": 272,
  "Ġp": 273,
  "le": 274,
  "Ġthe": 275,
  "ar": 276,
  "Ġc": 277,
  "Ġt": 278,
  "Ġm": 279,
  "ro": 280,
  "Ġand": 281,
  "Ġh": 282,
  "Ġon": 283,
  "is": 284,
  "Ġg": 285,
  "Ġf": 286,
  "la": 287,
  "Ġd": 288,
  "Ġwi": 289,
  "ck": 290,
  "Ġwith": 291,
  "Ġof": 292,
  "un": 293,
  "al": 294,
  "en": 295,
  "at": 296,
  "Ġis": 297,
  "lo": 298,
  "it": 299,
  "Ġst": 300,
  "om": 301,
  "es": 302,
  "Ġman": 303,
  "or": 304,
  "ld": 305,
  "ear": 306,
  "ed": 307,
  "Ġto": 308,
  "ir": 309,
  "et": 310,
  "on": 311,
  "and": 312,
  "id": 313,
  "Ġwear": 314,
  "hirt": 315,
  "Ġwearing": 316,
  "Ġwom": 317,
  "ra": 318,
  "Ġshirt": 319,
  "hite": 320,
  "Ġy": 321,
  "king": 322,
  "Ġwhite": 323,
  "Ġwoman": 324,
  "Ġdo": 325,
  "ts": 326,
  "Ġbo": 327,
  "Ġwhi": 328,
  "ic": 329,
  "lu": 330,
  "op": 331,
  "lack": 332,
  "Ġblack": 333,
  "wo": 334,
  "el": 335,
  "Ġwhile": 336,
  "all": 337,
  "ers": 338,
  "Ġblu": 339,
  "und": 340,
  "Ġba": 341,
  "ch": 342,
  "Ġblue": 343,
  "Ġstand": 344,
  "ge": 345,
  "oun": 346,
  "Ġj": 347,
  "ting": 348,
  "wn": 349,
  "up": 350,
  "Ġn": 351,
  "Ġpla": 352,
  "Ġsh": 353,
  "gh": 354,
  "Ġho": 355,
  "ss": 356,
  "ur": 357,
  "eop": 358,
  "eople": 359,
  "Ġred": 360,
  "ea": 361,
  "Ġco": 362,
  "ide": 363,
  "Ġr": 364,
  "oung": 365,
  "lding": 366,
  "st": 367,
  "Ġlo": 368,
  "Ġpeople": 369,
  "Ġplay": 370,
  "ut": 371,
  "Ġyoung": 372,
  "Ġl": 373,
  "ther": 374,
  "Two": 375,
  "Ġsit": 376,
  "um": 377,
  "irl": 378,
  "Ġstanding": 379,
  "Ġloo": 380,
  "Ġwat": 381,
  "Ġgirl": 382,
  "us": 383,
  "ront": 384,
  "Ġwal": 385,
  "Ġfront": 386,
  "Ġbe": 387,
  "Ġher": 388,
  "Ġback": 389,
  "ce": 390,
  "il": 391,
  "Ġsitting": 392,
  "Th": 393,
  "Ġboy": 394,
  "Ġone": 395,
  "Ġha": 396,
  "ri": 397,
  "Ġdog": 398,
  "low": 399,
  "Ġgra": 400,
  "ver": 401,
  "Ġholding": 402,
  "Ġsm": 403,
  "ard": 404,
  "Ġas": 405,
  "ks": 406,
  "Ġdress": 407,
  "am": 408,
  "reen": 409,
  "Ġpo": 410,
  "ct": 411,
  "Ġmen": 412,
  "ion": 413,
  "Ġstre": 414,
  "Ġdown": 415,
  "Ġgreen": 416,
  "ght": 417,
  "ve": 418,
  "ack": 419,
  "Ġsom": 420,
  "ot": 421,
  "ul": 422,
  "Ġstreet": 423,
  "Ġgro": 424,
  "Ġpa": 425,
  "ground": 426,
  "ke": 427,
  "rown": 428,
  "ree": 429,
  "Ġta": 430,
  "ow": 431,
  "Ġby": 432,
  "Ġgroup": 433,
  "ex": 434,
  "Ġout": 435,
  "se": 436,
  "Ġbrown": 437,
  "ellow": 438,
  "bo": 439,
  "Ġyellow": 440,
  "Ġwater": 441,
  "od": 442,
  "Ġcar": 443,
  "Ġup": 444,
  "Ġwalking": 445,
  "Ġlarge": 446,
  "Ġtwo": 447,
  "Ġbu": 448,
  "ying": 449,
  "im": 450,
  "Ġbackground": 451,
  "tle": 452,
  "Ġwh": 453,
  "Ġk": 454,
  "orm": 455,
  "Ġsw": 456,
  "ay": 457,
  "if": 458,
  "em": 459,
  "Ġlooking": 460,
  "ly": 461,
  "Ġfrom": 462,
  "one": 463,
  "Ġside": 464,
  "Ġsk": 465,
  "uit": 466,
  "to": 467,
  "Ġover": 468,
  "ext": 469,
  "Ġanother": 470,
  "ig": 471,
  "ain": 472,
  "ping": 473,
  "Ġfo": 474,
  "Ġjacket": 475,
  "ugh": 476,
  "ent": 477,
  "Ġrun": 478,
  "The": 479,
  "erson": 480,
  "Ġsp": 481,
  "An": 482,
  "Ġthat": 483,
  "Ġtheir": 484,
  "Ġnext": 485,
  "Ġlit": 486,
  "ble": 487,
  "Ġshor": 488,
  "Ġbuilding": 489,
  "Ġsome": 490,
  "hind": 491,
  "Ġbehind": 492,
  "air": 493,
  "Ġperson": 494,
  "rough": 495,
  "ad": 496,
  "Ġthrough": 497,
  "Ġsn": 498,
  "Ġorange": 499,
  "Ġpin": 500,
  "Ġlittle": 501,
  "Ġwomen": 502,
  "ol": 503,
  "ball": 504,
  "lasses": 505,
  "Ġjum": 506,
  "ian": 507,
  "ap": 508,
  "Ġsmall": 509,
  "Ġcam": 510,
  "Ġjean": 511,
  "Ġpink": 512,
  "Ġit": 513,
  "Ġstands": 514,
  "Ġpants": 515,
  "Ġnear": 516,
  "yc": 517,
  "Ġfa": 518,
  "Ġoutside": 519,
  "Ġinto": 520,
  "ĠA": 521,
  "Ġsnow": 522,
  "Ġgrass": 523,
  "ning": 524,
  "Ġjeans": 525,
  "Ġv": 526,
  "ike": 527,
  "Ġshorts": 528,
  "Three": 529,
  "Ġhas": 530,
  "Ġwa": 531,
  "Ġhead": 532,
  "ie": 533,
  "Ġma": 534,
  "Ġun": 535,
  "Ġchildren": 536,
  "ru": 537,
  "ped": 538,
  "Ġlooks": 539,
  "rowd": 540,
  "ark": 541,
  "Ġcrowd": 542,
  "Ġmo": 543,
  "Ġsun": 544,
  "Ġe": 545,
  "Ġtable": 546,
  "rying": 547,
  "Ġcamera": 548,
  "hone": 549,
  "Ġdark": 550,
  "alk": 551,
  "Ġrunning": 552,
  "board": 553,
  "Ġsc": 554,
  "walk": 555,
  "Ġsur": 556,
  "Ġoff": 557,
  "ter": 558,
  "Ġsho": 559,
  "Ġstri": 560,
  "Ġso": 561,
  "Ġfield": 562,
  "iling": 563,
  "ving": 564,
  "age": 565,
  "way": 566,
  "qu": 567,
  "lond": 568,
  "Ġlong": 569,
  "ling": 570,
  "'s": 571,
  "tain": 572,
  "Ġsidewalk": 573,
  "Ġwood": 574,
  "Ġhel": 575,
  "iform": 576,
  "Ġblond": 577,
  "Ġuniform": 578,
  "Ġmid": 579,
  "by": 580,
  "Ġwho": 581,
  "ip": 582,
  "Ġpict": 583,
  "Ġwatch": 584,
  "Ġpur": 585,
  "Ġolder": 586,
  "Ġriding": 587,
  "ross": 588,
  "form": 589,
  "ud": 590,
  "ction": 591,
  "Ġhe": 592,
  "irt": 593,
  "ycle": 594,
  "ne": 595,
  "shirt": 596,
  "dle": 597,
  "Ġplayer": 598,
  "ate": 599,
  "Ġjumping": 600,
  "ity": 601,
  "cing": 602,
  "Ġgo": 603,
  "Ġper": 604,
  "ive": 605,
  "ep": 606,
  "Ġglasses": 607,
  "ign": 608,
  "Ġbeach": 609,
  "Ġguit": 610,
  "Ġarm": 611,
  "Ġatt": 612,
  "ff": 613,
  "Ġhands": 614,
  "umb": 615,
  "Ġcap": 616,
  "sian": 617,
  "Ġapp": 618,
  "Ġface": 619,
  "Ġbic": 620,
  "Ġalong": 621,
  "do": 622,
  "Ġpicture": 623,
  "ame": 624,
  "gs": 625,
  "Ġabo": 626,
  "Ġsmiling": 627,
  "Ġholds": 628,
  "Ġcarrying": 629,
  "Ġbike": 630,
  "Ġperform": 631,
  "Ġhelm": 632,
  "Ġguitar": 633,
  "ple": 634,
  "Ġac": 635,
  "Ġgirls": 636,
  "door": 637,
  "Ġsign": 638,
  "Ġcity": 639,
  "Ġmouth": 640,
  "Ġgu": 641,
  "Ġsand": 642,
  "glasses": 643,
  "Ġsoc": 644,
  "Ġpurple": 645,
  "ub": 646,
  "Ġchair": 647,
  "Ġmiddle": 648,
  "Ġsuit": 649,
  "Ġflo": 650,
  "Ġbase": 651,
  "as": 652,
  "Ġtoward": 653,
  "ĠAsian": 654,
  "Ġsoccer": 655,
  "Ġmic": 656,
  "Ġswim": 657,
  "ect": 658,
  "Ġcoat": 659,
  "Ġroad": 660,
  "ish": 661,
  "Ġteam": 662,
  "Ġdan": 663,
  "Ġsunglasses": 664,
  "Ġjump": 665,
  "Ġunder": 666,
  "ation": 667,
  "Ġfem": 668,
  "haired": 669,
  "Ġshe": 670,
  "Ġeach": 671,
  "Ġbench": 672,
  "Ġcl": 673,
  "gg": 674,
  "ft": 675,
  "Ġde": 676,
  "Ġboys": 677,
  "Ġlight": 678,
  "Ġlook": 679,
  "side": 680,
  "Ġhelmet": 681,
  "ry": 682,
  "Man": 683,
  "Ġrock": 684,
  "Ġbeing": 685,
  "Ġmountain": 686,
  "Ġoutdoor": 687,
  "Ġlady": 688,
  "Ġthree": 689,
  "Ġworking": 690,
  "ful": 691,
  "Ġtree": 692,
  "Ġbright": 693,
  "Ġfemale": 694,
  "ted": 695,
  "Ġskate": 696,
  "our": 697,
  "ĠC": 698,
  "Ġ\"": 699,
  "Ġmicrop": 700,
  "Ġph": 701,
  "Ġroom": 702,
  "Ġbaseball": 703,
  "Ġche": 704,
  "Ġguy": 705,
  "Ġbicycle": 706,
  "Ġthey": 707,
  "Ġdirt": 708,
  "Ġfoot": 709,
  "stru": 710,
  "Ġphoto": 711,
  "Ġsurround": 712,
  "Ġtogether": 713,
  "imb": 714,
  "Four": 715,
  "een": 716,
  "Ġfood": 717,
  "Ġwooden": 718,
  "Ġcomp": 719,
  "ĠS": 720,
  "Ġplays": 721,
  "Ġwindow": 722,
  "Ġmicrophone": 723,
  "Ġag": 724,
  "Ġbag": 725,
  "ult": 726,
  "Se": 727,
  "Ġfen": 728,
  "Ġacross": 729,
  "Ġclimb": 730,
  "using": 731,
  "Ġappear": 732,
  "Ġstage": 733,
  "Ġfloor": 734,
  "Ġagain": 735,
  "Ġgame": 736,
  "Ġagainst": 737,
  "Ġseveral": 738,
  "Ġob": 739,
  "Ġskateboard": 740,
  "Ġbaby": 741,
  "struction": 742,
  "Ġdrin": 743,
  "Ġday": 744,
  "Several": 745,
  "Ġmus": 746,
  "Ġsa": 747,
  "Ġten": 748,
  "Ġsweater": 749,
  "Ġpool": 750,
  "Ġusing": 751,
  "Ġsurf": 752,
  "Ġcat": 753,
  "Ġoutf": 754,
  "Ġleft": 755,
  "Ġcovered": 756,
  "lee": 757,
  "People": 758,
  "ment": 759,
  "Ġtaking": 760,
  "Ġbasket": 761,
  "Ġopen": 762,
  "Ġbrick": 763,
  "Ġcolorful": 764,
  "Ġconstruction": 765,
  "Ġboat": 766,
  "Ġmusic": 767,
  "Ġpie": 768,
  "oking": 769,
  "Ġsurrounded": 770,
  "ok": 771,
  "Ġwatches": 772,
  "Ġinside": 773,
  "Ġarms": 774,
  "Ġfence": 775,
  "One": 776,
  "os": 777,
  "Ġtank": 778,
  "Ġtenn": 779,
  "Ġtennis": 780,
  "Ġtowards": 781,
  "Ġfe": 782,
  "Ġdis": 783,
  "Ġwhat": 784,
  "ee": 785,
  "Ġtra": 786,
  "ach": 787,
  "Ġbackp": 788,
  "ance": 789,
  "Ġbody": 790,
  "Ġjumps": 791,
  "Ġhorse": 792,
  "Ġabout": 793,
  "Ġtoy": 794,
  "als": 795,
  "Ġdoing": 796,
  "ding": 797,
  "Ġshort": 798,
  "Ġswimm": 799,
  "Ġsl": 800,
  "inging": 801,
  "Ġnumb": 802,
  "Ġappears": 803,
  "Ġmotorc": 804,
  "te": 805,
  "Ġshoes": 806,
  "uch": 807,
  "Ġpul": 808,
  "Ġfla": 809,
  "itch": 810,
  "Ġprep": 811,
  "Ġpart": 812,
  "Ġcan": 813,
  "erly": 814,
  "Ġca": 815,
  "Ġfootball": 816,
  "Ġblo": 817,
  "Ġlike": 818,
  "Ġabove": 819,
  "ging": 820,
  "ix": 821,
  "Ġperforming": 822,
  "Ġaway": 823,
  "ds": 824,
  "Ġrace": 825,
  "ous": 826,
  "Ġcross": 827,
  "Ġmany": 828,
  "iv": 829,
  "Ġey": 830,
  "Ġwork": 831,
  "Ġshould": 832,
  "Ġgrassy": 833,
  "Ġumb": 834,
  "Ġumbrel": 835,
  "Ġmet": 836,
  "Ġpiece": 837,
  "Ġelderly": 838,
  "ĠB": 839,
  "Ġtrying": 840,
  "Ġtur": 841,
  "Ġoutfit": 842,
  "Ġline": 843,
  "Ġcouple": 844,
  "Ġruns": 845,
  "Ġclothes": 846,
  "Ġskirt": 847,
  "Ġocean": 848,
  "ue": 849,
  "Ġwhere": 850,
  "ny": 851,
  "Ġbackpack": 852,
  "Ġswimming": 853,
  "ition": 854,
  "arf": 855,
  "ĠM": 856,
  "ruck": 857,
  "Ġdisp": 858,
  "Ġpro": 859,
  "auran": 860,
  "Ġfl": 861,
  "Ġbasketball": 862,
  "der": 863,
  "Ġnumber": 864,
  "Ġrestauran": 865,
  "Ġwaiting": 866,
  "In": 867,
  "Ġbig": 868,
  "ersey": 869,
  "Ġduring": 870,
  "grap": 871,
  "Ġcell": 872,
  "hair": 873,
  "Ġjersey": 874,
  "Ġmetal": 875,
  "slee": 876,
  "Ġsweatshirt": 877,
  "Ġcatch": 878,
  "Ġrestaurant": 879,
  "Ġhill": 880,
  "Ġnearby": 881,
  "graph": 882,
  "Ġdrum": 883,
  "Ġsky": 884,
  "Ġplaid": 885,
  "Ġpaper": 886,
  "Ġuniforms": 887,
  "Ġbusy": 888,
  "Ġcellp": 889,
  "Ġthrow": 890,
  "Ġglo": 891,
  "Ġpoin": 892,
  "Young": 893,
  "Ġhave": 894,
  "Ġmaking": 895,
  "ween": 896,
  "Ġplastic": 897,
  "Ġopp": 898,
  "Ġbox": 899,
  "Ġfil": 900,
  "meric": 901,
  "Ġcostum": 902,
  "Ġbetween": 903,
  "Ġcellphone": 904,
  "Ġphotograph": 905,
  "ial": 906,
  "Ġboots": 907,
  "ject": 908,
  "Ġtruck": 909,
  "Ġstick": 910,
  "Ġbook": 911,
  "sp": 912,
  "Ġice": 913,
  "Ġsinging": 914,
  "ant": 915,
  "ĠT": 916,
  "Ġhanging": 917,
  "Ġattemp": 918,
  "fric": 919,
  "Ġnew": 920,
  "Ġfull": 921,
  "Ġumbrella": 922,
  "Ġconc": 923,
  "Ġclimbing": 924,
  "Ġcur": 925,
  "Ġmotorcycle": 926,
  "frican": 927,
  "Ġspor": 928,
  "merican": 929,
  "Ġsil": 930,
  "Ġstair": 931,
  "ty": 932,
  "itchen": 933,
  "Ġwheel": 934,
  "Ġequ": 935,
  "Ġflowers": 936,
  "Ġconcrete": 937,
  "Ġdistance": 938,
  "ls": 939,
  "Ġforeground": 940,
  "Ġgetting": 941,
  "iew": 942,
  "Ġscarf": 943,
  "Ġhood": 944,
  "jo": 945,
  "Ġkitchen": 946,
  "Ġdancing": 947,
  "boy": 948,
  "Ġpus": 949,
  "ycl": 950,
  "Ġcart": 951,
  "ha": 952,
  "Ġref": 953,
  "Ġlake": 954,
  "Ġequip": 955,
  "iz": 956,
  "mer": 957,
  "raw": 958,
  "Ġart": 959,
  "utting": 960,
  "Ġsmiles": 961,
  "Ġonto": 962,
  "Ġeyes": 963,
  "Ġfire": 964,
  "kin": 965,
  "Ġinc": 966,
  "Ġsub": 967,
  "Ġequipment": 968,
  "Ġcowboy": 969,
  "Ġind": 970,
  "Ġjust": 971,
  "Ġtoddler": 972,
  "Ġsetting": 973,
  "Ġflag": 974,
  "Ġadults": 975,
  "Ġspea": 976,
  "Ġcup": 977,
  "Ġchairs": 978,
  "ome": 979,
  "Ġenjo": 980,
  "Ġdisplay": 981,
  "Ġview": 982,
  "ĠF": 983,
  "Ġgloves": 984,
  "Ġposing": 985,
  "Ġshopping": 986,
  "Ġevent": 987,
  "Ġvehic": 988,
  "Ġrope": 989,
  "Ġsomeone": 990,
  "Ġedge": 991,
  "Ġglass": 992,
  "co": 993,
  "Ġoutdoors": 994,
  "ĠAmerican": 995,
  "Five": 996,
  "Ġsaf": 997,
  "Ġafter": 998,
  "Ġsqu": 999,
  "vy": 1000,
  "Ġadult": 1001,
  "head": 1002,
  "Ġmountains": 1003,
  "Ġapron": 1004,
  "hes": 1005,
  "Ġready": 1006,
  "Ġswing": 1007,
  "ckey": 1008,
  "ffit": 1009,
  "ĠAfrican": 1010,
  "ĠP": 1011,
  "Ġoppos": 1012,
  "Ġgraffit": 1013,
  "Ġobject": 1014,
  "Ġgoing": 1015,
  "Ġpainted": 1016,
  "lic": 1017,
  "room": 1018,
  "Ġnight": 1019,
  "Ġhaving": 1020,
  "Some": 1021,
  "Ġneck": 1022,
  "Ġsafety": 1023,
  "ons": 1024,
  "ber": 1025,
  "Ġmem": 1026,
  "Ġgraffiti": 1027,
  "Ġfilled": 1028,
  "ime": 1029,
  "Ġmake": 1030,
  "ta": 1031,
  "Ġstud": 1032,
  "Ġpub": 1033,
  "Ġmult": 1034,
  "ĠG": 1035,
  "Ġcorner": 1036,
  "Ġsunny": 1037,
  "Ġstruct": 1038,
  "of": 1039,
  "Ġfish": 1040,
  "Ġdrinking": 1041,
  "utiful": 1042,
  "Ġsnowy": 1043,
  "Ġbrid": 1044,
  "Ġcrowded": 1045,
  "ym": 1046,
  "Ġcig": 1047,
  "Ġpublic": 1048,
  "ley": 1049,
  "ium": 1050,
  "Ġvehicle": 1051,
  "Ġbi": 1052,
  "Ġtrick": 1053,
  "Ġsteps": 1054,
  "Ġaud": 1055,
  "ban": 1056,
  "Ġkids": 1057,
  "py": 1058,
  "Ġbeautiful": 1059,
  "Ġflip": 1060,
  "Ġna": 1061,
  "Ġstructure": 1062,
  "Ġbridge": 1063,
  "sleeved": 1064,
  "Ġpainting": 1065,
  "ki": 1066,
  "Ġdiff": 1067,
  "Ġfacing": 1068,
  "Ġbottle": 1069,
  "Ġtakes": 1070,
  "ical": 1071,
  "Ġhu": 1072,
  "Ġdifferent": 1073,
  "Ġsort": 1074,
  "ou": 1075,
  "Ġkn": 1076,
  "ience": 1077,
  "ĠL": 1078,
  "Ġtrun": 1079,
  "Ġinstruments": 1080,
  "Ġlegs": 1081,
  "Ġcigaret": 1082,
  "Ġwave": 1083,
  "ract": 1084,
  "Ġhockey": 1085,
  "Ġpreparing": 1086,
  "Ġmidair": 1087,
  "ĠN": 1088,
  "Ġpurse": 1089,
  "Ġsilver": 1090,
  "arious": 1091,
  "Ġkha": 1092,
  "ool": 1093,
  "Ġsubway": 1094,
  "oman": 1095,
  "Ġfrien": 1096,
  "ĠD": 1097,
  "irc": 1098,
  "Ġracing": 1099,
  "ife": 1100,
  "Ġtatto": 1101,
  "Ġcostume": 1102,
  "Ġsays": 1103,
  "ggles": 1104,
  "Ġtake": 1105,
  "man": 1106,
  "Ġcars": 1107,
  "ectators": 1108,
  "Woman": 1109,
  "Ġno": 1110,
  "Ġonlo": 1111,
  "Ġvis": 1112,
  "Ġ2": 1113,
  "Ġrail": 1114,
  "Ġalso": 1115,
  "Ġcomputer": 1116,
  "Ġgathered": 1117,
  "Ġdrink": 1118,
  "Ġwinter": 1119,
  "Ġcounter": 1120,
  "Ġgym": 1121,
  "Ġblan": 1122,
  "Ġcigarette": 1123,
  "Ġoverlo": 1124,
  "Ġmil": 1125,
  "Ġaudience": 1126,
  "ace": 1127,
  "Ġinstrument": 1128,
  "Ġtie": 1129,
  "ched": 1130,
  "Ġim": 1131,
  "Ġanim": 1132,
  "Ġsports": 1133,
  "Ġlawn": 1134,
  "ivid": 1135,
  "Ġvol": 1136,
  "Ġsplas": 1137,
  "Ġtyp": 1138,
  "Ġstairs": 1139,
  "Ġleaves": 1140,
  "Ġfountain": 1141,
  "Ġspectators": 1142,
  "Ġpointing": 1143,
  "ĠH": 1144,
  "ward": 1145,
  "Ġexp": 1146,
  "Ġfur": 1147,
  "Ġvarious": 1148,
  "fore": 1149,
  "ell": 1150,
  "Ġonlookers": 1151,
  "Ġgril": 1152,
  "Ġkhaki": 1153,
  "leyball": 1154,
  "yclist": 1155,
  "Ġleans": 1156,
  "ded": 1157,
  "ib": 1158,
  "Ġvolleyball": 1159,
  "Ġsmile": 1160,
  "bee": 1161,
  "Ġincluding": 1162,
  "ividu": 1163,
  "Ġputting": 1164,
  "Ġroof": 1165,
  "Ġpaint": 1166,
  "spap": 1167,
  "Ġnewspap": 1168,
  "Ġbefore": 1169,
  "ĠR": 1170,
  "Ġgoggles": 1171,
  "Ġindividu": 1172,
  "risbee": 1173,
  "Ġguys": 1174,
  "Ġplayground": 1175,
  "Ġfew": 1176,
  "ĠW": 1177,
  "Ġlaughing": 1178,
  "ĠE": 1179,
  "Ġcirc": 1180,
  "uff": 1181,
  "Ġbusiness": 1182,
  "Ġdoes": 1183,
  "Ġbrightly": 1184,
  "Ġpulling": 1185,
  "Ġschool": 1186,
  "Ġstrol": 1187,
  "Ġwrap": 1188,
  "Ġconvers": 1189,
  "Ġrocky": 1190,
  "Ġtrunks": 1191,
  "Ġsandals": 1192,
  "be": 1193,
  "Ġcollar": 1194,
  "runette": 1195,
  "Ġpushing": 1196,
  "Ġdesk": 1197,
  "Ġgar": 1198,
  "art": 1199,
  "Ġbucket": 1200,
  "Ġgoal": 1201,
  "Ġscreen": 1202,
  "Ġattempting": 1203,
  "Ġladies": 1204,
  "Ġpile": 1205,
  "Ġramp": 1206,
  "Ġinf": 1207,
  "Ġshowing": 1208,
  "Ġleg": 1209,
  "Ġtype": 1210,
  "Ġdriving": 1211,
  "ĠJ": 1212,
  "az": 1213,
  "Ġelectric": 1214,
  "Ġbrunette": 1215,
  "Ġyard": 1216,
  "Ġitems": 1217,
  "Ġamon": 1218,
  "Ġbowl": 1219,
  "Ġcourt": 1220,
  "Ġwears": 1221,
  "ĠIn": 1222,
  "cope": 1223,
  "Ġsigns": 1224,
  "Ġnewspaper": 1225,
  "Ġpract": 1226,
  "Ġoverlooking": 1227,
  "Ġmusician": 1228,
  "Ġmask": 1229,
  "Ġflower": 1230,
  "Ġtrail": 1231,
  "Ġfamily": 1232,
  "Ġcompet": 1233,
  "Ġ3": 1234,
  "Ġbeige": 1235,
  "Ġcream": 1236,
  "Ġcarries": 1237,
  "Ġcoming": 1238,
  "Ġemp": 1239,
  "Ġblanket": 1240,
  "Ġslide": 1241,
  "Ġlife": 1242,
  "Ġswims": 1243,
  "Ġtries": 1244,
  "Child": 1245,
  "Ġvi": 1246,
  "Ġmartial": 1247,
  "Ġwriting": 1248,
  "Ġattire": 1249,
  "Ġenjoying": 1250,
  "Ġcooking": 1251,
  "go": 1252,
  "Ġfollow": 1253,
  "ump": 1254,
  "Ġprin": 1255,
  "Ġplatform": 1256,
  "Ġstraw": 1257,
  "Ġthrowing": 1258,
  "Ġvegeta": 1259,
  "Ġstatue": 1260,
  "vert": 1261,
  "urban": 1262,
  "fo": 1263,
  "Ġsmoking": 1264,
  "Ġsim": 1265,
  "ĠInd": 1266,
  "Ġcoffee": 1267,
  "Ġsurfboard": 1268,
  "Ġ1": 1269,
  "Ġmud": 1270,
  "Ġbull": 1271,
  "On": 1272,
  "Ġobser": 1273,
  "cap": 1274,
  "Ġwalkway": 1275,
  "Ġbikin": 1276,
  "Ġpassing": 1277,
  "Ġdrums": 1278,
  "Ġmembers": 1279,
  "Ġopposing": 1280,
  "Ġbottom": 1281,
  "Ġthird": 1282,
  "Ġladder": 1283,
  "Ġsup": 1284,
  "Ġcrossing": 1285,
  "Ġdirection": 1286,
  "Ġperforms": 1287,
  "Ġwell": 1288,
  "Ġlistening": 1289,
  "ival": 1290,
  "try": 1291,
  "Ġgrill": 1292,
  "Ġwindows": 1293,
  "Ġadvert": 1294,
  "ouf": 1295,
  "Ġcamouf": 1296,
  "Ġmulticolored": 1297,
  "ew": 1298,
  "Ġhelp": 1299,
  "Ġsusp": 1300,
  "Ġbunch": 1301,
  "vice": 1302,
  "Ġsandy": 1303,
  "sleeve": 1304,
  "Ġbutton": 1305,
  "phones": 1306,
  "ĠO": 1307,
  "Ġsuspen": 1308,
  "Ġturn": 1309,
  "Six": 1310,
  "olin": 1311,
  "Ġviolin": 1312,
  "Ġvisible": 1313,
  "Ġwet": 1314,
  "Ġpatter": 1315,
  "Ġsurface": 1316,
  "Ġmade": 1317,
  "dy": 1318,
  "ort": 1319,
  "Ġvendor": 1320,
  "Ġprotective": 1321,
  "eo": 1322,
  "Ġmatching": 1323,
  "io": 1324,
  "ho": 1325,
  "Men": 1326,
  "Ġdecorated": 1327,
  "Ġprepares": 1328,
  "Ġblock": 1329,
  "Ġ(": 1330,
  "Ġnavy": 1331,
  "Ġspeaking": 1332,
  "Ġwed": 1333,
  "Ġurban": 1334,
  "Ġcamouflage": 1335,
  "Ġloc": 1336,
  "nic": 1337,
  "Ġonly": 1338,
  "Ġconcert": 1339,
  "Ġmir": 1340,
  "itional": 1341,
  "Ġbooth": 1342,
  "Ġbikini": 1343,
  "Ġrodeo": 1344,
  "Ġtattoo": 1345,
  "ys": 1346,
  "Ġseems": 1347,
  "Ġpulled": 1348,
  "Ġbird": 1349,
  "Children": 1350,
  "Ġcolors": 1351,
  "ĠU": 1352,
  "ia": 1353,
  "Ġteams": 1354,
  "estrian": 1355,
  "ĠFrisbee": 1356,
  "Ġqu": 1357,
  "ffic": 1358,
  "Ġbarefo": 1359,
  "ĠIndian": 1360,
  "Ġledge": 1361,
  "Ġgarb": 1362,
  "Ġmed": 1363,
  "Ġgymn": 1364,
  "Ġmilitary": 1365,
  "Ġfix": 1366,
  "Ġfruit": 1367,
  "uck": 1368,
  "Ġlaptop": 1369,
  "Ġfinger": 1370,
  "Ġanimal": 1371,
  "Ġcheckered": 1372,
  "Ġwedding": 1373,
  "Ġcompetition": 1374,
  "Ġhalf": 1375,
  "Ġcont": 1376,
  "Ġstroller": 1377,
  "Ġju": 1378,
  "aya": 1379,
  "Ġpil": 1380,
  "ized": 1381,
  "Ġkaya": 1382,
  "oc": 1383,
  "Ġsurfer": 1384,
  ".\"": 1385,
  "Ġexam": 1386,
  "Ġparade": 1387,
  "Ġamong": 1388,
  "ising": 1389,
  "Ġmirror": 1390,
  "Ġtraditional": 1391,
  "Ġcurly": 1392,
  "Ġdoorway": 1393,
  "Ġwait": 1394,
  "Ġtraffic": 1395,
  "Ġempty": 1396,
  "Ġsimilar": 1397,
  "na": 1398,
  "cape": 1399,
  "Ġballoons": 1400,
  "Ġleash": 1401,
  "ins": 1402,
  "Ġraised": 1403,
  "Ġhoodie": 1404,
  "Ġprodu": 1405,
  "ittle": 1406,
  "Ġchasing": 1407,
  "Ġfive": 1408,
  "Ġcutting": 1409,
  "Ġwrapped": 1410,
  "Ġeither": 1411,
  "gue": 1412,
  "Ġheadphones": 1413,
  "Ġsnowboarder": 1414,
  "Ġtime": 1415,
  "skin": 1416,
  "Ġfun": 1417,
  "Ġponyta": 1418,
  "Ġmeat": 1419,
  "Ġballoon": 1420,
  "uc": 1421,
  "Ġeng": 1422,
  "Ġkey": 1423,
  "ĠCh": 1424,
  "Ġcourse": 1425,
  "Little": 1426,
  "Ġsing": 1427,
  "\".": 1428,
  "skinned": 1429,
  "Ġbrea": 1430,
  "self": 1431,
  "Ġhimself": 1432,
  "Ġshows": 1433,
  "Ġcliff": 1434,
  "light": 1435,
  "Ġtrash": 1436,
  "Ġappro": 1437,
  "Ġvegetables": 1438,
  "Ġspot": 1439,
  "Ġindividuals": 1440,
  "Ġpitch": 1441,
  "road": 1442,
  "Ġbelt": 1443,
  "Ġbrus": 1444,
  "Ġsneakers": 1445,
  "Ġdraw": 1446,
  "Ġfriends": 1447,
  "Ġgiving": 1448,
  "Ġconversation": 1449,
  "Ġcovering": 1450,
  "Ġroller": 1451,
  "Ġgather": 1452,
  "Ġhuge": 1453,
  "Ġstudents": 1454,
  "ture": 1455,
  "ulp": 1456,
  "Ġbanner": 1457,
  "Ġponytail": 1458,
  "Ġdenim": 1459,
  "ag": 1460,
  "Ġattempts": 1461,
  "Ġcut": 1462,
  "Ġknit": 1463,
  "Ġeye": 1464,
  "Ġgolf": 1465,
  "Ġphotographer": 1466,
  "Ġstripes": 1467,
  "Ġopposite": 1468,
  "Ġsculp": 1469,
  "Ġunderneath": 1470,
  "mas": 1471,
  "Ġmoving": 1472,
  "Ġpedestrian": 1473,
  "Ġtongue": 1474,
  "Ġshovel": 1475,
  "Ġfriend": 1476,
  "ual": 1477,
  "Ġmeal": 1478,
  "Ġmatch": 1479,
  "Ġclassroom": 1480,
  "Person": 1481,
  "Ġfig": 1482,
  "Ġcarp": 1483,
  "Ġguitars": 1484,
  "Ġclimbs": 1485,
  "ristmas": 1486,
  "Ġbandan": 1487,
  "Ġwaist": 1488,
  "Ġpup": 1489,
  "ill": 1490,
  "Ġchef": 1491,
  "Ġupside": 1492,
  "Ġstadium": 1493,
  "covered": 1494,
  "Ġdry": 1495,
  "Ġkind": 1496,
  "line": 1497,
  "Ġmustache": 1498,
  "Ġgiant": 1499,
  "Ġpen": 1500,
  "Ġstuff": 1501,
  "Ġbarefoot": 1502,
  "Ġdevice": 1503,
  "Ġbandanna": 1504,
  "Ġgarden": 1505,
  "Ġheavy": 1506,
  "fe": 1507,
  "Ġuses": 1508,
  "Ġpracticing": 1509,
  "Ġbreak": 1510,
  "icip": 1511,
  "Ġ-": 1512,
  "Ġwaving": 1513,
  "Ġmaroon": 1514,
  "cord": 1515,
  "like": 1516,
  "Ġrug": 1517,
  "Ġairp": 1518,
  "per": 1519,
  "Ġpalm": 1520,
  "Ġz": 1521,
  "Ġhoop": 1522,
  "Ġpatterned": 1523,
  "Ġgolden": 1524,
  "Ġsliding": 1525,
  "Ġend": 1526,
  "Ġbra": 1527,
  "ibly": 1528,
  "Ġrelax": 1529,
  "Ġdiving": 1530,
  "fully": 1531,
  "Ġleaps": 1532,
  "cle": 1533,
  "ĠY": 1534,
  "Ġrobe": 1535,
  "Ġblowing": 1536,
  "Ġgrab": 1537,
  "Ġcountry": 1538,
  "Ġmember": 1539,
  "ink": 1540,
  "Ġspray": 1541,
  "ĠI": 1542,
  "Ġemb": 1543,
  "Ġwarm": 1544,
  "Ġspeaks": 1545,
  "Ġsupp": 1546,
  "Ġcob": 1547,
  "ĠK": 1548,
  "Ġteamm": 1549,
  "Ġfin": 1550,
  "Ġmicros": 1551,
  "Ġtw": 1552,
  "Ġmix": 1553,
  "Ġtire": 1554,
  "Ġlandscape": 1555,
  "Ġmove": 1556,
  "ipe": 1557,
  "Ġmakeup": 1558,
  "Ġkeyboard": 1559,
  "ucasian": 1560,
  "Ġgoes": 1561,
  "zz": 1562,
  "Ġvan": 1563,
  "Ġkissing": 1564,
  "cy": 1565,
  "Ġears": 1566,
  "Ġflies": 1567,
  "Ġheadband": 1568,
  "Bo": 1569,
  "Ġstyle": 1570,
  "Ġscooter": 1571,
  "Ġdeck": 1572,
  "Ġimage": 1573,
  "Ġtu": 1574,
  "ĠChristmas": 1575,
  "front": 1576,
  "bric": 1577,
  "Ġfabric": 1578,
  "Ġstun": 1579,
  "Ġstrap": 1580,
  "Ġwetsuit": 1581,
  "case": 1582,
  "Ġwe": 1583,
  "Ġmusicians": 1584,
  "Ġrolling": 1585,
  "Ġcaps": 1586,
  "urch": 1587,
  "Ġprint": 1588,
  "drop": 1589,
  "Ġbackdrop": 1590,
  "Ġhiking": 1591,
  "ade": 1592,
  "ka": 1593,
  "Ġpaved": 1594,
  "ns": 1595,
  "Ġthrows": 1596,
  "Ġcano": 1597,
  "Ġpossibly": 1598,
  "Ġdigging": 1599,
  "Ġreflect": 1600,
  "Ġda": 1601,
  "erman": 1602,
  "artment": 1603,
  "Ġharness": 1604,
  "Ġsax": 1605,
  "Ġartist": 1606,
  "Ġaccord": 1607,
  "Ġexpress": 1608,
  "Ġattention": 1609,
  "Ġcake": 1610,
  "Ġframe": 1611,
  "Ġpoints": 1612,
  "Ġchurch": 1613,
  "Ġlaugh": 1614,
  "Ġmuddy": 1615,
  "Ġmostly": 1616,
  "Ġforward": 1617,
  "Ġcra": 1618,
  "Ġreflective": 1619,
  "Ġbalancing": 1620,
  "Ġaccordion": 1621,
  "Ġbeg": 1622,
  "Ġtops": 1623,
  "hed": 1624,
  "ĠV": 1625,
  "Ġsmoke": 1626,
  "Group": 1627,
  "Ġpolka": 1628,
  "Asian": 1629,
  "Ġpartially": 1630,
  "Ġmicroscope": 1631,
  "uzz": 1632,
  "Ġobsta": 1633,
  "Ġsuspended": 1634,
  "Ġcafe": 1635,
  "Ġceleb": 1636,
  "Ġwashing": 1637,
  "Ġsum": 1638,
  "Ġsquat": 1639,
  "Ġadj": 1640,
  "Ġhammer": 1641,
  "Ġunderw": 1642,
  "Ġ'": 1643,
  "Ġpeace": 1644,
  "Ġpushes": 1645,
  "Ġpic": 1646,
  "Here": 1647,
  "Ġwheelchair": 1648,
  "Ġproject": 1649,
  "yard": 1650,
  "key": 1651,
  "aw": 1652,
  "Ġskiing": 1653,
  "Ġmiss": 1654,
  "Ġjogging": 1655,
  "Ġnecklace": 1656,
  "ĠSp": 1657,
  "Ġsplashing": 1658,
  "Ġsca": 1659,
  "Ġboxes": 1660,
  "bar": 1661,
  "Ġput": 1662,
  "time": 1663,
  "Ġdrummer": 1664,
  "Ġsculpture": 1665,
  "Ġif": 1666,
  "Ġcaught": 1667,
  "irst": 1668,
  "Ġposition": 1669,
  "ac": 1670,
  "Ġmotorb": 1671,
  "At": 1672,
  "Sm": 1673,
  "Ġsquare": 1674,
  "Ġmin": 1675,
  "ips": 1676,
  "Ġtelescope": 1677,
  "Ġahead": 1678,
  "Ġdin": 1679,
  "Ġbubbles": 1680,
  "Ġdaughter": 1681,
  "Ġparticip": 1682,
  "Ġ4": 1683,
  "Ġtramp": 1684,
  "Ġcrosswalk": 1685,
  "Ġslightly": 1686,
  "wh": 1687,
  "Ġguard": 1688,
  "bile": 1689,
  "Ġtunnel": 1690,
  "Ġstunt": 1691,
  "Ġlamp": 1692,
  "her": 1693,
  "Ġcanoe": 1694,
  "Ġheadsc": 1695,
  "iqu": 1696,
  "Ġsecon": 1697,
  "tion": 1698,
  "Ġtrampoline": 1699,
  "Ġinflata": 1700,
  "med": 1701,
  "Ġtrip": 1702,
  "Ġcurb": 1703,
  "Ġsilhouet": 1704,
  "Ġlaund": 1705,
  "Ġbalcony": 1706,
  "Ġleaf": 1707,
  "Ġbubble": 1708,
  "Ġyouth": 1709,
  "Ġpicnic": 1710,
  "Ġpavement": 1711,
  "Ġlab": 1712,
  "Ġbackyard": 1713,
  "Ġcamp": 1714,
  "Ġsurfing": 1715,
  "Ġliqu": 1716,
  "flop": 1717,
  "Ġathlet": 1718,
  "Ġfestival": 1719,
  "Ġevery": 1720,
  "Ġkayak": 1721,
  "Ġgarbage": 1722,
  "Ġsnows": 1723,
  "Ġnarrow": 1724,
  "ritten": 1725,
  "rench": 1726,
  "Ġenjoy": 1727,
  "Ġfunny": 1728,
  "Ġhappy": 1729,
  "Ġpond": 1730,
  "Ġbending": 1731,
  "Ġsaxop": 1732,
  "Ġsecond": 1733,
  "Ġinflatable": 1734,
  "nival": 1735,
  "Ġathletic": 1736,
  "Ġdrives": 1737,
  "Ġfigure": 1738,
  "Ġ5": 1739,
  "Ġrunner": 1740,
  "Ġdesert": 1741,
  "Ġwritten": 1742,
  "Ġexc": 1743,
  "Ġsquatting": 1744,
  "back": 1745,
  "Ġsaxophone": 1746,
  "zen": 1747,
  "Ġcarnival": 1748,
  "Ġpaj": 1749,
  "ggling": 1750,
  "Ġlog": 1751,
  "Ġinfant": 1752,
  "ics": 1753,
  "Ġoverhead": 1754,
  "ĠCa": 1755,
  "Ġcrying": 1756,
  "Ġhorizon": 1757,
  "Ġbackwards": 1758,
  "Ġopponent": 1759,
  "Ġceiling": 1760,
  "Ġhangs": 1761,
  "Ġsingle": 1762,
  "Ġbroom": 1763,
  "Ġhugging": 1764,
  "Ġsix": 1765,
  "Ġdrawing": 1766,
  "Ġadvertisement": 1767,
  "Ġtowel": 1768,
  "bing": 1769,
  "Ġmissing": 1770,
  "iano": 1771,
  "Ġgives": 1772,
  "ork": 1773,
  "Ġobserving": 1774,
  "oon": 1775,
  "Ġgravel": 1776,
  "dling": 1777,
  "Ġlugg": 1778,
  "Ġluggage": 1779,
  "Ġrailroad": 1780,
  "rey": 1781,
  "Ġgaz": 1782,
  "Ġmural": 1783,
  "Ġfixing": 1784,
  "Ġyou": 1785,
  "Ġliving": 1786,
  "Ġpaddle": 1787,
  "Ġsec": 1788,
  "Ġsummer": 1789,
  "flops": 1790,
  "Black": 1791,
  "Ġtight": 1792,
  "Ġpud": 1793,
  "Ġacoustic": 1794,
  "ky": 1795,
  "Ġlies": 1796,
  "Ġprofessional": 1797,
  "Ġpuppy": 1798,
  "Ġbeverage": 1799,
  "lit": 1800,
  "Ġwind": 1801,
  "Ġtrim": 1802,
  "Ġraising": 1803,
  "Ġsweeping": 1804,
  "Ġfirst": 1805,
  "lish": 1806,
  "Ġexer": 1807,
  "Ġpret": 1808,
  "Ġmarching": 1809,
  "Ġstra": 1810,
  "Ġcarpet": 1811,
  "ĠNew": 1812,
  "Ġpiano": 1813,
  "Ġentrance": 1814,
  "inning": 1815,
  "Ġfloating": 1816,
  "ull": 1817,
  "While": 1818,
  "Ġheadscarf": 1819,
  "Ġliquid": 1820,
  "Ġhapp": 1821,
  "Ġexpression": 1822,
  "Ġpodium": 1823,
  "Ġmotorbike": 1824,
  "resh": 1825,
  "Ġmotocross": 1826,
  "Ġpajamas": 1827,
  "Ġswimsuit": 1828,
  "ab": 1829,
  "Ġdriver": 1830,
  "Ġshooting": 1831,
  "Women": 1832,
  "Ġintent": 1833,
  "Ġbushes": 1834,
  "Ġpig": 1835,
  "Ġwords": 1836,
  "amp": 1837,
  "Ġconversing": 1838,
  "Ġspread": 1839,
  "Ġmultiple": 1840,
  "Ġprepare": 1841,
  "Ġpipe": 1842,
  "gle": 1843,
  "Ġshoe": 1844,
  "Ġexerc": 1845,
  "Small": 1846,
  "Ġracetrack": 1847,
  "Ġcontrol": 1848,
  "Ġairplane": 1849,
  "Ġcover": 1850,
  "apanese": 1851,
  "gth": 1852,
  "Ġword": 1853,
  "Ġintently": 1854,
  "Ġtax": 1855,
  "Ġscaffolding": 1856,
  "Ġoutstret": 1857,
  "Ġmagaz": 1858,
  "Ġdemonst": 1859,
  "Ġinclud": 1860,
  "Ġme": 1861,
  "Ġrugby": 1862,
  "we": 1863,
  "Ġpet": 1864,
  "Ġsewing": 1865,
  "Ġstraight": 1866,
  "ĠYork": 1867,
  "Ġcond": 1868,
  "Ġplaza": 1869,
  "Ġformal": 1870,
  "Ġfiref": 1871,
  "Ġrec": 1872,
  "Ġshaving": 1873,
  "Ġoutstretched": 1874,
  "lin": 1875,
  "Ġdinner": 1876,
  "Ġpun": 1877,
  "Girl": 1878,
  "Ġpatio": 1879,
  "Ġorder": 1880,
  "Ġpuck": 1881,
  "cuss": 1882,
  "lies": 1883,
  "Ġgood": 1884,
  "Ġcasual": 1885,
  "selves": 1886,
  "Ġthemselves": 1887,
  "Ġdust": 1888,
  "Ġcobblestone": 1889,
  "Ġjumpsuit": 1890,
  "Ġpre": 1891,
  "Ġboxing": 1892,
  "Ġcrew": 1893,
  "Ġbouquet": 1894,
  "Ġrainbow": 1895,
  "Ġbars": 1896,
  "Ġgate": 1897,
  "Ġchecking": 1898,
  "Ġintersection": 1899,
  "restling": 1900,
  "Ġwrestling": 1901,
  "Ġtrump": 1902,
  "Ġamidst": 1903,
  "Ġsoldier": 1904,
  "Ġneigh": 1905,
  "hood": 1906,
  "Ġcardboard": 1907,
  "Ġfresh": 1908,
  "Ġinter": 1909,
  "Ġuse": 1910,
  "Ġgentlemen": 1911,
  "Ġsail": 1912,
  "fall": 1913,
  "Ġrollerb": 1914,
  "ilt": 1915,
  "Ġcrouches": 1916,
  "Ġrubber": 1917,
  "Ġlaundry": 1918,
  "bag": 1919,
  "Ġident": 1920,
  "Ġlocal": 1921,
  "Ġstill": 1922,
  "Ġrolled": 1923,
  "tails": 1924,
  "American": 1925,
  "ĠSanta": 1926,
  "Ġcomm": 1927,
  "Ġhitting": 1928,
  "Ġbrush": 1929,
  "Ġpuddle": 1930,
  "Ġsnowboard": 1931,
  "Ġglove": 1932,
  "Ġesc": 1933,
  "Ġescalator": 1934,
  "Ġfrisbee": 1935,
  "ec": 1936,
  "Ġhallway": 1937,
  "Ġafrican": 1938,
  "Ġupon": 1939,
  "Ġfollowing": 1940,
  "Ġhospital": 1941,
  "borne": 1942,
  "Ġairborne": 1943,
  "Ġornate": 1944,
  "Ġorg": 1945,
  "Ġtrumpet": 1946,
  "Ġneighbor": 1947,
  "Ġdowntown": 1948,
  "Ġdoors": 1949,
  "Ġhaircut": 1950,
  "Ġredheaded": 1951,
  "ĠJapanese": 1952,
  "sc": 1953,
  "Ġelectronic": 1954,
  "Ġporch": 1955,
  "Ġmuseum": 1956,
  "Ġcarriage": 1957,
  "Ġunderwater": 1958,
  "Ġfloat": 1959,
  "Ġlift": 1960,
  "Ġexamining": 1961,
  "Ġribbon": 1962,
  "Ġtiled": 1963,
  "Ġgrin": 1964,
  "ĠGerman": 1965,
  "Ġtransportation": 1966,
  "Ġethnic": 1967,
  "coat": 1968,
  "Ġneighborhood": 1969,
  "Ġfro": 1970,
  "Ġpretty": 1971,
  "green": 1972,
  "hawk": 1973,
  "Ġteammates": 1974,
  "Ġ20": 1975,
  "lege": 1976,
  "Boy": 1977,
  "Ġtux": 1978,
  "Ġgas": 1979,
  "Ġtrunk": 1980,
  "Ġtape": 1981,
  "Ġsleeps": 1982,
  "Ġ&": 1983,
  "ears": 1984,
  "ming": 1985,
  "Ġcups": 1986,
  "Ġattempt": 1987,
  "Ġmuzz": 1988,
  "Ġraises": 1989,
  "Ġfurn": 1990,
  "Ġstudent": 1991,
  "Ġstir": 1992,
  "Ġthumb": 1993,
  "Ġraft": 1994,
  "Ġretrie": 1995,
  "Ġrange": 1996,
  "Ġblows": 1997,
  "Ġenc": 1998,
  "Ġslope": 1999,
  "Ġstove": 2000,
  "Ġsuitcase": 2001,
  "Ġcircular": 2002,
  "Ġbarbec": 2003,
  "Ġinv": 2004,
  "boat": 2005,
  "Ġdoll": 2006,
  "ference": 2007,
  "Ġbank": 2008,
  "Brown": 2009,
  "Ġpatch": 2010,
  "Ġwaterfall": 2011,
  "Ġmobile": 2012,
  "Ġmagazine": 2013,
  "Ġknife": 2014,
  "Ġgoalie": 2015,
  "Ġroutine": 2016,
  "Ġcarry": 2017,
  "Ġlocated": 2018,
  "day": 2019,
  "den": 2020,
  "Ġgrey": 2021,
  "Ġspace": 2022,
  "Ġsoftball": 2023,
  "rubs": 2024,
  "Ġrelaxing": 2025,
  "Ġcook": 2026,
  "Ġtrench": 2027,
  "Ġsplash": 2028,
  "Ġav": 2029,
  "Ġfollows": 2030,
  "Ġbarrier": 2031,
  "Ġapartment": 2032,
  "Ġbranch": 2033,
  "Ġgrabbing": 2034,
  "Ġdim": 2035,
  "Ġconference": 2036,
  "Ġmoney": 2037,
  "Ġbends": 2038,
  "White": 2039,
  "Ġiron": 2040,
  "ars": 2041,
  "Ġsilhouette": 2042,
  "Ġaqu": 2043,
  "It": 2044,
  "Blond": 2045,
  "Ġapparent": 2046,
  "ĠCaucasian": 2047,
  "Ġdirect": 2048,
  "Ġstops": 2049,
  "bling": 2050,
  "Ġpigtails": 2051,
  "Ġeyeglasses": 2052,
  "itors": 2053,
  "Ġcorn": 2054,
  "Older": 2055,
  "Ġfree": 2056,
  "Ġjuggling": 2057,
  "ewelry": 2058,
  "Ġstudio": 2059,
  "Ġtraveling": 2060,
  "Ġmouths": 2061,
  "Ġboardwalk": 2062,
  "Ġserving": 2063,
  "vis": 2064,
  "Ġorgan": 2065,
  "Ġworld": 2066,
  "Ġpractice": 2067,
  "Ġsofa": 2068,
  "Ġshaved": 2069,
  "Ġspeed": 2070,
  "Ġteammate": 2071,
  "Ġmarketp": 2072,
  "Ġmarketplace": 2073,
  "Ġindust": 2074,
  "Ġindustrial": 2075,
  "Ġforeign": 2076,
  "Ġlib": 2077,
  "Ġfurry": 2078,
  "Ġpatient": 2079,
  "Ġsprink": 2080,
  "Ġtelephone": 2081,
  "Ġskinny": 2082,
  "Male": 2083,
  "og": 2084,
  "Ġpaddling": 2085,
  "Ġexercise": 2086,
  "weight": 2087,
  "Ġsuspenders": 2088,
  "Ġtaxi": 2089,
  "Ġphotographs": 2090,
  "Ġstorefront": 2091,
  "'t": 2092,
  "Ġroll": 2093,
  "Ġmedium": 2094,
  "Ġvac": 2095,
  "Ġvariety": 2096,
  "Ġstrange": 2097,
  "Ġcheerleaders": 2098,
  "Ġjewelry": 2099,
  "Ġsunlight": 2100,
  "Ġsoda": 2101,
  "Ġapproaching": 2102,
  "herd": 2103,
  "Ġsemi": 2104,
  "Ġstopped": 2105,
  "Ġstrapped": 2106,
  "dress": 2107,
  "can": 2108,
  "Ġhelps": 2109,
  "Ġimp": 2110,
  "Ġfluffy": 2111,
  "Ġtripod": 2112,
  "Ġdefen": 2113,
  "Ġlaughs": 2114,
  "Ġchoir": 2115,
  "Ġterrain": 2116,
  "Ġadvertising": 2117,
  "Ġshops": 2118,
  "Ġreg": 2119,
  "ĠUn": 2120,
  "Ġupper": 2121,
  "Ġbrie": 2122,
  "Ġbrief": 2123,
  "Ġsink": 2124,
  "Ġdecorative": 2125,
  "Ġcloseup": 2126,
  "quo": 2127,
  "Ġdesign": 2128,
  "Ġlunch": 2129,
  "book": 2130,
  "Ġbutter": 2131,
  "Ġfurniture": 2132,
  "Ġtile": 2133,
  "hoes": 2134,
  "Ġrowing": 2135,
  "Ġdread": 2136,
  "Ġconsisting": 2137,
  "iddle": 2138,
  "Ġbarbecue": 2139,
  "Ġinvol": 2140,
  "Ġlibrary": 2141,
  "ĠAT": 2142,
  "Ġelev": 2143,
  "Ġshaking": 2144,
  "Ġjet": 2145,
  "Ġamusement": 2146,
  "Ġpottery": 2147,
  "Ġpoint": 2148,
  "Ġtrop": 2149,
  "Ġpassenger": 2150,
  "Ġtablecloth": 2151,
  "Ġincludes": 2152,
  "Ġspoon": 2153,
  "box": 2154,
  "Ġcollege": 2155,
  "loy": 2156,
  "Ġdig": 2157,
  "Ġmodel": 2158,
  "bur": 2159,
  "Ġbeanie": 2160,
  "St": 2161,
  "Ġsecurity": 2162,
  "Ġrepair": 2163,
  "Ġturquo": 2164,
  "Ġturquoise": 2165,
  "Ġpupp": 2166,
  "Ġmedical": 2167,
  "Ġblaz": 2168,
  "Ġspotted": 2169,
  "Ġobserve": 2170,
  "Ġnighttime": 2171,
  "Ġdreadlocks": 2172,
  "Ġmakeshift": 2173,
  "ops": 2174,
  "Construction": 2175,
  "ug": 2176,
  "Ġfrozen": 2177,
  "Ġflipping": 2178,
  "Ġquick": 2179,
  "Ġ6": 2180,
  "ific": 2181,
  "rail": 2182,
  "Ġstretched": 2183,
  "camera": 2184,
  "Ġperched": 2185,
  "Ġblurred": 2186,
  "Ġforehead": 2187,
  "ractive": 2188,
  "Ġcrouched": 2189,
  "Ġarch": 2190,
  "Ġhang": 2191,
  "ors": 2192,
  "Ġbuilt": 2193,
  "Ġoverweight": 2194,
  "Ġparachute": 2195,
  "Ġdrive": 2196,
  "Ġpump": 2197,
  "Ġextended": 2198,
  "Ġpattern": 2199,
  "Ġdirectly": 2200,
  "Ġbathroom": 2201,
  "Ġzip": 2202,
  "lymp": 2203,
  "Ġcoach": 2204,
  "vas": 2205,
  "Ġfake": 2206,
  "Ġrows": 2207,
  "Ġidentical": 2208,
  "Ġredd": 2209,
  "Ġreddish": 2210,
  "looking": 2211,
  "Ġcraft": 2212,
  "Ġscarves": 2213,
  "Ġgreyhound": 2214,
  "Ġfencing": 2215,
  "ĠUS": 2216,
  "barrow": 2217,
  "Ġwheelbarrow": 2218,
  "bs": 2219,
  "Fem": 2220,
  "Ġtrashcan": 2221,
  "Ġcelebrating": 2222,
  "Ġpit": 2223,
  "Ġsandw": 2224,
  "Seven": 2225,
  "Ġbuy": 2226,
  "Ġarran": 2227,
  "vil": 2228,
  "ney": 2229,
  "Ġump": 2230,
  "Ġumpire": 2231,
  "wood": 2232,
  "Ġapplying": 2233,
  "Ġcarefully": 2234,
  "Ġevening": 2235,
  "Ġcustomer": 2236,
  "Ġhappily": 2237,
  "ĠEn": 2238,
  "ino": 2239,
  "Ġlength": 2240,
  "raption": 2241,
  "Ġcontraption": 2242,
  "Ġais": 2243,
  "With": 2244,
  "Ġdeb": 2245,
  "Ġearrings": 2246,
  "Ġdisplayed": 2247,
  "Ġfit": 2248,
  "Ġengine": 2249,
  "Ġcaucasian": 2250,
  "igious": 2251,
  "Ġeastern": 2252,
  "Ġcanvas": 2253,
  "Ġyears": 2254,
  "Ġformation": 2255,
  "Ġtoo": 2256,
  "Ġmodern": 2257,
  "Ġcalm": 2258,
  "Ġmarble": 2259,
  "Ġsupport": 2260,
  "Ġblazer": 2261,
  "men": 2262,
  "Ġcheek": 2263,
  "Female": 2264,
  "Ġchalkboard": 2265,
  "Ġbegins": 2266,
  "Ġsword": 2267,
  "Ġus": 2268,
  "Ġdonkey": 2269,
  "Ġattractive": 2270,
  "izza": 2271,
  "Ġolive": 2272,
  "Ġexhib": 2273,
  "Ġhurdle": 2274,
  "Ġdump": 2275,
  "Ġtail": 2276,
  "Ġcalf": 2277,
  "Ġemploy": 2278,
  "Ġawa": 2279,
  "Ġspinning": 2280,
  "reme": 2281,
  "Ġpours": 2282,
  "Ġfiretruck": 2283,
  "Ġapparently": 2284,
  "Ġsimilarly": 2285,
  "sia": 2286,
  "gu": 2287,
  "Ġdraped": 2288,
  "Ġsized": 2289,
  "ze": 2290,
  "Ġreligious": 2291,
  "Ġbagp": 2292,
  "Ġairport": 2293,
  "Ġcarving": 2294,
  "Ġcompan": 2295,
  "uba": 2296,
  "ĠOlymp": 2297,
  "Ġdrill": 2298,
  "ĠLon": 2299,
  "Ġlisten": 2300,
  "brus": 2301,
  "Ġeight": 2302,
  "arge": 2303,
  "Ġsnowshoes": 2304,
  "Ġbarrel": 2305,
  "ĠSh": 2306,
  "ĠAr": 2307,
  "Ġwrist": 2308,
  "Ġsy": 2309,
  "Ġexcited": 2310,
  "Ġsandwich": 2311,
  "ĠCla": 2312,
  "Ġparticipating": 2313,
  "Ġocc": 2314,
  "Ġquickly": 2315,
  "Ġhandrail": 2316,
  "Ġblurry": 2317,
  "Ġspark": 2318,
  "Ġamoun": 2319,
  "Ġexamines": 2320,
  "Ġshoot": 2321,
  "Ġleaving": 2322,
  "Ġapproaches": 2323,
  "Ġcreating": 2324,
  "Ġtuxedo": 2325,
  "Ġaisle": 2326,
  "Ġfocus": 2327,
  "nequ": 2328,
  "Ġattending": 2329,
  "Ġspeak": 2330,
  "Ġfeaturing": 2331,
  "Ġenv": 2332,
  "ironment": 2333,
  "Ġenvironment": 2334,
  "Ġcargo": 2335,
  "Ġdrib": 2336,
  "Ġpush": 2337,
  "Ġbottoms": 2338,
  "Ġax": 2339,
  "Ġscuba": 2340,
  "Ġlime": 2341,
  "Ġdune": 2342,
  "Ġarmy": 2343,
  "brush": 2344,
  "Ġnewbor": 2345,
  "Ġnewborn": 2346,
  "Ġskull": 2347,
  "boo": 2348,
  "Ġstomach": 2349,
  "Ġtiny": 2350,
  "Ġscrubs": 2351,
  "Ġpathway": 2352,
  "haps": 2353,
  "Ġfancy": 2354,
  "Ġnative": 2355,
  "pants": 2356,
  "ĠEaster": 2357,
  "Ġflowing": 2358,
  "Ġsmo": 2359,
  "Ġdimly": 2360,
  "Ġplayfully": 2361,
  "ifier": 2362,
  "Ġembracing": 2363,
  "Ġfestive": 2364,
  "Ġduck": 2365,
  "bat": 2366,
  "Ġshawl": 2367,
  "most": 2368,
  "Ġsocial": 2369,
  "Ġracquet": 2370,
  "Ġattend": 2371,
  "ma": 2372,
  "Ġ7": 2373,
  "Ġblood": 2374,
  "Ġfirefighters": 2375,
  "Ġfinish": 2376,
  "Ġillum": 2377,
  "Ġaerial": 2378,
  "Ġhelicopter": 2379,
  "Ġjuice": 2380,
  "Ġmannequ": 2381,
  "Ġtackle": 2382,
  "Ġodd": 2383,
  "reek": 2384,
  "Ġdebris": 2385,
  "style": 2386,
  "Ġshelf": 2387,
  "Ġhandbag": 2388,
  "Ġvenue": 2389,
  "ĠLondon": 2390,
  "Ġelephant": 2391,
  "ĠSouth": 2392,
  "Ġheavily": 2393,
  "Ġclapping": 2394,
  "Large": 2395,
  "Ġmessy": 2396,
  "Ġseven": 2397,
  "Ġmixing": 2398,
  "Ġwake": 2399,
  "Ġexamine": 2400,
  "ĠMex": 2401,
  "Ġbamboo": 2402,
  "Ġcrouching": 2403,
  "Ġretriever": 2404,
  "pan": 2405,
  "Ġaccom": 2406,
  "Ġbouncing": 2407,
  "Ġperhaps": 2408,
  "Ġadm": 2409,
  "Ġchainsaw": 2410,
  "Ġmenu": 2411,
  "Ġshape": 2412,
  "Ġestablish": 2413,
  "Ġtelevis": 2414,
  "Ġbroad": 2415,
  "Ġlevel": 2416,
  "Ġplayed": 2417,
  "Ġlocation": 2418,
  "Ġamount": 2419,
  "Ġunf": 2420,
  "Ġengaged": 2421,
  "Ġtorch": 2422,
  "ipping": 2423,
  "Ġpetting": 2424,
  "view": 2425,
  "ĠEng": 2426,
  "Ġsciss": 2427,
  "Ġrollerblades": 2428,
  "kn": 2429,
  "Ġelbow": 2430,
  "Ġgesturing": 2431,
  "Lo": 2432,
  "Ġoven": 2433,
  "12": 2434,
  "Ġbriefcase": 2435,
  "Ġupward": 2436,
  "uffs": 2437,
  "sized": 2438,
  "Ġnail": 2439,
  "Ġcreek": 2440,
  "Ġnearly": 2441,
  "Ġburgundy": 2442,
  "Ġactiv": 2443,
  "Ġwarmly": 2444,
  "Ġbarber": 2445,
  "Ġtossing": 2446,
  "Ġderby": 2447,
  "Ġ10": 2448,
  "Ġservice": 2449,
  "Ġvacu": 2450,
  "ĠTV": 2451,
  "Ġbirthday": 2452,
  "Ġadjusting": 2453,
  "Ġgl": 2454,
  "Workers": 2455,
  "Ġmuzzle": 2456,
  "Ġpeers": 2457,
  "Ġingred": 2458,
  "Ġstretching": 2459,
  "Ġpretending": 2460,
  "my": 2461,
  "Ġsweatpants": 2462,
  "Ġhorseback": 2463,
  "Ġcolumns": 2464,
  "Ġsupplies": 2465,
  "Ġgymnasium": 2466,
  "Ġpropped": 2467,
  "Ġworn": 2468,
  "Ġfatigues": 2469,
  "Ġcong": 2470,
  "ca": 2471,
  "Ġbutterf": 2472,
  "Ġsprinkler": 2473,
  "rows": 2474,
  "Ġspons": 2475,
  "Ġ9": 2476,
  "Ġsurp": 2477,
  "Ġmonument": 2478,
  "inished": 2479,
  "Ġdaytime": 2480,
  "Ġalmost": 2481,
  "Ġgarment": 2482,
  "Ġpea": 2483,
  "obile": 2484,
  "Ġweaving": 2485,
  "Ġfarm": 2486,
  "war": 2487,
  "Ġsnowsuit": 2488,
  "Ġbaggy": 2489,
  "Ġscissors": 2490,
  "Ġbinoculars": 2491,
  "Ġshadows": 2492,
  "chestra": 2493,
  "Ġgradu": 2494,
  "Ġadjusts": 2495,
  "Ġkimon": 2496,
  "Ġnur": 2497,
  "Ġstretches": 2498,
  "Ġchewing": 2499,
  "Ġrollerskates": 2500,
  "Ġdozen": 2501,
  "Ġaqua": 2502,
  "ĠEurop": 2503,
  "Ġtrousers": 2504,
  "Ġyar": 2505,
  "Ġletters": 2506,
  "known": 2507,
  "Ġshaggy": 2508,
  "Ġspotlight": 2509,
  "Ġspec": 2510,
  "Ġtricycle": 2511,
  "Ġsuch": 2512,
  "Ġembrace": 2513,
  "cil": 2514,
  "Ġsharp": 2515,
  "Ġdragging": 2516,
  "Ġingredients": 2517,
  "Ġlettering": 2518,
  "Ġcrown": 2519,
  "Ġbraided": 2520,
  "Ġunus": 2521,
  "Ġdyed": 2522,
  "Ġmonkey": 2523,
  "Ġinner": 2524,
  "Ġsoa": 2525,
  "Ġeggs": 2526,
  "Ġdiscussing": 2527,
  "Ġestablishment": 2528,
  "Ġpaws": 2529,
  "Ġtattooed": 2530,
  "Gu": 2531,
  "gling": 2532,
  "Ġtelevision": 2533,
  "Ġbron": 2534,
  "Ġconductor": 2535,
  "Ġsurprised": 2536,
  "Ġtropical": 2537,
  "Ġwaterm": 2538,
  "Ġdownward": 2539,
  "Ġjoy": 2540,
  "Ġunfinished": 2541,
  "Ġportra": 2542,
  "Ġoverlooks": 2543,
  "Ġavo": 2544,
  "Ġtiger": 2545,
  "Ġlaun": 2546,
  "Sp": 2547,
  "Ġnewly": 2548,
  "Ġsaddle": 2549,
  "Ġorchestra": 2550,
  "striped": 2551,
  "Ġint": 2552,
  "ĠAsia": 2553,
  "Ġapart": 2554,
  "Ġwheelie": 2555,
  "Ġridden": 2556,
  "Ġscrat": 2557,
  "ĠMo": 2558,
  "Ġstump": 2559,
  "Lady": 2560,
  "Ġremo": 2561,
  "Ġi": 2562,
  "Ġcompanion": 2563,
  "Ġbend": 2564,
  "Ġbelongings": 2565,
  "Ġnaked": 2566,
  "Ġtopped": 2567,
  "Mult": 2568,
  "Ġraincoat": 2569,
  "Ġwrestle": 2570,
  "Ġstairway": 2571,
  "Ġhandlebars": 2572,
  "Ġcotton": 2573,
  "Ġfacial": 2574,
  "Ġbeginning": 2575,
  "ified": 2576,
  "Ġsweeps": 2577,
  "Ġhalter": 2578,
  "ey": 2579,
  "Ġnotebook": 2580,
  "Ġmit": 2581,
  "occer": 2582,
  "ĠMexican": 2583,
  "Ġboxer": 2584,
  "Ġunusual": 2585,
  "fire": 2586,
  "Ġheaddress": 2587,
  "ai": 2588,
  "Ġmaneu": 2589,
  "Ġcherry": 2590,
  "Middle": 2591,
  "reg": 2592,
  "oms": 2593,
  "Ġspeech": 2594,
  "Ġshut": 2595,
  "unity": 2596,
  "Ġbatter": 2597,
  "Ġpirate": 2598,
  "wheeled": 2599,
  "rimmed": 2600,
  "UV": 2601,
  "Ġmohawk": 2602,
  "ĠMc": 2603,
  "Ġsailboat": 2604,
  "Ġpizza": 2605,
  "Ġmuch": 2606,
  "Ġchopsticks": 2607,
  "Ġcit": 2608,
  "Ġlips": 2609,
  "Ġangel": 2610,
  "Ġeverywhere": 2611,
  "Ġmilk": 2612,
  "Ġgymnastics": 2613,
  "Ġrifle": 2614,
  "Ġshepherd": 2615,
  "Ġgazing": 2616,
  "Ġbillboard": 2617,
  "Ġwhen": 2618,
  "Ġminiature": 2619,
  "Ġeven": 2620,
  "Ġceremony": 2621,
  "Ġtanned": 2622,
  "ude": 2623,
  "Ġnav": 2624,
  "Ġexcitement": 2625,
  "hy": 2626,
  "Ġcurtain": 2627,
  "ritish": 2628,
  "Ġartwork": 2629,
  "ĠSqu": 2630,
  "Ped": 2631,
  "Ġaxe": 2632,
  "Ġcontemp": 2633,
  "As": 2634,
  "Ġyarn": 2635,
  "Ġmonitor": 2636,
  "Fo": 2637,
  "Ġunknown": 2638,
  "Ġtorn": 2639,
  "Ġdun": 2640,
  "noon": 2641,
  "gency": 2642,
  "Ġquarter": 2643,
  "Ġpencil": 2644,
  "Ġdepartment": 2645,
  "Ġtarp": 2646,
  "Ġpartly": 2647,
  "ĠMus": 2648,
  "Ġcrosscountry": 2649,
  "Ġdemonstrating": 2650,
  "Ġchefs": 2651,
  "ĠNike": 2652,
  "Ġearphones": 2653,
  "Ġ:": 2654,
  "Ġaccompan": 2655,
  "umn": 2656,
  "utumn": 2657,
  "Kids": 2658,
  "Ġvertical": 2659,
  "Ġdemonstration": 2660,
  "chief": 2661,
  "ĠHaw": 2662,
  "Ġauditorium": 2663,
  "Ġwhiteboard": 2664,
  "ĠClaus": 2665,
  "Ġdragon": 2666,
  "Ġnumerous": 2667,
  "Ġinvolving": 2668,
  "Ġticket": 2669,
  "Ġsyn": 2670,
  "Guy": 2671,
  "Ġfist": 2672,
  "Ġdangling": 2673,
  "Ġplank": 2674,
  "Ġsupermarket": 2675,
  "Ġbutterfly": 2676,
  "Ġsponsored": 2677,
  "Ġstilts": 2678,
  "izing": 2679,
  "Ġgift": 2680,
  "ĠJo": 2681,
  "ĠSUV": 2682,
  "ĠMcD": 2683,
  "Ġunlo": 2684,
  "ti": 2685,
  "Ġoncoming": 2686,
  "oo": 2687,
  "Ġmini": 2688,
  "Ġbooths": 2689,
  "Ġflannel": 2690,
  "Ġsnake": 2691,
  "Ġclutching": 2692,
  "Ch": 2693,
  "Ġstirring": 2694,
  "Ġgoatee": 2695,
  "Ġdepicting": 2696,
  "Ġmannequin": 2697,
  "Ġcurve": 2698,
  "Ġgraduation": 2699,
  "Ġsprayed": 2700,
  "Ġ2012": 2701,
  "Ġseparate": 2702,
  "Ġhorn": 2703,
  "During": 2704,
  "Ġnavig": 2705,
  "Ġunderground": 2706,
  "Ġjack": 2707,
  "Pedestrians": 2708,
  "Ġbagpipes": 2709,
  "Ġstroll": 2710,
  "Ġtoes": 2711,
  "filled": 2712,
  "ĠSquare": 2713,
  "Ġjob": 2714,
  "cial": 2715,
  "Ġpuppies": 2716,
  "Ġbroken": 2717,
  "now": 2718,
  "Ġ8": 2719,
  "Ġsniff": 2720,
  "Ġcricket": 2721,
  "Ġafternoon": 2722,
  "oga": 2723,
  "Ġyoga": 2724,
  "Ġdescending": 2725,
  "Ġautom": 2726,
  "Ġfirefighter": 2727,
  "Ġgreat": 2728,
  "Ġgrinding": 2729,
  "chandise": 2730,
  "Ġmerchandise": 2731,
  "Ġshakes": 2732,
  "Ġbusinessman": 2733,
  "blue": 2734,
  "Ġgroups": 2735,
  "Ġblin": 2736,
  "Ġviewing": 2737,
  "shaped": 2738,
  "Ġpassersby": 2739,
  "Ġjungle": 2740,
  "Ġwrites": 2741,
  "ĠCanadian": 2742,
  "Ġeveryone": 2743,
  "Soccer": 2744,
  "Ġceremon": 2745,
  "Ġstopping": 2746,
  "Red": 2747,
  "ĠShep": 2748,
  "Ġpartner": 2749,
  "Ġpillows": 2750,
  "Ġmixed": 2751,
  "Ġwash": 2752,
  "ĠHawai": 2753,
  "ĠHawaiian": 2754,
  "Ġcobbled": 2755,
  "gy": 2756,
  "Ġcru": 2757,
  "Ġinspecting": 2758,
  "Ġhighchair": 2759,
  "ms": 2760,
  "Ġcongreg": 2761,
  "Ġtracksuit": 2762,
  "Ġhardwood": 2763,
  "Ġfreshly": 2764,
  "Ġskyline": 2765,
  "Ġalleyway": 2766,
  "Ġpickup": 2767,
  "Ġnun": 2768,
  "Ġelevated": 2769,
  "ond": 2770,
  "bby": 2771,
  "Ġmessenger": 2772,
  "Ġvarying": 2773,
  "Eight": 2774,
  "Ġfourth": 2775,
  "Ġsenior": 2776,
  "Ġfireplace": 2777,
  "IN": 2778,
  "Ġvisor": 2779,
  "Ġobscured": 2780,
  "Ġfind": 2781,
  "Ġtechn": 2782,
  "Ġlive": 2783,
  "ĠAmerica": 2784,
  "Ġtightly": 2785,
  "Ġacro": 2786,
  "Ġburning": 2787,
  "Ġchatting": 2788,
  "Ġhambur": 2789,
  "Ġenclosed": 2790,
  "Ġrecently": 2791,
  "rong": 2792,
  "Ġbedroom": 2793,
  "Ġdive": 2794,
  "Ġbrother": 2795,
  "ĠBritish": 2796,
  "Ġapproach": 2797,
  "cut": 2798,
  "Nine": 2799,
  "Ġcelebration": 2800,
  "Ġterm": 2801,
  "Ġloading": 2802,
  "Ġmatt": 2803,
  "Ġhyd": 2804,
  "Ġhydrant": 2805,
  "Ġguiding": 2806,
  "prin": 2807,
  "Ġprov": 2808,
  "Football": 2809,
  "Ġdumpster": 2810,
  "Ġalco": 2811,
  "Ġtoothbrush": 2812,
  "Elderly": 2813,
  "Close": 2814,
  "Closeup": 2815,
  "Ġbulldozer": 2816,
  "Ġheadgear": 2817,
  "Ġbanjo": 2818,
  "Ġindian": 2819,
  "aseball": 2820,
  "Ġemergency": 2821,
  "ĠAp": 2822,
  "Ġfoliage": 2823,
  "Old": 2824,
  "Ġcylin": 2825,
  "Ġga": 2826,
  "Ġbrownish": 2827,
  "Ġpavil": 2828,
  "Ġ11": 2829,
  "mon": 2830,
  "pain": 2831,
  "Ġtransit": 2832,
  "Ġpee": 2833,
  "Ġrapids": 2834,
  ",\"": 2835,
  "Ġcoaster": 2836,
  "Ġtv": 2837,
  "Ġsplit": 2838,
  "ĠArmy": 2839,
  "Ġautumn": 2840,
  "losure": 2841,
  "\",": 2842,
  "Ġsilk": 2843,
  "Ġstuck": 2844,
  "ĠDJ": 2845,
  "Ġsurgery": 2846,
  "Ġwarehouse": 2847,
  "Ġentertain": 2848,
  "Ġdressing": 2849,
  "Ġtwirling": 2850,
  "Ġox": 2851,
  "Ġtrol": 2852,
  "Ġegg": 2853,
  "Ġlobby": 2854,
  "Ġpep": 2855,
  "Ġbecause": 2856,
  "Ġvocal": 2857,
  "ĠBM": 2858,
  "Ġcarved": 2859,
  "Ġexcept": 2860,
  "Ġplus": 2861,
  "halt": 2862,
  "Ġasphalt": 2863,
  "Ġyouths": 2864,
  "Ġarrow": 2865,
  "Ġavoid": 2866,
  "Ġilluminated": 2867,
  "Ġhunched": 2868,
  "asket": 2869,
  "Ġextreme": 2870,
  "Ġforefront": 2871,
  "Ġtoe": 2872,
  "Street": 2873,
  "Ġbutcher": 2874,
  "Ġsquin": 2875,
  "Ad": 2876,
  "Ġrazor": 2877,
  "Ġsymbols": 2878,
  "Ġdistrict": 2879,
  "Ġshoppers": 2880,
  "Ġkimono": 2881,
  "Ġpauses": 2882,
  "Ġscaffold": 2883,
  "ĠATM": 2884,
  "Ġquiet": 2885,
  "muffs": 2886,
  "Ġearmuffs": 2887,
  "ĠMohawk": 2888,
  "Ġlaundromat": 2889,
  "Ġbreakd": 2890,
  "Ġemployee": 2891,
  "was": 2892,
  "Ġhorizontally": 2893,
  "Ġreception": 2894,
  "Ġactivity": 2895,
  "ind": 2896,
  "Ġcircuit": 2897,
  "Ġextends": 2898,
  "Ġchopping": 2899,
  "Ġdoesn": 2900,
  "bie": 2901,
  "Ġchampag": 2902,
  "Ġchampagne": 2903,
  "ĠOlympics": 2904,
  "Ġpunch": 2905,
  "Ġindex": 2906,
  "Ġgoat": 2907,
  "Ġpray": 2908,
  "Ġearly": 2909,
  "Ġspat": 2910,
  "Ġhuddled": 2911,
  "Ġleafy": 2912,
  "Ġveil": 2913,
  "Ġdigital": 2914,
  "urfer": 2915,
  "Ġcommercial": 2916,
  "Ġsight": 2917,
  "ĠEastern": 2918,
  "Ġcardig": 2919,
  "Ġcardigan": 2920,
  "Ġslung": 2921,
  "ĠBar": 2922,
  "Ġamid": 2923,
  "Ġdrag": 2924,
  "Ġinj": 2925,
  "onge": 2926,
  "Ġcluttered": 2927,
  "int": 2928,
  "ĠNY": 2929,
  "Ġrelaxed": 2930,
  "Ġpavilion": 2931,
  "Ġbarricade": 2932,
  "Ġcattle": 2933,
  "Ġdryer": 2934,
  "Ġvending": 2935,
  "Ġlush": 2936,
  "Various": 2937,
  "ĠIs": 2938,
  "Ġemerges": 2939,
  "Ġ#": 2940,
  "Ġceremonial": 2941,
  "ĠEl": 2942,
  "Ġuphill": 2943,
  "ĠLa": 2944,
  "Ġdinosa": 2945,
  "Ġdinosaur": 2946,
  "Ġaccompanied": 2947,
  "Ġyelling": 2948,
  "Ġcampfire": 2949,
  "Ġmuscular": 2950,
  "Ġprogress": 2951,
  "aphone": 2952,
  "Ġinnert": 2953,
  "Ġfetch": 2954,
  "Ġenclosure": 2955,
  "Ġlaven": 2956,
  "Ġlavender": 2957,
  "Ġfoam": 2958,
  "Ġupright": 2959,
  "Ġovercoat": 2960,
  "Ġangle": 2961,
  "Ġlamps": 2962,
  "wrap": 2963,
  "Ġmarried": 2964,
  "pit": 2965,
  "Ġcaution": 2966,
  "Ġmesh": 2967,
  "ultural": 2968,
  "ĠATV": 2969,
  "raft": 2970,
  "Ġhuddle": 2971,
  "usk": 2972,
  "Ġdusk": 2973,
  "girl": 2974,
  "bank": 2975,
  "crop": 2976,
  "ĠEnglish": 2977,
  "Ġfashion": 2978,
  "Ġmime": 2979,
  "Ġbridesmaids": 2980,
  "Ġarray": 2981,
  "Ġzone": 2982,
  "ĠSooners": 2983,
  "Ġbunny": 2984,
  "Ġeverything": 2985,
  "Ġincline": 2986,
  "Ġcash": 2987,
  "asketball": 2988,
  "Ġbatht": 2989,
  "Ġbathtub": 2990,
  "ĠCon": 2991,
  "Ġsimultaneous": 2992,
  "happy": 2993,
  "Ġpressure": 2994,
  "Ġconnected": 2995,
  "Ġkiosk": 2996,
  "ĠCity": 2997,
  "Ġtravel": 2998,
  "Ġpacifier": 2999,
  "Ġapplies": 3000,
  "Ġpreparation": 3001,
  "Ġwaterfront": 3002,
  "Ġbodysuit": 3003,
  "Ġdribbling": 3004,
  "Ġdownhill": 3005,
  "Ġearb": 3006,
  "ĠiP": 3007,
  "Ġhorizontal": 3008,
  "Ġterminal": 3009,
  "Ġva": 3010,
  "Ġtutu": 3011,
  "ĠEuropean": 3012,
  "Ġorganized": 3013,
  "rd": 3014,
  "ĠLe": 3015,
  "Ġfloppy": 3016,
  "Ġdessert": 3017,
  "Ġrabb": 3018,
  "Ġjeep": 3019,
  "ĠBan": 3020,
  "Ġsong": 3021,
  "Ġnatural": 3022,
  "Ġspatula": 3023,
  "razil": 3024,
  "Ġpurs": 3025,
  "Ġstepping": 3026,
  "Ġwaterway": 3027,
  "gical": 3028,
  "Ġsurgical": 3029,
  "Ġinjured": 3030,
  "Baseball": 3031,
  "Ġautomobile": 3032,
  "Ġmetro": 3033,
  "ĠApple": 3034,
  "Ġworkshop": 3035,
  "ĠMusl": 3036,
  "Ġarranged": 3037,
  "esus": 3038,
  "Ġstretch": 3039,
  "Ġstainless": 3040,
  "iversity": 3041,
  "Ġbegin": 3042,
  "Ġtending": 3043,
  "Ġkeeps": 3044,
  "ĠGolden": 3045,
  "Ġapparat": 3046,
  "Ġapparatus": 3047,
  "Ġwilderness": 3048,
  "Ġknitted": 3049,
  "lowing": 3050,
  "Ġlanterns": 3051,
  "Ġhung": 3052,
  "itting": 3053,
  "Ġsubmer": 3054,
  "Ġsubmerged": 3055,
  "Dark": 3056,
  "Ġrollerskating": 3057,
  "Ġcapri": 3058,
  "ĠShepherd": 3059,
  "ilapid": 3060,
  "ilapidated": 3061,
  "glass": 3062,
  "ĠIndia": 3063,
  "Ġcrayons": 3064,
  "Tourists": 3065,
  "Ġsurfs": 3066,
  "Ġamb": 3067,
  "kerchief": 3068,
  "Ġcommunity": 3069,
  "ef": 3070,
  "Ġbroadly": 3071,
  "Ġbounce": 3072,
  "cept": 3073,
  "Ġshelter": 3074,
  "Ġcarried": 3075,
  "Ġholiday": 3076,
  "ĠAl": 3077,
  "Ġsunhat": 3078,
  "Ġsnowman": 3079,
  "Ġbackward": 3080,
  "Ġstrawber": 3081,
  "Ġtrolley": 3082,
  "Ġacc": 3083,
  "Ġaccident": 3084,
  "Ġrevealing": 3085,
  "Ġhappening": 3086,
  "Ġdiscussion": 3087,
  "ĠHispanic": 3088,
  "Ġload": 3089,
  "Ġmassive": 3090,
  "ĠArabic": 3091,
  "jump": 3092,
  "ĠGreen": 3093,
  "Ġchange": 3094,
  "Ġregister": 3095,
  "Ġmaneuver": 3096,
  "Basketball": 3097,
  "Ġcoconut": 3098,
  "Ġisle": 3099,
  "Ġflash": 3100,
  "Ġsimultaneously": 3101,
  "Ġlion": 3102,
  "Ġpamph": 3103,
  "Ġbarn": 3104,
  "Ġparticipate": 3105,
  "Ġsash": 3106,
  "Ġintricate": 3107,
  "LE": 3108,
  "oy": 3109,
  "Ġcheerleading": 3110,
  "Ġbush": 3111,
  "Ġcrystal": 3112,
  "Ġmounted": 3113,
  "but": 3114,
  "Ġcaptured": 3115,
  "Ġnews": 3116,
  "Ġcus": 3117,
  "Ġexiting": 3118,
  "Ġearbuds": 3119,
  "Ġexhibit": 3120,
  "Ġbuild": 3121,
  "ĠBud": 3122,
  "vie": 3123,
  "Ġgreenish": 3124,
  "Ġtackling": 3125,
  "val": 3126,
  "We": 3127,
  "Ġcann": 3128,
  "Ġaf": 3129,
  "ps": 3130,
  "Ġengaging": 3131,
  "Ġpaperwork": 3132,
  "Ġthrew": 3133,
  "length": 3134,
  "Ġmarsh": 3135,
  "Ġmattress": 3136,
  "Ġcave": 3137,
  "Ġbattle": 3138,
  "Ġshelves": 3139,
  "Ġpumpkin": 3140,
  "Ġpairs": 3141,
  "legged": 3142,
  "Ġhotdogs": 3143,
  "inn": 3144,
  "Ġbows": 3145,
  "piece": 3146,
  "Ġtask": 3147,
  "kiing": 3148,
  "Ġgive": 3149,
  "field": 3150,
  "Ġdried": 3151,
  "pe": 3152,
  "Ġkickbox": 3153,
  "Ġwrapping": 3154,
  "Ġspike": 3155,
  "Ġpuzz": 3156,
  "Ġwatermelon": 3157,
  "ĠBrazil": 3158,
  "Ġturtleneck": 3159,
  "Ġpossession": 3160,
  "Ġscreaming": 3161,
  "Ġspar": 3162,
  "Ġdeterm": 3163,
  "oller": 3164,
  "Ġclothesline": 3165,
  "pass": 3166,
  "Ġmight": 3167,
  "Ġdiaper": 3168,
  "Ġovercast": 3169,
  "Ġteddy": 3170,
  "Ġprominent": 3171,
  "dotted": 3172,
  "Ġpowder": 3173,
  "Ġstrumming": 3174,
  "Ġinflated": 3175,
  "Ġoccup": 3176,
  "ĠMuslim": 3177,
  "ĠPark": 3178,
  "Out": 3179,
  "oint": 3180,
  "Ġsuds": 3181,
  "Ġinline": 3182,
  "Ġpotted": 3183,
  "pie": 3184,
  "Ġslip": 3185,
  "Ġhighway": 3186,
  "Ġdribbles": 3187,
  "Ġharmonica": 3188,
  "Ġscattered": 3189,
  "Ġcarrier": 3190,
  "Ġsnowball": 3191,
  "Ġsalmon": 3192,
  "Ġbartender": 3193,
  "Ġgazebo": 3194,
  "Ġsipping": 3195,
  "wheeler": 3196,
  "Ġkitten": 3197,
  "Ġx": 3198,
  "Ġhalfway": 3199,
  "Cyclists": 3200,
  "Ġserves": 3201,
  "Ġshrub": 3202,
  "Ġensemble": 3203,
  "Ġdilapidated": 3204,
  "Ġbetter": 3205,
  "Ġtoilet": 3206,
  "Ġbarren": 3207,
  "Ġwineglass": 3208,
  "Bea": 3209,
  "Ġadd": 3210,
  "Ġcollection": 3211,
  "hammer": 3212,
  "Ġembro": 3213,
  "Ġretur": 3214,
  "hoe": 3215,
  "Ġhatch": 3216,
  "cient": 3217,
  "Ġstaff": 3218,
  "Ġcelebrate": 3219,
  "Ġarmor": 3220,
  "Ġ13": 3221,
  "Ġtomatoes": 3222,
  "Ġserve": 3223,
  "Ġlacrosse": 3224,
  "Ġampl": 3225,
  "Ġlip": 3226,
  "Ġcultural": 3227,
  "Ġbroch": 3228,
  "ga": 3229,
  "wise": 3230,
  "oddler": 3231,
  "ĠBMX": 3232,
  "Ġloa": 3233,
  "Ġhandkerchief": 3234,
  "Ġcrashing": 3235,
  "Ġriverbank": 3236,
  "Ġmailbox": 3237,
  "Ġsocializing": 3238,
  "Ġsnowm": 3239,
  "Ġbandage": 3240,
  "Ġplush": 3241,
  "Ġconvention": 3242,
  "!\"": 3243,
  "Ġcheckout": 3244,
  "ĠWal": 3245,
  "Ġguide": 3246,
  "Ġpiggyback": 3247,
  "Ġscience": 3248,
  "Ġunhappy": 3249,
  "Ġadjust": 3250,
  "Ġlearning": 3251,
  "Ġmorning": 3252,
  "osing": 3253,
  "Ġjudges": 3254,
  "Ġmanip": 3255,
  "Ġlittered": 3256,
  "Ġnurse": 3257,
  "Ġscratching": 3258,
  "ĠMcDonald": 3259,
  "ĠCoca": 3260,
  "Ġprofile": 3261,
  "ison": 3262,
  "Ġutility": 3263,
  "Ġpanca": 3264,
  "Ġfrying": 3265,
  "Ġskyd": 3266,
  "Ġmovie": 3267,
  "Ġcivil": 3268,
  "Ġchristmas": 3269,
  "Ġcreme": 3270,
  "ĠTimes": 3271,
  "lie": 3272,
  "00": 3273,
  "Ġfurther": 3274,
  "Ġcows": 3275,
  "Ġank": 3276,
  "gry": 3277,
  "Ġcinder": 3278,
  "ĠMa": 3279,
  "ximately": 3280,
  "Ġearring": 3281,
  "Ġshake": 3282,
  "Ġmerry": 3283,
  "Snow": 3284,
  "Ġprayer": 3285,
  "Ġsledding": 3286,
  "Ġreclining": 3287,
  "Ġtre": 3288,
  "Ġbookbag": 3289,
  "Ġtri": 3290,
  "Ġsparring": 3291,
  "Ġchoppy": 3292,
  "Ġsunshine": 3293,
  "Ġarcade": 3294,
  "Ġkickboxing": 3295,
  "Ġrollerblading": 3296,
  "washer": 3297,
  "Ġelevator": 3298,
  "uffy": 3299,
  "Ġanticipation": 3300,
  "Ġturkey": 3301,
  "ave": 3302,
  "ortment": 3303,
  "Ġassortment": 3304,
  "Ġalready": 3305,
  "Ġsniffing": 3306,
  "guage": 3307,
  "Ġlanguage": 3308,
  "Ġapparel": 3309,
  "urf": 3310,
  "eyed": 3311,
  "Ġclip": 3312,
  "capped": 3313,
  "Ġsnowcapped": 3314,
  "Ġfamilies": 3315,
  "Ġunloading": 3316,
  "Ġruins": 3317,
  "Ġvibrant": 3318,
  "point": 3319,
  "Ġquarterback": 3320,
  "ĠOlympic": 3321,
  "Ġconcentrating": 3322,
  "Ġsatch": 3323,
  "Ġassorted": 3324,
  "Ġmur": 3325,
  "Ġmurky": 3326,
  "Ele": 3327,
  "Ġsquad": 3328,
  "ĠOk": 3329,
  "Ġbeyond": 3330,
  "Ġgliding": 3331,
  "Ġsquirting": 3332,
  "Ġcries": 3333,
  "Ġunidentified": 3334,
  "cussion": 3335,
  "Ġpercussion": 3336,
  "Ġyet": 3337,
  "Ġpoised": 3338,
  "Ġhealth": 3339,
  "ashioned": 3340,
  "Ġtroupe": 3341,
  "Ġdandel": 3342,
  "Ġmittens": 3343,
  "Ġharp": 3344,
  "Ġreceives": 3345,
  "Ġstirs": 3346,
  "Ġmagn": 3347,
  "mo": 3348,
  "Ġdye": 3349,
  "Ġgently": 3350,
  "Ġshrubbery": 3351,
  "Crowd": 3352,
  "Ġinnertube": 3353,
  "Ġsoaked": 3354,
  "Ġmainly": 3355,
  "Beautiful": 3356,
  "Ġambulance": 3357,
  "Ġsecured": 3358,
  "Ġadmiring": 3359,
  "Ġtambourine": 3360,
  "Play": 3361,
  "usic": 3362,
  "Music": 3363,
  "Ġwheat": 3364,
  "Ġancient": 3365,
  "Ġpotatoes": 3366,
  "Ġcampsite": 3367,
  "Ġcapture": 3368,
  "Ġdeli": 3369,
  "Ġpedals": 3370,
  "opoly": 3371,
  "Ġsynch": 3372,
  "Ġsynchron": 3373,
  "Ġsynchronized": 3374,
  "Ġwindowsill": 3375,
  "Ġdug": 3376,
  "Ġweird": 3377,
  "Ġrushing": 3378,
  "Ġnine": 3379,
  "Ġpomp": 3380,
  "isney": 3381,
  "ĠDisney": 3382,
  "Ġadv": 3383,
  "Ġamplifier": 3384,
  "Ġ25": 3385,
  "Ġ%": 3386,
  "Ġattraction": 3387,
  "Ġcockpit": 3388,
  "Ġmug": 3389,
  "Ġmixer": 3390,
  "Ġfixes": 3391,
  "Ġcomforter": 3392,
  "brown": 3393,
  "Toddler": 3394,
  "Ġbronco": 3395,
  "Ġhandmade": 3396,
  "Ġvocalist": 3397,
  "Ġtournament": 3398,
  "ĠGreat": 3399,
  "Ġradio": 3400,
  "Ġmegaphone": 3401,
  "Ġconfet": 3402,
  "Ġconfetti": 3403,
  "Ġwaff": 3404,
  "vation": 3405,
  "Ġboogie": 3406,
  "Ġchubby": 3407,
  "Ġcurrent": 3408,
  "Ġcurrently": 3409,
  "ING": 3410,
  "Cheer": 3411,
  "ĠNative": 3412,
  "ĠFrance": 3413,
  "Ġhammock": 3414,
  "'.": 3415,
  "Ġduffel": 3416,
  "Ġnewlywed": 3417,
  "Ġtongs": 3418,
  "Ġneatly": 3419,
  "African": 3420,
  "bly": 3421,
  "Ġassembly": 3422,
  "hel": 3423,
  "Ġglancing": 3424,
  "ĠCom": 3425,
  "Ġripped": 3426,
  "Ġinvolved": 3427,
  "Ġtulips": 3428,
  "Ġash": 3429,
  "Ġdiag": 3430,
  "ramid": 3431,
  "Ġpyramid": 3432,
  "Smiling": 3433,
  "Ġcrawling": 3434,
  "Ġisland": 3435,
  "Ġlimb": 3436,
  "Ġotherwise": 3437,
  "Ġscratches": 3438,
  "Ġuncut": 3439,
  "ĠHe": 3440,
  "Ġlunging": 3441,
  "Ġmarch": 3442,
  "ĠCafe": 3443,
  "Ġhotdog": 3444,
  "Ġbreed": 3445,
  "Ġvisitors": 3446,
  "Ġbrows": 3447,
  "Ġbrowsing": 3448,
  "Ġprevent": 3449,
  "ĠUnited": 3450,
  "Ġtemp": 3451,
  "Ġankle": 3452,
  "deep": 3453,
  "Ġhusband": 3454,
  "Ġoil": 3455,
  "proof": 3456,
  "Ġcrawls": 3457,
  "Ġwaterskiing": 3458,
  "Ġskyscrapers": 3459,
  "izard": 3460,
  "Ġcloths": 3461,
  "Ġequipped": 3462,
  "type": 3463,
  "Ġprize": 3464,
  "Ġsoil": 3465,
  "Ġmajor": 3466,
  "Ġextending": 3467,
  "Ġembankment": 3468,
  "vergreen": 3469,
  "Ġvacuuming": 3470,
  "Ġvacuum": 3471,
  "Ġlid": 3472,
  "Ġcharco": 3473,
  "Ġcharcoal": 3474,
  "Ġadorned": 3475,
  "Ġwakeboard": 3476,
  "Ġpadded": 3477,
  "Ġexotic": 3478,
  "Ġdishwasher": 3479,
  "ong": 3480,
  "Ġheadscarves": 3481,
  "Ġacrobatic": 3482,
  "ĠOriental": 3483,
  "Ġpuffy": 3484,
  "minton": 3485,
  "brea": 3486,
  "ongeBo": 3487,
  "ongeBob": 3488,
  "Ġhij": 3489,
  "Ġpatrol": 3490,
  "Ġoutcrop": 3491,
  "Ġplum": 3492,
  "Ġcoast": 3493,
  "Ġrelaxes": 3494,
  "Ġhundreds": 3495,
  "Ġassembled": 3496,
  "Students": 3497,
  "AN": 3498,
  "Ġsmir": 3499,
  "Ġreview": 3500,
  "Ġbluish": 3501,
  "Ġhovering": 3502,
  "Ġspi": 3503,
  "Ġsparkly": 3504,
  "Gray": 3505,
  "Ġstriking": 3506,
  "Ġarchway": 3507,
  "Ġrailway": 3508,
  "Ġcontemplating": 3509,
  "Ġbronze": 3510,
  "Ġturtle": 3511,
  "Ġtribal": 3512,
  "Ġbangs": 3513,
  "Ġbridal": 3514,
  "Ġharbor": 3515,
  "Ġlasso": 3516,
  "ĠBlue": 3517,
  "Ġhairnet": 3518,
  "lift": 3519,
  "Ġrequ": 3520,
  "Ġembroidered": 3521,
  "Ġbagpipe": 3522,
  "ridge": 3523,
  "Photo": 3524,
  "mill": 3525,
  "Ġbowtie": 3526,
  "Ġchun": 3527,
  "ĠSpanish": 3528,
  "Ġsitu": 3529,
  "Ġfluorescent": 3530,
  "Ġattendant": 3531,
  "Ġrowboat": 3532,
  "Ġcheerleader": 3533,
  "ĠUSA": 3534,
  "arm": 3535,
  "Ġpretzels": 3536,
  "Ġwoven": 3537,
  "Ġassisting": 3538,
  "first": 3539,
  "Ġheadfirst": 3540,
  "Eleven": 3541,
  "fashioned": 3542,
  "Ġsize": 3543,
  "rofoam": 3544,
  "Ġxy": 3545,
  "Ġcomposed": 3546,
  "Ġpeeking": 3547,
  "ĠElmo": 3548,
  "Ġboundary": 3549,
  "Ġanx": 3550,
  "iously": 3551,
  "Ġviolinist": 3552,
  "Ġbowing": 3553,
  "Ġweapon": 3554,
  "Run": 3555,
  "Runners": 3556,
  "Ġscrub": 3557,
  "Ġmixture": 3558,
  "Ġbackhoe": 3559,
  "Ġprimarily": 3560,
  "osable": 3561,
  "Ġdisposable": 3562,
  "Ġcreated": 3563,
  "Ġcub": 3564,
  "Ġleopard": 3565,
  "Ġyear": 3566,
  "Ġdraws": 3567,
  "riend": 3568,
  "Grey": 3569,
  "Ġunique": 3570,
  "ĠFrench": 3571,
  "Ġsuspension": 3572,
  "ĠMonopoly": 3573,
  "Ġemerging": 3574,
  "atch": 3575,
  "Ġmount": 3576,
  "ĠScot": 3577,
  "ĠScottish": 3578,
  "Ġmagic": 3579,
  "Ġpompoms": 3580,
  "Ġcupca": 3581,
  "themed": 3582,
  "appy": 3583,
  "Ġintercept": 3584,
  "Ġeyeb": 3585,
  "OR": 3586,
  "Ġbrochure": 3587,
  "Ġfixtures": 3588,
  "av": 3589,
  "Ġletter": 3590,
  "Ġseafood": 3591,
  "Ġdaylight": 3592,
  "Ġ.": 3593,
  "Ġcroch": 3594,
  "Ġgranite": 3595,
  "Ġtheme": 3596,
  "Ġbackdropped": 3597,
  "Ġzoo": 3598,
  "sh": 3599,
  "Ġstudies": 3600,
  "Ġtends": 3601,
  "Ġkept": 3602,
  "Ġstairwell": 3603,
  "ĠBat": 3604,
  "Ġfavorite": 3605,
  "Ġexpensive": 3606,
  "Ġlaunch": 3607,
  "ewish": 3608,
  "orld": 3609,
  "Ġthread": 3610,
  "Ġgreeting": 3611,
  "ĠSum": 3612,
  "cert": 3613,
  "ĠAngeles": 3614,
  "Ġmossy": 3615,
  "Ġscrew": 3616,
  "Ġscrewd": 3617,
  "Ġjar": 3618,
  "Ġpensive": 3619,
  "Ġskyscraper": 3620,
  "Ġfilms": 3621,
  "Ġroofs": 3622,
  "Ġhamburger": 3623,
  "Ġexposing": 3624,
  "Numerous": 3625,
  "Adults": 3626,
  "Ġyawning": 3627,
  "Ġpaisley": 3628,
  "Ġoars": 3629,
  "Ġsmelling": 3630,
  "no": 3631,
  "Ġscrol": 3632,
  "Ġfifth": 3633,
  "Ġshred": 3634,
  "zing": 3635,
  "Ġleis": 3636,
  "Ġschoolgirl": 3637,
  "Ġroyal": 3638,
  "Ġunison": 3639,
  "Ġcurled": 3640,
  "Ġboa": 3641,
  "Ġbreakdan": 3642,
  "Ġbreakdancing": 3643,
  "Ġslender": 3644,
  "dhist": 3645,
  "Ġpedal": 3646,
  "ieval": 3647,
  "Ġmedieval": 3648,
  "ĠQ": 3649,
  "Ġabstract": 3650,
  "Ġwrong": 3651,
  "Ġferry": 3652,
  "Ġpregnant": 3653,
  "nyrd": 3654,
  "Ġbouncy": 3655,
  "ĠJoh": 3656,
  "Ġraking": 3657,
  "Un": 3658,
  "Ġtemporary": 3659,
  "Ġgoofy": 3660,
  "Ġspending": 3661,
  "Ġassisted": 3662,
  "Ġactivities": 3663,
  "Ġsolid": 3664,
  "ij": 3665,
  "ux": 3666,
  "Ġconcerned": 3667,
  "Ġcaptain": 3668,
  "Ġswan": 3669,
  "Ġslowly": 3670,
  "Ġapproximately": 3671,
  "Ġredhead": 3672,
  "Ġadorn": 3673,
  "Ġtrophy": 3674,
  "Ġflanked": 3675,
  "Ġhopping": 3676,
  "ĠSun": 3677,
  "Ġcasino": 3678,
  "Ġcampus": 3679,
  "Ġaudio": 3680,
  "Ġpearl": 3681,
  "Ġstudded": 3682,
  "Ġsaus": 3683,
  "Ġyo": 3684,
  "yo": 3685,
  "Ġevergreen": 3686,
  "Ġexplaining": 3687,
  "Ġconsists": 3688,
  "Ġplow": 3689,
  "Ġcoll": 3690,
  "Ġcue": 3691,
  "Ġpengu": 3692,
  "Ġoverpass": 3693,
  "iami": 3694,
  "ĠMiami": 3695,
  "Ġclassic": 3696,
  "Ġfilm": 3697,
  "Ġfrench": 3698,
  "Ġassistance": 3699,
  "Ġmonks": 3700,
  "Ġagility": 3701,
  "Ġalcohol": 3702,
  "Ġscruffy": 3703,
  "Ġmaybe": 3704,
  "Ġhauling": 3705,
  "bably": 3706,
  "Ġprobably": 3707,
  "Ġbadminton": 3708,
  "Ġawk": 3709,
  "Ġawkward": 3710,
  "Ġjan": 3711,
  "Ġhijab": 3712,
  "Ġcruise": 3713,
  "Ġoutcropping": 3714,
  "Ġseemingly": 3715,
  "Ġfoil": 3716,
  "Ġ33": 3717,
  "Ġconveyor": 3718,
  "Ġmist": 3719,
  "Ġworkout": 3720,
  "idas": 3721,
  "Ġrectangular": 3722,
  "Ġquad": 3723,
  "Ġrapid": 3724,
  "dyed": 3725,
  "ĠCalifor": 3726,
  "nia": 3727,
  "ĠCalifornia": 3728,
  "Ġdunk": 3729,
  "ĠStarb": 3730,
  "Ġvisiting": 3731,
  "Aid": 3732,
  "Ġconducting": 3733,
  "11": 3734,
  "Ġcrocod": 3735,
  "Ġ19": 3736,
  "Ġpullover": 3737,
  "Ġrepairs": 3738,
  "Ġproblem": 3739,
  "lattered": 3740,
  "Ġcrib": 3741,
  "Ġbackstroke": 3742,
  "Ġdetermined": 3743,
  "ĠPizza": 3744,
  "Ġbeak": 3745,
  "Ġpatriotic": 3746,
  "ĠVe": 3747,
  "lahoma": 3748,
  "Ġlove": 3749,
  "Ġrequires": 3750,
  "ĠLight": 3751,
  "pot": 3752,
  "Ġchanging": 3753,
  "Ġpossible": 3754,
  "Ġonce": 3755,
  "ĠUniversity": 3756,
  "Ġbaked": 3757,
  "Ġpamphlet": 3758,
  "Ġdefender": 3759,
  "ev": 3760,
  "exas": 3761,
  "Ġsip": 3762,
  "Ġappla": 3763,
  "Ġrubble": 3764,
  "Ġbree": 3765,
  "Ġdoberman": 3766,
  "ĠJesus": 3767,
  "with": 3768,
  "Ġcathedral": 3769,
  "Ġdesktop": 3770,
  "lywood": 3771,
  "Ġprice": 3772,
  "Ġdolp": 3773,
  "Ġdandelions": 3774,
  "Ġstyrofoam": 3775,
  "Ġtorso": 3776,
  "rael": 3777,
  "Ġxylop": 3778,
  "Ġxylophone": 3779,
  "Ġreceive": 3780,
  "Ġgrowing": 3781,
  "Ġamused": 3782,
  "Ġprocedure": 3783,
  "entral": 3784,
  "xim": 3785,
  "bench": 3786,
  "Ġworkbench": 3787,
  "Ġhurry": 3788,
  "Ġcoal": 3789,
  "ĠHar": 3790,
  "Ġreceiving": 3791,
  "Ġwristband": 3792,
  "Ġglittery": 3793,
  "Ġrake": 3794,
  "gehammer": 3795,
  "Ġsledgehammer": 3796,
  "Over": 3797,
  "Ġpierced": 3798,
  "Ġmetropolitan": 3799,
  "Ġpassionately": 3800,
  "Ġfolk": 3801,
  "Ġdisinterested": 3802,
  "ription": 3803,
  "Ġsilverware": 3804,
  "Ġspeedboat": 3805,
  "ashington": 3806,
  "Ġtwisting": 3807,
  "Ġexercising": 3808,
  "Ġsurgeon": 3809,
  "Ġcause": 3810,
  "Ġtwisted": 3811,
  "Ġnetting": 3812,
  "Ġpatiently": 3813,
  "Ġadditional": 3814,
  "Ġoverhan": 3815,
  "ung": 3816,
  "AT": 3817,
  "Ġleafless": 3818,
  "RA": 3819,
  "ĠJen": 3820,
  "ĠJenga": 3821,
  "Ġsparklers": 3822,
  "Ġconf": 3823,
  "Ġjetty": 3824,
  "Ġappropriate": 3825,
  "Ġaccessories": 3826,
  "Ġresort": 3827,
  "Ġcombat": 3828,
  "Ġpresumably": 3829,
  "Ġmachete": 3830,
  "Ġpedestal": 3831,
  "Ġtoboggan": 3832,
  "Ġnovel": 3833,
  "Ds": 3834,
  "Ġskimpy": 3835,
  "Ġstrawberry": 3836,
  "Ġwaffle": 3837,
  "Ġpeak": 3838,
  "Ġgoers": 3839,
  "Ġnecktie": 3840,
  "Ġcomic": 3841,
  "Ind": 3842,
  "Cheerleaders": 3843,
  "Ġterrier": 3844,
  "Ġreporter": 3845,
  "ĠWorld": 3846,
  "HE": 3847,
  "ĠWalmart": 3848,
  "ĠKorean": 3849,
  "ĠScouts": 3850,
  "Ġornamental": 3851,
  "ĠSummer": 3852,
  "Ġcurling": 3853,
  "ĠSam": 3854,
  "Ġflashlight": 3855,
  "Ġscrewdriver": 3856,
  "Ġbookshelves": 3857,
  "Ġonions": 3858,
  "Ġadjustments": 3859,
  "ĠWar": 3860,
  "forcement": 3861,
  "Ġenforcement": 3862,
  "Dancers": 3863,
  "Ġdesolate": 3864,
  "Ġroadway": 3865,
  "Ġcrutches": 3866,
  "Ġmule": 3867,
  "pipe": 3868,
  "Ġdollhouse": 3869,
  "Ġsister": 3870,
  "Ġnude": 3871,
  "Ġanvil": 3872,
  "Shirtless": 3873,
  "City": 3874,
  "Ġscroll": 3875,
  "Cola": 3876,
  "Ġsqueezing": 3877,
  "ĠKit": 3878,
  "ĠKitty": 3879,
  "ĠNinten": 3880,
  "ĠNintendo": 3881,
  "ĠOb": 3882,
  "ĠObama": 3883,
  "Ġzeb": 3884,
  "Ġzebra": 3885,
  "ĠiPod": 3886,
  "ĠBritain": 3887,
  "Ġstylish": 3888,
  "ĠSpiderman": 3889,
  "Band": 3890,
  "ĠQu": 3891,
  "corn": 3892,
  "Ġpopcorn": 3893,
  "Ġutens": 3894,
  "Ġditch": 3895,
  "Ġtypewriter": 3896,
  "ault": 3897,
  "Ġphysical": 3898,
  "Ġstroke": 3899,
  "ĠOcean": 3900,
  "uchsia": 3901,
  "Ġfuchsia": 3902,
  "Ġzippered": 3903,
  "Ġmessage": 3904,
  "ript": 3905,
  "Ġpantyhose": 3906,
  "Ġglobe": 3907,
  "Ġavailable": 3908,
  "Ġollie": 3909,
  "ĠJohn": 3910,
  "Ġrefreshing": 3911,
  "clad": 3912,
  "Ġmeasuring": 3913,
  "Ġsews": 3914,
  "Ġsuc": 3915,
  "Ġrabbit": 3916,
  "Ġlantern": 3917,
  "Ġseesaw": 3918,
  "Ġhighly": 3919,
  "innie": 3920,
  "eij": 3921,
  "Ġballgame": 3922,
  "Ġfaux": 3923,
  "50": 3924,
  "Ġlayers": 3925,
  "AM": 3926,
  "ĠDal": 3927,
  "ixed": 3928,
  "Picture": 3929,
  "After": 3930,
  "Ġkeyboardist": 3931,
  "Ġreh": 3932,
  "ak": 3933,
  "Ġolympic": 3934,
  "Ġtrots": 3935,
  "etti": 3936,
  "Ġmarshmallow": 3937,
  "Am": 3938,
  "eastern": 3939,
  "Snowboarder": 3940,
  "Ġblade": 3941,
  "bull": 3942,
  "Ġrollerblader": 3943,
  "Ġimportant": 3944,
  "Ġtrek": 3945,
  "Ġassists": 3946,
  "Ġpuzzle": 3947,
  "Ġsleigh": 3948,
  "Ġentertainment": 3949,
  "Ġjavelin": 3950,
  "Ġsausages": 3951,
  "Ġsniffs": 3952,
  "Ġbalcon": 3953,
  "Ġbalconies": 3954,
  "Ġmuff": 3955,
  "Ġmanipulating": 3956,
  "Ġascending": 3957,
  "Brunette": 3958,
  "Couple": 3959,
  "adio": 3960,
  "two": 3961,
  "ision": 3962,
  "Ġculture": 3963,
  "Ġoutward": 3964,
  "Ġlei": 3965,
  "Ġdefend": 3966,
  "ĠBrazilian": 3967,
  "Ġskydiving": 3968,
  "Ġdangerous": 3969,
  "Ġpaintbrush": 3970,
  "Ġcorrugated": 3971,
  "Ġviews": 3972,
  "Ġswimwear": 3973,
  "Ġupraised": 3974,
  "Ġcrest": 3975,
  "Ġafro": 3976,
  "Ġ30": 3977,
  "High": 3978,
  "Shop": 3979,
  "Ġpretends": 3980,
  "Ġunit": 3981,
  "ombie": 3982,
  "Ġzombie": 3983,
  "Ġcorridor": 3984,
  "Dressed": 3985,
  "block": 3986,
  "inum": 3987,
  "Ġaluminum": 3988,
  "Ġ$": 3989,
  "Ġpersonnel": 3990,
  "Ġdomino": 3991,
  "Ġhoisted": 3992,
  "Ġdisk": 3993,
  "ĠIrish": 3994,
  "Ġfitted": 3995,
  "Ġharvesting": 3996,
  "Ġbarred": 3997,
  "urst": 3998,
  "Ġtightrope": 3999,
  "Ġbassist": 4000,
  "etro": 4001,
  "Ġcubicle": 4002,
  "Ġfixture": 4003,
  "Ġtoast": 4004,
  "Ġcreate": 4005,
  "Ġbacklit": 4006,
  "Ġconcession": 4007,
  "Ġparticular": 4008,
  "Ġkettle": 4009,
  "drawn": 4010,
  "Ġscrib": 4011,
  "ĠYan": 4012,
  "Ġcrocodile": 4013,
  "Col": 4014,
  "ĠNo": 4015,
  "Ġextend": 4016,
  "Ġgreenhouse": 4017,
  "flowing": 4018,
  "Ġwarning": 4019,
  "Ġbadges": 4020,
  "Ġfishermen": 4021,
  "Ġvelvet": 4022,
  "Ġsplattered": 4023,
  ").": 4024,
  "Ġbanquet": 4025,
  "ĠUN": 4026,
  "Ġbatting": 4027,
  "Ġaddressing": 4028,
  "Ġspraw": 4029,
  "Ġarrangement": 4030,
  "Ġbadge": 4031,
  "wrapped": 4032,
  "Ġaircraft": 4033,
  "paved": 4034,
  "nd": 4035,
  "phone": 4036,
  "Ġremoves": 4037,
  "ĠOklahoma": 4038,
  "Ġhandful": 4039,
  "Ġtechnique": 4040,
  "lip": 4041,
  "Ġforce": 4042,
  "Ġoar": 4043,
  "Ġexits": 4044,
  "ĠLegos": 4045,
  "Ġblossoms": 4046,
  "Ġbrimmed": 4047,
  "circle": 4048,
  "limbing": 4049,
  "Ġcabinet": 4050,
  "ĠRoller": 4051,
  "Ġhedges": 4052,
  "ĠBer": 4053,
  "Ġgripping": 4054,
  "Onlookers": 4055,
  "Ġbring": 4056,
  "Ġpowerpoint": 4057,
  "Ġquilt": 4058,
  "Ġpegs": 4059,
  "Surfer": 4060,
  "Ġforklift": 4061,
  "Ġbrow": 4062,
  "Ġlizard": 4063,
  "Ġapplauding": 4064,
  "Police": 4065,
  "urs": 4066,
  "Ġhandheld": 4067,
  "ĠHouse": 4068,
  "Ġtransparent": 4069,
  "Ġtrouble": 4070,
  "ĠMer": 4071,
  "cedes": 4072,
  "Ġbreeze": 4073,
  "ĠSpongeBob": 4074,
  "ibility": 4075,
  "Ġmosaic": 4076,
  "friend": 4077,
  "Ġastride": 4078,
  "ĠVictorian": 4079,
  "Ġstreetlights": 4080,
  "Ġburn": 4081,
  "Ġbonnet": 4082,
  "Ġbasin": 4083,
  "ĠSeattle": 4084,
  "ĠBull": 4085,
  "Ġperfect": 4086,
  "Ġtoppings": 4087,
  "Ġsource": 4088,
  "wim": 4089,
  "Ġimpress": 4090,
  "Ġtreadmill": 4091,
  "ĠPort": 4092,
  "Ġtrom": 4093,
  "Ġdolphin": 4094,
  "Ġnetted": 4095,
  "Ġblindfolded": 4096,
  "the": 4097,
  "Ġfiring": 4098,
  "ĠRo": 4099,
  "ĠMickey": 4100,
  "ĠIsrael": 4101,
  "Ġgigantic": 4102,
  "lazoned": 4103,
  "Ġemblazoned": 4104,
  "fitting": 4105,
  "Ġmitt": 4106,
  "Ġcrossbones": 4107,
  "Ġmagnif": 4108,
  "Ġmagnifying": 4109,
  "Ġcrime": 4110,
  "Ġlimo": 4111,
  "ĠCentral": 4112,
  "Ġsunlit": 4113,
  "Ġworkmen": 4114,
  "Ġsearch": 4115,
  "Ġcropped": 4116,
  "Ġcampground": 4117,
  "Ġnoise": 4118,
  "picker": 4119,
  "Ġhappiness": 4120,
  "Ġworried": 4121,
  "Ġadjacent": 4122,
  "uing": 4123,
  "ĠWashington": 4124,
  "watch": 4125,
  "Ġcrazy": 4126,
  "twe": 4127,
  "Ġsquatted": 4128,
  "Ġlitter": 4129,
  "Ġseeing": 4130,
  "Ġbookcase": 4131,
  "Ġbuffalo": 4132,
  "Ġpopping": 4133,
  "Happy": 4134,
  "Ġspandex": 4135,
  "ustral": 4136,
  "ĠAustral": 4137,
  "Ġjudge": 4138,
  "Ġpriest": 4139,
  "ygen": 4140,
  "Ġoxygen": 4141,
  "Ġmanhole": 4142,
  "ua": 4143,
  "Ġgrid": 4144,
  "Rock": 4145,
  "clock": 4146,
  "Ġswampy": 4147,
  "Ġconfused": 4148,
  "Ġpowerful": 4149,
  "Ġdustpan": 4150,
  "Ġrunway": 4151,
  "Ġloaf": 4152,
  "ĠSport": 4153,
  "Ġsimple": 4154,
  "Ġbarbed": 4155,
  "Ġcausing": 4156,
  "Ġmidriff": 4157,
  "Ġuncom": 4158,
  "Ġdachsh": 4159,
  "ĠTeam": 4160,
  "Ġcomprised": 4161,
  "ĠTan": 4162,
  "Ġattendees": 4163,
  "Ġvisit": 4164,
  "Ġscrab": 4165,
  "Ġscrabble": 4166,
  "CH": 4167,
  "Ġflippers": 4168,
  "Ġdarkly": 4169,
  "Ġwaterskier": 4170,
  "Ġglassware": 4171,
  "ĠDay": 4172,
  "Ġassoc": 4173,
  "Ġtwelve": 4174,
  "Ġtrud": 4175,
  "tries": 4176,
  "Ġcountries": 4177,
  "ubway": 4178,
  "Ġreclines": 4179,
  "ĠConcert": 4180,
  "Ġplayhouse": 4181,
  "Ġcellist": 4182,
  "Native": 4183,
  "Ġmedian": 4184,
  "Ġdescription": 4185,
  "epper": 4186,
  "ĠPepper": 4187,
  "ĠDr": 4188,
  "Ġdip": 4189,
  "Ġsweatsuit": 4190,
  "range": 4191,
  "walled": 4192,
  "Sur": 4193,
  "Ġpeanut": 4194,
  "Ġexploring": 4195,
  "Ġcompound": 4196,
  "Ġcoins": 4197,
  "ĠToyota": 4198,
  "Ġstrong": 4199,
  "Ġpause": 4200,
  "ortunity": 4201,
  "Ġopportunity": 4202,
  "buttoned": 4203,
  "Ġunbuttoned": 4204,
  "Ġbatman": 4205,
  "ĠAir": 4206,
  "Ġhopscotch": 4207,
  "Ġbilliards": 4208,
  "ĠGame": 4209,
  "Bald": 4210,
  "Ġpassageway": 4211,
  "tray": 4212,
  "Ġpiercings": 4213,
  "ĠBuddhist": 4214,
  "ĠUnion": 4215,
  "Ġenthusiastically": 4216,
  "Father": 4217,
  "Free": 4218,
  "Ġdeeply": 4219,
  "Ġcrot": 4220,
  "Ġcrotch": 4221,
  "Ġcivilians": 4222,
  "Ġroughly": 4223,
  "Very": 4224,
  "Ġdrenched": 4225,
  "Ġflexing": 4226,
  "ĠCoke": 4227,
  "Blue": 4228,
  "Ġglacier": 4229,
  "Ġsomersault": 4230,
  "Number": 4231,
  "Ġconvertible": 4232,
  "Ġinternational": 4233,
  "Ġlist": 4234,
  "ĠSky": 4235,
  "horn": 4236,
  "ietnamese": 4237,
  "ĠVietnamese": 4238,
  "ĠDeere": 4239,
  "You": 4240,
  "ĠEngland": 4241,
  "ĠKing": 4242,
  "Ġremoved": 4243,
  "Ġhidden": 4244,
  "Ġheight": 4245,
  "ĠEast": 4246,
  "Ġsuccess": 4247,
  "Ġbarbie": 4248,
  "Ġperches": 4249,
  "size": 4250,
  "Ġpopsicle": 4251,
  "New": 4252,
  "ĠBeij": 4253,
  "ĠBeijing": 4254,
  "Ġbuckle": 4255,
  "Ġproviding": 4256,
  "Ġnightc": 4257,
  "Ġnightclub": 4258,
  "izable": 4259,
  "Ġtye": 4260,
  "Ġhedge": 4261,
  "Ġaltar": 4262,
  "brimmed": 4263,
  "Ġdisabled": 4264,
  "Ġmul": 4265,
  "Ġspagh": 4266,
  "Ġspaghetti": 4267,
  "Com": 4268,
  "Ġpiping": 4269,
  "Ġyach": 4270,
  "Ġ23": 4271,
  "Ġarchitectural": 4272,
  "cro": 4273,
  "Ġwrite": 4274,
  "Ġdropped": 4275,
  "Ġplugging": 4276,
  "Ġtheatrical": 4277,
  "Ġstraddling": 4278,
  "urn": 4279,
  "Ġfanny": 4280,
  "Per": 4281,
  "Ġelegant": 4282,
  "Ġnapping": 4283,
  "Ġenergy": 4284,
  "Ġfier": 4285,
  "ĠRadio": 4286,
  "mun": 4287,
  "Ġpadding": 4288,
  "Ġbarret": 4289,
  "Roller": 4290,
  "Ġwindsurfer": 4291,
  "Ġblackboard": 4292,
  "Ġtransporting": 4293,
  "Ġpineapples": 4294,
  "Ġutil": 4295,
  "Ġcabin": 4296,
  "EA": 4297,
  "Ġoutline": 4298,
  "Ġbonfire": 4299,
  "Ġwaitress": 4300,
  "10": 4301,
  "Images": 4302,
  "Ġextrav": 4303,
  "Ġextravagant": 4304,
  "gway": 4305,
  "ĠSegway": 4306,
  "Ġidentifying": 4307,
  "Ar": 4308,
  "Ġopposition": 4309,
  "Ġcomfort": 4310,
  "Ġswad": 4311,
  "Ġcrevice": 4312,
  "Ġpicturesque": 4313,
  "Ġexit": 4314,
  "Ġbusily": 4315,
  "Ġtrimming": 4316,
  "ĠBush": 4317,
  "Ġ40": 4318,
  "atrick": 4319,
  "ĠPatrick": 4320,
  "Ġoboe": 4321,
  "Shoppers": 4322,
  "Ġritual": 4323,
  "Ġgorgeous": 4324,
  "Hund": 4325,
  "Hundreds": 4326,
  "Ġoddly": 4327,
  "Ġcuffs": 4328,
  "Ġjanitor": 4329,
  "Ġwindbreaker": 4330,
  "Ġregion": 4331,
  "ĠEx": 4332,
  "Ġcreature": 4333,
  "vo": 4334,
  "Ġgrimaces": 4335,
  "Ġstreetlight": 4336,
  "Ġdominoes": 4337,
  "Sc": 4338,
  "ĠMr": 4339,
  "Ġ15": 4340,
  "Ġwhisk": 4341,
  "ĠAdidas": 4342,
  "Ġsymbol": 4343,
  "Ġornaments": 4344,
  "Ġdecides": 4345,
  "Ġ36": 4346,
  "wurst": 4347,
  "Ġbratwurst": 4348,
  "EM": 4349,
  "Ġbulb": 4350,
  "Ġchemicals": 4351,
  "CE": 4352,
  "ĠMetro": 4353,
  "Tw": 4354,
  "Ġsculptor": 4355,
  "Kid": 4356,
  "Ġculinary": 4357,
  "Ġdrun": 4358,
  "Ġ24": 4359,
  "ĠStarbucks": 4360,
  "ĠYankees": 4361,
  "Ġsushi": 4362,
  "Ġspiky": 4363,
  "Ġarguing": 4364,
  "Ġsponge": 4365,
  "Ġfishnet": 4366,
  "ax": 4367,
  "Ġoverflowing": 4368,
  "Ġdramatic": 4369,
  "Ġcompartment": 4370,
  "Ġlightly": 4371,
  "Ġmows": 4372,
  "Ġknight": 4373,
  "Ġdecide": 4374,
  "Ġbutt": 4375,
  "ossibly": 4376,
  "Ġadmires": 4377,
  "ĠTer": 4378,
  "Ġpunk": 4379,
  "Ġsprawled": 4380,
  "Ġwheelchairs": 4381,
  "Ġshortly": 4382,
  "ĠVir": 4383,
  "ĠVirg": 4384,
  "ĠVirginia": 4385,
  "Ġmowing": 4386,
  "terned": 4387,
  "bu": 4388,
  "built": 4389,
  "Adult": 4390,
  "Ġdemonstrate": 4391,
  "Ġlollip": 4392,
  "ĠJeep": 4393,
  "CA": 4394,
  "Ġplugs": 4395,
  "Ġburlap": 4396,
  "p3": 4397,
  "Ġmp3": 4398,
  "pong": 4399,
  "ĠCroc": 4400,
  "ID": 4401,
  "eye": 4402,
  "Skate": 4403,
  "Ġcorral": 4404,
  "Ġcemetery": 4405,
  "Ġparagl": 4406,
  "College": 4407,
  "Ġplaypen": 4408,
  "Ġfuture": 4409,
  "Ġdonning": 4410,
  "Ġdefensive": 4411,
  "Do": 4412,
  "Ġhousehold": 4413,
  "Ġfriendly": 4414,
  "Ġclipboard": 4415,
  "Ġconcentrate": 4416,
  "cloth": 4417,
  "urfing": 4418,
  "pro": 4419,
  "Ġpajama": 4420,
  "Ġcliffs": 4421,
  "Ġgambling": 4422,
  "fast": 4423,
  "Ġbreakfast": 4424,
  "ĠDS": 4425,
  "Ġsparkling": 4426,
  "Ġnuts": 4427,
  "ĠTexas": 4428,
  "ĠJewish": 4429,
  "Ġinterview": 4430,
  "ON": 4431,
  "redible": 4432,
  "Ġwarrior": 4433,
  "Ġangry": 4434,
  "Ġreviewing": 4435,
  "Ġbrought": 4436,
  "Ġsedan": 4437,
  "Ġrobot": 4438,
  "ĠFlag": 4439,
  "Ġnylon": 4440,
  "Ġalter": 4441,
  "aucasian": 4442,
  "Caucasian": 4443,
  "Ġridding": 4444,
  "Ġforrest": 4445,
  "groud": 4446,
  "ĠMercedes": 4447,
  "Ġpiercing": 4448,
  "Ġshuttered": 4449,
  "ĠMicha": 4450,
  "ĠMichael": 4451,
  "ĠVegas": 4452,
  "ĠMacBook": 4453,
  "ĠBank": 4454,
  "Ġflipped": 4455,
  "Protesters": 4456,
  "Ġcandid": 4457,
  "Ġmedia": 4458,
  "Ġhandlebar": 4459,
  "Ġseg": 4460,
  "Chef": 4461,
  "gi": 4462,
  "Ġreind": 4463,
  "Ġreindeer": 4464,
  "eterm": 4465,
  "Military": 4466,
  "Ġawkwardly": 4467,
  "),": 4468,
  "flowers": 4469,
  "Ġpenguin": 4470,
  "Ġtechnician": 4471,
  "rofessional": 4472,
  "Professional": 4473,
  "Outdoor": 4474,
  "Ġstrawberries": 4475,
  "Ġcontinue": 4476,
  "Ten": 4477,
  "uzzy": 4478,
  "Ġfuzzy": 4479,
  "Ġexposed": 4480,
  "Ġgrowling": 4481,
  "Greyhound": 4482,
  "Firef": 4483,
  "Ġpistol": 4484,
  "ĠCor": 4485,
  "Ġconcentration": 4486,
  "Ġscram": 4487,
  "Ġwrapper": 4488,
  "Ġcontrolling": 4489,
  "Ġglider": 4490,
  "ĠGate": 4491,
  "Ġburger": 4492,
  "Yellow": 4493,
  "Swim": 4494,
  "Ġhealthcare": 4495,
  "ĠPokemon": 4496,
  "Ġcreation": 4497,
  "Ġscrubbing": 4498,
  "Ġwestern": 4499,
  "Ġchunk": 4500,
  "Ġpitchfork": 4501,
  "ĠHol": 4502,
  "Ġframing": 4503,
  "Ġproxim": 4504,
  "Ġproximity": 4505,
  "blades": 4506,
  "Ġpurchasing": 4507,
  "Ġcoin": 4508,
  "Ġcorp": 4509,
  "Ġalligator": 4510,
  "OL": 4511,
  "Ġethnicity": 4512,
  "Ġstrength": 4513,
  "Ġpeb": 4514,
  "ES": 4515,
  "Ġmedals": 4516,
  "Ġgeometric": 4517,
  "Ġtissue": 4518,
  "Ġportly": 4519,
  "Ġsquirted": 4520,
  "Ġgrayish": 4521,
  "Ġjelly": 4522,
  "En": 4523,
  "Ġsnapping": 4524,
  "Ġsandal": 4525,
  "Ġlottery": 4526,
  "epartment": 4527,
  "ĠDepartment": 4528,
  "Ġcocktails": 4529,
  "Ġthrill": 4530,
  "Ġherbs": 4531,
  "ĠHarley": 4532,
  "ization": 4533,
  "Ġorganization": 4534,
  "Ġfringe": 4535,
  "Ġsyringe": 4536,
  "Ġanxiously": 4537,
  "ĠAf": 4538,
  "Overhead": 4539,
  "Ġawesome": 4540,
  "Ġchestn": 4541,
  "Ġexpressing": 4542,
  "Player": 4543,
  "Ġenjoyed": 4544,
  "ĠPac": 4545,
  "Ġlilies": 4546,
  "Ġoccasion": 4547,
  "Ġtattered": 4548,
  "Ġentryway": 4549,
  "ĠSa": 4550,
  "Ġbarbecuing": 4551,
  "Ġphrase": 4552,
  "Be": 4553,
  "black": 4554,
  "Ġrottwe": 4555,
  "OS": 4556,
  "Ġmarriage": 4557,
  "Ġoverhang": 4558,
  "Ġcurving": 4559,
  "Ġeyebrows": 4560,
  "LI": 4561,
  "Ġorganizing": 4562,
  "hua": 4563,
  "huahua": 4564,
  "Ġchihuahua": 4565,
  "ĠGaz": 4566,
  "ĠGaza": 4567,
  "ĠJoe": 4568,
  "Ġcarve": 4569,
  "Ġnike": 4570,
  "owboy": 4571,
  "Ġsalt": 4572,
  "Ġfrizz": 4573,
  "Ġfrizzy": 4574,
  "bert": 4575,
  "ĠClub": 4576,
  "Ġcrochet": 4577,
  "Ġwrought": 4578,
  "ĠWinter": 4579,
  "Ġnovelty": 4580,
  "ĠCDs": 4581,
  "Ġcowgirl": 4582,
  "Ġcomplicated": 4583,
  "ĠAustralian": 4584,
  "Ġuncomfortable": 4585,
  "Ġchandelier": 4586,
  "Ġvigorously": 4587,
  "Ġtroop": 4588,
  "over": 4589,
  "Ġversion": 4590,
  "Ġmailboxes": 4591,
  "cropped": 4592,
  "Ġwaterc": 4593,
  "Ġwatercraft": 4594,
  "Ġcentury": 4595,
  "Ġtriangular": 4596,
  "Ġadmire": 4597,
  "Ġgroomsmen": 4598,
  "ĠBatman": 4599,
  "Ġlimousine": 4600,
  "strewn": 4601,
  "Ġpreserve": 4602,
  "pt": 4603,
  "Ġsync": 4604,
  "ĠGrand": 4605,
  "Ġsparkler": 4606,
  "ĠPro": 4607,
  "LL": 4608,
  "pendic": 4609,
  "pendicular": 4610,
  "Ġperpendicular": 4611,
  "Ġalp": 4612,
  "?\"": 4613,
  "ĠSubway": 4614,
  "ĠMorning": 4615,
  "terrain": 4616,
  "ĠUncle": 4617,
  "Ġtrot": 4618,
  "Ġrefrigerated": 4619,
  "tling": 4620,
  "Ġbattling": 4621,
  "ĠHut": 4622,
  "Ġpride": 4623,
  "Ġmermaid": 4624,
  "Surrounded": 4625,
  "Ġdiagram": 4626,
  "Ġcopper": 4627,
  "ER": 4628,
  "Ġmultitude": 4629,
  "decker": 4630,
  "Ġporcelain": 4631,
  "Ġparasailing": 4632,
  "ĠDior": 4633,
  "Ġbriefs": 4634,
  "Ġfurnished": 4635,
  "Ġtummy": 4636,
  "Ġhaul": 4637,
  "rilliant": 4638,
  "Ġbrilliant": 4639,
  "ĠZ": 4640,
  "Ġmustachioed": 4641,
  "Ġwaistband": 4642,
  "Ġthoroughly": 4643,
  "Ġchallenging": 4644,
  "Ġsnowing": 4645,
  "limbers": 4646,
  "ritty": 4647,
  "Ġgritty": 4648,
  "Ġsnowfall": 4649,
  "Ġremove": 4650,
  "Ġmanual": 4651,
  "Ġashtray": 4652,
  "Ġilluminating": 4653,
  "Vendors": 4654,
  "Ġgiraffe": 4655,
  "Ġtrapeze": 4656,
  "Ġtwirls": 4657,
  "Race": 4658,
  "ĠJack": 4659,
  "Ġornament": 4660,
  "Ġprimary": 4661,
  "Ġongoing": 4662,
  "Ġutensil": 4663,
  "Hol": 4664,
  "Ġclutch": 4665,
  "Ġoccur": 4666,
  "screen": 4667,
  "Ġpassage": 4668,
  "psy": 4669,
  "Ġfowl": 4670,
  "Ġplaques": 4671,
  "ĠFer": 4672,
  "ĠFerris": 4673,
  "Ġdistract": 4674,
  "From": 4675,
  "Ġauto": 4676,
  "Ġfrilly": 4677,
  "ĠiPad": 4678,
  "ynyrd": 4679,
  "ĠGod": 4680,
  "uniformed": 4681,
  "berry": 4682,
  "escript": 4683,
  "inantly": 4684,
  "Ġpredominantly": 4685,
  "Ġmasquerade": 4686,
  "Ġblank": 4687,
  "Ġsatisf": 4688,
  "Colorful": 4689,
  "Ġsaws": 4690,
  "Mon": 4691,
  "Ġdumb": 4692,
  "mp": 4693,
  "Ġparasol": 4694,
  "Customers": 4695,
  "Ġbackup": 4696,
  "Ġfascinated": 4697,
  "Ġdrain": 4698,
  "Ġ2008": 4699,
  "Ġscreams": 4700,
  "Ġaffixed": 4701,
  "ĠMemorial": 4702,
  "ĠHall": 4703,
  "nizable": 4704,
  "ĠChampionship": 4705,
  "earsing": 4706,
  "Ġrehearsing": 4707,
  "Ġfootprints": 4708,
  "ĠBMW": 4709,
  "Ġmulch": 4710,
  "Ġmarshmallows": 4711,
  "28": 4712,
  "ĠGood": 4713,
  "Ġgingerbread": 4714,
  "Ġcactus": 4715,
  "Ġswung": 4716,
  "Ġjewelery": 4717,
  "Ġjoin": 4718,
  "rolling": 4719,
  "ulke": 4720,
  "Ġobscuring": 4721,
  "Ġfairground": 4722,
  "ĠRedbull": 4723,
  "quis": 4724,
  "Ġobservation": 4725,
  "ĠGras": 4726,
  "Ġcu": 4727,
  "Ġcuis": 4728,
  "Ġ32": 4729,
  "Performers": 4730,
  "Ġnotepad": 4731,
  "Ġindicating": 4732,
  "Ġattracts": 4733,
  "Ġknuck": 4734,
  "Ġfreck": 4735,
  "Ġcivilian": 4736,
  "ĠTech": 4737,
  "mit": 4738,
  "Ġfierce": 4739,
  "Ġdetermination": 4740,
  "Ġconsole": 4741,
  "Ġeasy": 4742,
  "Ġwaterproof": 4743,
  "ĠFinn": 4744,
  "ĠFinnish": 4745,
  "Ġavenue": 4746,
  "AY": 4747,
  "Ġjackhammer": 4748,
  "Ġinspired": 4749,
  "Ġmodified": 4750,
  "Ġfoldable": 4751,
  "Ġsphere": 4752,
  "ĠTarget": 4753,
  "Ġboiling": 4754,
  "Ġrummaging": 4755,
  "Ġproclaiming": 4756,
  "Ġseasoning": 4757,
  "plexed": 4758,
  "Ġperplexed": 4759,
  "Ġpristine": 4760,
  "Ġparlor": 4761,
  "UN": 4762,
  "Ġtwins": 4763,
  "nister": 4764,
  "flower": 4765,
  "mic": 4766,
  "Ġanchor": 4767,
  "Ġembedded": 4768,
  "enn": 4769,
  "Ġpineapple": 4770,
  "Ġbunk": 4771,
  "powered": 4772,
  "Hockey": 4773,
  "Ġparachuting": 4774,
  "ĠTube": 4775,
  "ĠSuperman": 4776,
  "Ġcarcass": 4777,
  "Ġpontoon": 4778,
  "Ġbeachfront": 4779,
  "Ġmanicured": 4780,
  "Ġindigenous": 4781,
  "Ġruffled": 4782,
  "Ġbodies": 4783,
  "Ġtouchdown": 4784,
  "LR": 4785,
  "Ġtussle": 4786,
  "raffic": 4787,
  "bal": 4788,
  "Ġcartwh": 4789,
  "Ġresembles": 4790,
  "El": 4791,
  "No": 4792,
  "Ġarmchair": 4793,
  "Ġexplore": 4794,
  "Ġripples": 4795,
  "Ġsmirking": 4796,
  "Ġclipped": 4797,
  "PS": 4798,
  "zy": 4799,
  "Ġsupervising": 4800,
  "Ġwhether": 4801,
  "Ġrefrigerator": 4802,
  "Ġdrunken": 4803,
  "flight": 4804,
  "wind": 4805,
  "Ġreplica": 4806,
  "Ġbitten": 4807,
  "ĠCel": 4808,
  "Ġturntable": 4809,
  "Ġscribbling": 4810,
  "vember": 4811,
  "ĠPeps": 4812,
  "ĠPepsi": 4813,
  "Ġchemistry": 4814,
  "Ġdevelopment": 4815,
  "uve": 4816,
  "Ġmauve": 4817,
  "0s": 4818,
  "Ġbooklet": 4819,
  "Ġsolemn": 4820,
  "ll": 4821,
  "Con": 4822,
  "Ġdojo": 4823,
  "Ġcurls": 4824,
  "ĠNYC": 4825,
  "Ġjaw": 4826,
  "Ġoverturned": 4827,
  "ĠLove": 4828,
  "Ġrecreational": 4829,
  "Ġlamb": 4830,
  "Ġsauce": 4831,
  "Ġcommuter": 4832,
  "Ġamphitheater": 4833,
  "Ġrepresenting": 4834,
  "Ġyawns": 4835,
  "Ġapply": 4836,
  "Ġ18": 4837,
  "Ġ16": 4838,
  "Ġgoodby": 4839,
  "Ġgoodbye": 4840,
  "Ġtransport": 4841,
  "Ġdivided": 4842,
  "Ġseparating": 4843,
  "Ġdeg": 4844,
  "Ġdegrees": 4845,
  "Ġespress": 4846,
  "Ġespresso": 4847,
  "Ġindicates": 4848,
  "Ġmike": 4849,
  "Ġcornfield": 4850,
  "Orange": 4851,
  "Baby": 4852,
  "Ġfestivities": 4853,
  "ĠTibetan": 4854,
  "Ġmushrooms": 4855,
  "Ġswaddled": 4856,
  "Ġclapboard": 4857,
  "lide": 4858,
  "Ġbullhorn": 4859,
  "Ġbeanbag": 4860,
  "Ġuniversity": 4861,
  "ism": 4862,
  "Ġpurp": 4863,
  "atterned": 4864,
  "patterned": 4865,
  "Ġcode": 4866,
  "Ġassociated": 4867,
  "Ġdisheveled": 4868,
  "ĠCru": 4869,
  "Ġlayer": 4870,
  "ince": 4871,
  "Ġprairie": 4872,
  "Ġcrawl": 4873,
  "Ġhoists": 4874,
  "Ġmuffin": 4875,
  "Ġunloads": 4876,
  "View": 4877,
  "Ġsideburns": 4878,
  "Ap": 4879,
  "Ġsmartly": 4880,
  "Ġcompanies": 4881,
  "Ġarranging": 4882,
  "ĠSpider": 4883,
  "Ġgnaw": 4884,
  "Ġgnawing": 4885,
  "Ġtreatment": 4886,
  "ĠCookie": 4887,
  "Ġremoving": 4888,
  "ĠCirc": 4889,
  "Near": 4890,
  "ĠArgentina": 4891,
  "risk": 4892,
  "riskly": 4893,
  "Ġbriskly": 4894,
  "IS": 4895,
  "ĠPops": 4896,
  "potties": 4897,
  "Ġmismatched": 4898,
  "Ġbedspread": 4899,
  "Ġcarrot": 4900,
  "Ġreun": 4901,
  "Ġreunion": 4902,
  "Ġsweatband": 4903,
  "Ġbeauty": 4904,
  "Ġsurveys": 4905,
  "Ġfootb": 4906,
  "Ġfootbridge": 4907,
  "ĠWonder": 4908,
  "Ġminivan": 4909,
  "Ġchopped": 4910,
  "Ġspeckled": 4911,
  "Ġsteadies": 4912,
  "decorated": 4913,
  "igrant": 4914,
  "Ġplatter": 4915,
  "Ġwindsurfing": 4916,
  "Ġfingernails": 4917,
  "impsons": 4918,
  "ĠSimpsons": 4919,
  "Lad": 4920,
  "Ġrecliner": 4921,
  "Ġencirc": 4922,
  "Ġencircling": 4923,
  "so": 4924,
  "Ġrubbing": 4925,
  "oldiers": 4926,
  "Soldiers": 4927,
  "Ġrecipe": 4928,
  "Tan": 4929,
  "Ġethnicities": 4930,
  "ĠKarate": 4931,
  "ĠGi": 4932,
  "ĠIce": 4933,
  "Passen": 4934,
  "Passengers": 4935,
  "irrel": 4936,
  "Ġsquirrel": 4937,
  "Ġbatsman": 4938,
  "Ġtwin": 4939,
  "Ġshotgun": 4940,
  "Ġcobalt": 4941,
  "Ġincredible": 4942,
  "blond": 4943,
  "ĠVol": 4944,
  "Ġstuc": 4945,
  "Ġstucco": 4946,
  "Ġfre": 4947,
  "Ġfreight": 4948,
  "Ġheadlamp": 4949,
  "Ġhippie": 4950,
  "Ġgrips": 4951,
  "load": 4952,
  "Wh": 4953,
  "Ġdisap": 4954,
  "Ġwelcome": 4955,
  "Ġsynthesizer": 4956,
  "Ġshrine": 4957,
  "ĠChristian": 4958,
  "Repent": 4959,
  "ĠChrist": 4960,
  "torch": 4961,
  "Ġblowtorch": 4962,
  "Ġimmed": 4963,
  "44": 4964,
  "Ġreleasing": 4965,
  "Fam": 4966,
  "uous": 4967,
  "Marathon": 4968,
  "Ġdue": 4969,
  "Ġreplacing": 4970,
  "Ġchute": 4971,
  "About": 4972,
  "Ġpeddling": 4973,
  "Ġpews": 4974,
  "Ġhandicapped": 4975,
  "Sky": 4976,
  "Ġsifting": 4977,
  "Ġflapping": 4978,
  "Ġpeeks": 4979,
  "Ġfingertips": 4980,
  "Ġfry": 4981,
  "Ġpoorly": 4982,
  "ĠCapri": 4983,
  "Ġroadwork": 4984,
  "ĠSo": 4985,
  "ĠSox": 4986,
  "Ġscowls": 4987,
  "Ġcorgi": 4988,
  "Ġfluid": 4989,
  "Ġgirlfriend": 4990,
  "Ġtailgate": 4991,
  "Ġcompact": 4992,
  "Ġbolts": 4993,
  "die": 4994,
  "Ġkiddie": 4995,
  "Ġcrews": 4996,
  "ĠBarcelona": 4997,
  "eterminate": 4998,
  "Ġindeterminate": 4999,
  "Ġrespirator": 5000,
  "ĠBerlin": 5001,
  "Musician": 5002,
  "Ġrollerskater": 5003,
  "Ġtriangle": 5004,
  "fives": 5005,
  "Ġwildflowers": 5006,
  "Ġ3rd": 5007,
  "Ġclearly": 5008,
  "ĠMexico": 5009,
  "Ex": 5010,
  "hyth": 5011,
  "Ġrhyth": 5012,
  "truck": 5013,
  "East": 5014,
  "ĠSouthEast": 5015,
  "Ġeyebrow": 5016,
  "Ġfingerless": 5017,
  "Ġjagged": 5018,
  "Ġgotten": 5019,
  "Is": 5020,
  "Ġnapkin": 5021,
  "Ġplywood": 5022,
  "goers": 5023,
  "Ġhoisting": 5024,
  "attoo": 5025,
  "Ġunidentif": 5026,
  "Ġunidentifiable": 5027,
  "Ġrefresh": 5028,
  "Ġmonk": 5029,
  "Ġspiking": 5030,
  "Ġtablecloths": 5031,
  "Ġbrindle": 5032,
  "ĠKitchenAid": 5033,
  "Ġsomb": 5034,
  "Ġdangles": 5035,
  "Ġprisoner": 5036,
  "Ġmarquee": 5037,
  "ĠTwister": 5038,
  "Ġruffles": 5039,
  "ĠWinnie": 5040,
  "ooh": 5041,
  "climbing": 5042,
  "path": 5043,
  "Ġfootpath": 5044,
  "Ġorthodox": 5045,
  "met": 5046,
  "Ġcontemporary": 5047,
  "Ġdressy": 5048,
  "Ġscrambling": 5049,
  "Ġnin": 5050,
  "ja": 5051,
  "Ġninja": 5052,
  "Ġdistur": 5053,
  "kulele": 5054,
  "ukulele": 5055,
  "Ġukulele": 5056,
  "venue": 5057,
  "Ġcounty": 5058,
  "Ġfrust": 5059,
  "Ġann": 5060,
  "Ġcomponents": 5061,
  "Ġilluminate": 5062,
  "Ġbackgroud": 5063,
  "ĠKn": 5064,
  "Ġ60": 5065,
  "ĠLabrador": 5066,
  "ĠUK": 5067,
  "ĠBridge": 5068,
  "Ġsippy": 5069,
  "Ġplayful": 5070,
  "Ġknives": 5071,
  "Ġreclined": 5072,
  "Ġprominently": 5073,
  "quin": 5074,
  "Ġheadlights": 5075,
  "ĠRet": 5076,
  "Ġimpressive": 5077,
  "Ġsawing": 5078,
  "Ġversus": 5079,
  "ĠPortuguese": 5080,
  "Ġtrombone": 5081,
  "Ġbutterflies": 5082,
  "ik": 5083,
  "Ġmoustache": 5084,
  "Ġmottled": 5085,
  "ĠPower": 5086,
  "ĠTinker": 5087,
  "ĠRV": 5088,
  "Ġbrim": 5089,
  "ĠWi": 5090,
  "ĠWii": 5091,
  "Firefighters": 5092,
  "potty": 5093,
  "Ġleafs": 5094,
  "Ġonesie": 5095,
  "Ġsqueeze": 5096,
  "Work": 5097,
  "Ġhazard": 5098,
  "Ġmartini": 5099,
  "ĠRan": 5100,
  "ĠRollerblades": 5101,
  "Ġrescue": 5102,
  "Ġcorporate": 5103,
  "Ġdrift": 5104,
  "Ġonward": 5105,
  "Ġbridesmaid": 5106,
  "Ġsomebody": 5107,
  "Ġravine": 5108,
  "Ġpopular": 5109,
  "yellow": 5110,
  "titude": 5111,
  "Ġstoplight": 5112,
  "Ġflatbed": 5113,
  "utral": 5114,
  "Ġneutral": 5115,
  "cisco": 5116,
  "rancisco": 5117,
  "ĠFrancisco": 5118,
  "Ġunwraps": 5119,
  "Ġclassmates": 5120,
  "ĠPR": 5121,
  "Ġ2nd": 5122,
  "Ġenthusiastic": 5123,
  "tube": 5124,
  "Ġpatron": 5125,
  "Ġconditions": 5126,
  "Ġggauged": 5127,
  "Ġscrap": 5128,
  "Ġreins": 5129,
  "Chefs": 5130,
  "Ġsunbathing": 5131,
  "ĠNavy": 5132,
  "ĠHotel": 5133,
  "Ġmanner": 5134,
  "Green": 5135,
  "HO": 5136,
  "ĠHam": 5137,
  "dance": 5138,
  "Ġblacksmith": 5139,
  "Ġoctopus": 5140,
  "ĠGuinness": 5141,
  "Ġeuropean": 5142,
  "Ġoutboard": 5143,
  "Cars": 5144,
  "Ġtwice": 5145,
  "ĠIsraeli": 5146,
  "Teenage": 5147,
  "ridden": 5148,
  "escue": 5149,
  "ĠRescue": 5150,
  "ĠPal": 5151,
  "Rider": 5152,
  "ĠArabian": 5153,
  "ette": 5154,
  "ayette": 5155,
  "ĠSw": 5156,
  "Ġspanish": 5157,
  "circ": 5158,
  "circular": 5159,
  "Ġevident": 5160,
  "Ġbenefit": 5161,
  "Jim": 5162,
  "Ġsaxaphone": 5163,
  "Ġdepicted": 5164,
  "ĠAfro": 5165,
  "Ġgrandf": 5166,
  "Ġgrandfather": 5167,
  "Ġastrona": 5168,
  "Ġastronaut": 5169,
  "checked": 5170,
  "idly": 5171,
  "Ġthrust": 5172,
  "Ġpyrex": 5173,
  "Ġmushroom": 5174,
  "Ġchestnut": 5175,
  "Santa": 5176,
  "Ġabdomen": 5177,
  "Ġvolcano": 5178,
  "Ġhunt": 5179,
  "ĠYama": 5180,
  "ĠYamaha": 5181,
  "Ġetchings": 5182,
  "Ġweb": 5183,
  "Ġcountertop": 5184,
  "Ġdwarfed": 5185,
  "06": 5186,
  "Ġshoving": 5187,
  "spotted": 5188,
  "Ġdrapery": 5189,
  "Ġwristwatch": 5190,
  "Ġcrisp": 5191,
  "Ġunwrap": 5192,
  "Ġunwrapping": 5193,
  "Ġpagoda": 5194,
  "Ġatmosp": 5195,
  "Ġatmosphere": 5196,
  "ĠPhiladel": 5197,
  "phia": 5198,
  "ĠPhiladelphia": 5199,
  "Ġkelp": 5200,
  "Alo": 5201,
  "Aloha": 5202,
  "ĠRef": 5203,
  "ĠLuc": 5204,
  "Ġ66": 5205,
  "FA": 5206,
  "Ġpinstripe": 5207,
  "Ġrectangle": 5208,
  "ĠATVs": 5209,
  "ĠSamsung": 5210,
  "Ġstumbling": 5211,
  "ORT": 5212,
  "RE": 5213,
  "Gra": 5214,
  "Graffiti": 5215,
  "Ġhoist": 5216,
  "Ġ96": 5217,
  "Ġdraft": 5218,
  "ĠDad": 5219,
  "Demonst": 5220,
  "Demonstrators": 5221,
  "Ġplacid": 5222,
  "ĠRick": 5223,
  "Class": 5224,
  "Cowboy": 5225,
  "bin": 5226,
  "ĠUgg": 5227,
  "Bag": 5228,
  "Ġroundhouse": 5229,
  "Ġlobster": 5230,
  "Ġsnuggling": 5231,
  "Wedding": 5232,
  "Ġrucksack": 5233,
  "ĠNational": 5234,
  "ĠGallery": 5235,
  "Ġtrue": 5236,
  "Ġthreatening": 5237,
  "eepdog": 5238,
  "ĠSheepdog": 5239,
  "Ġbro": 5240,
  "Ne": 5241,
  "Ġoverview": 5242,
  "Ġecstatic": 5243,
  "Ġdachshunds": 5244,
  "Ġsleepover": 5245,
  "ĠTank": 5246,
  "Ġ20th": 5247,
  "ĠRenaiss": 5248,
  "ĠRenaissance": 5249,
  "Ġchoice": 5250,
  "Ġgrandmother": 5251,
  "sy": 5252,
  "Ġsprinkling": 5253,
  "Indian": 5254,
  "ĠHood": 5255,
  "ĠGap": 5256,
  "HI": 5257,
  "Ġsurvey": 5258,
  "x4": 5259,
  "ĠBroad": 5260,
  "MM": 5261,
  "BC": 5262,
  "Ġmode": 5263,
  "love": 5264,
  "16": 5265,
  "Ġlattice": 5266,
  "Ġputt": 5267,
  "chee": 5268,
  "Fluffy": 5269,
  "ĠAmsterdam": 5270,
  "Ġinterlaced": 5271,
  "Ġtaupe": 5272,
  "Ġschoolwork": 5273,
  "Ġfunnel": 5274,
  "Ġtrudging": 5275,
  "Ġsodium": 5276,
  "Good": 5277,
  "Ġtrotting": 5278,
  "Ġadvance": 5279,
  "Ġacrobat": 5280,
  "Ġelbows": 5281,
  "Ġsyrup": 5282,
  "Ġupstairs": 5283,
  "Mom": 5284,
  "Ġflamboy": 5285,
  "Ġflamboyant": 5286,
  "Ġwedged": 5287,
  "Ġmaj": 5288,
  "ĠToys": 5289,
  "Ġlearn": 5290,
  "Ġroast": 5291,
  "Ġpatties": 5292,
  "Ġswift": 5293,
  "Ġswiftly": 5294,
  "Ġdivider": 5295,
  "Ġsunbathers": 5296,
  "ĠTour": 5297,
  "Ġprimitive": 5298,
  "Ġnuzz": 5299,
  "ĠPakistan": 5300,
  "EP": 5301,
  "heeled": 5302,
  "Shirt": 5303,
  "Ġmanipulates": 5304,
  "Ġkitty": 5305,
  "Ġtoothp": 5306,
  "Everyone": 5307,
  "ĠJamaican": 5308,
  "Ġdodge": 5309,
  "Ġtrough": 5310,
  "Ġstarfish": 5311,
  "Ġhatchback": 5312,
  "ĠCaution": 5313,
  "Ġproperty": 5314,
  "Ġtransaction": 5315,
  "Motor": 5316,
  "Motorcycle": 5317,
  "Ġfeild": 5318,
  "Ġshredder": 5319,
  "ĠAirways": 5320,
  "Ġcalc": 5321,
  "Truck": 5322,
  "Through": 5323,
  "Ġswap": 5324,
  "Ġsexy": 5325,
  "Ġgrownup": 5326,
  "Ġrode": 5327,
  "NA": 5328,
  "Climbers": 5329,
  "Ġshutter": 5330,
  "Ġlifeguard": 5331,
  "ĠCure": 5332,
  "Ġskydiver": 5333,
  "ĠArt": 5334,
  "Ġexcavator": 5335,
  "De": 5336,
  "Ġmailman": 5337,
  "Ġstewardess": 5338,
  "Ġmixes": 5339,
  "Ġrottweiler": 5340,
  "Ġthrong": 5341,
  "Ġoccurring": 5342,
  "Ġcomedic": 5343,
  "Co": 5344,
  "Ġchallenge": 5345,
  "Ġstraddles": 5346,
  "Ġgrabbed": 5347,
  "Ġcocktail": 5348,
  "Ġnursing": 5349,
  "loid": 5350,
  "Ġtabloid": 5351,
  "Ġheadline": 5352,
  "Ġshallows": 5353,
  "ĠLynyrd": 5354,
  "Ġnondescript": 5355,
  "Sports": 5356,
  "Ġadjoining": 5357,
  "Ġrecreation": 5358,
  "Ġscottish": 5359,
  "Ġsatisfy": 5360,
  "Ġpopulated": 5361,
  "Senior": 5362,
  "irmingham": 5363,
  "ĠBirmingham": 5364,
  "ĠKingdom": 5365,
  "ĠRe": 5366,
  "Ġsocialize": 5367,
  "Ġdice": 5368,
  "mploy": 5369,
  "mployees": 5370,
  "Ġspun": 5371,
  "itz": 5372,
  "Ġconsumers": 5373,
  "ĠMinnie": 5374,
  "usiasm": 5375,
  "Ġenthusiasm": 5376,
  "finder": 5377,
  "Ġviewfinder": 5378,
  "Ġchessboard": 5379,
  "skating": 5380,
  "BU": 5381,
  "ĠDalmation": 5382,
  "Ġalphabet": 5383,
  "Ġflyer": 5384,
  "Ġ94": 5385,
  "Ġarmbands": 5386,
  "ctuary": 5387,
  "Ġsanctuary": 5388,
  "Ġoutstreached": 5389,
  "Ġcloak": 5390,
  "plaid": 5391,
  "layer": 5392,
  "player": 5393,
  "ĠOz": 5394,
  "Ġmopping": 5395,
  "Ġkabobs": 5396,
  "Ġdropping": 5397,
  "Ġyacht": 5398,
  "Ġfries": 5399,
  "crobatic": 5400,
  "Acrobatic": 5401,
  "he": 5402,
  "Ġyarmulke": 5403,
  "Ġkneeing": 5404,
  "Ġcommerce": 5405,
  "Ġdominant": 5406,
  "Ġuprising": 5407,
  "Ġroaming": 5408,
  "Ġrollerskate": 5409,
  "Ġexuberance": 5410,
  "Ġenthusiasts": 5411,
  "Ġgolfing": 5412,
  "ĠOak": 5413,
  "Ġpassionate": 5414,
  "ĠMardi": 5415,
  "FC": 5416,
  "Ġclerk": 5417,
  "plane": 5418,
  "Ġwaistcoats": 5419,
  "issan": 5420,
  "Ġpresence": 5421,
  "Ġtows": 5422,
  "Ġgreet": 5423,
  "Ġdominate": 5424,
  "Ġknuckle": 5425,
  "Ġfreckled": 5426,
  "pillar": 5427,
  "BA": 5428,
  "Ġpanda": 5429,
  "ĠFly": 5430,
  "Ġassemble": 5431,
  "Ġmenorah": 5432,
  "GI": 5433,
  "Ġglows": 5434,
  "Ġvoltage": 5435,
  "Ġmeditating": 5436,
  "Ġrendition": 5437,
  "Ġwebsite": 5438,
  "Ġalbums": 5439,
  "Ġutilizing": 5440,
  "Ġfumbles": 5441,
  "tw": 5442,
  "Ġgrapple": 5443,
  "Motocross": 5444,
  "ĠBut": 5445,
  "Ġcombed": 5446,
  "ĠBur": 5447,
  "ĠHeine": 5448,
  "ĠHeineken": 5449,
  "Ġpeddle": 5450,
  "AB": 5451,
  "Ġ2010": 5452,
  "Ġisn": 5453,
  "Ġsnapped": 5454,
  "Redhead": 5455,
  "Ġreigns": 5456,
  "Ġpaperback": 5457,
  "ĠLC": 5458,
  "ĠLCD": 5459,
  "Heavyset": 5460,
  "Ġpleasant": 5461,
  "Ġexcitedly": 5462,
  "Having": 5463,
  "Ġspur": 5464,
  "Ġspurting": 5465,
  "Tall": 5466,
  "Ġcamcorder": 5467,
  "Ġthermos": 5468,
  "PA": 5469,
  "Ġenthusiast": 5470,
  "Ġwardro": 5471,
  "Ġwardrobe": 5472,
  "32": 5473,
  "Ġloiter": 5474,
  "Ġbiscuit": 5475,
  "Ġcottage": 5476,
  "grey": 5477,
  "Ġsailboard": 5478,
  "Ġassist": 5479,
  "ĠAdirond": 5480,
  "ĠAdirondack": 5481,
  "Ġpylon": 5482,
  "Ġsanitation": 5483,
  "Ġtanning": 5484,
  "eorge": 5485,
  "21": 5486,
  "Ġbannister": 5487,
  "Ġfont": 5488,
  "qa": 5489,
  "Ġburqa": 5490,
  "Ġcrucif": 5491,
  "Ġcrucifix": 5492,
  "Ġsunflower": 5493,
  "Ġbullf": 5494,
  "Ġaerosol": 5495,
  "ĠBun": 5496,
  "string": 5497,
  "US": 5498,
  "Go": 5499,
  "Active": 5500,
  "ĠNerf": 5501,
  "ĠFox": 5502,
  "Ġprovides": 5503,
  "Ġtrouser": 5504,
  "Ġpursues": 5505,
  "Ġresponse": 5506,
  "Ġentangled": 5507,
  "ĠPacific": 5508,
  "duty": 5509,
  "Ġcuddling": 5510,
  "Ġpropping": 5511,
  "Ġcleavage": 5512,
  "Ġeuro": 5513,
  "ledge": 5514,
  "Ġplumes": 5515,
  "Ġbarbell": 5516,
  "Ġcoil": 5517,
  "Ġneckline": 5518,
  "Ġsophisticated": 5519,
  "Ġ39": 5520,
  "ĠGN": 5521,
  "Ġramshackle": 5522,
  "Ġcorrect": 5523,
  "Ġmission": 5524,
  "Ġrecognizable": 5525,
  "Ġdove": 5526,
  "voir": 5527,
  "Ġreservoir": 5528,
  "ĠKawas": 5529,
  "ĠKawasaki": 5530,
  "ĠDesigner": 5531,
  "Cyclist": 5532,
  "Ġparasail": 5533,
  "Ġrecumbent": 5534,
  "Ġbulky": 5535,
  "ĠDave": 5536,
  "Sitting": 5537,
  "floored": 5538,
  "Water": 5539,
  "Ġspa": 5540,
  "Ġreflex": 5541,
  "traffic": 5542,
  "Ġverbal": 5543,
  "Ġnetbook": 5544,
  "incol": 5545,
  "incoln": 5546,
  "ĠLincoln": 5547,
  "ĠPool": 5548,
  "fit": 5549,
  "FL": 5550,
  "ĠPrem": 5551,
  "DING": 5552,
  "ĠDEM": 5553,
  "ĠPipe": 5554,
  "ĠChallenge": 5555,
  "ĠInc": 5556,
  "Ġcobble": 5557,
  "ĠCalv": 5558,
  "ĠCalvin": 5559,
  "lein": 5560,
  "ĠKlein": 5561,
  "Ġcrimson": 5562,
  "Ġassembling": 5563,
  "Ġamusing": 5564,
  "Hiker": 5565,
  "Ġpeek": 5566,
  "Ġexposes": 5567,
  "button": 5568,
  "ianist": 5569,
  "Ġpianist": 5570,
  "Ġinvolves": 5571,
  "Ġdisinterestedly": 5572,
  "Ġreviews": 5573,
  "Ġcrit": 5574,
  "Ġcritter": 5575,
  "Ġexpansive": 5576,
  "Twin": 5577,
  "Ġcalendar": 5578,
  "Ġgrandp": 5579,
  "Ġjacuzz": 5580,
  "Ġjacuzzi": 5581,
  "Ġmanicure": 5582,
  "Ġsnowbank": 5583,
  "Ġgroin": 5584,
  "Ġfirefighting": 5585,
  "Ġkickball": 5586,
  "reuse": 5587,
  "Ġchartreuse": 5588,
  "Ġeccent": 5589,
  "Ġeccentric": 5590,
  "Ġtypical": 5591,
  "Ġdid": 5592,
  "draped": 5593,
  "ĠCeltic": 5594,
  "Ġfaintly": 5595,
  "Jesus": 5596,
  "ĠNovember": 5597,
  "Ġdu": 5598,
  "Ġ197": 5599,
  "Ġ70s": 5600,
  "Ġtussling": 5601,
  "Ġshredding": 5602,
  "Metal": 5603,
  "Ġnostrils": 5604,
  "Ġsunrise": 5605,
  "ĠTax": 5606,
  "Ġseek": 5607,
  "Ġfingernail": 5608,
  "Ġhighlights": 5609,
  "Unhappy": 5610,
  "packed": 5611,
  "Ġviewpoint": 5612,
  "Ġjaws": 5613,
  "Ġengulfed": 5614,
  "Ġspotting": 5615,
  "Ġsuccessfully": 5616,
  "ĠNetherlands": 5617,
  "Ġcrank": 5618,
  "IA": 5619,
  "Ġcomb": 5620,
  "Olymp": 5621,
  "Back": 5622,
  "Ġsubmarine": 5623,
  "Ġamish": 5624,
  "Ġtrudge": 5625,
  "Ġknapsack": 5626,
  "Ġsecurely": 5627,
  "ĠRodgers": 5628,
  "Ġballroom": 5629,
  "Ġagric": 5630,
  "five": 5631,
  "gray": 5632,
  "Ġexplain": 5633,
  "ĠItalian": 5634,
  "Ġorganizes": 5635,
  "ĠUNI": 5636,
  "ĠUNICE": 5637,
  "ĠUNICEF": 5638,
  "Ġdepicts": 5639,
  "Ġslippers": 5640,
  "ĠVehicle": 5641,
  "Gentleman": 5642,
  "ae": 5643,
  "alized": 5644,
  "Ġvandalized": 5645,
  "Ġskyward": 5646,
  "Ġleisurely": 5647,
  "port": 5648,
  "Ġpausing": 5649,
  "Ġsnarling": 5650,
  "Ġdistressed": 5651,
  "ĠTerrier": 5652,
  "bike": 5653,
  "ĠApplebee": 5654,
  "Ġ90": 5655,
  "Ġshaft": 5656,
  "Ġfireball": 5657,
  "ĠTrain": 5658,
  "Ġsmartphone": 5659,
  "Ġjester": 5660,
  "Ġjesus": 5661,
  "Ġsession": 5662,
  "Ġrebuilt": 5663,
  "uz": 5664,
  "uzu": 5665,
  "Bright": 5666,
  "Brightly": 5667,
  "Ġsince": 5668,
  "Ġprovide": 5669,
  "Ġlollipops": 5670,
  "uf": 5671,
  "Ġmanuf": 5672,
  "Ġkaraoke": 5673,
  "Ġbalck": 5674,
  "MCA": 5675,
  "ĠYMCA": 5676,
  "Ġgrasslands": 5677,
  "Ġur": 5678,
  "ĠBad": 5679,
  "ĠBang": 5680,
  "26": 5681,
  "Ġheadphone": 5682,
  "altimore": 5683,
  "ĠBaltimore": 5684,
  "ĠMrs": 5685,
  "Ġmonarch": 5686,
  "Ġhurt": 5687,
  "Ġexecutes": 5688,
  "Ġcoastline": 5689,
  "Ġsoprano": 5690,
  "ĠWA": 5691,
  "Ġassign": 5692,
  "Ġassignment": 5693,
  "Skateboarder": 5694,
  "Ġoverstuffed": 5695,
  "Ġstripper": 5696,
  "ĠPopsicle": 5697,
  "Ġoverseeing": 5698,
  "Ġshadowy": 5699,
  "Ġshrimp": 5700,
  "Ġeg": 5701,
  "Ġtapping": 5702,
  "ĠDE": 5703,
  "Ġ17": 5704,
  "Ġobv": 5705,
  "Ġutilizes": 5706,
  "Ġstyl": 5707,
  "Ġunmarked": 5708,
  "Fisherman": 5709,
  "nished": 5710,
  "toe": 5711,
  "Ġlecturing": 5712,
  "proximately": 5713,
  "Ġottoman": 5714,
  "Ġcorsage": 5715,
  "Ġ(#": 5716,
  "Ġcry": 5717,
  "Ġwindmill": 5718,
  "Ġharvest": 5719,
  "Ġoxen": 5720,
  "brand": 5721,
  "Ġdecision": 5722,
  "ĠAud": 5723,
  "Ġpharmacist": 5724,
  "Ġattracting": 5725,
  "Most": 5726,
  "Ġinterlocked": 5727,
  "Ġrestrained": 5728,
  "post": 5729,
  "Ġconsumer": 5730,
  "Ġ22": 5731,
  "Mem": 5732,
  "Members": 5733,
  "Ġwhipped": 5734,
  "Ġask": 5735,
  "Ġmedal": 5736,
  "Ġjunk": 5737,
  "Foreign": 5738,
  "Ġsketches": 5739,
  "havior": 5740,
  "Ġbehavior": 5741,
  "Ġdeciding": 5742,
  "Ġcollapsing": 5743,
  "ada": 5744,
  "Ġinterviews": 5745,
  "Ġundergarments": 5746,
  "Ġdachshund": 5747,
  "Ġwitness": 5748,
  "Ġpursuit": 5749,
  "Ġbreakw": 5750,
  "Ġhighlighted": 5751,
  "Ġdrumming": 5752,
  "Ġcroquet": 5753,
  "ĠShepard": 5754,
  "ksw": 5755,
  "ĠVolksw": 5756,
  "ĠVolkswagen": 5757,
  "ĠST": 5758,
  "Ġnecessary": 5759,
  "Dan": 5760,
  "me": 5761,
  "Ġshrouded": 5762,
  "Ġthousand": 5763,
  "ĠVerizon": 5764,
  "Ġanything": 5765,
  "Ġ4th": 5766,
  "Ġwoodworking": 5767,
  "Ġblindfold": 5768,
  "VA": 5769,
  "Ġpitbull": 5770,
  "Ġlatter": 5771,
  "Ġetching": 5772,
  "royed": 5773,
  "Ġdestroyed": 5774,
  "ĠHeb": 5775,
  "ĠHebrew": 5776,
  "Ġfrightened": 5777,
  "Ġbreaststroke": 5778,
  "Welcome": 5779,
  "ĠPV": 5780,
  "ĠPVC": 5781,
  "ĠMuseum": 5782,
  "ĠSin": 5783,
  "Ġsouvenir": 5784,
  "Ġrestroom": 5785,
  "ĠFender": 5786,
  "Ġsaturated": 5787,
  "Only": 5788,
  "Ġrattan": 5789,
  "Ġspool": 5790,
  "ĠDSLR": 5791,
  "nment": 5792,
  "Ġgovernment": 5793,
  "Ġimmediate": 5794,
  "Moun": 5795,
  "Mountain": 5796,
  "Ġ344": 5797,
  "Japanese": 5798,
  "Ġdecrepit": 5799,
  "Ġdemise": 5800,
  "Ġplateau": 5801,
  "Ġ57": 5802,
  "asm": 5803,
  "Ġponcho": 5804,
  "Ġtoppled": 5805,
  "Ġaerodynamic": 5806,
  "Thriller": 5807,
  "Ġcyan": 5808,
  "Ġdeflated": 5809,
  "ĠCadillac": 5810,
  "divers": 5811,
  "Ġwrecked": 5812,
  "ĠJoseph": 5813,
  "Pants": 5814,
  "ĠSquarePants": 5815,
  "western": 5816,
  "raggly": 5817,
  "Ġsportswear": 5818,
  "Ġbuddhist": 5819,
  "stride": 5820,
  "Ġcharging": 5821,
  "de": 5822,
  "ĠPresidential": 5823,
  "Ġyells": 5824,
  "ĠToronto": 5825,
  "YC": 5826,
  "Ġsegment": 5827,
  "Ġuntan": 5828,
  "Ġunpaved": 5829,
  "Ġadidas": 5830,
  "Ġbangle": 5831,
  "Ġgauges": 5832,
  "Ġdayd": 5833,
  "Ġdj": 5834,
  "Ġpatriotism": 5835,
  "Ġcalligraphy": 5836,
  "ĠLite": 5837,
  "Ġjuke": 5838,
  "Ġengraved": 5839,
  "Ġ53": 5840,
  "Ġlayup": 5841,
  "Ġculvert": 5842,
  "ĠJets": 5843,
  "ĠBig": 5844,
  "bottomed": 5845,
  "Ġgypsy": 5846,
  "Ġresembling": 5847,
  "Ġsetup": 5848,
  "Ġpaintball": 5849,
  "Ġsymphony": 5850,
  "Ġinterlocking": 5851,
  "Ġconver": 5852,
  "Ġsauna": 5853,
  "Ġfourteen": 5854,
  "Ġtango": 5855,
  "Ġcontemplative": 5856,
  "Texas": 5857,
  "ĠHuman": 5858,
  "ĠEar": 5859,
  "gyle": 5860,
  "Ġargyle": 5861,
  "ĠVan": 5862,
  "Ġburnt": 5863,
  "Ġknob": 5864,
  "Ġdonut": 5865,
  "Ġmidday": 5866,
  "Ġplot": 5867,
  "skiing": 5868,
  "Big": 5869,
  "Ġtopic": 5870,
  "Ġcampaign": 5871,
  "Ġsecluded": 5872,
  "Stret": 5873,
  "Ġsociety": 5874,
  "Ġdisregarding": 5875,
  "Ġauthor": 5876,
  "attooed": 5877,
  "Tattooed": 5878,
  "ĠEagle": 5879,
  "Miller": 5880,
  "Ġhasn": 5881,
  "Ġrefreshments": 5882,
  "Ġnumeral": 5883,
  "park": 5884,
  "Ġroomful": 5885,
  "Ġquietly": 5886,
  "Ġfundraiser": 5887,
  "Ġsombrero": 5888,
  "Ġkazoo": 5889,
  "Ġlengths": 5890,
  "Ġ35": 5891,
  "Ġreplaces": 5892,
  "Ġchili": 5893,
  "Ġsandpit": 5894,
  "Ġshredded": 5895,
  "Ġsiding": 5896,
  "Ġdrab": 5897,
  "cloudy": 5898,
  "Ġseahorse": 5899,
  "Ġtangled": 5900,
  "possibly": 5901,
  "ĠPooh": 5902,
  "blown": 5903,
  "Ġblueish": 5904,
  "Family": 5905,
  "Bicycle": 5906,
  "Ġaggress": 5907,
  "Ġprecision": 5908,
  "Ġconifers": 5909,
  "ĠUT": 5910,
  "Ġfoosball": 5911,
  "Ġberm": 5912,
  "ĠSaturday": 5913,
  "Ġclothespins": 5914,
  "Ġdonned": 5915,
  "ugby": 5916,
  "Rugby": 5917,
  "Ġtrekking": 5918,
  "ĠAvenue": 5919,
  "Ġfreezer": 5920,
  "Ġsafari": 5921,
  "Ġkangaroo": 5922,
  "Sil": 5923,
  "Ġfunction": 5924,
  "Ġadvantage": 5925,
  "Ġparagliding": 5926,
  "Ġhandc": 5927,
  "Ġgrapp": 5928,
  "Ġgrappling": 5929,
  "ĠOdeon": 5930,
  "ang": 5931,
  "Ġcraftsman": 5932,
  "Ġweimaraner": 5933,
  "Ġpageboy": 5934,
  "Ġfrustrated": 5935,
  "Ġvinyl": 5936,
  "Ġhandicap": 5937,
  "Ġmexican": 5938,
  "Ġallows": 5939,
  "Ġlett": 5940,
  "Ġlettuce": 5941,
  "reiver": 5942,
  "ĠCup": 5943,
  "Ice": 5944,
  "Ġglistening": 5945,
  "Night": 5946,
  "Nighttime": 5947,
  "Ġupcoming": 5948,
  "Ġchuck": 5949,
  "Ġappre": 5950,
  "hension": 5951,
  "Ġapprehension": 5952,
  "Ġ29": 5953,
  "Ġdandelion": 5954,
  "Ġafar": 5955,
  "Ġcabbage": 5956,
  "Ġwonderful": 5957,
  "Ball": 5958,
  "Ġ54": 5959,
  "ĠDomino": 5960,
  "Ġoxford": 5961,
  "Ġsimulates": 5962,
  "Ġsummertime": 5963,
  "Ġconducts": 5964,
  "Ġswirls": 5965,
  "Ġlatte": 5966,
  "Ġbillows": 5967,
  "Ġspout": 5968,
  "Ġsummit": 5969,
  "Ġinterviewing": 5970,
  "xford": 5971,
  "ĠOxford": 5972,
  "ĠCircus": 5973,
  "Ġaccompaniment": 5974,
  "Ġoval": 5975,
  "ĠJer": 5976,
  "ĠJerry": 5977,
  "German": 5978,
  "SO": 5979,
  "Ġperching": 5980,
  "ARA": 5981,
  "All": 5982,
  "Ġwrench": 5983,
  "Ġaligned": 5984,
  "Swimmers": 5985,
  "Ġtrophies": 5986,
  "Ġconnecting": 5987,
  "ĠRetriever": 5988,
  "Ġwoodwind": 5989,
  "Ġdelicious": 5990,
  "Ġ56": 5991,
  "Ġcuisine": 5992,
  "Concert": 5993,
  "Ġheadpiece": 5994,
  "Ġfauna": 5995,
  "Ġparaplegic": 5996,
  "icuous": 5997,
  "Ġconspicuous": 5998,
  "Ġboulevard": 5999,
  "folio": 6000,
  "half": 6001,
  "Ġbehalf": 6002,
  "Ġ37": 6003,
  "weiser": 6004,
  "ĠFanta": 6005,
  "Ġobl": 6006,
  "ĠTab": 6007,
  "Ġwoodland": 6008,
  "ĠChurch": 6009,
  "ĠDrayton": 6010,
  "Volun": 6011,
  "Ġgraham": 6012,
  "Individuals": 6013,
  "Ġtickling": 6014,
  "Ġrappels": 6015,
  "Ġdripping": 6016,
  "Ġbritish": 6017,
  "Ġ14": 6018,
  "Ġmiscellaneous": 6019,
  "Ġgrip": 6020,
  "lequin": 6021,
  "Ġharlequin": 6022,
  "ĠVW": 6023,
  "ĠBob": 6024,
  "ĠBobcat": 6025,
  "Workmen": 6026,
  "Ġmeasured": 6027,
  "Bien": 6028,
  "Ġalert": 6029,
  "Ok": 6030,
  "Dozens": 6031,
  "Ġalthough": 6032,
  "Ġpotter": 6033,
  "Ġsequined": 6034,
  "Ġexha": 6035,
  "lockbuster": 6036,
  "Ġannivers": 6037,
  "Ġanniversary": 6038,
  "Ġminute": 6039,
  "Ġanxious": 6040,
  "Ġpeasant": 6041,
  "Ġmosque": 6042,
  "ĠPabst": 6043,
  "ĠRib": 6044,
  "ĠRibbon": 6045,
  "Ġshowroom": 6046,
  "Ġsmirk": 6047,
  "Ġcrossword": 6048,
  "usiness": 6049,
  "ĠBusiness": 6050,
  "Ġplaque": 6051,
  "mergency": 6052,
  "UR": 6053,
  "URK": 6054,
  "Ġperfectly": 6055,
  "Ġactress": 6056,
  "Ġmemorabil": 6057,
  "Ġmemorabilia": 6058,
  "OLA": 6059,
  "46": 6060,
  "Ġgrumpy": 6061,
  "Att": 6062,
  "Attractive": 6063,
  "munition": 6064,
  "Ġammunition": 6065,
  "Ġejected": 6066,
  "Ġdrap": 6067,
  "Ġdrapped": 6068,
  "Ġhandsaw": 6069,
  "Ġaltitude": 6070,
  "Ġdisturbing": 6071,
  "thumbs": 6072,
  "ĠPeter": 6073,
  "ĠAutumn": 6074,
  "Ġsubject": 6075,
  "Ġgrimacing": 6076,
  "Ġfryer": 6077,
  "Ġcurl": 6078,
  "Ġsibling": 6079,
  "Ġangrily": 6080,
  "ĠTex": 6081,
  "Ġarrive": 6082,
  "Ġzipped": 6083,
  "ĠLouis": 6084,
  "Ġfarmland": 6085,
  "Ġtowing": 6086,
  "venience": 6087,
  "Ġconvenience": 6088,
  "ĠPike": 6089,
  "ipple": 6090,
  "Ġnipple": 6091,
  "Ġwreath": 6092,
  "Ġreplaced": 6093,
  "Ġspecific": 6094,
  "Ġpebbles": 6095,
  "EN": 6096,
  "ENT": 6097,
  "ĠAladd": 6098,
  "ĠAladdin": 6099,
  "Ġnerf": 6100,
  "Ġcherries": 6101,
  "ĠCrocs": 6102,
  "Ġproudly": 6103,
  "Even": 6104,
  "Ġstencil": 6105,
  "Ġsketch": 6106,
  "Ġrestrain": 6107,
  "Ġintertube": 6108,
  "Ġpebbled": 6109,
  "Ġaviator": 6110,
  "aul": 6111,
  "ĠPaul": 6112,
  "inkle": 6113,
  "winkle": 6114,
  "Ġperiwinkle": 6115,
  "Love": 6116,
  "ĠBetty": 6117,
  "Ġcrocs": 6118,
  "Ġpasserby": 6119,
  "ĠFarm": 6120,
  "Ġfris": 6121,
  "Fat": 6122,
  "ĠLaura": 6123,
  "Ġpurplish": 6124,
  "Ġflexibility": 6125,
  "Ġdappled": 6126,
  "ĠCenter": 6127,
  "Ġcheerful": 6128,
  "Ġweighing": 6129,
  "Ġjoyfully": 6130,
  "ĠiPhone": 6131,
  "ylar": 6132,
  "ĠMylar": 6133,
  "Ġengraving": 6134,
  "Ġarrival": 6135,
  "Ġpilg": 6136,
  "Ġunnoticed": 6137,
  "Ġability": 6138,
  "ĠKur": 6139,
  "ĠKurt": 6140,
  "Ġcapo": 6141,
  "Saw": 6142,
  "Ġcheckerboard": 6143,
  "Ġceremonies": 6144,
  "Ġcauldron": 6145,
  "Passers": 6146,
  "Passersby": 6147,
  "OP": 6148,
  "Ġpursued": 6149,
  "Ġscream": 6150,
  "Pink": 6151,
  "Ġmelted": 6152,
  "Ġattachment": 6153,
  "Ġdogp": 6154,
  "Ġdogpile": 6155,
  "jerseyed": 6156,
  "Ġdistributing": 6157,
  "Ġpinwheels": 6158,
  "draw": 6159,
  "Ġwithdraw": 6160,
  "Ġpursue": 6161,
  "ĠHouston": 6162,
  "Ġexecuting": 6163,
  "ĠBay": 6164,
  "ĠBarney": 6165,
  "Distant": 6166,
  "Ġ3D": 6167,
  "Ġpercussionist": 6168,
  "number": 6169,
  "Ġfitness": 6170,
  "Ġmicrowave": 6171,
  "Ġearpiece": 6172,
  "incloth": 6173,
  "Ġloincloth": 6174,
  "Ġdisappear": 6175,
  "Ġblacktop": 6176,
  "ĠKorea": 6177,
  "free": 6178,
  "Ġfoundation": 6179,
  "Ġvolunteers": 6180,
  "Ġzipper": 6181,
  "Ġdred": 6182,
  "Ġdredging": 6183,
  "Firemen": 6184,
  "Ġunderpass": 6185,
  "Ġapplied": 6186,
  "Ġsharply": 6187,
  "13": 6188,
  "Ġsandbox": 6189,
  "Ġruffle": 6190,
  "Ġrhythmic": 6191,
  "Ġkeg": 6192,
  "Ġnib": 6193,
  "Ġvelcro": 6194,
  "Ġlollipop": 6195,
  "Ġstuntman": 6196,
  "Od": 6197,
  "Odd": 6198,
  "Ġscript": 6199,
  "ĠHuckabee": 6200,
  "Pushing": 6201,
  "ttaw": 6202,
  "ttawa": 6203,
  "ĠOttawa": 6204,
  "ĠAcademy": 6205,
  "ĠBlowing": 6206,
  "Ent": 6207,
  "Entrada": 6208,
  "Ġcollapsable": 6209,
  "ĠHealth": 6210,
  "23": 6211,
  "Ġcaddy": 6212,
  "Ġwhitewater": 6213,
  "Pon": 6214,
  "Poncho": 6215,
  "Ġkiteboarding": 6216,
  "Ġmidsentence": 6217,
  "Ġtwist": 6218,
  "Fayette": 6219,
  "ĠLaFayette": 6220,
  "Ġstoppers": 6221,
  "itzerland": 6222,
  "ĠSwitzerland": 6223,
  "Ġforlor": 6224,
  "Ġforlorn": 6225,
  "Ġforlornly": 6226,
  "dwards": 6227,
  "ĠEdwards": 6228,
  "exer": 6229,
  "cising": 6230,
  "exercising": 6231,
  "Ġspaniel": 6232,
  "Ġdisgusted": 6233,
  "sitting": 6234,
  "Ġgibbous": 6235,
  "Ġprograms": 6236,
  "Ġpermits": 6237,
  "Ġmaximize": 6238,
  "Ġaspirations": 6239,
  "Peter": 6240,
  "Cycles": 6241,
  "ĠMotorCycles": 6242,
  "ĠService": 6243,
  "comedians": 6244,
  "Ġheadrests": 6245,
  "Davison": 6246,
  "Single": 6247,
  "Jimi": 6248,
  "ĠHendrix": 6249,
  "sentence": 6250,
  "ĠStaff": 6251,
  "ĠCubs": 6252,
  "Ġcontrast": 6253,
  "trol": 6254,
  "control": 6255,
  "ĠHaiti": 6256,
  "Ġavidly": 6257,
  "Ġhankerchief": 6258,
  "Ġscrubber": 6259,
  "Ġembroidery": 6260,
  "Ġsaxophon": 6261,
  "Ġsaxophonist": 6262,
  "Ġsnowpants": 6263,
  "rycombs": 6264,
  "Ġcurrycombs": 6265,
  "Ġdiorama": 6266,
  "ĠEgg": 6267,
  "Ġcubical": 6268,
  "Ġdulc": 6269,
  "Ġdulcimer": 6270,
  "Ġtrellis": 6271,
  "Ġgnar": 6272,
  "Ġgnarled": 6273,
  "Ġsuggests": 6274,
  "Ġmalnourished": 6275,
  "Friend": 6276,
  "ĠKendo": 6277,
  "Ġextinguisher": 6278,
  "Ġgrungy": 6279,
  "Ġ134": 6280,
  "Ġ13406": 6281,
  "Ġsampling": 6282,
  "ĠWestern": 6283,
  "ĠSahara": 6284,
  "Ġinscription": 6285,
  "Ġbunn": 6286,
  "Ġbunnies": 6287,
  "ĠHor": 6288,
  "ĠHorn": 6289,
  "Behind": 6290,
  "Glory": 6291,
  "Ġvolunteer": 6292,
  "Ġterrorist": 6293,
  "Ġhankie": 6294,
  "ĠPhillie": 6295,
  "Ġmechanisms": 6296,
  "ĠSki": 6297,
  "Ġrottweiller": 6298,
  "Ġprogram": 6299,
  "ĠRefWorkss": 6300,
  "ĠcOS": 6301,
  "Ġunisex": 6302,
  "Ġemty": 6303,
  "ĠLuciano": 6304,
  "Action": 6305,
  "Ġimprove": 6306,
  "IFA": 6307,
  "ĠFIFA": 6308,
  "Ġespn": 6309,
  "Ġgrim": 6310,
  "Ġgrimly": 6311,
  "Ġunenthusiastic": 6312,
  "ĠAustralia": 6313,
  "piercings": 6314,
  "legs": 6315,
  "Ġbacklegs": 6316,
  "ĠOT": 6317,
  "Ġhalway": 6318,
  "PORT": 6319,
  "ĠDU": 6320,
  "UE": 6321,
  "QUE": 6322,
  "SQUE": 6323,
  "ĠCASQUE": 6324,
  "ATO": 6325,
  "ATOI": 6326,
  "ATOIRE": 6327,
  "GATOIRE": 6328,
  "LIGATOIRE": 6329,
  "ĠOB": 6330,
  "ĠOBLIGATOIRE": 6331,
  "Mariachi": 6332,
  "Ġtelegraph": 6333,
  "ZI": 6334,
  "RAZI": 6335,
  "ĠCRAZI": 6336,
  "Ġdelicacies": 6337,
  "Ġexcites": 6338,
  "street": 6339,
  "ĠLepp": 6340,
  "ĠLeppard": 6341,
  "clockwise": 6342,
  "Ġcounterclockwise": 6343,
  "ĠSavage": 6344,
  "ivian": 6345,
  "ĠVivian": 6346,
  "ĠCampbell": 6347,
  "ĠElliot": 6348,
  "ĠPhil": 6349,
  "onda": 6350,
  "ĠHonda": 6351,
  "anker": 6352,
  "ĠWanker": 6353,
  "ĠFiesta": 6354,
  "Ġrobin": 6355,
  "Ġhymn": 6356,
  "Ġsoloist": 6357,
  "crafting": 6358,
  "99": 6359,
  "ĠAlbert": 6360,
  "instein": 6361,
  "ĠEinstein": 6362,
  "ĠKennel": 6363,
  "ffodils": 6364,
  "Ġdaffodils": 6365,
  "Ġwafting": 6366,
  "ĠVictoria": 6367,
  "ĠRasta": 6368,
  "farian": 6369,
  "ĠRastafarian": 6370,
  "ĠShriner": 6371,
  "Ġparapher": 6372,
  "Ġparaphernal": 6373,
  "Ġparaphernalia": 6374,
  "Ġdrenches": 6375,
  "Ġrefinished": 6376,
  "Ġdream": 6377,
  "Ġstatuesque": 6378,
  "Ġmidriffs": 6379,
  "ĠDa": 6380,
  "ĠVin": 6381,
  "ci": 6382,
  "ĠVinci": 6383,
  "lNe": 6384,
  "ĠPlNe": 6385,
  "ĠElis": 6386,
  "ĠElisabeth": 6387,
  "Ġamateur": 6388,
  "Ġastronomer": 6389,
  "Ġoverviews": 6390,
  "52": 6391,
  "Ġdealth": 6392,
  "Ġoutspread": 6393,
  "Ġhumvee": 6394,
  "Ġsimply": 6395,
  "Ġinward": 6396,
  "Ġhelplessly": 6397,
  "Ġhurling": 6398,
  "ĠFair": 6399,
  "Ġblasts": 6400,
  "Ġartifacts": 6401,
  "Inf": 6402,
  "Infant": 6403,
  "nch": 6404,
  "synch": 6405,
  "Ġearthquakes": 6406,
  "Ġweeks": 6407,
  "Ġcarbon": 6408,
  "ĠRiding": 6409,
  "HIP": 6410,
  "HIPP": 6411,
  "HIPPING": 6412,
  "ĠSHIPPING": 6413,
  "Ġ2x4": 6414,
  "Ġknelt": 6415,
  "VS": 6416,
  "MMVS": 6417,
  "ĠLMMVS": 6418,
  "ĠLMMVSD": 6419,
  "ĠBBC": 6420,
  "Ġoppsing": 6421,
  "Ġunkempt": 6422,
  "Ġscandal": 6423,
  "Jewish": 6424,
  "Bass": 6425,
  "HELL": 6426,
  "Truth": 6427,
  "cheeky": 6428,
  "Sun": 6429,
  "Sunburned": 6430,
  "ĠTidy": 6431,
  "Ġmanikin": 6432,
  "Partially": 6433,
  "Ġguidebooks": 6434,
  "Ġexcavating": 6435,
  "Ġcounting": 6436,
  "Ġrappelling": 6437,
  "Bill": 6438,
  "ĠJobs": 6439,
  "Ġalpine": 6440,
  "Ġpicure": 6441,
  "Ġcondolences": 6442,
  "Ġrepresented": 6443,
  "Aeropostale": 6444,
  "Ġsalami": 6445,
  "utto": 6446,
  "Ġprosciutto": 6447,
  "Ġgarland": 6448,
  "Ġfurred": 6449,
  "Ġunderpants": 6450,
  "ĠComcast": 6451,
  "ĠDigital": 6452,
  "ĠVo": 6453,
  "ĠVoice": 6454,
  "ĠJapan": 6455,
  "Mark": 6456,
  "inley": 6457,
  "ĠFinley": 6458,
  "Ġtoolbox": 6459,
  "Ġhelium": 6460,
  "Ġhorror": 6461,
  "ĠHutchesons": 6462,
  "Ġgrammar": 6463,
  "Ġmajestic": 6464,
  "ĠUs": 6465,
  "Ġdiploma": 6466,
  "Ġbinocular": 6467,
  "Ġmesa": 6468,
  "Ġevade": 6469,
  "Ġdrug": 6470,
  "Luca": 6471,
  "Of": 6472,
  "Other": 6473,
  "Ġonion": 6474,
  "Ġambiguous": 6475,
  "Village": 6476,
  "ĠDV": 6477,
  "ĠDVD": 6478,
  "Ġboxed": 6479,
  "ĠWarped": 6480,
  "Ġfrag": 6481,
  "Ġfragrance": 6482,
  "bsoluteily": 6483,
  "Absoluteily": 6484,
  "Ġnuzzling": 6485,
  "ĠRa": 6486,
  "ĠRajasthan": 6487,
  "EV": 6488,
  "EVER": 6489,
  "NEVER": 6490,
  "ĠSLE": 6491,
  "ĠSLEEP": 6492,
  "AIN": 6493,
  "GAIN": 6494,
  "ĠAGAIN": 6495,
  "Ġsapling": 6496,
  "Ġopulent": 6497,
  "ĠClinton": 6498,
  "Ġbellboy": 6499,
  "Ġkabab": 6500,
  "Ġtoothpick": 6501,
  "Ġobscure": 6502,
  "ĠCrisco": 6503,
  "Ġperpendicularly": 6504,
  "Ġrepresentative": 6505,
  "Ġarc": 6506,
  "Amanda": 6507,
  "Ġdifficult": 6508,
  "Ġfireplug": 6509,
  "Ġquestioningly": 6510,
  "Ġbroadcasting": 6511,
  "Ġextensive": 6512,
  "cura": 6513,
  "ĠAcura": 6514,
  "Ġtranslation": 6515,
  "Cash": 6516,
  "ĠWrap": 6517,
  "ĠZZ": 6518,
  "ĠTop": 6519,
  "Ġadmitted": 6520,
  "Ġswat": 6521,
  "Ġcalculated": 6522,
  "Ġyogurt": 6523,
  "Ġanswer": 6524,
  "Romantic": 6525,
  "Ġlazily": 6526,
  "Ġgutter": 6527,
  "ĠATHENA": 6528,
  "ĠGameC": 6529,
  "ĠGameCube": 6530,
  "ĠWooden": 6531,
  "ĠEnc": 6532,
  "ĠEnclosure": 6533,
  "ĠNecklace": 6534,
  "Dup": 6535,
  "ont": 6536,
  "Dupont": 6537,
  "ĠBu": 6538,
  "ĠBuy": 6539,
  "ĠGee": 6540,
  "ĠGeek": 6541,
  "Ġtradition": 6542,
  "Ġstarlet": 6543,
  "ĠLassie": 6544,
  "Ġblading": 6545,
  "stricken": 6546,
  "suspended": 6547,
  "Ġdistinguished": 6548,
  "Toys": 6549,
  "Ġpierce": 6550,
  "Ġflank": 6551,
  "ĠCred": 6552,
  "ĠCredito": 6553,
  "sky": 6554,
  "dozen": 6555,
  "Ġwring": 6556,
  "Ġcookout": 6557,
  "tro": 6558,
  "ĠQuattro": 6559,
  "Ġabstractly": 6560,
  "Hollister": 6561,
  "Ġafghan": 6562,
  "Ġrealtor": 6563,
  "ĠTrees": 6564,
  "ypsy": 6565,
  "ĠGypsy": 6566,
  "ĠTea": 6567,
  "Ġcenturion": 6568,
  "Ġpayer": 6569,
  "riumph": 6570,
  "ĠTriumph": 6571,
  "Ġremind": 6572,
  "Ġsacrifices": 6573,
  "Ġdeflect": 6574,
  "Ġanticipated": 6575,
  "Ġadministering": 6576,
  "Ġmedallion": 6577,
  "raun": 6578,
  "ĠBraun": 6579,
  "Ġcontemporaries": 6580,
  "Bal": 6581,
  "Balck": 6582,
  "ĠSprite": 6583,
  "Barefoot": 6584,
  "Ġbrige": 6585,
  "ĠLifestyle": 6586,
  "ĠNaked": 6587,
  "Ġauction": 6588,
  "Ġgabbing": 6589,
  "Ġdispersing": 6590,
  "ĠChemistry": 6591,
  "Pup": 6592,
  "Puppeteer": 6593,
  "Ġregrets": 6594,
  "Ġcursive": 6595,
  "Lynyrd": 6596,
  "Ġcongress": 6597,
  "Ġfluglehorn": 6598,
  "Blackberry": 6599,
  "ĠAu": 6600,
  "ĠLevain": 6601,
  "Grocery": 6602,
  "Gigolo": 6603,
  "cafe": 6604,
  "Ġlightsaber": 6605,
  "clouds": 6606,
  "Jaguar": 6607,
  "Ġkakhi": 6608,
  "Ġdividing": 6609,
  "Sor": 6610,
  "Sorvete": 6611,
  "ĠGelados": 6612,
  "ĠNicola": 6613,
  "ĠNicolau": 6614,
  "Ġorbs": 6615,
  "file": 6616,
  "200": 6617,
  "Ġ7200": 6618,
  "Ġsporadically": 6619,
  "Monk": 6620,
  "Smartly": 6621,
  "enske": 6622,
  "ĠPenske": 6623,
  "ĠNorthern": 6624,
  "ĠMichigan": 6625,
  "ĠRegional": 6626,
  "denly": 6627,
  "Ġsud": 6628,
  "Ġsuddenly": 6629,
  "Ġphysiques": 6630,
  "Or": 6631,
  "Orchestra": 6632,
  "Ġprepossess": 6633,
  "Ġprepossessing": 6634,
  "Ġfumbling": 6635,
  "Ġcadence": 6636,
  "Ġchimney": 6637,
  "Ġdumbbell": 6638,
  "Ġfrail": 6639,
  "Wal": 6640,
  "Walter": 6641,
  "ĠAnne": 6642,
  "ĠEmployees": 6643,
  "Ġtouchline": 6644,
  "ulowitz": 6645,
  "ulowitzki": 6646,
  "Tulowitzki": 6647,
  "night": 6648,
  "Ġunexcited": 6649,
  "ĠLightyear": 6650,
  "ĠiM": 6651,
  "ĠiMac": 6652,
  "Ter": 6653,
  "Terrible": 6654,
  "spat": 6655,
  "spattered": 6656,
  "Ġaimless": 6657,
  "Ġaimlessly": 6658,
  "ixar": 6659,
  "ĠPixar": 6660,
  "Light": 6661,
  "nut": 6662,
  "Ġdoughnut": 6663,
  "Ġcountless": 6664,
  "OK": 6665,
  "AX": 6666,
  "ĠAngry": 6667,
  "ĠBirds": 6668,
  "ĠAdobe": 6669,
  "AMBU": 6670,
  "AMBUC": 6671,
  "ĠGS": 6672,
  "ĠGSU": 6673,
  "Ġjaywalk": 6674,
  "Ġreefs": 6675,
  "Tests": 6676,
  "ĠMadrid": 6677,
  "iananmen": 6678,
  "ĠTiananmen": 6679,
  "ĠMao": 6680,
  "ĠZedong": 6681,
  "ĠClassics": 6682,
  "recognizable": 6683,
  "Ġunrecognizable": 6684,
  "Ġhandkerchiefs": 6685,
  "Ġscarlet": 6686,
  "ĠSoftball": 6687,
  "ĠBanners": 6688,
  "uliar": 6689,
  "Ġpeculiar": 6690,
  "Ġfiddle": 6691,
  "Ġwaterbed": 6692,
  "Ġartifcial": 6693,
  "Ġrainproof": 6694,
  "Ġprotrude": 6695,
  "Ġpruning": 6696,
  "Ġpricing": 6697,
  "Ġconduit": 6698,
  "Ġassessing": 6699,
  "ye": 6700,
  "ĠEye": 6701,
  "Ġferris": 6702,
  "Mother": 6703,
  "Ġballplayer": 6704,
  "Ġdiameter": 6705,
  "tarctica": 6706,
  "ĠAntarctica": 6707,
  "ĠHumor": 6708,
  "Ġalgae": 6709,
  "Ġmidfield": 6710,
  "ĠFestival": 6711,
  "Ġshowcas": 6712,
  "Ġshowcasing": 6713,
  "Ġnautical": 6714,
  "Ġkabob": 6715,
  "Ġdials": 6716,
  "Obser": 6717,
  "Observers": 6718,
  "Ġexecutive": 6719,
  "Ġhogtying": 6720,
  "Ġwedge": 6721,
  "ĠOtis": 6722,
  "ĠDNA": 6723,
  "ĠTR": 6724,
  "ĠTRY": 6725,
  "ĠME": 6726,
  "Ġinternally": 6727,
  "dressing": 6728,
  "ĠBowler": 6729,
  "Amidst": 6730,
  "Ġterritory": 6731,
  "Enrolling": 6732,
  "Ġkickboxer": 6733,
  "hegan": 6734,
  "ĠMohegan": 6735,
  "afely": 6736,
  "Ġunsafely": 6737,
  "ĠKenning": 6738,
  "ĠKennington": 6739,
  "Ġvanishes": 6740,
  "Ġordained": 6741,
  "Ġluxurious": 6742,
  "ĠScooby": 6743,
  "Ġexperiencing": 6744,
  "Jazz": 6745,
  "serve": 6746,
  "Ġhorrified": 6747,
  "Ġrattle": 6748,
  "ĠKick": 6749,
  "Hands": 6750,
  "riott": 6751,
  "ĠMarriott": 6752,
  "ĠMarquis": 6753,
  "Zune": 6754,
  "Ġinterrupt": 6755,
  "fenced": 6756,
  "Ġdisbelieving": 6757,
  "ĠCrayola": 6758,
  "ĠSheltie": 6759,
  "Ġtrendily": 6760,
  "Ġsuggestively": 6761,
  "Ġbaskers": 6762,
  "Ġconoe": 6763,
  "Ġstepped": 6764,
  "Ġdifferently": 6765,
  "Distingu": 6766,
  "Distinguished": 6767,
  "ĠBurnt": 6768,
  "ĠMur": 6769,
  "ĠMurp": 6770,
  "ĠMurphy": 6771,
  "razilian": 6772,
  "Brazilian": 6773,
  "Ġpawing": 6774,
  "Ġpinestraw": 6775,
  "thrower": 6776,
  "Ġbrownies": 6777,
  "Ġshrugs": 6778,
  "Ġexperts": 6779,
  "ĠRight": 6780,
  "ĠWagamama": 6781,
  "ĠUFC": 6782,
  "ĠMets": 6783,
  "ĠHarly": 6784,
  "Mongolian": 6785,
  "BQ": 6786,
  "ĠBBQ": 6787,
  "useument": 6788,
  "Ġamuseument": 6789,
  "Ġimpromptu": 6790,
  "Ġterrycloth": 6791,
  "Ġexhibt": 6792,
  "ĠSnowboard": 6793,
  "Ġkorean": 6794,
  "Ġfiber": 6795,
  "Ġnissan": 6796,
  "ĠAltima": 6797,
  "ĠBike": 6798,
  "Ġamputated": 6799,
  "Ġcaterpillar": 6800,
  "Ġburbur": 6801,
  "Ġannouncer": 6802,
  "ĠPollo": 6803,
  "ĠSummit": 6804,
  "roofing": 6805,
  "ĠSC": 6806,
  "ĠSCU": 6807,
  "ĠSCUBA": 6808,
  "quire": 6809,
  "Ġacquire": 6810,
  "ĠBishop": 6811,
  "Ġburgle": 6812,
  "Jane": 6813,
  "Ġsuperimposed": 6814,
  "Teams": 6815,
  "fightes": 6816,
  "Ġcollision": 6817,
  "munizations": 6818,
  "Ġimmunizations": 6819,
  "Ġpursing": 6820,
  "Ġmetalwork": 6821,
  "ĠTGI": 6822,
  "ĠFridays": 6823,
  "Ġwaterproofs": 6824,
  "ĠJelly": 6825,
  "Ġsphin": 6826,
  "Ġsphinx": 6827,
  "Ġcattails": 6828,
  "ĠScreaming": 6829,
  "ĠOrp": 6830,
  "ĠOrphans": 6831,
  "Ġlavatory": 6832,
  "chipper": 6833,
  "Ġflyaway": 6834,
  "twirl": 6835,
  "ĠRR": 6836,
  "Ġfoe": 6837,
  "Ġsurfacing": 6838,
  "ĠKeep": 6839,
  "ĠClear": 6840,
  "uturistic": 6841,
  "Ġfuturistic": 6842,
  "Real": 6843,
  "ĠMeat": 6844,
  "ĠButcher": 6845,
  "crashing": 6846,
  "ĠDalha": 6847,
  "ĠDalhausser": 6848,
  "War": 6849,
  "MP": 6850,
  "MPEA": 6851,
  "ĠIMPEA": 6852,
  "ĠIMPEACH": 6853,
  "Ġguinea": 6854,
  "Ġspeculators": 6855,
  "Cheerleader": 6856,
  "Ġattracted": 6857,
  "Ġbombard": 6858,
  "ĠBurger": 6859,
  "LAB": 6860,
  "LABOR": 6861,
  "ĠDAY": 6862,
  "Ġ..": 6863,
  "Ġ...": 6864,
  "Ġnegotiates": 6865,
  "ppens": 6866,
  "Ly": 6867,
  "Lyppens": 6868,
  "Ġprocession": 6869,
  "Ġsquiggles": 6870,
  "Ġmongolian": 6871,
  "Ġhussars": 6872,
  "Ġsabre": 6873,
  "Ġcomprising": 6874,
  "Ġsuperhero": 6875,
  "Ġnervous": 6876,
  "Artwork": 6877,
  "Ġsliver": 6878,
  "Ġcondemned": 6879,
  "ĠPrave": 6880,
  "ĠPikesville": 6881,
  "Ġswaddling": 6882,
  "ST": 6883,
  "STPA": 6884,
  "STPAK": 6885,
  "ĠEASTPAK": 6886,
  "ĠPred": 6887,
  "ĠPredators": 6888,
  "Ġscuff": 6889,
  "Ġscuffle": 6890,
  "Ġflexible": 6891,
  "Ġ75": 6892,
  "ĠNeude": 6893,
  "Participants": 6894,
  "grind": 6895,
  "Ġnosegrind": 6896,
  "Ġnegative": 6897,
  "Ġperception": 6898,
  "ĠPug": 6899,
  "due": 6900,
  "Ġsubdue": 6901,
  "Prayer": 6902,
  "Ġcoarse": 6903,
  "Secure": 6904,
  "ĠLegal": 6905,
  "igration": 6906,
  "migration": 6907,
  "ĠIm": 6908,
  "ĠImmigration": 6909,
  "ĠTemple": 6910,
  "SUN": 6911,
  "ĠSAM": 6912,
  "SUNG": 6913,
  "ĠSAMSUNG": 6914,
  "Ġhalves": 6915,
  "ĠGeorge": 6916,
  "ĠBarbara": 6917,
  "Ġ64": 6918,
  "Eastern": 6919,
  "thrust": 6920,
  "Ġoutthrust": 6921,
  "Ġtrapped": 6922,
  "Ġblake": 6923,
  "Ġnewsboy": 6924,
  "ztec": 6925,
  "ĠAztec": 6926,
  "Ġchipped": 6927,
  "ĠPemex": 6928,
  "Lack": 6929,
  "Ġbullfighting": 6930,
  "Ġbullfighter": 6931,
  "Ġinitiating": 6932,
  "Ġdiscern": 6933,
  "Ġdiscernible": 6934,
  "Ġcosmic": 6935,
  "Bowl": 6936,
  "ĠMonsterBowl": 6937,
  "Ġpassively": 6938,
  "ĠTanning": 6939,
  "ĠWaves": 6940,
  "Ġconnects": 6941,
  "Ġoutskirts": 6942,
  "ĠJungle": 6943,
  "Ġtwiddles": 6944,
  "Ġgesticulates": 6945,
  "Ġswig": 6946,
  "Goal": 6947,
  "ĠOU": 6948,
  "ĠSkyrim": 6949,
  "Ġinspiration": 6950,
  "ĠColdtowne": 6951,
  "ĠNews": 6952,
  "Ġextra": 6953,
  "ightseeing": 6954,
  "ĠSightseeing": 6955,
  "Ġminiskirts": 6956,
  "Jenn": 6957,
  "Jennifer": 6958,
  "ĠNettles": 6959,
  "ĠKristin": 6960,
  "ugarland": 6961,
  "ĠSugarland": 6962,
  "Lille": 6963,
  "Ġbrandishing": 6964,
  "Ġsillhouetted": 6965,
  "Ġadversary": 6966,
  "Ġwindowing": 6967,
  "South": 6968,
  "Ġ5003": 6969,
  "skate": 6970,
  "Ġshortboarders": 6971,
  "Ġacknowledge": 6972,
  "ĠGNC": 6973,
  "aucer": 6974,
  "ersaucer": 6975,
  "ĠExersaucer": 6976,
  "Boat": 6977,
  "ĠVienna": 6978,
  "Ġsid": 6979,
  "Ġtexaco": 6980,
  "Ġcorrectly": 6981,
  "Promotion": 6982,
  "elmeted": 6983,
  "Helmeted": 6984,
  "ĠTubeL": 6985,
  "ĠTubeLine": 6986,
  "ishment": 6987,
  "Ġastonishment": 6988,
  "save": 6989,
  "Ġmammal": 6990,
  "Ġearflaps": 6991,
  "ĠSpalding": 6992,
  "Ġrummages": 6993,
  "inions": 6994,
  "Ġopinions": 6995,
  "Ġ5k": 6996,
  "Fireman": 6997,
  "La": 6998,
  "Ġwaterful": 6999,
  "Ġfried": 7000,
  "Scuba": 7001,
  "Ġpenalty": 7002,
  "unior": 7003,
  "ĠJunior": 7004,
  "ĠBison": 7005,
  "ĠPotato": 7006,
  "Age": 7007,
  "Ġgunslingers": 7008,
  "Ġpantsuit": 7009,
  "hki": 7010,
  "Ġkahki": 7011,
  "Ġtransformers": 7012,
  "Ġlemur": 7013,
  "Ġmeditates": 7014,
  "Ġshamisen": 7015,
  "twieler": 7016,
  "ĠRottwieler": 7017,
  "suited": 7018,
  "Ġdisrupt": 7019,
  "Ġweigh": 7020,
  "Ġweighs": 7021,
  "Ġmeditation": 7022,
  "UNCH": 7023,
  "RUNCH": 7024,
  "KRUNCH": 7025,
  "SLR": 7026,
  "Sultan": 7027,
  "Ġundulating": 7028,
  "Fresh": 7029,
  "uicy": 7030,
  "ĠJuicy": 7031,
  "ĠNavel": 7032,
  "Ġowls": 7033,
  "ĠDavid": 7034,
  "quoia": 7035,
  "Ġsequoia": 7036,
  "Ġriffling": 7037,
  "Ġthoughtfully": 7038,
  "Ġflows": 7039,
  "Ġworkbook": 7040,
  "Ġexaggerated": 7041,
  "Nan": 7042,
  "Nancy": 7043,
  "elosi": 7044,
  "ĠPelosi": 7045,
  "ĠMandarin": 7046,
  "ĠReflecting": 7047,
  "Ġsousaphone": 7048,
  "ĠCross": 7049,
  "ĠCrossfit": 7050,
  "ĠAFL": 7051,
  "ĠPremiership": 7052,
  "nesbur": 7053,
  "ĠJohannesbur": 7054,
  "ĠJohannesburg": 7055,
  "WE": 7056,
  "ĠARE": 7057,
  "ĠDEMAN": 7058,
  "ĠDEMANDING": 7059,
  "ĠCorazon": 7060,
  "Figures": 7061,
  "Ġsorcerer": 7062,
  "RI": 7063,
  "TRI": 7064,
  "PE": 7065,
  "TRIPE": 7066,
  "Ġshowgirl": 7067,
  "ĠOil": 7068,
  "Ġastroturf": 7069,
  "Ġtoddling": 7070,
  "Ġbasic": 7071,
  "ĠTy": 7072,
  "ĠTyrolean": 7073,
  "ANCE": 7074,
  "EMB": 7075,
  "EMBL": 7076,
  "ĠSEMBL": 7077,
  "ĠSEMBLANCE": 7078,
  "Ġhandstnad": 7079,
  "Ġbellybutton": 7080,
  "Amish": 7081,
  "ĠIV": 7082,
  "Ġsowing": 7083,
  "ĠUPS": 7084,
  "Ġcreative": 7085,
  "Ġheroes": 7086,
  "Ġ+": 7087,
  "ĠTelescopes": 7088,
  "Ġswipes": 7089,
  "Ġnozz": 7090,
  "Ġnozzle": 7091,
  "Ġriverview": 7092,
  "ozy": 7093,
  "ĠSarkozy": 7094,
  "Ġgrandpa": 7095,
  "George": 7096,
  "ĠStephanop": 7097,
  "ĠStephanopoulos": 7098,
  "yn": 7099,
  "ynthia": 7100,
  "ĠCynthia": 7101,
  "ĠMaralis": 7102,
  "Earth": 7103,
  "Ġ333": 7104,
  "ĠBarret": 7105,
  "Ref": 7106,
  "Reflections": 7107,
  "Pale": 7108,
  "Ġlodge": 7109,
  "Ġimpoverished": 7110,
  "amused": 7111,
  "Ġfauxhawk": 7112,
  "page": 7113,
  "Ġwebpage": 7114,
  "windbreakers": 7115,
  "Ġmotionless": 7116,
  "53": 7117,
  "Ġscribbles": 7118,
  "umBowls": 7119,
  "umY": 7120,
  "ĠYumY": 7121,
  "ĠYumYumBowls": 7122,
  "planted": 7123,
  "Ġshowy": 7124,
  "Ġhayride": 7125,
  "Ġconsult": 7126,
  "skier": 7127,
  "Ġbuoy": 7128,
  "Ġjewish": 7129,
  "through": 7130,
  "ĠNigerians": 7131,
  "Ġsilence": 7132,
  "Ġranked": 7133,
  "fish": 7134,
  "Ġgoldfish": 7135,
  "Ġfootrest": 7136,
  "So": 7137,
  "Ġtobaggons": 7138,
  "Make": 7139,
  "ĠNoise": 7140,
  "Ġ1970": 7141,
  "Ġgaudy": 7142,
  "Ġmig": 7143,
  "Ġmigrates": 7144,
  "Volleyball": 7145,
  "Costumed": 7146,
  "Different": 7147,
  "after": 7148,
  "afternoon": 7149,
  "Ġauthentic": 7150,
  "ĠPakistani": 7151,
  "Ġhumanitarian": 7152,
  "Save": 7153,
  "Ġaddicted": 7154,
  "Beige": 7155,
  "Ġsignificant": 7156,
  "Concepts": 7157,
  "Ġdialect": 7158,
  "Ġcannonball": 7159,
  "String": 7160,
  "Ġbubbling": 7161,
  "Ġgenie": 7162,
  "ĠStyrofoam": 7163,
  "Glo": 7164,
  "Globe": 7165,
  "Slicers": 7166,
  "Ġcompos": 7167,
  "Ġcompositional": 7168,
  "Ġarrested": 7169,
  "ĠFourth": 7170,
  "Ġrapper": 7171,
  "Waiters": 7172,
  "ĠFulton": 7173,
  "Ġmidjump": 7174,
  "Ġcontractor": 7175,
  "Ġgrapevines": 7176,
  "Ġkickboards": 7177,
  "Ġfirehose": 7178,
  "Post": 7179,
  "ĠSunflower": 7180,
  "Ġstandard": 7181,
  "Ġvestments": 7182,
  "Ġ2007": 7183,
  "ĠUEFA": 7184,
  "AMA": 7185,
  "MAMA": 7186,
  "ĠMIA": 7187,
  "Para": 7188,
  "Olympians": 7189,
  "Background": 7190,
  "ĠJumbo": 7191,
  "Sixteen": 7192,
  "assembled": 7193,
  "Ġshuttlecock": 7194,
  "Ġadventurous": 7195,
  "Ġskillfully": 7196,
  "Ġbodyboard": 7197,
  "ĠIran": 7198,
  "utual": 7199,
  "ĠMutual": 7200,
  "ĠATMs": 7201,
  "usage": 7202,
  "ĠSausage": 7203,
  "sic": 7204,
  "Ġ180": 7205,
  "Ġsecure": 7206,
  "Ġ161": 7207,
  "Ġsullen": 7208,
  "Ġpaddock": 7209,
  "Farmers": 7210,
  "Ġagriculture": 7211,
  "bannered": 7212,
  "Ġcliming": 7213,
  "Ġpf": 7214,
  "Ġmessing": 7215,
  "Ġvapor": 7216,
  "Possibly": 7217,
  "Ġfarmhands": 7218,
  "Ġstoppie": 7219,
  "arre": 7220,
  "Ġbizarre": 7221,
  "Ġbrightness": 7222,
  "coaster": 7223,
  "Ġcornrowed": 7224,
  "Birds": 7225,
  "Ġfleeing": 7226,
  "ĠTerrain": 7227,
  "Ġprevious": 7228,
  "Ġbeiber": 7229,
  "Ġinjuries": 7230,
  "Maritimo": 7231,
  ".'": 7232,
  "stripe": 7233,
  "Mae": 7234,
  "ĠSallieMae": 7235,
  "Ġconnect": 7236,
  "Ġbeehive": 7237,
  "Armenian": 7238,
  "ĠGenocide": 7239,
  "Ġcompute": 7240,
  "ĠUnit": 7241,
  "Ġvisibly": 7242,
  "Bleecker": 7243,
  "ĠCinderella": 7244,
  "Ġtailslide": 7245,
  "Ġsinkhole": 7246,
  "portrait": 7247,
  "Ġmeasurement": 7248,
  "Ġply": 7249,
  "Overweight": 7250,
  "Ġfid": 7251,
  "Ġfiddling": 7252,
  "groomed": 7253,
  "Ġpuff": 7254,
  "Ġsonny": 7255,
  "ĠBannister": 7256,
  "Ġsymbolism": 7257,
  "ĠHighland": 7258,
  "Ġconvent": 7259,
  "Ġdizzy": 7260,
  "Ġskimpily": 7261,
  "Ġpurposes": 7262,
  "Ġdiry": 7263,
  "Ġtarpaulin": 7264,
  "Elevator": 7265,
  "Ġ84": 7266,
  "Ġinserting": 7267,
  "ĠSysco": 7268,
  "Ġvirgin": 7269,
  "Ġelectrified": 7270,
  "Ġtoothpaste": 7271,
  "ĠSmithsonian": 7272,
  "Surgeons": 7273,
  "Ġvaugh": 7274,
  "Ġvaughn": 7275,
  "Ġcomplexion": 7276,
  "Tom": 7277,
  "ĠCruise": 7278,
  "Ġautographs": 7279,
  "ĠJan": 7280,
  "ĠJanuary": 7281,
  "Ġpainful": 7282,
  "ĠIsuzu": 7283,
  "conducting": 7284,
  "Ġconduct": 7285,
  "Ġflurry": 7286,
  "Ġnegotiate": 7287,
  "ĠInfineon": 7288,
  "ĠTechnologies": 7289,
  "Ġsurprise": 7290,
  "5028": 7291,
  "ĠLucchetti": 7292,
  "Ġdrainpipe": 7293,
  "Ġlightning": 7294,
  "Ġblaring": 7295,
  "Ġmanufact": 7296,
  "Ġmanufacturing": 7297,
  "Ġresidue": 7298,
  "Ġrespons": 7299,
  "Ġresponsib": 7300,
  "Ġresponsibilities": 7301,
  "Ġcaffe": 7302,
  "Ġcaffeinated": 7303,
  "Ġsustain": 7304,
  "ĠHD": 7305,
  "ĠHDR": 7306,
  "Appears": 7307,
  "gently": 7308,
  "Ġurgently": 7309,
  "Ġvalve": 7310,
  "Octop": 7311,
  "Octopus": 7312,
  "Ġorthopedics": 7313,
  "ĠBadminton": 7314,
  "Ġmythical": 7315,
  "Ġmargin": 7316,
  "ĠBangrak": 7317,
  "bibs": 7318,
  "17": 7319,
  "ianz": 7320,
  "ĠAllianz": 7321,
  "ĠLegend": 7322,
  "Ġshuttle": 7323,
  "Ġswallowing": 7324,
  "Ġartfully": 7325,
  "Ġarabesque": 7326,
  "umberjack": 7327,
  "Lumberjack": 7328,
  "Ġfootprint": 7329,
  "Ġspoonful": 7330,
  "Ġafraid": 7331,
  "Ġdrew": 7332,
  "Clown": 7333,
  "Turbaned": 7334,
  "Hus": 7335,
  "Husband": 7336,
  "uke": 7337,
  "Ġpuke": 7338,
  "Ġleisure": 7339,
  "Row": 7340,
  "Warehouse": 7341,
  "Ġmansion": 7342,
  "Ġinland": 7343,
  "Lucky": 7344,
  "Ġgroove": 7345,
  "Ġsoundproof": 7346,
  "ĠCircuit": 7347,
  "Ms": 7348,
  "Ġyams": 7349,
  "Ġoverhear": 7350,
  "AID": 7351,
  "AIDS": 7352,
  "ĠWAL": 7353,
  "ĠWALK": 7354,
  "Ġdisposes": 7355,
  "sponsored": 7356,
  "Ġpunter": 7357,
  "Ġcornrows": 7358,
  "Ġcoordinated": 7359,
  "tih": 7360,
  "Ġwtih": 7361,
  "ĠRN": 7362,
  "ĠRNLI": 7363,
  "Climbing": 7364,
  "life": 7365,
  "ISS": 7366,
  "ĠKISS": 7367,
  "Ġcheetah": 7368,
  "ĠLive": 7369,
  "ĠLion": 7370,
  "Ġ18th": 7371,
  "Ġhutch": 7372,
  "Ġoverg": 7373,
  "Ġovergrown": 7374,
  "Somebody": 7375,
  "Ġvampires": 7376,
  "ĠFe": 7377,
  "ĠFez": 7378,
  "Olympic": 7379,
  "Ġbrink": 7380,
  "Ġanticipating": 7381,
  "Ġdicing": 7382,
  "Ġagricultural": 7383,
  "Ġperiodical": 7384,
  "Scram": 7385,
  "Scrambler": 7386,
  "axe": 7387,
  "Ġresemble": 7388,
  "Ġegret": 7389,
  "Trolleys": 7390,
  "Ġimpact": 7391,
  "totter": 7392,
  "sw": 7393,
  "swing": 7394,
  "ĠDerby": 7395,
  "Ġbudget": 7396,
  "ĠTime": 7397,
  "ĠDELL": 7398,
  "ĠBernard": 7399,
  "Ġcamisole": 7400,
  "Doe": 7401,
  "Ġfusing": 7402,
  "Ġobviously": 7403,
  "cessful": 7404,
  "uccessful": 7405,
  "Ġunsuccessful": 7406,
  "Ġpike": 7407,
  "ĠCD": 7408,
  "Cute": 7409,
  "dried": 7410,
  "Ġstylist": 7411,
  "Ġhitchhiking": 7412,
  "Ġpompom": 7413,
  "Ġgarnished": 7414,
  "Ġsettles": 7415,
  "Ġsubtle": 7416,
  "Facing": 7417,
  "Ġthro": 7418,
  "Ġthroes": 7419,
  "ĠMarching": 7420,
  "Preteen": 7421,
  "surfing": 7422,
  "Cindy": 7423,
  "Performing": 7424,
  "Ġillusion": 7425,
  "Ġelevates": 7426,
  "ĠLA": 7427,
  "Ġdisposing": 7428,
  "Ġhilltop": 7429,
  "ĠL6": 7430,
  "ĠL6H": 7431,
  "320": 7432,
  "Graphics": 7433,
  "approximately": 7434,
  "Ġ38": 7435,
  "Ġbarrior": 7436,
  "Puzz": 7437,
  "Puzzled": 7438,
  "Ġfaucet": 7439,
  "ĠPenn": 7440,
  "ĠLaf": 7441,
  "ĠLafayette": 7442,
  "Ġpunts": 7443,
  "Ġrappeling": 7444,
  "eico": 7445,
  "ĠGeico": 7446,
  "Ġfiancee": 7447,
  "Ġchildern": 7448,
  "ĠColdwell": 7449,
  "vai": 7450,
  "ĠAvai": 7451,
  "ĠDodgers": 7452,
  "baseman": 7453,
  "Ġmaxi": 7454,
  "HS": 7455,
  "HSBC": 7456,
  "filling": 7457,
  "ĠSesame": 7458,
  "ĠAudrey": 7459,
  "ĠHepburn": 7460,
  "treated": 7461,
  "Ġuntreated": 7462,
  "ĠRottingham": 7463,
  "Ġsickle": 7464,
  "Ġduplicate": 7465,
  "ĠBarber": 7466,
  "ĠRalp": 7467,
  "ĠRalph": 7468,
  "Ġchrome": 7469,
  "Ġobvious": 7470,
  "Ġsimmering": 7471,
  "Skateboard": 7472,
  "ĠCamry": 7473,
  "Ġ225": 7474,
  "Ġfoldaway": 7475,
  "Ġfanned": 7476,
  "FUN": 7477,
  "ĠTrue": 7478,
  "ĠGrip": 7479,
  "Ġpepperoni": 7480,
  "fourth": 7481,
  "fourths": 7482,
  "candidly": 7483,
  "Prince": 7484,
  "ĠFielder": 7485,
  "ilw": 7486,
  "ilwa": 7487,
  "ĠMilwa": 7488,
  "ĠMilwaukee": 7489,
  "ĠBrewers": 7490,
  "ĠCarlos": 7491,
  "uiz": 7492,
  "ĠRuiz": 7493,
  "Ġmesmerized": 7494,
  "Ġverdant": 7495,
  "ĠChevron": 7496,
  "ĠConfederate": 7497,
  "Ġcookbook": 7498,
  "Ġbuckling": 7499,
  "Ġdensity": 7500,
  "big": 7501,
  "Congrats": 7502,
  "Ġinviting": 7503,
  "Grinning": 7504,
  "pleasant": 7505,
  "Ġunpleasant": 7506,
  "Ġcupped": 7507,
  "ĠBakers": 7508,
  "ĠBakersfield": 7509,
  "ryant": 7510,
  "ĠBryant": 7511,
  "Ġsupervision": 7512,
  "Bada": 7513,
  "ĠBing": 7514,
  "Ġsixty": 7515,
  "Ġcoordinate": 7516,
  "sute": 7517,
  "Ġhirsute": 7518,
  "Ġsifts": 7519,
  "Ġclime": 7520,
  "adorned": 7521,
  "Ġ2e": 7522,
  "Ġ2e3": 7523,
  "Ġboombox": 7524,
  "fla": 7525,
  "flauge": 7526,
  "Ġcampflauge": 7527,
  "ĠSONY": 7528,
  "Ġ3d": 7529,
  "ĠAber": 7530,
  "ĠAbercrombie": 7531,
  "ĠRoyal": 7532,
  "ĠForce": 7533,
  "ndi": 7534,
  "hndi": 7535,
  "Ġmehndi": 7536,
  "Ġzig": 7537,
  "zag": 7538,
  "Ġmyriad": 7539,
  "ĠLED": 7540,
  "Trains": 7541,
  "ĠWembley": 7542,
  "ĠStanmore": 7543,
  "ĠPlease": 7544,
  "Ġgreek": 7545,
  "Ġexertion": 7546,
  "Ġlanky": 7547,
  "Ġcapturing": 7548,
  "Ġbreakwater": 7549,
  "Ġdiscomfort": 7550,
  "Ġhulk": 7551,
  "ĠJewelry": 7552,
  "Ġsuntan": 7553,
  "Ġthrashes": 7554,
  "Ġimm": 7555,
  "Ġimmigrant": 7556,
  "ĠLaund": 7557,
  "ĠLaundromat": 7558,
  "Jockeys": 7559,
  "lid": 7560,
  "lidded": 7561,
  "Ġchrist": 7562,
  "TAY": 7563,
  "ĠSHING": 7564,
  "ORP": 7565,
  "ĠCORP": 7566,
  "ĠALLEN": 7567,
  "CHild": 7568,
  "CHildren": 7569,
  "Ġsundry": 7570,
  "ĠComputer": 7571,
  "agerme": 7572,
  "agermeister": 7573,
  "ĠJagermeister": 7574,
  "ĠNash": 7575,
  "Card": 7576,
  "ĠMasterCard": 7577,
  "Tbe": 7578,
  "Ġhundred": 7579,
  "Ġwreck": 7580,
  "Ġ281": 7581,
  "ĠDali": 7582,
  "Ġcarnations": 7583,
  "Ġshoves": 7584,
  "ĠDalmatian": 7585,
  "frame": 7586,
  "Ġquarry": 7587,
  "Ġhardly": 7588,
  "Ġmessaging": 7589,
  "Ġbrowm": 7590,
  "Rodeo": 7591,
  "Ġdaschund": 7592,
  "Ġclunky": 7593,
  "ursday": 7594,
  "ĠThursday": 7595,
  "Ġforging": 7596,
  "IO": 7597,
  "VAIO": 7598,
  "Ġknitters": 7599,
  "Ġ363": 7600,
  "Ġsuburbs": 7601,
  "European": 7602,
  "closed": 7603,
  "FE": 7604,
  "CAFE": 7605,
  "ĠFLO": 7606,
  "Ġinvites": 7607,
  "pagod": 7608,
  "pagoda": 7609,
  "avs": 7610,
  "Mavs": 7611,
  "ĠWood": 7612,
  "ĠSilk": 7613,
  "ĠBride": 7614,
  "Ġcosmetics": 7615,
  "ĠPop": 7616,
  "proving": 7617,
  "Ġdisapproving": 7618,
  "Ġdimmed": 7619,
  "ĠChris": 7620,
  "regoire": 7621,
  "ĠGregoire": 7622,
  "ĠCampus": 7623,
  "ĠGrinding": 7624,
  "ĠTurn": 7625,
  "Ġsouvenirs": 7626,
  "ĠClouds": 7627,
  "November": 7628,
  "nition": 7629,
  "Ġrecognition": 7630,
  "cheeked": 7631,
  "Ġvoicing": 7632,
  "Ġcymbals": 7633,
  "ĠTelecaster": 7634,
  "Ġplaygroud": 7635,
  "Ġequiment": 7636,
  "ĠMin": 7637,
  "ĠMini": 7638,
  "Benz": 7639,
  "tah": 7640,
  "ĠUtah": 7641,
  "Participant": 7642,
  "Ġ3442": 7643,
  "Ġpug": 7644,
  "Ġrummage": 7645,
  "By": 7646,
  "ĠVader": 7647,
  "Ġsignboards": 7648,
  "Ġperf": 7649,
  "Ġperfume": 7650,
  "ĠUNO": 7651,
  "Ġyellows": 7652,
  "ANT": 7653,
  "ĠSANT": 7654,
  "ĠSANTANA": 7655,
  "Ġfunky": 7656,
  "Ġpronounced": 7657,
  "ĠShoeG": 7658,
  "ĠShoeGasm": 7659,
  "ĠDM": 7660,
  "ĠDMC": 7661,
  "butter": 7662,
  "victory": 7663,
  "ouleur": 7664,
  "Rouleur": 7665,
  "Ġww": 7666,
  "Ġwww": 7667,
  "cc": 7668,
  "Horse": 7669,
  "ĠIow": 7670,
  "ĠIowa": 7671,
  "Families": 7672,
  "Ġearthquake": 7673,
  "RONA": 7674,
  "Cariboos": 7675,
  "rewing": 7676,
  "ĠBrewing": 7677,
  "Ġcupboard": 7678,
  "ropicana": 7679,
  "ĠTropicana": 7680,
  "volunteer": 7681,
  "Ġorangesunset": 7682,
  "ĠMillen": 7683,
  "ĠMillenium": 7684,
  "Ġsnuggle": 7685,
  "ĠSunbeam": 7686,
  "mix": 7687,
  "ĠBeatermix": 7688,
  "Ġyolk": 7689,
  "ossum": 7690,
  "Ġopossum": 7691,
  "Ġsnowshovel": 7692,
  "ultuous": 7693,
  "Ġtumultuous": 7694,
  "sad": 7695,
  "depressed": 7696,
  "hatred": 7697,
  "Ġparadise": 7698,
  "Ġdogwood": 7699,
  "Ġmoniter": 7700,
  "Skydivers": 7701,
  "Ġdandilions": 7702,
  "Arrivo": 7703,
  "policy": 7704,
  "Ġlowly": 7705,
  "Actors": 7706,
  "Ġmommy": 7707,
  "wall": 7708,
  "Ġbrickwall": 7709,
  "Ġ3113": 7710,
  "ĠGoctawek": 7711,
  "Averill": 7712,
  "ĠLevin": 7713,
  "syrup": 7714,
  "broken": 7715,
  "Ġunbroken": 7716,
  "ĠPescaderia": 7717,
  "Rams": 7718,
  "Ġchemise": 7719,
  "Ġslapping": 7720,
  "apartment": 7721,
  "Ġscraggly": 7722,
  "Against": 7723,
  "ĠUtility": 7724,
  "ĠKhaki": 7725,
  "Ġnarrowly": 7726,
  "Ġonsie": 7727,
  "Ġegde": 7728,
  "Ġshove": 7729,
  "ligent": 7730,
  "Ġneg": 7731,
  "Ġnegligent": 7732,
  "Ġbemusement": 7733,
  "Ġlesions": 7734,
  "Ġstamina": 7735,
  "Ġfirehouse": 7736,
  "ĠBiden": 7737,
  "Ġcandidate": 7738,
  "Ġdries": 7739,
  "ĠTrans": 7740,
  "ĠTransformers": 7741,
  "Ġdipped": 7742,
  "Ġ63": 7743,
  "ĠNFL": 7744,
  "ĠPS3": 7745,
  "Childern": 7746,
  "NYC": 7747,
  "ĠTaxi": 7748,
  "kickS": 7749,
  "ĠGkickS": 7750,
  "Hanging": 7751,
  "urfacing": 7752,
  "Ġresurfacing": 7753,
  "visibility": 7754,
  "Ġbrassiere": 7755,
  "Ġultimate": 7756,
  "inshasa": 7757,
  "ĠKinshasa": 7758,
  "ĠDemocratic": 7759,
  "ublic": 7760,
  "ĠRepublic": 7761,
  "ĠFidel": 7762,
  "Ġcelebrities": 7763,
  "Ġzipline": 7764,
  "Ġherb": 7765,
  "Ġwincing": 7766,
  "Ġgrassland": 7767,
  "Ġdwar": 7768,
  "Ġdwarves": 7769,
  "Ġaccomplish": 7770,
  "Ġdominance": 7771,
  "cl": 7772,
  "climb": 7773,
  "Ġdaydream": 7774,
  "Pan": 7775,
  "Highland": 7776,
  "Ġshadowing": 7777,
  "hibit": 7778,
  "ĠExhibit": 7779,
  "Ġpatchwork": 7780,
  "Ġcalculator": 7781,
  "Ġsanitizer": 7782,
  "atmeal": 7783,
  "Ġoatmeal": 7784,
  "Ġtransvestite": 7785,
  "Ġhte": 7786,
  "Ġjukebox": 7787,
  "Ġtransformed": 7788,
  "Ġyield": 7789,
  "Ġsmug": 7790,
  "Ġsmugly": 7791,
  "Ġextinguishes": 7792,
  "Ġ535": 7793,
  "Ġswine": 7794,
  "Thanks": 7795,
  "Ġplucking": 7796,
  "Ġalright": 7797,
  "Ġcuddled": 7798,
  "Ġdiveboard": 7799,
  "Ġspotters": 7800,
  "ĠPremier": 7801,
  "Cur": 7802,
  "Curly": 7803,
  "Ġbarrett": 7804,
  "Ġburrows": 7805,
  "robed": 7806,
  "Ġalbum": 7807,
  "golf": 7808,
  "Ġinterferes": 7809,
  "ĠTigers": 7810,
  "ĠWalgreen": 7811,
  "Ġunmade": 7812,
  "Fans": 7813,
  "Gelateria": 7814,
  "Ġ442": 7815,
  "Ġconverging": 7816,
  "Ġcraftsmen": 7817,
  "Spices": 7818,
  "Ġglvo": 7819,
  "Ġglvoes": 7820,
  "ĠCro": 7821,
  "ĠCroatian": 7822,
  "Ġflambe": 7823,
  "Ġlifeboat": 7824,
  "Skiers": 7825,
  "Ġgadget": 7826,
  "AND": 7827,
  "Ġresulted": 7828,
  "More": 7829,
  "Ġmassage": 7830,
  "Ġcaressing": 7831,
  "Ġsoftly": 7832,
  "Ġplugged": 7833,
  "Ġspruced": 7834,
  "rivacy": 7835,
  "Ġprivacy": 7836,
  "Ġdiabolo": 7837,
  "ĠBible": 7838,
  "Ġappalled": 7839,
  "Ġspanned": 7840,
  "Ġinlets": 7841,
  "Rear": 7842,
  "ĠEiffel": 7843,
  "ĠTower": 7844,
  "faced": 7845,
  "Ġsnowfield": 7846,
  "ĠFedEx": 7847,
  "Ġshuff": 7848,
  "Ġshuffling": 7849,
  "ĠEarn": 7850,
  "ĠEarnhard": 7851,
  "ĠEarnhardt": 7852,
  "ĠJr": 7853,
  ".,": 7854,
  "ĠRepresentatives": 7855,
  "Ġrhythm": 7856,
  "agner": 7857,
  "ĠWagner": 7858,
  "Ġtoddle": 7859,
  "Ġwasn": 7860,
  "Ġcontently": 7861,
  "Ġwalkng": 7862,
  "Rollerb": 7863,
  "Rollerblader": 7864,
  "Ġcylindrical": 7865,
  "ĠWave": 7866,
  "ĠTev": 7867,
  "ĠTeva": 7868,
  "ĠNeuroscience": 7869,
  "Ġroundabout": 7870,
  "Ġcrutch": 7871,
  "reviated": 7872,
  "Ġabb": 7873,
  "Ġabbreviated": 7874,
  "Ġmeasures": 7875,
  "Ġuproariously": 7876,
  "Ġspecialty": 7877,
  "Ġ43": 7878,
  "Ġstartlingly": 7879,
  "Ġdiagnosed": 7880,
  "Ġmarquis": 7881,
  "Ġ5th": 7882,
  "Ġ23rd": 7883,
  "aganda": 7884,
  "Ġpropaganda": 7885,
  "Ġcruisship": 7886,
  "avarian": 7887,
  "ĠBavarian": 7888,
  "Ġsteins": 7889,
  "tober": 7890,
  "toberfest": 7891,
  "ĠOktoberfest": 7892,
  "ĠGator": 7893,
  "Irish": 7894,
  "Ġunderhand": 7895,
  "Ġpuma": 7896,
  "Lean": 7897,
  "Island": 7898,
  "Ġgossamer": 7899,
  "bowls": 7900,
  "Ġfishbowls": 7901,
  "Ġprior": 7902,
  "Ġunp": 7903,
  "Ġunpacking": 7904,
  "Ġbemused": 7905,
  "Ġarmband": 7906,
  "Ġbounty": 7907,
  "Ġambra": 7908,
  "Ġunderfoot": 7909,
  "ĠJoplin": 7910,
  "Ġsaxo": 7911,
  "moving": 7912,
  "Brigada": 7913,
  "onk": 7914,
  "Honk": 7915,
  "Alas": 7916,
  "Alaska": 7917,
  "Hillary": 7918,
  "Ġhs": 7919,
  "Ġhsirt": 7920,
  "Stretching": 7921,
  "ĠHill": 7922,
  "hippie": 7923,
  "ĠCoel": 7924,
  "ĠCoelho": 7925,
  "Ġwicketkeeper": 7926,
  "vaulting": 7927,
  "Ġmacaroni": 7928,
  "Ġnightly": 7929,
  "Ġpressurized": 7930,
  "Ġparamedic": 7931,
  "ĠMC": 7932,
  "Ġsox": 7933,
  "Striding": 7934,
  "Ġknowledge": 7935,
  "Ġvows": 7936,
  "Ġauburn": 7937,
  "Ġenglish": 7938,
  "Ġsizable": 7939,
  "Ġstubby": 7940,
  "Ġpudgy": 7941,
  "Ġundeterred": 7942,
  "Ġschoolboy": 7943,
  "Ġcenterpieces": 7944,
  "ĠGreenpeace": 7945,
  "Ġfrightening": 7946,
  "Tourist": 7947,
  "Ġforehand": 7948,
  "pop": 7949,
  "populated": 7950,
  "55": 7951,
  "Ġpm": 7952,
  "ĠSpaulding": 7953,
  "Ġeasily": 7954,
  "ĠCleveland": 7955,
  "Ġrebound": 7956,
  "ĠPier": 7957,
  "ĠUH": 7958,
  "15": 7959,
  "Ġaustere": 7960,
  "ĠSalvation": 7961,
  "ĠSuper": 7962,
  "Ġfinancial": 7963,
  "Ġ156": 7964,
  "Ġfossils": 7965,
  "Hike": 7966,
  "Ġmidway": 7967,
  "Ġunto": 7968,
  "Ġunrolling": 7969,
  "Twizz": 7970,
  "Twizzlers": 7971,
  "ĠKomodo": 7972,
  "Ġmadras": 7973,
  "Ġamphib": 7974,
  "Ġamphibians": 7975,
  "Balancing": 7976,
  "Ġteacup": 7977,
  "Ġweightlifting": 7978,
  "Ġhairbrush": 7979,
  "ĠDucati": 7980,
  "Firefighter": 7981,
  "nett": 7982,
  "ĠConnett": 7983,
  "ĠOssian": 7984,
  "ĠFire": 7985,
  "YCLE": 7986,
  "ĠCYCLE": 7987,
  "ĠBarns": 7988,
  "ĠBarnsd": 7989,
  "ĠBarnsdall": 7990,
  "Ġalarmedly": 7991,
  "Italiano": 7992,
  "Ġstockcar": 7993,
  "Ġwindblown": 7994,
  "Ġdiamond": 7995,
  "Hairdressers": 7996,
  "acebook": 7997,
  "ĠFacebook": 7998,
  "atiently": 7999,
  "Ġimpatiently": 8000,
  "Ġrecreating": 8001,
  "ĠAncient": 8002,
  "ĠFife": 8003,
  "ĠCorps": 8004,
  "Ġremin": 8005,
  "Ġreminiscent": 8006,
  "Ġwrangle": 8007,
  "Ġanticipate": 8008,
  "Ġshopper": 8009,
  "Ġglassses": 8010,
  "Ġoffensive": 8011,
  "ulcher": 8012,
  "Ġsepulcher": 8013,
  "babs": 8014,
  "Ġkebabs": 8015,
  "Ġbusines": 8016,
  "ĠMel": 8017,
  "ĠMelky": 8018,
  "ĠCabrera": 8019,
  "Gourmet": 8020,
  "ĠCurry": 8021,
  "ĠTakes": 8022,
  "060": 8023,
  "Ġ060": 8024,
  "ĠDobos": 8025,
  "lurry": 8026,
  "Blurry": 8027,
  "going": 8028,
  "Ġundergoing": 8029,
  "Angry": 8030,
  "Ġaggressively": 8031,
  "Ġtatted": 8032,
  "Ġsprawling": 8033,
  "Ġyougn": 8034,
  "Ġkewpie": 8035,
  "Hup": 8036,
  "Huppe": 8037,
  "ĠWisconsin": 8038,
  "ĠUTEP": 8039,
  "rank": 8040,
  "Ġdrank": 8041,
  "Ġsneeze": 8042,
  "Ġbermud": 8043,
  "Ġbermuda": 8044,
  "leaf": 8045,
  "ettle": 8046,
  "ĠKettle": 8047,
  "ĠCorn": 8048,
  "Ġcucumber": 8049,
  "Ġdisturbed": 8050,
  "Ġventrilo": 8051,
  "Ġventriloquist": 8052,
  "Ġgrandma": 8053,
  "ĠHugs": 8054,
  "ĠGonzaga": 8055,
  "Ġcurvy": 8056,
  "Ġsamurai": 8057,
  "Ġsupervises": 8058,
  "ĠTro": 8059,
  "ĠTrojan": 8060,
  "Ġpretzel": 8061,
  "ĠJusticia": 8062,
  "lv": 8063,
  "lvido": 8064,
  "ĠOlvido": 8065,
  "Ġkiteboarder": 8066,
  "Tipton": 8067,
  "Ġ103": 8068,
  "Ġinstallment": 8069,
  "ĠTai": 8070,
  "ĠCharging": 8071,
  "ĠManhat": 8072,
  "ĠManhattan": 8073,
  "Ġ7th": 8074,
  "Ġcolt": 8075,
  "Ġabseiling": 8076,
  "GR": 8077,
  "GRO": 8078,
  "OM": 8079,
  "GROOM": 8080,
  "Ġscanning": 8081,
  "Ġspherical": 8082,
  "ĠEcho": 8083,
  "Ġpoem": 8084,
  "Ġsummersault": 8085,
  "Ġboatload": 8086,
  "Ġterrace": 8087,
  "Ġmercedes": 8088,
  "Ġinscribed": 8089,
  "Ġhibachi": 8090,
  "Lanterns": 8091,
  "ĠDeveraux": 8092,
  "ĠTrack": 8093,
  "goer": 8094,
  "Ġwedgie": 8095,
  "Rel": 8096,
  "Religious": 8097,
  "Ġcrippled": 8098,
  "Ġrefuse": 8099,
  "ĠTudor": 8100,
  "Ġcurren": 8101,
  "Ġcurrency": 8102,
  "KEA": 8103,
  "ĠIKEA": 8104,
  "Ġfossil": 8105,
  "Biker": 8106,
  "Ġconifer": 8107,
  "Silhouette": 8108,
  "Ġpotrait": 8109,
  "Ġchews": 8110,
  "splashed": 8111,
  "Ġplanning": 8112,
  "Ġheterosexual": 8113,
  "Ġmerchant": 8114,
  "Ġterracot": 8115,
  "Ġterracotta": 8116,
  "Ġhandcuffs": 8117,
  "Ġpinafore": 8118,
  "Ġfright": 8119,
  "Ġcapacity": 8120,
  "Ġitalian": 8121,
  "Rival": 8122,
  "Ġcelebratory": 8123,
  "His": 8124,
  "ĠHang": 8125,
  "ĠGlide": 8126,
  "ĠSeahawks": 8127,
  "Ġworkman": 8128,
  "Ġefficiently": 8129,
  "ĠDick": 8130,
  "lotch": 8131,
  "Ġsplotch": 8132,
  "Ġhurl": 8133,
  "ĠPoland": 8134,
  "ĠTv": 8135,
  "World": 8136,
  "ĠII": 8137,
  "ĠLexus": 8138,
  "ĠMagazine": 8139,
  "Ġ25th": 8140,
  "Ġannual": 8141,
  "ĠLongboard": 8142,
  "Ladder": 8143,
  "Ġstomachs": 8144,
  "Ġmarbleized": 8145,
  "taxi": 8146,
  "Ġhabits": 8147,
  "Ġreadily": 8148,
  "Ġferns": 8149,
  "visible": 8150,
  "invisible": 8151,
  "Ahead": 8152,
  "Op": 8153,
  "posing": 8154,
  "Opposing": 8155,
  "Ġgreed": 8156,
  "Ġsupervisor": 8157,
  "ĠMud": 8158,
  "Ġsalesman": 8159,
  "Ġjeepney": 8160,
  "Moon": 8161,
  "ĠBounce": 8162,
  "Ġbackdoor": 8163,
  "Ġunderbrush": 8164,
  "Ġthreshing": 8165,
  "Peace": 8166,
  "ĠKnits": 8167,
  "24": 8168,
  "Ġidentifiable": 8169,
  "Ġdrama": 8170,
  "Ġretreiver": 8171,
  "ĠAquos": 8172,
  "ba": 8173,
  "ĠSamba": 8174,
  "ĠFif": 8175,
  "ĠFifa": 8176,
  "Ġpaddy": 8177,
  "Hard": 8178,
  "Ġwoodcar": 8179,
  "Ġwoodcarver": 8180,
  "rotechnics": 8181,
  "Ġpyrotechnics": 8182,
  "Us": 8183,
  "Usain": 8184,
  "ĠBolt": 8185,
  "Ġslows": 8186,
  "Ġmailbag": 8187,
  "Politie": 8188,
  "Bagpipes": 8189,
  "grassed": 8190,
  "vable": 8191,
  "Ġmovable": 8192,
  "Ġshucking": 8193,
  "Ġchuckling": 8194,
  "Ġfixating": 8195,
  "Ġwaterhole": 8196,
  "ĠDodge": 8197,
  "Ġroughhousing": 8198,
  "Ġsavior": 8199,
  "Ġnewsie": 8200,
  "Ġairstrip": 8201,
  "ĠViolen": 8202,
  "ĠViolence": 8203,
  "Heart": 8204,
  "ĠSafe": 8205,
  "Ġfurnishings": 8206,
  "Ġhummer": 8207,
  "Radio": 8208,
  "Qual": 8209,
  "Qualified": 8210,
  "Ġcummer": 8211,
  "Ġcummerbunds": 8212,
  "Ġneckerchiefs": 8213,
  "Ġgraffti": 8214,
  "rowing": 8215,
  "Ġburrowing": 8216,
  "Ġearnest": 8217,
  "Ġearnestly": 8218,
  "Subway": 8219,
  "Ġscanner": 8220,
  "Ġhunks": 8221,
  "Ġbrickwork": 8222,
  "Ġyan": 8223,
  "Ġyankees": 8224,
  "Ġfalcon": 8225,
  "Ġdozes": 8226,
  "Baskets": 8227,
  "vatively": 8228,
  "Ġconservatively": 8229,
  "badge": 8230,
  "Ġannouncing": 8231,
  "downtown": 8232,
  "ĠCarp": 8233,
  "ĠCarpintaria": 8234,
  "ĠKimono": 8235,
  "Bub": 8236,
  "Bubbles": 8237,
  "ĠPoust": 8238,
  "ĠHerm": 8239,
  "ĠHermia": 8240,
  "Ġoccupation": 8241,
  "Ġproprietors": 8242,
  "Watch": 8243,
  "Ġ330": 8244,
  "ĠCaterpillar": 8245,
  "Ġyin": 8246,
  "Ġnightfall": 8247,
  "apa": 8248,
  "ĠPapa": 8249,
  "Ġblame": 8250,
  "Ġhyp": 8251,
  "Ġhypoc": 8252,
  "Ġhypocrites": 8253,
  "Ġuncooked": 8254,
  "Ġobtain": 8255,
  "Ġspindly": 8256,
  "ambo": 8257,
  "Mambo": 8258,
  "Ġaftermath": 8259,
  "Ġdisaster": 8260,
  "FB": 8261,
  "KFB": 8262,
  "KFBK": 8263,
  "Ġmissile": 8264,
  "ĠYankee": 8265,
  "Ġconcentric": 8266,
  "MMA": 8267,
  "ĠPolaris": 8268,
  "Ġtopiary": 8269,
  "Ġladybug": 8270,
  "dryer": 8271,
  "Ġhomebase": 8272,
  "Ġscowling": 8273,
  "Ġflopping": 8274,
  "Ġsaddlebags": 8275,
  "Will": 8276,
  "Ġswank": 8277,
  "Ġbullpen": 8278,
  "Frog": 8279,
  "Ġinterestingly": 8280,
  "Ġbolted": 8281,
  "SOme": 8282,
  "ĠHans": 8283,
  "ĠHansa": 8284,
  "Ġfifteen": 8285,
  "rizzling": 8286,
  "Ġdrizzling": 8287,
  "ĠHoy": 8288,
  "ĠHoyt": 8289,
  "Ġperch": 8290,
  "ĠLevi": 8291,
  "Ġsequin": 8292,
  "Ġheadquarters": 8293,
  "suits": 8294,
  "dick": 8295,
  "Ġbruna": 8296,
  "Ġhuis": 8297,
  "Ġchildhood": 8298,
  "ĠStatue": 8299,
  "ĠLiberty": 8300,
  "ĠGam": 8301,
  "ĠGambas": 8302,
  "Ġdreadlocked": 8303,
  "Ġinsurance": 8304,
  "ĠNissan": 8305,
  "Ġinserted": 8306,
  "Ġbroccoli": 8307,
  "Ġreceipt": 8308,
  "focus": 8309,
  "Ballplayer": 8310,
  "mounted": 8311,
  "Ġbrazier": 8312,
  "Front": 8313,
  "Ġboisterous": 8314,
  "Ġboisterously": 8315,
  "Ġfingerpaints": 8316,
  "Ġscarfs": 8317,
  "Ġ58": 8318,
  "Park": 8319,
  "ĠAve": 8320,
  "Ġabutment": 8321,
  "Bicyclists": 8322,
  "ĠCommunity": 8323,
  "Kites": 8324,
  "Ġparticularly": 8325,
  "Concertgoers": 8326,
  "blowing": 8327,
  "Ġpickles": 8328,
  "Ġclowds": 8329,
  "Ġ78": 8330,
  "Migrant": 8331,
  "Ġhovel": 8332,
  "ĠHemlock": 8333,
  "Ġcrampons": 8334,
  "Ġnarby": 8335,
  "zily": 8336,
  "Ġcozily": 8337,
  "Ġatm": 8338,
  "ealously": 8339,
  "Ġjealously": 8340,
  "ĠTigger": 8341,
  "Ġhurries": 8342,
  "ĠLife": 8343,
  "itness": 8344,
  "ĠFitness": 8345,
  "butted": 8346,
  "Ġconspicuously": 8347,
  "Ġasparagus": 8348,
  "Ġslippery": 8349,
  "Ah": 8350,
  "Ġregatta": 8351,
  "Ġbaroque": 8352,
  "Ġpliers": 8353,
  "Ġtrampling": 8354,
  "ĠNaples": 8355,
  "ĠPortfolio": 8356,
  "flip": 8357,
  "Ġbackflip": 8358,
  "ĠCamden": 8359,
  "ĠInteriors": 8360,
  "Ġsnoozing": 8361,
  "Ġ49": 8362,
  "Ġ49ers": 8363,
  "Ġheadlight": 8364,
  "ĠBasket": 8365,
  "000": 8366,
  "ĠTae": 8367,
  "ĠKwon": 8368,
  "Athlete": 8369,
  "Ġrelevance": 8370,
  "Ġjutted": 8371,
  "Ġbudweiser": 8372,
  "01": 8373,
  "Ġ701": 8374,
  "Ġuncon": 8375,
  "cerned": 8376,
  "Ġunconcerned": 8377,
  "Mar": 8378,
  "Married": 8379,
  "Ġuncle": 8380,
  "ĠBrian": 8381,
  "Ġembarrasses": 8382,
  "hp": 8383,
  "hpurs": 8384,
  "Ġjodhpurs": 8385,
  "Ġanxiety": 8386,
  "Ġribbed": 8387,
  "quik": 8388,
  "ĠNesquik": 8389,
  "Ġabdom": 8390,
  "Ġabdominal": 8391,
  "Ġthanks": 8392,
  "ivious": 8393,
  "Ġoblivious": 8394,
  "ĠDinner": 8395,
  "Ġreversible": 8396,
  "Ġclergy": 8397,
  "Ġcontrail": 8398,
  "Ġpayfully": 8399,
  "Ġgaucho": 8400,
  "Ġprehistoric": 8401,
  "ĠConn": 8402,
  "ĠConnie": 8403,
  "kiiers": 8404,
  "Skiiers": 8405,
  "waisted": 8406,
  "rifugal": 8407,
  "Ġcentrifugal": 8408,
  "Ġdrips": 8409,
  "Crash": 8410,
  "Scraggly": 8411,
  "ĠChoir": 8412,
  "Ġsifted": 8413,
  "belt": 8414,
  "ĠMarl": 8415,
  "ĠMarlboro": 8416,
  "Ġstraddle": 8417,
  "Ġslim": 8418,
  "Ġovershadows": 8419,
  "Ġupturned": 8420,
  "Ġcounterbalanced": 8421,
  "Ġgaurd": 8422,
  "ĠHats": 8423,
  "ĠChannel": 8424,
  "Ġgoaltender": 8425,
  "Ġoutstretches": 8426,
  "armulke": 8427,
  "ĠYarmulke": 8428,
  "Ġcaftan": 8429,
  "quisitively": 8430,
  "Ġinquisitively": 8431,
  "Ġedifice": 8432,
  "ĠBic": 8433,
  "Ġwearhing": 8434,
  "complexioned": 8435,
  "Ġsesame": 8436,
  "Ġslitted": 8437,
  "ISA": 8438,
  "ĠVISA": 8439,
  "Volunteer": 8440,
  "Ġbirdcage": 8441,
  "Ġsurges": 8442,
  "ĠTinkerbell": 8443,
  "Ġplayb": 8444,
  "Ġplaybill": 8445,
  "ĠRVs": 8446,
  "Ġheadscarfs": 8447,
  "foil": 8448,
  "Ġtinfoil": 8449,
  "Ġplunge": 8450,
  "Since": 8451,
  "Ġ188": 8452,
  "Ġ1889": 8453,
  "Ġflatly": 8454,
  "Ġmimicked": 8455,
  "Hors": 8456,
  "ĠRetreiver": 8457,
  "Ġpanned": 8458,
  "Ġhassled": 8459,
  "Ġhighschool": 8460,
  "vian": 8461,
  "ĠPeruvian": 8462,
  "ĠEntrance": 8463,
  "Ġdisgust": 8464,
  "Ġdocuments": 8465,
  "Ġstirred": 8466,
  "drained": 8467,
  "Ġflattening": 8468,
  "ĠFlorid": 8469,
  "ĠFlorida": 8470,
  "Ġnorthern": 8471,
  "Ġtreasure": 8472,
  "inine": 8473,
  "Ġfeminine": 8474,
  "Ġclippers": 8475,
  "Ġgui": 8476,
  "Ġguiutarist": 8477,
  "Ġbilliard": 8478,
  "glo": 8479,
  "Ġmeanwhile": 8480,
  "ĠOakland": 8481,
  "ĠAthletics": 8482,
  "aj": 8483,
  "Taj": 8484,
  "Ġbusiest": 8485,
  "grassy": 8486,
  "Crusher": 8487,
  "Ġgreasy": 8488,
  "ĠMiss": 8489,
  "ĠMission": 8490,
  "ĠPortland": 8491,
  "Mike": 8492,
  "ĠHolm": 8493,
  "ĠHolmg": 8494,
  "ĠHolmgren": 8495,
  "Ġalto": 8496,
  "ayre": 8497,
  "ĠFayre": 8498,
  "Ġfoodstuffs": 8499,
  "Image": 8500,
  "glider": 8501,
  "Apples": 8502,
  "Ġbronc": 8503,
  "Ġchampions": 8504,
  "Ġ1950": 8505,
  "Ġcolorless": 8506,
  "Ġbassinet": 8507,
  "ĠDio": 8508,
  "ĠUnderground": 8509,
  "ĠIslamic": 8510,
  ",.": 8511,
  "Sled": 8512,
  "Sledding": 8513,
  "Ġ1102": 8514,
  "ĠNik": 8515,
  "ĠNikon": 8516,
  "Ġsiloh": 8517,
  "Ġsilohuetted": 8518,
  "grow": 8519,
  "growth": 8520,
  "Ġculottes": 8521,
  "ĠDaddy": 8522,
  "ĠRican": 8523,
  "Ġradiating": 8524,
  "ĠWW": 8525,
  "II": 8526,
  "ĠWWII": 8527,
  "Ġbombers": 8528,
  "Ġorganize": 8529,
  "ratulate": 8530,
  "Ġcongratulate": 8531,
  "Musc": 8532,
  "Muscular": 8533,
  "Ġexist": 8534,
  "ĠBaker": 8535,
  "viz": 8536,
  "zance": 8537,
  "enzance": 8538,
  "ĠPenzance": 8539,
  "bish": 8540,
  "Ġrubbish": 8541,
  "Winning": 8542,
  "Ġenergized": 8543,
  "ĠSwiss": 8544,
  "Ġhandbook": 8545,
  "Ġridic": 8546,
  "Ġridiculous": 8547,
  "Fisheye": 8548,
  "Ġincrements": 8549,
  "Ġtableau": 8550,
  "Ġradishes": 8551,
  "Ġvanity": 8552,
  "ĠR2": 8553,
  "D2": 8554,
  "venus": 8555,
  "Bienvenus": 8556,
  "acht": 8557,
  "ĠBerg": 8558,
  "ĠBergw": 8559,
  "ĠBergwacht": 8560,
  "Ġhurridly": 8561,
  "Gladstone": 8562,
  "Ġgrove": 8563,
  "Oklahoma": 8564,
  "ĠSub": 8565,
  "lime": 8566,
  "ĠSublime": 8567,
  "Ġcoddled": 8568,
  "Ġtantrum": 8569,
  "ARAH": 8570,
  "SARAH": 8571,
  "Ever": 8572,
  "Ġpinball": 8573,
  "Ġbreaths": 8574,
  "ĠToy": 8575,
  "Ġinternal": 8576,
  "Staff": 8577,
  "Ġparrot": 8578,
  "oad": 8579,
  "Road": 8580,
  "pink": 8581,
  "pward": 8582,
  "Upward": 8583,
  "Pol": 8584,
  "Polizes": 8585,
  "Dilapidated": 8586,
  "30": 8587,
  "Ġconvene": 8588,
  "Ġsunburned": 8589,
  "Ġovercrowded": 8590,
  "pole": 8591,
  "Ġflagpole": 8592,
  "Ġarmrest": 8593,
  "Ġghostlike": 8594,
  "Ġprotruding": 8595,
  "ĠShetland": 8596,
  "Ġtootsie": 8597,
  "Ġexhausted": 8598,
  "Ġpromptly": 8599,
  "Ġaviation": 8600,
  "ĠBlockbuster": 8601,
  "Ġgauze": 8602,
  "umming": 8603,
  "cumming": 8604,
  "Ġhippy": 8605,
  "ĠNotre": 8606,
  "Sisters": 8607,
  "Ġ60th": 8608,
  "Ġdge": 8609,
  "urple": 8610,
  "purple": 8611,
  "WCA": 8612,
  "ĠYWCA": 8613,
  "reducing": 8614,
  "Campers": 8615,
  "Ġoutfitted": 8616,
  "Malaysia": 8617,
  "ĠMavic": 8618,
  "Ġstapling": 8619,
  "Ġinvade": 8620,
  "ĠTanu": 8621,
  "ĠTanuki": 8622,
  "ERT": 8623,
  "UVERT": 8624,
  "OUVERT": 8625,
  "asually": 8626,
  "Casually": 8627,
  "gros": 8628,
  "Negros": 8629,
  "Ġlava": 8630,
  "Ġsaffron": 8631,
  "Ġdinnerware": 8632,
  "Artisti": 8633,
  "Chopped": 8634,
  "Ġstunning": 8635,
  "hatted": 8636,
  "Ġswaetshirt": 8637,
  "attle": 8638,
  "Cattle": 8639,
  "Ġfriday": 8640,
  "Ġinterp": 8641,
  "Ġinterpretive": 8642,
  "Zaras": 8643,
  "ĠYears": 8644,
  "ĠAb": 8645,
  "ĠAbney": 8646,
  "Important": 8647,
  "ĠTor": 8648,
  "ĠTorch": 8649,
  "ĠDEMOS": 8650,
  "Playboy": 8651,
  "Emergency": 8652,
  "ĠMed": 8653,
  "ĠMedical": 8654,
  "singing": 8655,
  "Ġstein": 8656,
  "ĠEarly": 8657,
  "Oh": 8658,
  "URKLE": 8659,
  "Gaily": 8660,
  "ĠRing": 8661,
  "Paint": 8662,
  "Ġ80": 8663,
  "Ġ8026": 8664,
  "Ġpendant": 8665,
  "ĠStratocaster": 8666,
  "Ġmulticultural": 8667,
  "Ġblackjack": 8668,
  "ĠGutter": 8669,
  "Poor": 8670,
  "ĠIncredible": 8671,
  "ulk": 8672,
  "ĠHulk": 8673,
  "Ġimpression": 8674,
  "Paris": 8675,
  "Ġcoolness": 8676,
  "Ġscramble": 8677,
  "Ġworkroom": 8678,
  "Ġdeployment": 8679,
  "Ġexaminations": 8680,
  "Ġwaterski": 8681,
  "OLAIS": 8682,
  "EAU": 8683,
  "JOLAIS": 8684,
  "BEAU": 8685,
  "BEAUJOLAIS": 8686,
  "ĠMORE": 8687,
  "ĠNO": 8688,
  "ĠNOV": 8689,
  "Ġcaravan": 8690,
  "046": 8691,
  "Ġ046": 8692,
  "Ġstreetcar": 8693,
  "Ġtedious": 8694,
  "Ġsnowflakes": 8695,
  "Ġtaught": 8696,
  "Ġza": 8697,
  "Ġzaftig": 8698,
  "Ġ97": 8699,
  "Grill": 8700,
  "ĠNYP": 8701,
  "ĠNYPD": 8702,
  "Ġspokes": 8703,
  "probuilt": 8704,
  "Ġcrossbow": 8705,
  "Ġruddy": 8706,
  "Ġwedded": 8707,
  "ĠRussia": 8708,
  "Ġsu": 8709,
  "Ġsuicide": 8710,
  "Ġberries": 8711,
  "Main": 8712,
  "Ġmidpitch": 8713,
  "chucks": 8714,
  "Ġseductively": 8715,
  "Ġrefreshment": 8716,
  "USA": 8717,
  "Ġfir": 8718,
  "Ġfirm": 8719,
  "imilar": 8720,
  "imilarly": 8721,
  "Similarly": 8722,
  "Ġsleek": 8723,
  "Approximately": 8724,
  "COLLE": 8725,
  "COLLEG": 8726,
  "COLLEGE": 8727,
  "UG": 8728,
  "RUG": 8729,
  "ĠKRUG": 8730,
  "ĠKRUGT": 8731,
  "ĠDIN": 8732,
  "ERS": 8733,
  "ĠDINERS": 8734,
  "Ġ%\"": 8735,
  "Ġmultilple": 8736,
  "metrical": 8737,
  "Ġsymmetrical": 8738,
  "Shane": 8739,
  "ĠBattier": 8740,
  "ĠDavonik": 8741,
  "astavowich": 8742,
  "ĠNastavowich": 8743,
  "ĠNBA": 8744,
  "Ġnoisy": 8745,
  "Ġvanilla": 8746,
  "Ġ;": 8747,
  "Ġcommence": 8748,
  "Ġbombs": 8749,
  "Ġpedic": 8750,
  "Ġpedicure": 8751,
  "ĠYongs": 8752,
  "ĠYongsan": 8753,
  "ibrary": 8754,
  "ĠLibrary": 8755,
  "Ġhopper": 8756,
  "Ġsteamroller": 8757,
  "pavement": 8758,
  "PO": 8759,
  "TE": 8760,
  "INTE": 8761,
  "POINTE": 8762,
  "Parents": 8763,
  "Rop": 8764,
  "polo": 8765,
  "Roppolo": 8766,
  "ĠPizzeria": 8767,
  "Coast": 8768,
  "ĠGas": 8769,
  "ĠPride": 8770,
  "Ġsergeant": 8771,
  "ulcan": 8772,
  "vulcan": 8773,
  "Ġavro": 8774,
  "Ġavrovulcan": 8775,
  "Ġreduce": 8776,
  "Ġjudging": 8777,
  "Ġneckless": 8778,
  "Ġrosebuds": 8779,
  "Ġpoached": 8780,
  "crossbones": 8781,
  "starve": 8782,
  "Ġcrescent": 8783,
  "Ġanticipatory": 8784,
  "Ġconsist": 8785,
  "Fast": 8786,
  "egetables": 8787,
  "Vegetables": 8788,
  "ĠMakerBot": 8789,
  "ĠIndustries": 8790,
  "Ġcrepe": 8791,
  "Ġuniformly": 8792,
  "Cameras": 8793,
  "Ġmishap": 8794,
  "ĠVancouver": 8795,
  "Ġunaffected": 8796,
  "Ġstrengths": 8797,
  "Ġjabbing": 8798,
  "Ġhandgun": 8799,
  "ĠTexan": 8800,
  "Ġviolently": 8801,
  "Ġfelt": 8802,
  "Micky": 8803,
  "Rays": 8804,
  "Ġemerge": 8805,
  "ĠAngel": 8806,
  "ĠLombard": 8807,
  "ĠLombardi": 8808,
  "ĠAudi": 8809,
  "ĠToshiba": 8810,
  "urby": 8811,
  "ĠFurby": 8812,
  "Ġintrigued": 8813,
  "Min": 8814,
  "Miniv": 8815,
  "Minivans": 8816,
  "Ġsteplad": 8817,
  "Ġstepladder": 8818,
  "ĠLivingstone": 8819,
  "ĠLouisville": 8820,
  "Cameramen": 8821,
  "ĠQuinta": 8822,
  "ĠKeny": 8823,
  "ĠKenya": 8824,
  "Ġcrisscross": 8825,
  "ĠIreland": 8826,
  "Ġcultivated": 8827,
  "Ġsplayed": 8828,
  "Ġpotting": 8829,
  "Ġtipped": 8830,
  "ĠGentlemen": 8831,
  "Ġbroadway": 8832,
  "ranha": 8833,
  "yranha": 8834,
  "ĠPyranha": 8835,
  "ĠShorebreak": 8836,
  "Ġexpectantly": 8837,
  "Ġquasi": 8838,
  "grass": 8839,
  "Ġbluegrass": 8840,
  "Ġskullcap": 8841,
  "Teen": 8842,
  "Ġhandcuffed": 8843,
  "ailroad": 8844,
  "Railroad": 8845,
  "Ġwidows": 8846,
  "Roy": 8847,
  "Royal": 8848,
  "Ġdiagnose": 8849,
  "ĠExt": 8850,
  "ĠExtra": 8851,
  "DAY": 8852,
  "GIDDAY": 8853,
  "Penn": 8854,
  "Ġdownfield": 8855,
  "Ġbuddy": 8856,
  "Ġflagman": 8857,
  "hjong": 8858,
  "ĠMahjong": 8859,
  "ĠCarnival": 8860,
  "ĠEuros": 8861,
  "Ġbeefy": 8862,
  "Swimmer": 8863,
  "Ġdikes": 8864,
  "Ġvisual": 8865,
  "Ġbeckoning": 8866,
  "Ġrenov": 8867,
  "Ġrenovating": 8868,
  "Ġprepping": 8869,
  "Ġcreator": 8870,
  "Ġkindergarten": 8871,
  "jobs": 8872,
  "Ġdropper": 8873,
  "ĠNames": 8874,
  "Ġdial": 8875,
  "Employees": 8876,
  "uitton": 8877,
  "ĠVuitton": 8878,
  "Ġarmful": 8879,
  "YES": 8880,
  "ĠMR": 8881,
  "ĠPRESID": 8882,
  "ĠPRESIDENT": 8883,
  "ĠLET": 8884,
  "ĠBRING": 8885,
  "ĠHONEST": 8886,
  "ĠTO": 8887,
  "Ġsediment": 8888,
  "Ġcaus": 8889,
  "Ġcausally": 8890,
  "Ġresult": 8891,
  "Ġfrustration": 8892,
  "Ġunhooks": 8893,
  "Ġshowerhead": 8894,
  "Ġpushcart": 8895,
  "Ġwindsailing": 8896,
  "asmine": 8897,
  "ĠJasmine": 8898,
  "Ġfrantically": 8899,
  "Ġboardroom": 8900,
  "Ġunnamed": 8901,
  "flying": 8902,
  "Ġdistnat": 8903,
  "Ġurging": 8904,
  "Ġsins": 8905,
  "Ġpossibility": 8906,
  "Ġadjustment": 8907,
  "sale": 8908,
  "ĠAgain": 8909,
  "Ġnotch": 8910,
  "ĠBabies": 8911,
  "Ġbomb": 8912,
  "uengling": 8913,
  "ĠYuengling": 8914,
  "Ġvespa": 8915,
  "ĠGar": 8916,
  "ĠGarcia": 8917,
  "Ġdismounts": 8918,
  "Ġregalia": 8919,
  "Ġenergetic": 8920,
  "Ġmaternal": 8921,
  "HERR": 8922,
  "BHERR": 8923,
  "LIE": 8924,
  "LIEBHERR": 8925,
  "Skylights": 8926,
  "Ġdishtowel": 8927,
  "Fish": 8928,
  "Fishmonger": 8929,
  "ski": 8930,
  "vski": 8931,
  "ĠSwarovski": 8932,
  "Ġmahogany": 8933,
  "Ġlampposts": 8934,
  "Ġgerms": 8935,
  "lasgow": 8936,
  "ĠGlasgow": 8937,
  "Ġchopper": 8938,
  "Ġdiligently": 8939,
  "Ġpizzeria": 8940,
  "ĠBunny": 8941,
  "Outlines": 8942,
  "Ġloving": 8943,
  "ĠTrader": 8944,
  "ĠNorthwestern": 8945,
  "ĠWildcats": 8946,
  "Feelings": 8947,
  "ĠDoberman": 8948,
  "Thank": 8949,
  "Ġepisodes": 8950,
  "Ġcorporation": 8951,
  "Exx": 8952,
  "Exxx": 8953,
  "Exxxotica": 8954,
  "ĠHot": 8955,
  "ĠMovies": 8956,
  "Ġunbelief": 8957,
  "hungry": 8958,
  "Ġfez": 8959,
  "Chairs": 8960,
  "vespa": 8961,
  "Ġbrulee": 8962,
  "Ġskimming": 8963,
  "Ġnubby": 8964,
  "Ġdealt": 8965,
  "Power": 8966,
  "WheelPower": 8967,
  "hurst": 8968,
  "ĠStonehurst": 8969,
  "ĠICE": 8970,
  "Sa": 8971,
  "Safe": 8972,
  "ĠMerry": 8973,
  "Ġupfront": 8974,
  "soaked": 8975,
  "Ġsuzuki": 8976,
  "height": 8977,
  "ĠEden": 8978,
  "Ġattract": 8979,
  "Ġborn": 8980,
  "Ġcolosseum": 8981,
  "Ġthermometer": 8982,
  "Ġreassurance": 8983,
  "Ġinlaid": 8984,
  "Teaching": 8985,
  "Israel": 8986,
  "ĠTerrorism": 8987,
  "ĠCreation": 8988,
  "Ġfrisbie": 8989,
  "Ġhandw": 8990,
  "Ġhandwritten": 8991,
  "Ġhardcover": 8992,
  "ĠWilbert": 8993,
  "untidy": 8994,
  "Ġtuque": 8995,
  "Ġdreary": 8996,
  "Mannequins": 8997,
  "ĠChopin": 8998,
  "ĠPrelude": 8999,
  "Ġpursuing": 9000,
  "Ġfuton": 9001,
  "fry": 9002,
  "argo": 9003,
  "ĠFargo": 9004,
  "Ġoutriders": 9005,
  "Ġbloe": 9006,
  "Ġoverlays": 9007,
  "Ġbroadcast": 9008,
  "glides": 9009,
  "ĠOlympian": 9010,
  "Ġinternet": 9011,
  "Ġdistributed": 9012,
  "Ġpopulate": 9013,
  "ĠSavoie": 9014,
  "ĠMeij": 9015,
  "ĠMeijer": 9016,
  "Avocet": 9017,
  "Ġpseudo": 9018,
  "Ġrickshaws": 9019,
  "aa": 9020,
  "such": 9021,
  "akeboarder": 9022,
  "Wakeboarder": 9023,
  "Ġsquirt": 9024,
  "Ġwindup": 9025,
  "Ġteeing": 9026,
  "LESS": 9027,
  "ELESS": 9028,
  "HOMELESS": 9029,
  "YT": 9030,
  "ĠANYT": 9031,
  "ĠANYTHING": 9032,
  "ĠHEL": 9033,
  "ĠHELPS": 9034,
  "ĠHammerste": 9035,
  "ĠHammerstein": 9036,
  "ĠBaskin": 9037,
  "bbins": 9038,
  "ĠRobbins": 9039,
  "Ġstatute": 9040,
  "Bud": 9041,
  "Ġdrooling": 9042,
  "slide": 9043,
  "foam": 9044,
  "Ġseafoam": 9045,
  "Ġskidding": 9046,
  "ĠCigar": 9047,
  "Ġworshippers": 9048,
  "Plastic": 9049,
  "Zombies": 9050,
  "Our": 9051,
  "ĠFuture": 9052,
  "Ġsepia": 9053,
  "ĠInn": 9054,
  "Ġmolten": 9055,
  "ĠQuarterback": 9056,
  "Ġresources": 9057,
  "Ġtranslucent": 9058,
  "ĠX": 9059,
  "97": 9060,
  "Ġ661": 9061,
  "Ġ66197": 9062,
  "Ġanarchy": 9063,
  "berlin": 9064,
  "Ġkathmand": 9065,
  "Ġkathmandu": 9066,
  "almost": 9067,
  "Ġtelephoto": 9068,
  "ĠKhera": 9069,
  "ĠCorp": 9070,
  "Bicyclist": 9071,
  "egacy": 9072,
  "Legacy": 9073,
  "Menus": 9074,
  "Ġdescribe": 9075,
  "Ġurbanized": 9076,
  "ĠSides": 9077,
  "Ġappl": 9078,
  "Ġappliance": 9079,
  "ibrant": 9080,
  "Vibrant": 9081,
  "Student": 9082,
  "Point": 9083,
  "ĠPowerPoint": 9084,
  "ĠRoadWork": 9085,
  "Ġowl": 9086,
  "Ġwidespread": 9087,
  "CS": 9088,
  "ĠPCS": 9089,
  "Ġworkspace": 9090,
  "Ġpepsi": 9091,
  "rosscountry": 9092,
  "Crosscountry": 9093,
  "Ġpilgrims": 9094,
  "spin": 9095,
  "Ġorann": 9096,
  "Ġorannge": 9097,
  "Ġaccompanies": 9098,
  "Ġcranberry": 9099,
  "ĠBoulevard": 9100,
  "ĠRoosevelt": 9101,
  "Wo": 9102,
  "TWo": 9103,
  "Ġwatter": 9104,
  "Ġsupply": 9105,
  "Ġthighs": 9106,
  "ilosofie": 9107,
  "ĠFilosofie": 9108,
  "Inj": 9109,
  "Injured": 9110,
  "Ġchoi": 9111,
  "Ġdummy": 9112,
  "ĠRub": 9113,
  "bermaid": 9114,
  "ĠRubbermaid": 9115,
  "Ġoverjoyed": 9116,
  "Ġtoerh": 9117,
  "Ġcapoed": 9118,
  "Aless": 9119,
  "Alessi": 9120,
  "Ġtemporarily": 9121,
  "unctions": 9122,
  "functions": 9123,
  "Ġmalfunctions": 9124,
  "ĠPROL": 9125,
  "Gy": 9126,
  "OGy": 9127,
  "ĠPROLOGy": 9128,
  "ĠJake": 9129,
  "He": 9130,
  "Ġslipper": 9131,
  "ĠArchitects": 9132,
  "009": 9133,
  "Ġ009": 9134,
  "Ġ0095": 9135,
  "Traveling": 9136,
  "ĠUp": 9137,
  "trimmed": 9138,
  "Ġtavern": 9139,
  "Ġhubcap": 9140,
  "Ġthumbnail": 9141,
  "Ġpilgrimage": 9142,
  "Topless": 9143,
  "Quarter": 9144,
  "Quarterback": 9145,
  "Bruce": 9146,
  "Ġhitter": 9147,
  "Ġaligning": 9148,
  "Ġcreeping": 9149,
  "Ġseamstresses": 9150,
  "ĠBudd": 9151,
  "ĠBuddist": 9152,
  "Ġswerves": 9153,
  "ĠEnergy": 9154,
  "raditional": 9155,
  "Traditional": 9156,
  "sm": 9157,
  "smile": 9158,
  "ĠMondesi": 9159,
  "Ġordinary": 9160,
  "OPIA": 9161,
  "ĠUTOPIA": 9162,
  "ĠTattoo": 9163,
  "hemian": 9164,
  "ĠBohemian": 9165,
  "Ġsplint": 9166,
  "shr": 9167,
  "shrt": 9168,
  "Ġgrotto": 9169,
  "Ġforge": 9170,
  "ĠBismar": 9171,
  "ckstra": 9172,
  "ĠBismarckstra": 9173,
  "ĠBismarckstraBe": 9174,
  "Ġexpressively": 9175,
  "ĠTactical": 9176,
  "Ġcreepy": 9177,
  "Ġcami": 9178,
  "Puffy": 9179,
  "Ġhobby": 9180,
  "Ġdazzling": 9181,
  "upor": 9182,
  "Ġstupor": 9183,
  "Washington": 9184,
  "ĠAMC": 9185,
  "Ġreenactment": 9186,
  "Rex": 9187,
  "Ġmeasure": 9188,
  "Ġdeployed": 9189,
  "Ġpunctured": 9190,
  "Such": 9191,
  "Ġexpedition": 9192,
  "Ġbulging": 9193,
  "Ġvibrantly": 9194,
  "Ġsquid": 9195,
  "Ġguardian": 9196,
  "otty": 9197,
  "ĠPotty": 9198,
  "Ġscythe": 9199,
  "ĠGleati": 9200,
  "Ġediting": 9201,
  "Ġepilepsy": 9202,
  "Ġhorro": 9203,
  "eebok": 9204,
  "Reebok": 9205,
  "Ġfingerhold": 9206,
  "iza": 9207,
  "ĠPiza": 9208,
  "Skinny": 9209,
  "Ġscorching": 9210,
  "Ġcounts": 9211,
  "ĠCasino": 9212,
  "AA": 9213,
  "ĠAAA": 9214,
  "Ġextravagantly": 9215,
  "Ġstiffly": 9216,
  "posed": 9217,
  "Ġconvalescent": 9218,
  "Ġ3443": 9219,
  "ĠRobin": 9220,
  "ĠAngus": 9221,
  "Ġdistributor": 9222,
  "Ġsouthwest": 9223,
  "Ġbeijing": 9224,
  "liqu": 9225,
  "liquid": 9226,
  "BUI": 9227,
  "LDING": 9228,
  "BUILDING": 9229,
  "Ġalternatively": 9230,
  "ĠNurs": 9231,
  "ĠNursing": 9232,
  "ĠIdol": 9233,
  "ĠRobert": 9234,
  "ĠHarry": 9235,
  "aylor": 9236,
  "ĠTaylor": 9237,
  "Live": 9238,
  "Ġdaff": 9239,
  "Ġdaffy": 9240,
  "Ġtextbook": 9241,
  "ĠTiger": 9242,
  "ĠSamurai": 9243,
  "pa": 9244,
  "Grandpa": 9245,
  "Ġcolonnade": 9246,
  "Ġstylized": 9247,
  "Ġcarnation": 9248,
  "redibly": 9249,
  "Ġincredibly": 9250,
  "Ġsatisfaction": 9251,
  "Ġenjoyable": 9252,
  "Side": 9253,
  "tting": 9254,
  "Ġhtting": 9255,
  "Ġplucks": 9256,
  "ĠBudweiser": 9257,
  "Ġspeedway": 9258,
  "miss": 9259,
  "missive": 9260,
  "Ġsubmissive": 9261,
  "uniform": 9262,
  "ĠConquest": 9263,
  "Ġparasurfer": 9264,
  "?)": 9265,
  "ATM": 9266,
  "Ġwithdraws": 9267,
  "Ġaccount": 9268,
  "Ġshimmering": 9269,
  "Ġsi": 9270,
  "Ġbritain": 9271,
  "ĠIkea": 9272,
  "Ġfurthest": 9273,
  "Ġlassoing": 9274,
  "Ġbiek": 9275,
  "Ġstraitjacket": 9276,
  "Commodore": 9277,
  "ĠCriterion": 9278,
  "LB": 9279,
  "ĠMLB": 9280,
  "Ġgyro": 9281,
  "Ġcutters": 9282,
  "ĠNFC": 9283,
  "ĠVikings": 9284,
  "ĠSharpley": 9285,
  "splattered": 9286,
  "ĠGreenbay": 9287,
  "shepherd": 9288,
  "Trumpet": 9289,
  "houttes": 9290,
  "Sillhouttes": 9291,
  "Ġlibrarian": 9292,
  "Ġ302": 9293,
  "ĠLiverp": 9294,
  "ĠLiverpool": 9295,
  "ĠNathans": 9296,
  "web": 9297,
  "Ġalternating": 9298,
  "Ġentwined": 9299,
  "Ġcupping": 9300,
  "Ġvoice": 9301,
  "ĠSz": 9302,
  "ĠSziget": 9303,
  "Mature": 9304,
  "MENT": 9305,
  "IMENT": 9306,
  "BATIMENT": 9307,
  "ABLE": 9308,
  "HAB": 9309,
  "ĠINHAB": 9310,
  "ĠINHABI": 9311,
  "ĠINHABIT": 9312,
  "ĠINHABITABLE": 9313,
  "INGO": 9314,
  "ĠBINGO": 9315,
  "ani": 9316,
  "ĠDasani": 9317,
  "Ġcalz": 9318,
  "Ġcalzone": 9319,
  "Ġdefying": 9320,
  "Ġgravity": 9321,
  "Ġpromting": 9322,
  "Ġcircus": 9323,
  "Circ": 9324,
  "Circus": 9325,
  "ZEM": 9326,
  "ĠPRZEM": 9327,
  "ĠPRZEME": 9328,
  "ĠPRZEMEK": 9329,
  "ĠSelek": 9330,
  "tM": 9331,
  "tMail": 9332,
  "ĠSelektMail": 9333,
  "loitation": 9334,
  "Ġexploitation": 9335,
  "ĠHand": 9336,
  "sashed": 9337,
  "ĠBattal": 9338,
  "ĠBattalion": 9339,
  "ĠCrew": 9340,
  "Ġmenacingly": 9341,
  "farmers": 9342,
  "ĠAstroT": 9343,
  "ĠAstroTurf": 9344,
  "Ġcoleus": 9345,
  "Ġrainbows": 9346,
  "ffie": 9347,
  "ĠEffie": 9348,
  "ĠSnoopy": 9349,
  "Ġpressing": 9350,
  "Ġformula": 9351,
  "Ġstrategy": 9352,
  "Ġrein": 9353,
  "niere": 9354,
  "Ġboutonniere": 9355,
  "ĠTonka": 9356,
  "Ġlandform": 9357,
  "Ġdeaths": 9358,
  "ĠDumbo": 9359,
  "ĠReligion": 9360,
  "irport": 9361,
  "Airport": 9362,
  "Shakespeare": 9363,
  "Ġmeticulous": 9364,
  "Ġmeticulously": 9365,
  "Ġturret": 9366,
  "munism": 9367,
  "ĠCommunism": 9368,
  "Ġencounters": 9369,
  "OLET": 9370,
  "ROLET": 9371,
  "ĠCHEVROLET": 9372,
  "mettos": 9373,
  "ĠPalmettos": 9374,
  "pi": 9375,
  "Miss": 9376,
  "ippi": 9377,
  "issippi": 9378,
  "Mississippi": 9379,
  "Ġgauge": 9380,
  "Ġcitrus": 9381,
  "Ġmonochromatic": 9382,
  "Ġvocalizes": 9383,
  "bi": 9384,
  "albi": 9385,
  "Calbi": 9386,
  "burger": 9387,
  "ĠHamburger": 9388,
  "Ġrobust": 9389,
  "Ġcommitment": 9390,
  "Ġportfolio": 9391,
  "roncos": 9392,
  "ĠBroncos": 9393,
  "Ġtattooing": 9394,
  "Pair": 9395,
  "Pairs": 9396,
  "gammon": 9397,
  "Ġbackgammon": 9398,
  "Ġmoccasins": 9399,
  "ED": 9400,
  "OSED": 9401,
  "LOSED": 9402,
  "CLOSED": 9403,
  "Crazy": 9404,
  "ĠExp": 9405,
  "ĠExplorer": 9406,
  "ĠGet": 9407,
  "ĠJob": 9408,
  "Ġ541": 9409,
  "Ġgeisha": 9410,
  "odak": 9411,
  "ĠKodak": 9412,
  "ĠTK": 9413,
  "TS": 9414,
  "ĠTKTS": 9415,
  "Ext": 9416,
  "Extreme": 9417,
  "Ġyellowish": 9418,
  "Ġonyx": 9419,
  "Spelunkers": 9420,
  "Ġcavern": 9421,
  "ĠEquestrian": 9422,
  "runk": 9423,
  "drunk": 9424,
  "ĠPM": 9425,
  "fitters": 9426,
  "Ġcoupling": 9427,
  "Ġtrombon": 9428,
  "Ġtrombonist": 9429,
  "Carioca": 9430,
  "ĠCopenhagen": 9431,
  "cob": 9432,
  "cobbled": 9433,
  "Ġwaterboard": 9434,
  "Ġparachutist": 9435,
  "Ġneurulation": 9436,
  "Ġjig": 9437,
  "gt": 9438,
  "Ġcgt": 9439,
  "ainforest": 9440,
  "Rainforest": 9441,
  "Ġmuffling": 9442,
  "Footprints": 9443,
  "resively": 9444,
  "Ġaggresively": 9445,
  "ĠJouez": 9446,
  "Invas": 9447,
  "Invasion": 9448,
  "Groom": 9449,
  "Ġusually": 9450,
  "Intense": 9451,
  "Ġwaterline": 9452,
  "snow": 9453,
  "Ġbeachgoers": 9454,
  "ĠBedford": 9455,
  "Ġlesbianism": 9456,
  "Blockbuster": 9457,
  "bulbs": 9458,
  "Ġlightbulbs": 9459,
  "Ġpouncing": 9460,
  "Ġtousled": 9461,
  "Ġbellows": 9462,
  "Ġhighland": 9463,
  "Ġguidewire": 9464,
  "WAN": 9465,
  "ĠSWAN": 9466,
  "ĠOst": 9467,
  "ĠOstrich": 9468,
  "Ġ65": 9469,
  "ĠHammer": 9470,
  "Ġdetergent": 9471,
  "Hippie": 9472,
  "Ġkeytar": 9473,
  "Ġominous": 9474,
  "Ġshipment": 9475,
  "ĠElizabethan": 9476,
  "Ġwresting": 9477,
  "Ġtorchlight": 9478,
  "Detroit": 9479,
  "Ġfreckles": 9480,
  "ĠProject": 9481,
  "University": 9482,
  "llinois": 9483,
  "ĠIllinois": 9484,
  "ĠSpringfield": 9485,
  "Ġfaithful": 9486,
  "Ġexerting": 9487,
  "Ġinstrumentalists": 9488,
  "Ġunfortunate": 9489,
  "Ġoccurred": 9490,
  "Ġstumbled": 9491,
  "Ġ108": 9492,
  "Ġgrooving": 9493,
  "Ġtiredly": 9494,
  "ĠLollapalooz": 9495,
  "ĠLollapalooza": 9496,
  "ĠNut": 9497,
  "ĠNutrilite": 9498,
  "Piazz": 9499,
  "Piazza": 9500,
  "ĠMiradore": 9501,
  "Left": 9502,
  "ĠLexmark": 9503,
  "Ġedgy": 9504,
  "Ġboatman": 9505,
  "Ġtombstone": 9506,
  "Ġinsulated": 9507,
  "Tons": 9508,
  "ishingly": 9509,
  "Ġastonishingly": 9510,
  "friendly": 9511,
  "Juggling": 9512,
  "Ġresearch": 9513,
  "Ġenthralled": 9514,
  "Ġusual": 9515,
  "Ġrefs": 9516,
  "Ġbackhanded": 9517,
  "Ġinsulating": 9518,
  "Ġkiln": 9519,
  "floor": 9520,
  "Square": 9521,
  "Ġprune": 9522,
  "Ġactually": 9523,
  "Ġpostcards": 9524,
  "ĠTalking": 9525,
  "First": 9526,
  "ĠConference": 9527,
  "ĠGlobal": 9528,
  "ĠPlace": 9529,
  "Ġboyfriend": 9530,
  "Kitchen": 9531,
  "KitchenAid": 9532,
  "Ġdiagnostics": 9533,
  "Ġwolf": 9534,
  "Ġbellbot": 9535,
  "Ġbellbottoms": 9536,
  "HOO": 9537,
  "HOOD": 9538,
  "Ġketch": 9539,
  "Ġketchup": 9540,
  "Ġterra": 9541,
  "Ġcotta": 9542,
  "Ġprying": 9543,
  "ĠKon": 9544,
  "inck": 9545,
  "ĠKoninck": 9546,
  "Ġcarryall": 9547,
  "Ġwindowpane": 9548,
  "Ġlyrics": 9549,
  "Di": 9550,
  "PAOLA": 9551,
  "DiPAOLA": 9552,
  "URKE": 9553,
  "ĠTURKE": 9554,
  "ĠTURKEY": 9555,
  "ĠFAR": 9556,
  "ĠFARM": 9557,
  "ĠHawks": 9558,
  "Ġtripped": 9559,
  "Ġhookah": 9560,
  "Ġsyllables": 9561,
  "Ġcaptivated": 9562,
  "Ġloincloths": 9563,
  "Ġscull": 9564,
  "Onlooker": 9565,
  "kraine": 9566,
  "Ukraine": 9567,
  "ĠFlyre": 9568,
  "Ġcautious": 9569,
  "Ġillustrating": 9570,
  "Ġcommunist": 9571,
  "Obese": 9572,
  "Ġ569": 9573,
  "Ġpheasants": 9574,
  "Ġcompress": 9575,
  "Ġcompressing": 9576,
  "Ġmaturity": 9577,
  "Ġ3646": 9578,
  "Ġcrevasse": 9579,
  "ĠEerie": 9580,
  "Ġscrubland": 9581,
  "phins": 9582,
  "ĠDolphins": 9583,
  "Ġterrified": 9584,
  "Ġterrif": 9585,
  "Ġterrifying": 9586,
  "Ġseine": 9587,
  "Ġ).": 9588,
  "Ġrecreate": 9589,
  "Ġhandhold": 9590,
  "chewing": 9591,
  "ĠHeadphones": 9592,
  "Ġupholstered": 9593,
  "Ġhudge": 9594,
  "Central": 9595,
  "Ġretrive": 9596,
  "brooms": 9597,
  "Ġunfurnished": 9598,
  "ĠEstacione": 9599,
  "mly": 9600,
  "Ġdimmly": 9601,
  "513": 9602,
  "Ġpopped": 9603,
  "Ġgrenade": 9604,
  "bili": 9605,
  "ĠGinobili": 9606,
  "Ġziplock": 9607,
  "ngen": 9608,
  "ĠGubb": 9609,
  "ĠGubbngen": 9610,
  "holm": 9611,
  "ĠStockholm": 9612,
  "Sculptor": 9613,
  "Ġexplos": 9614,
  "Ġexplosion": 9615,
  "booths": 9616,
  "Ġcarelessly": 9617,
  "Ġburrito": 9618,
  "Bienvenue": 9619,
  "ĠSouthwest": 9620,
  "Ġijs": 9621,
  "Beauty": 9622,
  "ĠPar": 9623,
  "ĠParlour": 9624,
  "Ġpewter": 9625,
  "Ġexhaust": 9626,
  "carrier": 9627,
  "carriage": 9628,
  "Ġundercarriage": 9629,
  "Ġcheckpoint": 9630,
  "rahi": 9631,
  "Ġphotograhi": 9632,
  "Ġmildly": 9633,
  "SHO": 9634,
  "SHOES": 9635,
  "HINE": 9636,
  "SHOESHINE": 9637,
  "olkadotted": 9638,
  "polkadotted": 9639,
  "Ġ4x4": 9640,
  "Ġbalustrade": 9641,
  "Wrinkled": 9642,
  "hazard": 9643,
  "Ġbiohazard": 9644,
  "Ġterrible": 9645,
  "Ġrestaraunt": 9646,
  "Ġdiscount": 9647,
  "Hot": 9648,
  "Hotdog": 9649,
  "ĠMatt": 9650,
  "ĠNevada": 9651,
  "ĠApril": 9652,
  "Toodles": 9653,
  "Ġgorge": 9654,
  "Ġsunroof": 9655,
  "ĠRitz": 9656,
  "Ġtge": 9657,
  "FF": 9658,
  "TRA": 9659,
  "TRAFF": 9660,
  "IC": 9661,
  "TRAFFIC": 9662,
  "ĠPump": 9663,
  "Ġdescendant": 9664,
  "Ġstirrups": 9665,
  "Ġfrisb": 9666,
  "Ġfrisbree": 9667,
  "Ġcosplay": 9668,
  "uesday": 9669,
  "Tuesday": 9670,
  "ĠSeptu": 9671,
  "Pod": 9672,
  "Ġwindsurf": 9673,
  "saw": 9674,
  "saws": 9675,
  "caution": 9676,
  "Ġtarnished": 9677,
  "Ġaggressive": 9678,
  "Ġbackhand": 9679,
  "Restaurant": 9680,
  "Ġdescribing": 9681,
  "ĠAshtray": 9682,
  "Ġflautist": 9683,
  "Gymnast": 9684,
  "Ġ1st": 9685,
  "ĠUSPS": 9686,
  "fa": 9687,
  "falfa": 9688,
  "ĠAlfalfa": 9689,
  "Amid": 9690,
  "Ġrearview": 9691,
  "Riding": 9692,
  "Ġjointly": 9693,
  "Ġprance": 9694,
  "ĠTile": 9695,
  "rivia": 9696,
  "ĠTrivia": 9697,
  "ursuit": 9698,
  "ĠPursuit": 9699,
  "anah": 9700,
  "Ġsavanah": 9701,
  "Ġnuzzles": 9702,
  "Ġdwarfs": 9703,
  "ĠShowcase": 9704,
  "Stretched": 9705,
  "Ġbuddies": 9706,
  "dark": 9707,
  "Ġoutlandish": 9708,
  "Ġrelaxedly": 9709,
  "fiving": 9710,
  "Ġresidence": 9711,
  "Ġaerobic": 9712,
  "Ġobliverate": 9713,
  "Traffic": 9714,
  "Swimming": 9715,
  "thnic": 9716,
  "Ethnic": 9717,
  "Ġwonderland": 9718,
  "Ġexact": 9719,
  "Ġnibbling": 9720,
  "ĠGIORGIO": 9721,
  "burgh": 9722,
  "tsburgh": 9723,
  "ittsburgh": 9724,
  "ĠPittsburgh": 9725,
  "Ġturbines": 9726,
  "Ġapplause": 9727,
  "Ġscalp": 9728,
  "Ġimprovised": 9729,
  "Adventure": 9730,
  "ĠMuseumsbutik": 9731,
  "ĠMuseumsbutikken": 9732,
  "Ġfortune": 9733,
  "ĠGrandmas": 9734,
  "Ġprediction": 9735,
  "Ġsecuring": 9736,
  "Bottles": 9737,
  "Ġmaryjane": 9738,
  "ĠFossar": 9739,
  "Ġyouthful": 9740,
  "Ġobsured": 9741,
  "ĠViking": 9742,
  "ĠHabitat": 9743,
  "Ġcauliflower": 9744,
  "Ġexecute": 9745,
  "uido": 9746,
  "Cuido": 9747,
  "Ġtrembles": 9748,
  "ĠVagabond": 9749,
  "Ġwrinkled": 9750,
  "ĠMorgan": 9751,
  "Phone": 9752,
  "Taking": 9753,
  "highs": 9754,
  "Ġseductive": 9755,
  "Ġgauzy": 9756,
  "Camera": 9757,
  "Ġmanning": 9758,
  "Ġmodular": 9759,
  "ĠRotweiler": 9760,
  "ĠRussell": 9761,
  "ĠIL": 9762,
  "ĠPORTO": 9763,
  "Ġcrackling": 9764,
  "Pret": 9765,
  "Pretty": 9766,
  "Ġtransformer": 9767,
  "Busy": 9768,
  "Town": 9769,
  "ĠChinaTown": 9770,
  "three": 9771,
  "ĠPEOP": 9772,
  "ĠPEOPLE": 9773,
  "ĠPlanet": 9774,
  "Ġstuffing": 9775,
  "lantern": 9776,
  "Ġtriathlon": 9777,
  "Ġliquidation": 9778,
  "Ġjunction": 9779,
  "unk": 9780,
  "Ġskunk": 9781,
  "Ġheadboard": 9782,
  "ĠAsus": 9783,
  "Ġbetbook": 9784,
  "Ġwithdrawing": 9785,
  "Ġforcing": 9786,
  "Chris": 9787,
  "Ġlily": 9788,
  "Ġconverged": 9789,
  "Ġprostrate": 9790,
  "Ġextendable": 9791,
  "Ġsucculent": 9792,
  "journalist": 9793,
  "Photojournalist": 9794,
  "Ġprocessing": 9795,
  "Brass": 9796,
  "Ġsnowshoeing": 9797,
  "trodden": 9798,
  "Ġdowntrodden": 9799,
  "Ġtiretracks": 9800,
  "Ġnibbles": 9801,
  "Ġbm": 9802,
  "Ġbmx": 9803,
  "Ġtriumphantly": 9804,
  "ĠFashioned": 9805,
  "ĠCream": 9806,
  "Ġpenalties": 9807,
  "Ġengland": 9808,
  "ĠSlough": 9809,
  "osure": 9810,
  "Ġexposure": 9811,
  "Bride": 9812,
  "ĠDosas": 9813,
  "Ġcrowbar": 9814,
  "perhaps": 9815,
  "Ġglimpse": 9816,
  "Ġfridge": 9817,
  "ĠSharpie": 9818,
  "ĠMarquette": 9819,
  "ĠMadison": 9820,
  "Taste": 9821,
  "Chubby": 9822,
  "ĠTHE": 9823,
  "XX": 9824,
  "OXX": 9825,
  "ĠROXX": 9826,
  "Ġzepra": 9827,
  "Patrons": 9828,
  "ĠMagpie": 9829,
  "Ġfifty": 9830,
  "PLayers": 9831,
  "SVA": 9832,
  "ĠTheatre": 9833,
  "Ġsunning": 9834,
  "ĠWonderland": 9835,
  "Ġcranber": 9836,
  "Ġcranberries": 9837,
  "altitude": 9838,
  "Ġprion": 9839,
  "afone": 9840,
  "Ovod": 9841,
  "Ovodafone": 9842,
  "mirates": 9843,
  "ĠEmirates": 9844,
  "ĠQuiznos": 9845,
  "Subs": 9846,
  "ĠGulch": 9847,
  "Ġmanipulated": 9848,
  "ĠBroadway": 9849,
  "ĠRite": 9850,
  "ĠPharmacy": 9851,
  "Ġundetermined": 9852,
  "Ġgoalpost": 9853,
  "lyde": 9854,
  "ĠClyde": 9855,
  "Sheep": 9856,
  "Ġdocument": 9857,
  "Ġleaflets": 9858,
  "Ġbillowy": 9859,
  "Ġbarb": 9860,
  "ĠOscar": 9861,
  "ĠGrouch": 9862,
  "If": 9863,
  "ĠBurrito": 9864,
  "bimmed": 9865,
  "Ġconfident": 9866,
  "court": 9867,
  "ĠBP": 9868,
  "Ġinstitutional": 9869,
  "Ġlectern": 9870,
  "LAM": 9871,
  "ĠGLAM": 9872,
  "ĠWI": 9873,
  "KI": 9874,
  "ĠWIKI": 9875,
  "Kart": 9876,
  "ĠGoKart": 9877,
  "Reporters": 9878,
  "Ġjeering": 9879,
  "Ġindistinct": 9880,
  "Ġpassin": 9881,
  "ĠBirth": 9882,
  "ĠBirthday": 9883,
  "ĠQuinn": 9884,
  "UD": 9885,
  "UDAN": 9886,
  "ĠSUDAN": 9887,
  "ĠSnowman": 9888,
  "Face": 9889,
  "TheFace": 9890,
  "TheFaceShop": 9891,
  "seek": 9892,
  "Ġadobe": 9893,
  "Ġlionist": 9894,
  "Ġblindly": 9895,
  "Ġinertia": 9896,
  "Ġorchard": 9897,
  "GO": 9898,
  "ĠLEGO": 9899,
  "Ġpunchbag": 9900,
  "ĠBisuter": 9901,
  "Ġuncrowded": 9902,
  "ĠTo": 9903,
  "ĠKill": 9904,
  "ĠMockingbird": 9905,
  "circularly": 9906,
  "Ġalcove": 9907,
  "Ġoffstage": 9908,
  "Ġstylishly": 9909,
  "Ġdalmatian": 9910,
  "ĠAfghan": 9911,
  "Ġloudly": 9912,
  "ĠHind": 9913,
  "ĠHindu": 9914,
  "cracker": 9915,
  "Ġnutcracker": 9916,
  "Ġidyllic": 9917,
  "ĠCaught": 9918,
  "ĠGNU": 9919,
  "Ġmadly": 9920,
  "Ġscribbled": 9921,
  "Pooh": 9922,
  "ĠInstitute": 9923,
  "ĠDemocracy": 9924,
  "ĠInter": 9925,
  "ĠInternet": 9926,
  "Dates": 9927,
  "Ġagenda": 9928,
  "Ġexplodes": 9929,
  "Ġrealizes": 9930,
  "Ġbulletproof": 9931,
  "deserted": 9932,
  "Ġsoundboard": 9933,
  "turning": 9934,
  "ĠYear": 9935,
  "Ġhaunches": 9936,
  "ĠRottwe": 9937,
  "ĠRottweiler": 9938,
  "ĠCorgi": 9939,
  "Ġdiv": 9940,
  "Ġdivind": 9941,
  "Ġbookshelf": 9942,
  "itamin": 9943,
  "ĠVitamin": 9944,
  "ĠShoppe": 9945,
  "Ġreflexes": 9946,
  "Ġqueue": 9947,
  "Ġstraws": 9948,
  "Ġwii": 9949,
  "vades": 9950,
  "Ġpervades": 9951,
  "Ġmerge": 9952,
  "Mixed": 9953,
  "Ġbicyler": 9954,
  "Ġrepo": 9955,
  "ĠGalina": 9956,
  "ĠInga": 9957,
  "Ġredish": 9958,
  "Ġbackless": 9959,
  "Ġdepos": 9960,
  "Ġdeposited": 9961,
  "Ġchurning": 9962,
  "ews": 9963,
  "ĠJews": 9964
}