{
  "Ā": 3,
  "ā": 4,
  "Ă": 5,
  "ă": 6,
  "Ą": 7,
  "ą": 8,
  "Ć": 9,
  "ć": 10,
  "Ĉ": 11,
  "ĉ": 12,
  "Ċ": 13,
  "ċ": 14,
  "Č": 15,
  "č": 16,
  "Ď": 17,
  "ď": 18,
  "Đ": 19,
  "đ": 20,
  "Ē": 21,
  "ē": 22,
  "Ĕ": 23,
  "ĕ": 24,
  "Ė": 25,
  "ė": 26,
  "Ę": 27,
  "ę": 28,
  "Ě": 29,
  "ě": 30,
  "Ĝ": 31,
  "ĝ": 32,
  "Ğ": 33,
  "ğ": 34,
  "Ġ": 35,
  "!": 36,
  "\"": 37,
  "#": 38,
  "$": 39,
  "%": 40,
  "&": 41,
  "'": 42,
  "(": 43,
  ")": 44,
  "*": 45,
  "+": 46,
  ",": 47,
  "-": 48,
  ".": 49,
  "/": 50,
  "0": 51,
  "1": 52,
  "2": 53,
  "3": 54,
  "4": 55,
  "5": 56,
  "6": 57,
  "7": 58,
  "8": 59,
  "9": 60,
  ":": 61,
  ";": 62,
  "<": 63,
  "=": 64,
  ">": 65,
  "?": 66,
  "@": 67,
  "A": 68,
  "B": 69,
  "C": 70,
  "D": 71,
  "E": 72,
  "F": 73,
  "G": 74,
  "H": 75,
  "I": 76,
  "J": 77,
  "K": 78,
  "L": 79,
  "M": 80,
  "N": 81,
  "O": 82,
  "P": 83,
  "Q": 84,
  "R": 85,
  "S": 86,
  "T": 87,
  "U": 88,
  "V": 89,
  "W": 90,
  "X": 91,
  "Y": 92,
  "Z": 93,
  "[": 94,
  "\\": 95,
  "]": 96,
  "^": 97,
  "_": 98,
  "`": 99,
  "a": 100,
  "b": 101,
  "c": 102,
  "d": 103,
  "e": 104,
  "f": 105,
  "g": 106,
  "h": 107,
  "i": 108,
  "j": 109,
  "k": 110,
  "l": 111,
  "m": 112,
  "n": 113,
  "o": 114,
  "p": 115,
  "q": 116,
  "r": 117,
  "s": 118,
  "t": 119,
  "u": 120,
  "v": 121,
  "w": 122,
  "x": 123,
  "y": 124,
  "z": 125,
  "{": 126,
  "|": 127,
  "}": 128,
  "~": 129,
  "ġ": 130,
  "Ģ": 131,
  "ģ": 132,
  "Ĥ": 133,
  "ĥ": 134,
  "Ħ": 135,
  "ħ": 136,
  "Ĩ": 137,
  "ĩ": 138,
  "Ī": 139,
  "ī": 140,
  "Ĭ": 141,
  "ĭ": 142,
  "Į": 143,
  "į": 144,
  "İ": 145,
  "ı": 146,
  "Ĳ": 147,
  "ĳ": 148,
  "Ĵ": 149,
  "ĵ": 150,
  "Ķ": 151,
  "ķ": 152,
  "ĸ": 153,
  "Ĺ": 154,
  "ĺ": 155,
  "Ļ": 156,
  "ļ": 157,
  "Ľ": 158,
  "ľ": 159,
  "Ŀ": 160,
  "ŀ": 161,
  "Ł": 162,
  "ł": 163,
  "¡": 164,
  "¢": 165,
  "£": 166,
  "¤": 167,
  "¥": 168,
  "¦": 169,
  "§": 170,
  "¨": 171,
  "©": 172,
  "ª": 173,
  "«": 174,
  "¬": 175,
  "Ń": 176,
  "®": 177,
  "¯": 178,
  "°": 179,
  "±": 180,
  "²": 181,
  "³": 182,
  "´": 183,
  "µ": 184,
  "¶": 185,
  "·": 186,
  "¸": 187,
  "¹": 188,
  "º": 189,
  "»": 190,
  "¼": 191,
  "½": 192,
  "¾": 193,
  "¿": 194,
  "À": 195,
  "Á": 196,
  "Â": 197,
  "Ã": 198,
  "Ä": 199,
  "Å": 200,
  "Æ": 201,
  "Ç": 202,
  "È": 203,
  "É": 204,
  "Ê": 205,
  "Ë": 206,
  "Ì": 207,
  "Í": 208,
  "Î": 209,
  "Ï": 210,
  "Ð": 211,
  "Ñ": 212,
  "Ò": 213,
  "Ó": 214,
  "Ô": 215,
  "Õ": 216,
  "Ö": 217,
  "×": 218,
  "Ø": 219,
  "Ù": 220,
  "Ú": 221,
  "Û": 222,
  "Ü": 223,
  "Ý": 224,
  "Þ": 225,
  "ß": 226,
  "à": 227,
  "á": 228,
  "â": 229,
  "ã": 230,
  "ä": 231,
  "å": 232,
  "æ": 233,
  "ç": 234,
  "è": 235,
  "é": 236,
  "ê": 237,
  "ë": 238,
  "ì": 239,
  "í": 240,
  "î": 241,
  "ï": 242,
  "ð": 243,
  "ñ": 244,
  "ò": 245,
  "ó": 246,
  "ô": 247,
  "õ": 248,
  "ö": 249,
  "÷": 250,
  "ø": 251,
  "ù": 252,
  "ú": 253,
  "û": 254,
  "ü": 255,
  "ý": 256,
  "þ": 257,
  "ÿ": 258,
  "<pad>": 0,
  "<bos>": 1,
  "<eos>": 2,
  "Ġa": 259,
  "in": 260,
  "Ġt": 261,
  "Ġo": 262,
  "Ġs": 263,
  "ing": 264,
  "it": 265,
  "Ġw": 266,
  "Ġb": 267,
  "er": 268,
  "an": 269,
  "Ġp": 270,
  "Ġc": 271,
  "le": 272,
  "he": 273,
  "re": 274,
  "Ġof": 275,
  "Ġon": 276,
  "at": 277,
  "ro": 278,
  "ar": 279,
  "Ġf": 280,
  "Ġin": 281,
  "Ġm": 282,
  "is": 283,
  "Ġthe": 284,
  "Ġto": 285,
  "Ġwit": 286,
  "Ġwith": 287,
  "Ġh": 288,
  "Ġg": 289,
  "en": 290,
  "ding": 291,
  "Ġd": 292,
  "Ġl": 293,
  "Ġst": 294,
  "al": 295,
  "Ġand": 296,
  "ra": 297,
  "om": 298,
  "ne": 299,
  "ck": 300,
  "ow": 301,
  "ed": 302,
  "es": 303,
  "un": 304,
  "et": 305,
  "or": 306,
  "ting": 307,
  "la": 308,
  "Ġis": 309,
  "Ġman": 310,
  "ir": 311,
  "on": 312,
  "Ġsit": 313,
  "Ġne": 314,
  "up": 315,
  "op": 316,
  "il": 317,
  "Ġsitting": 318,
  "as": 319,
  "ri": 320,
  "all": 321,
  "ch": 322,
  "Ġco": 323,
  "Ġwh": 324,
  "el": 325,
  "Ġstan": 326,
  "ot": 327,
  "id": 328,
  "ut": 329,
  "oo": 330,
  "xt": 331,
  "Ġnext": 332,
  "ge": 333,
  "ite": 334,
  "Ġstanding": 335,
  "Ġth": 336,
  "us": 337,
  "ers": 338,
  "ab": 339,
  "ol": 340,
  "ard": 341,
  "ur": 342,
  "Ġtra": 343,
  "wo": 344,
  "king": 345,
  "ying": 346,
  "ig": 347,
  "ic": 348,
  "ide": 349,
  "Ġbe": 350,
  "Ġwhite": 351,
  "eop": 352,
  "eople": 353,
  "Ġsk": 354,
  "eb": 355,
  "oard": 356,
  "Ġhol": 357,
  "Ġk": 358,
  "Ġpeople": 359,
  "Ġwoman": 360,
  "Ġv": 361,
  "Ġholding": 362,
  "Ġtab": 363,
  "ff": 364,
  "Ġit": 365,
  "und": 366,
  "ad": 367,
  "Ġdo": 368,
  "Ġtable": 369,
  "reet": 370,
  "Ġgro": 371,
  "Ġstreet": 372,
  "Ġe": 373,
  "Ġpla": 374,
  "lo": 375,
  "Ġy": 376,
  "Ġthat": 377,
  "Ġpar": 378,
  "Ġbo": 379,
  "oun": 380,
  "Two": 381,
  "ce": 382,
  "Ġsh": 383,
  "ome": 384,
  "Ġfi": 385,
  "Ġlarge": 386,
  "Ġgroup": 387,
  "erson": 388,
  "eld": 389,
  "Ġdown": 390,
  "Ġsm": 391,
  "Ġriding": 392,
  "Ġfield": 393,
  "Ġbat": 394,
  "Ġperson": 395,
  "Ġcat": 396,
  "ach": 397,
  "Ġclo": 398,
  "ve": 399,
  "Ġdog": 400,
  "Ġup": 401,
  "um": 402,
  "Ġten": 403,
  "nis": 404,
  "Ġpi": 405,
  "Ġtrain": 406,
  "am": 407,
  "Ġsn": 408,
  "Ġwat": 409,
  "Ġtennis": 410,
  "ke": 411,
  "Ġwal": 412,
  "Ġside": 413,
  "The": 414,
  "and": 415,
  "Ġsnow": 416,
  "lack": 417,
  "ront": 418,
  "Ġbu": 419,
  "Ġfront": 420,
  "se": 421,
  "Ġcar": 422,
  "oung": 423,
  "ug": 424,
  "ign": 425,
  "Ġnear": 426,
  "Ġsur": 427,
  "Ġout": 428,
  "reen": 429,
  "Ġplate": 430,
  "Ġblack": 431,
  "Ġsmall": 432,
  "Ġyoung": 433,
  "Ġroom": 434,
  "Ġred": 435,
  "ue": 436,
  "Ġsign": 437,
  "ion": 438,
  "ree": 439,
  "Ġba": 440,
  "ht": 441,
  "Ġbuil": 442,
  "Ġsome": 443,
  "ind": 444,
  "ul": 445,
  "Ġbuilding": 446,
  "Ġgras": 447,
  "Ġgrass": 448,
  "board": 449,
  "Ġra": 450,
  "Ġro": 451,
  "Ġhis": 452,
  "ving": 453,
  "Ġgreen": 454,
  "Ġsurf": 455,
  "ood": 456,
  "side": 457,
  "Ġskat": 458,
  "Ġwalking": 459,
  "ay": 460,
  "Ġph": 461,
  "Ġwater": 462,
  "Ġre": 463,
  "Ġbath": 464,
  "air": 465,
  "Ġbl": 466,
  "Ġwhile": 467,
  "ru": 468,
  "Ġtwo": 469,
  "Ġby": 470,
  "ph": 471,
  "zz": 472,
  "pt": 473,
  "Ġblue": 474,
  "Ġbaseball": 475,
  "Ġfood": 476,
  "im": 477,
  "ant": 478,
  "Ġkit": 479,
  "yc": 480,
  "An": 481,
  "uple": 482,
  "Ġcouple": 483,
  "Ġbathroom": 484,
  "Ġpizz": 485,
  "Ġother": 486,
  "ight": 487,
  "Ġfl": 488,
  "ain": 489,
  "Ġparked": 490,
  "Ġkitchen": 491,
  "Ġhor": 492,
  "Ġhas": 493,
  "ter": 494,
  "Ġback": 495,
  "Ġmot": 496,
  "Ġclock": 497,
  "umb": 498,
  "Ġskateboard": 499,
  "Ġpizza": 500,
  "irt": 501,
  "Ġj": 502,
  "Ġli": 503,
  "Ġtoilet": 504,
  "iraff": 505,
  "Ġover": 506,
  "Ġn": 507,
  "Ġfilled": 508,
  "ee": 509,
  "Ġcomp": 510,
  "Ġroad": 511,
  "ugh": 512,
  "Ġmotor": 513,
  "Ġgiraff": 514,
  "Ġfor": 515,
  "ct": 516,
  "Ġwooden": 517,
  "ie": 518,
  "Ġca": 519,
  "Ġbeach": 520,
  "Ġbear": 521,
  "Ġflying": 522,
  "Ġcovered": 523,
  "phant": 524,
  "rown": 525,
  "Ġwe": 526,
  "Ġboy": 527,
  "Ġz": 528,
  "Ġelephant": 529,
  "tle": 530,
  "Ġumb": 531,
  "Ġwa": 532,
  "Ġumbrel": 533,
  "ity": 534,
  "age": 535,
  "cyc": 536,
  "Ġmen": 537,
  "irl": 538,
  "ped": 539,
  "ptop": 540,
  "Ġdes": 541,
  "Ġbrown": 542,
  "Ġlaptop": 543,
  "Ġmotorcyc": 544,
  "ild": 545,
  "dy": 546,
  "ame": 547,
  "Ġwearing": 548,
  "Ġgirl": 549,
  "rough": 550,
  "Ġcity": 551,
  "Ġwind": 552,
  "Ġund": 553,
  "Ġcomputer": 554,
  "Ġunder": 555,
  "Ġpas": 556,
  "Ġthrough": 557,
  "ink": 558,
  "Ġlooking": 559,
  "ellow": 560,
  "Ġbench": 561,
  "Ġeach": 562,
  "Ġgame": 563,
  "ird": 564,
  "Ġsink": 565,
  "Ġdis": 566,
  "Ġyellow": 567,
  "Ġplayer": 568,
  "Ġzeb": 569,
  "cks": 570,
  "Ġwindow": 571,
  "ub": 572,
  "ros": 573,
  "Ġdesk": 574,
  "Ġchair": 575,
  "Ġbird": 576,
  "risb": 577,
  "Ġglas": 578,
  "urt": 579,
  "Ġchild": 580,
  "Ġfrom": 581,
  "Ġsurfboard": 582,
  "Ġgiraffe": 583,
  "st": 584,
  "Ġboat": 585,
  "Ġhorse": 586,
  "Th": 587,
  "risbee": 588,
  "Ġcake": 589,
  "Ġtru": 590,
  "Ġphone": 591,
  "Ġpo": 592,
  "Ġeating": 593,
  "Ġpicture": 594,
  "Ġliving": 595,
  "Ġhand": 596,
  "'s": 597,
  "Ġmotorcycle": 598,
  "Ġumbrella": 599,
  "Ġstop": 600,
  "ping": 601,
  "ross": 602,
  "Ġarea": 603,
  "Ġcourt": 604,
  "Ġmo": 605,
  "Ġairp": 606,
  "Ġta": 607,
  "Ġsits": 608,
  "Ġsand": 609,
  "Ġtruck": 610,
  "Ġtree": 611,
  "Ġclose": 612,
  "ove": 613,
  "ill": 614,
  "ort": 615,
  "Ġsp": 616,
  "Ġshow": 617,
  "ks": 618,
  "Ġde": 619,
  "way": 620,
  "Ġoutside": 621,
  "to": 622,
  "ull": 623,
  "Ġlittle": 624,
  "Ġtheir": 625,
  "Ġold": 626,
  "uit": 627,
  "Ġbeh": 628,
  "Ġbehind": 629,
  "Ġsw": 630,
  "Ġcont": 631,
  "Ġopen": 632,
  "pp": 633,
  "Ġsky": 634,
  "Ġpark": 635,
  "Ġvery": 636,
  "ĠA": 637,
  "Ġphoto": 638,
  "Ġskis": 639,
  "Ġbanan": 640,
  "Ġinside": 641,
  "Ġski": 642,
  "Ġmount": 643,
  "uch": 644,
  "Ġgra": 645,
  "Ġso": 646,
  "ffic": 647,
  "Ġfrisbee": 648,
  "Ġbowl": 649,
  "ry": 650,
  "Ġcut": 651,
  "Ġfen": 652,
  "if": 653,
  "Ġcell": 654,
  "Ġsc": 655,
  "ground": 656,
  "Ġbi": 657,
  "Ġtraffic": 658,
  "ĠT": 659,
  "Ġstat": 660,
  "ent": 661,
  "Ġcounter": 662,
  "Ġtoget": 663,
  "Ġtogether": 664,
  "Ġmir": 665,
  "ap": 666,
  "Ġsuit": 667,
  "Ġmirror": 668,
  "cean": 669,
  "Ġocean": 670,
  "Three": 671,
  "Ġdri": 672,
  "Ġzebra": 673,
  "Ġsandw": 674,
  "Ġcouch": 675,
  "Ġshirt": 676,
  "ction": 677,
  "Ġbackground": 678,
  "alk": 679,
  "Ġhy": 680,
  "Ġwave": 681,
  "Ġtower": 682,
  "eddy": 683,
  "ĠW": 684,
  "dle": 685,
  "Ġhyd": 686,
  "Ġtravel": 687,
  "ging": 688,
  "Ġac": 689,
  "Ġinto": 690,
  "Ġfence": 691,
  "Ġhydrant": 692,
  "Ġsheep": 693,
  "walk": 694,
  "sing": 695,
  "ifferent": 696,
  "Ġteddy": 697,
  "Ġsl": 698,
  "Ġhot": 699,
  "Ġits": 700,
  "Ġorange": 701,
  "Ġrac": 702,
  "Ġglass": 703,
  "Ġref": 704,
  "Ġmid": 705,
  "hing": 706,
  "Ġbunch": 707,
  "Ġdifferent": 708,
  "Ġdisp": 709,
  "Ġrun": 710,
  "Ġtracks": 711,
  "Ġflowers": 712,
  "Ġsidewalk": 713,
  "ly": 714,
  "iew": 715,
  "Ġveget": 716,
  "Ġdirt": 717,
  "quet": 718,
  "Ġhan": 719,
  "Ġvase": 720,
  "Ġsandwich": 721,
  "ment": 722,
  "Ġtie": 723,
  "Ġbaby": 724,
  "Ġacross": 725,
  "Ġvegetab": 726,
  "Ġtraveling": 727,
  "uff": 728,
  "People": 729,
  "Ġhill": 730,
  "Ġracquet": 731,
  "Ġgraz": 732,
  "other": 733,
  "Ġmountain": 734,
  "Ġalong": 735,
  "Ġview": 736,
  "Ġanother": 737,
  "ds": 738,
  "Ġlots": 739,
  "Ġherd": 740,
  "Ġslope": 741,
  "Man": 742,
  "Ġdriving": 743,
  "imal": 744,
  "Ġdisplay": 745,
  "Ġgo": 746,
  "Ġme": 747,
  "ace": 748,
  "Ġri": 749,
  "ugg": 750,
  "Ġmiddle": 751,
  "Ġvegetables": 752,
  "ip": 753,
  "Ġhanging": 754,
  "ĠS": 755,
  "ush": 756,
  "Ġcars": 757,
  "Ġanimal": 758,
  "Ġfruit": 759,
  "uggage": 760,
  "Ġbike": 761,
  "Se": 762,
  "Ġpiece": 763,
  "Ġtaking": 764,
  "there": 765,
  "Ġmany": 766,
  "Ġairplane": 767,
  "Ġluggage": 768,
  "Several": 769,
  "Ġhead": 770,
  "Ġbananas": 771,
  "Ġelephants": 772,
  "Ġdres": 773,
  "Ġjum": 774,
  "iling": 775,
  "Ġfe": 776,
  "Ġstation": 777,
  "Ġfull": 778,
  "Ġcup": 779,
  "ave": 780,
  "Ġcrow": 781,
  "Ġhit": 782,
  "Ġbro": 783,
  "two": 784,
  "ult": 785,
  "Ġlong": 786,
  "Ġgrazing": 787,
  "Ġabove": 788,
  "Ġcrowd": 789,
  "Ġcontrol": 790,
  "Ġbox": 791,
  "ous": 792,
  "Ġsnowboard": 793,
  "Ġgrassy": 794,
  "Ġrefrigerator": 795,
  "uts": 796,
  "ĠF": 797,
  "ii": 798,
  "cc": 799,
  "orm": 800,
  "Ġdogs": 801,
  "Ġbuildings": 802,
  "our": 803,
  "ning": 804,
  "Ġhat": 805,
  "Ġstuff": 806,
  "Ġday": 807,
  "Ġim": 808,
  "Ġbeing": 809,
  "gs": 810,
  "IN": 811,
  "ĠB": 812,
  "Ġpre": 813,
  "oli": 814,
  "Ġun": 815,
  "Ġsa": 816,
  "Ġem": 817,
  "ccoli": 818,
  "Ġthem": 819,
  "Ġbroccoli": 820,
  "Ġkey": 821,
  "Ġriver": 822,
  "Ġwine": 823,
  "aper": 824,
  "Ġsun": 825,
  "Ġmetal": 826,
  "Ġstuffed": 827,
  "Some": 828,
  "Ġtrack": 829,
  "Ġma": 830,
  "Ġprep": 831,
  "ath": 832,
  "der": 833,
  "Ġlush": 834,
  "Ġpassen": 835,
  "Ġgu": 836,
  "ridge": 837,
  "Ġsoccer": 838,
  "Ġcutting": 839,
  "ĠC": 840,
  "Ġpair": 841,
  "Ġsigns": 842,
  "ten": 843,
  "qu": 844,
  "Ġthree": 845,
  "Ġseveral": 846,
  "Ġimage": 847,
  "Ġbrick": 848,
  "Ġkeyboard": 849,
  "Ġdec": 850,
  "Ġchildren": 851,
  "th": 852,
  "Ġpan": 853,
  "Ġtele": 854,
  "Ġcle": 855,
  "urn": 856,
  "Ġpaper": 857,
  "Ġusing": 858,
  "Ġjet": 859,
  "ĠWii": 860,
  "Ġairport": 861,
  "Ġcows": 862,
  "ms": 863,
  "Ġdoing": 864,
  "pty": 865,
  "Ġrem": 866,
  "Ġboats": 867,
  "ful": 868,
  "arious": 869,
  "Ġduring": 870,
  "Ġbody": 871,
  "Ġready": 872,
  "Ġempty": 873,
  "igh": 874,
  "do": 875,
  "Ġguy": 876,
  "HE": 877,
  "Ġper": 878,
  "Ġcarrying": 879,
  "vis": 880,
  "uble": 881,
  "Ġrail": 882,
  "vision": 883,
  "Ġchairs": 884,
  "Ġseat": 885,
  "Ġtelevision": 886,
  "Ġnight": 887,
  "Ġswinging": 888,
  "Ġdecorat": 889,
  "ĠO": 890,
  "Ġwatching": 891,
  "Ġdouble": 892,
  "Ġremot": 893,
  "Ġsnowy": 894,
  "Ġgoing": 895,
  "ted": 896,
  "ud": 897,
  "Ġag": 898,
  "Ġcolorful": 899,
  "Ġbre": 900,
  "Ġholds": 901,
  "Ġcorner": 902,
  "out": 903,
  "ainst": 904,
  "Ġagainst": 905,
  "Ġtrick": 906,
  "Ġwho": 907,
  "Ġhigh": 908,
  "Ġposing": 909,
  "Ġbears": 910,
  "ive": 911,
  "Ġkn": 912,
  "Ġpain": 913,
  "Ġanimals": 914,
  "This": 915,
  "Ġsuitc": 916,
  "Ġbanana": 917,
  "Ġmonitor": 918,
  "RE": 919,
  "Ġmeat": 920,
  "Ġshower": 921,
  "Ġpassenger": 922,
  "Ġjumping": 923,
  "ĠP": 924,
  "some": 925,
  "Ġbridge": 926,
  "Ġlooks": 927,
  "art": 928,
  "iss": 929,
  "Ġlights": 930,
  "Ġvarious": 931,
  "Ġskate": 932,
  "Ġface": 933,
  "Ġvide": 934,
  "Ġsmiling": 935,
  "ac": 936,
  "Ġvideo": 937,
  "Ġbedroom": 938,
  "Ġcoff": 939,
  "Ġcoffee": 940,
  "Ġpur": 941,
  "Ġremote": 942,
  "Ġscreen": 943,
  "Ġtub": 944,
  "ĠN": 945,
  "oc": 946,
  "Ġthrow": 947,
  "Ġbag": 948,
  "Ġdonuts": 949,
  "Ġsleeping": 950,
  "ĠFrisbee": 951,
  "Ġitems": 952,
  "ian": 953,
  "Ġhome": 954,
  "aurant": 955,
  "Ġoutdoor": 956,
  "ple": 957,
  "Ġbea": 958,
  "Ġpull": 959,
  "tersection": 960,
  "Ġrestaurant": 961,
  "alf": 962,
  "Ġmic": 963,
  "Ġwaiting": 964,
  "ling": 965,
  "form": 966,
  "Ġintersection": 967,
  "Ġrunning": 968,
  "Ġhouse": 969,
  "Ġbook": 970,
  "Ġfurn": 971,
  "ween": 972,
  "Ġsurround": 973,
  "iture": 974,
  "Ġfurniture": 975,
  "Ġbetween": 976,
  "Ġcabinet": 977,
  "ĠTV": 978,
  "Ġlake": 979,
  "ING": 980,
  "Ġslice": 981,
  "Ġbasket": 982,
  "Ġsurrounded": 983,
  "Ġatt": 984,
  "Ġbeaut": 985,
  "Ġbicycle": 986,
  "Ġgetting": 987,
  "Ġsho": 988,
  "ark": 989,
  "gg": 990,
  "Ġcur": 991,
  "Ġrunway": 992,
  "Ġhalf": 993,
  "Ġty": 994,
  "Ġbeautiful": 995,
  "Ġramp": 996,
  "Ġdressed": 997,
  "Ġhair": 998,
  "Ġpe": 999,
  "ife": 1000,
  "ors": 1001,
  "Ġcarrot": 1002,
  "ars": 1003,
  "Ġadult": 1004,
  "Ġbusy": 1005,
  "Ġtoy": 1006,
  "Ġpreparing": 1007,
  "Ġcontroller": 1008,
  "Ġabout": 1009,
  "Ġsurfer": 1010,
  "ĠI": 1011,
  "Ġcl": 1012,
  "Ġbottle": 1013,
  "ft": 1014,
  "Ġjacket": 1015,
  "Ġkids": 1016,
  "ughn": 1017,
  "raw": 1018,
  "Ġmicrow": 1019,
  "hic": 1020,
  "Ġknife": 1021,
  "Ġwindows": 1022,
  "Ġdoughn": 1023,
  "Ġlike": 1024,
  "issors": 1025,
  "Ġtyp": 1026,
  "uce": 1027,
  "Ġthis": 1028,
  "Many": 1029,
  "Ġpro": 1030,
  "Ġmicrowave": 1031,
  "Ġblanket": 1032,
  "ps": 1033,
  "clo": 1034,
  "Ġpurple": 1035,
  "Ġgre": 1036,
  "Ġvehic": 1037,
  "inten": 1038,
  "intendo": 1039,
  "Ġkid": 1040,
  "Ġsil": 1041,
  "Ġmade": 1042,
  "Ġsuitcase": 1043,
  "Ġscissors": 1044,
  "Ġshowing": 1045,
  "Ġcloudy": 1046,
  "Ġdish": 1047,
  "Ġfew": 1048,
  "Ġhim": 1049,
  "Ġsurfing": 1050,
  "Ġbran": 1051,
  "cl": 1052,
  "Ġste": 1053,
  "Ġphotog": 1054,
  "try": 1055,
  "ĠM": 1056,
  "neath": 1057,
  "Ġunderneath": 1058,
  "Ġfour": 1059,
  "Ġdark": 1060,
  "Ġte": 1061,
  "ocolat": 1062,
  "Ġlook": 1063,
  "Ġshelf": 1064,
  "Ġsilver": 1065,
  "IT": 1066,
  "ocolate": 1067,
  "Ġenclo": 1068,
  "ny": 1069,
  "Ġshown": 1070,
  "ĠL": 1071,
  "Ġno": 1072,
  "Ġcross": 1073,
  "Ġonto": 1074,
  "Ġdry": 1075,
  "lic": 1076,
  "Ġbread": 1077,
  "Ġcountry": 1078,
  "Ġchocolate": 1079,
  "Ġhave": 1080,
  "ĠTHE": 1081,
  "Ġnumb": 1082,
  "Ġfork": 1083,
  "ty": 1084,
  "Ġincl": 1085,
  "ect": 1086,
  "ĠNintendo": 1087,
  "Ġgrey": 1088,
  "Four": 1089,
  "Ġzoo": 1090,
  "ats": 1091,
  "Ġbatter": 1092,
  "Ġstatue": 1093,
  "ate": 1094,
  "Ġ\"": 1095,
  "Ġcabinets": 1096,
  "Ġgirls": 1097,
  "Ġmaking": 1098,
  "ak": 1099,
  "Ġperched": 1100,
  "Ġthrowing": 1101,
  "Ġboys": 1102,
  "Ġcoming": 1103,
  "Ġphotograph": 1104,
  "Ġleaning": 1105,
  "sure": 1106,
  "Ġdress": 1107,
  "Ġdin": 1108,
  "Ġcarrots": 1109,
  "AT": 1110,
  "ial": 1111,
  "ublic": 1112,
  "ime": 1113,
  "resh": 1114,
  "iz": 1115,
  "ation": 1116,
  "ash": 1117,
  "ĠD": 1118,
  "Ġenclosure": 1119,
  "Ġtowards": 1120,
  "Ġhitting": 1121,
  "Ġtv": 1122,
  "Ġplastic": 1123,
  "Ġflower": 1124,
  "day": 1125,
  "Ġnumber": 1126,
  "this": 1127,
  "Ġtypes": 1128,
  "Ġneck": 1129,
  "male": 1130,
  "Ġbright": 1131,
  "Ġdonut": 1132,
  "Ġclear": 1133,
  "Ġob": 1134,
  "Ġpublic": 1135,
  "Ġmeal": 1136,
  "Ġeng": 1137,
  "ĠH": 1138,
  "phone": 1139,
  "oman": 1140,
  "ĠIS": 1141,
  "ND": 1142,
  "Ġswing": 1143,
  "LE": 1144,
  "Ġex": 1145,
  "Ġfries": 1146,
  "Ġbranch": 1147,
  "Ġgiant": 1148,
  "Ġfresh": 1149,
  "Ġpad": 1150,
  "Ġtrains": 1151,
  "Ġpost": 1152,
  "Ġbirthday": 1153,
  "Ġtoothb": 1154,
  "Ġshoes": 1155,
  "Ġpassing": 1156,
  "Woman": 1157,
  "atoes": 1158,
  "jo": 1159,
  "met": 1160,
  "Ġpat": 1161,
  "Ġdinner": 1162,
  "Ġpoin": 1163,
  "Ġenjo": 1164,
  "Ġlamp": 1165,
  "Ġfloating": 1166,
  "aving": 1167,
  "ming": 1168,
  "Ġattached": 1169,
  "Ġdisplayed": 1170,
  "Ġarm": 1171,
  "ade": 1172,
  "Ġplants": 1173,
  "Ġvan": 1174,
  "ump": 1175,
  "Ġput": 1176,
  "Ġsunny": 1177,
  "Ġfemale": 1178,
  "Ġpainted": 1179,
  "Ġhelmet": 1180,
  "Ġclean": 1181,
  "Ġsmart": 1182,
  "Ġwalls": 1183,
  "Ġpretty": 1184,
  "Ġedge": 1185,
  "ĠON": 1186,
  "Ġappl": 1187,
  "Ġplatform": 1188,
  "ffit": 1189,
  "Ġsqu": 1190,
  "by": 1191,
  "dern": 1192,
  "sp": 1193,
  "Ġpillows": 1194,
  "Ġtime": 1195,
  "Ġhillside": 1196,
  "Ġcomm": 1197,
  "Ġnice": 1198,
  "Ġmoving": 1199,
  "Ġleaves": 1200,
  "Ġapplian": 1201,
  "ix": 1202,
  "Ġass": 1203,
  "ffiti": 1204,
  "Ġtowel": 1205,
  "ance": 1206,
  "Ġswim": 1207,
  "als": 1208,
  "Ġmult": 1209,
  "Ġdraw": 1210,
  "ag": 1211,
  "Ġcatch": 1212,
  "Ġeat": 1213,
  "Ġpitcher": 1214,
  "Ġcattle": 1215,
  "ans": 1216,
  "Ġsurface": 1217,
  "ĠG": 1218,
  "Ġyard": 1219,
  "ream": 1220,
  "Ġfruits": 1221,
  "ble": 1222,
  "Ġcarri": 1223,
  "Ġmil": 1224,
  "Ġclut": 1225,
  "Ġgraffiti": 1226,
  "Ġcooking": 1227,
  "Ġuniform": 1228,
  "Ġend": 1229,
  "Ġwild": 1230,
  "Ġwatch": 1231,
  "Ġsail": 1232,
  "Ġmodern": 1233,
  "Ġvegg": 1234,
  "Ġgear": 1235,
  "Ġpitch": 1236,
  "Ġfam": 1237,
  "Ġengine": 1238,
  "Ġdoughnut": 1239,
  "Ġcurb": 1240,
  "ini": 1241,
  "Ġchur": 1242,
  "Ġchurch": 1243,
  "Ġfoot": 1244,
  "Ġtiled": 1245,
  "arb": 1246,
  "Ġtoothbrush": 1247,
  "Ġsomeone": 1248,
  "Black": 1249,
  "Ġmountains": 1250,
  "de": 1251,
  "THE": 1252,
  "Ġarran": 1253,
  "AN": 1254,
  "Ġbrushing": 1255,
  "Someone": 1256,
  "Ġthey": 1257,
  "Sm": 1258,
  "Ġsauce": 1259,
  "Ġcontaining": 1260,
  "Ġveggies": 1261,
  "Ġey": 1262,
  "ĠOF": 1263,
  "Ġcellphone": 1264,
  "road": 1265,
  "Young": 1266,
  "Ġdu": 1267,
  "Ġsub": 1268,
  "Ġleft": 1269,
  "Ġswimming": 1270,
  "Ġwire": 1271,
  "Ġcute": 1272,
  "Ġcarriage": 1273,
  "Ġurin": 1274,
  "Ġworking": 1275,
  "ject": 1276,
  "Ġfamily": 1277,
  "Ġtown": 1278,
  "Ġenjoying": 1279,
  "bo": 1280,
  "Ġcement": 1281,
  "Ġrailroad": 1282,
  "Ġnew": 1283,
  "sion": 1284,
  "Ġdesktop": 1285,
  "arge": 1286,
  "Ġpepp": 1287,
  "Ġbathtub": 1288,
  "af": 1289,
  "Ġcontainer": 1290,
  "Ġbowls": 1291,
  "Ġhaving": 1292,
  "head": 1293,
  "Large": 1294,
  "Ġsticking": 1295,
  "Ġsetting": 1296,
  "mac": 1297,
  "Ġequ": 1298,
  "Small": 1299,
  "Ġspoon": 1300,
  "Ġboxes": 1301,
  "Ġsmo": 1302,
  "Ġcurtain": 1303,
  "Ġsingle": 1304,
  "Ġhotdo": 1305,
  "Ġbrush": 1306,
  "Ġtarmac": 1307,
  "ER": 1308,
  "em": 1309,
  "Ġobject": 1310,
  "ition": 1311,
  "Ġincluding": 1312,
  "ĠE": 1313,
  "Ġfree": 1314,
  "Ġreading": 1315,
  "Ġputting": 1316,
  "St": 1317,
  "three": 1318,
  "Ġtile": 1319,
  "urry": 1320,
  "Ġspe": 1321,
  "int": 1322,
  "ĠCh": 1323,
  "Ġfar": 1324,
  "Ġjust": 1325,
  "sert": 1326,
  "roup": 1327,
  "Ġhotel": 1328,
  "Ġfo": 1329,
  "Ġstall": 1330,
  "Ġhard": 1331,
  "Ġrestroom": 1332,
  "Ġgathered": 1333,
  "Ġvariety": 1334,
  "AR": 1335,
  "Ġmatch": 1336,
  "ized": 1337,
  "Ġcook": 1338,
  "Ġdessert": 1339,
  "Ġfridge": 1340,
  "Ġtrail": 1341,
  "ronic": 1342,
  "Ġfan": 1343,
  "iv": 1344,
  "Ġshaped": 1345,
  "Ġreaching": 1346,
  "Ġshows": 1347,
  "Group": 1348,
  "Ġbackp": 1349,
  "..": 1350,
  "ĠR": 1351,
  "rench": 1352,
  "Ġreflection": 1353,
  "Ġguys": 1354,
  "ITH": 1355,
  "ĠWITH": 1356,
  "Ġconc": 1357,
  "Ġserving": 1358,
  "Ġequip": 1359,
  "Ġequipment": 1360,
  "Ġcream": 1361,
  "Ġhay": 1362,
  "Ġcluttered": 1363,
  "Ġdrawn": 1364,
  "rete": 1365,
  "Ġconcrete": 1366,
  "Ġmess": 1367,
  "Ġflies": 1368,
  "vert": 1369,
  "Ġdistance": 1370,
  "Ġelectronic": 1371,
  "place": 1372,
  "Ġsof": 1373,
  "Ġfeat": 1374,
  "Ġwii": 1375,
  "Ġserve": 1376,
  "Ġstriped": 1377,
  "Ġshorts": 1378,
  "Ġ.": 1379,
  "vy": 1380,
  "Ġonion": 1381,
  "ball": 1382,
  "Ġwedding": 1383,
  "Ġspace": 1384,
  "Ġtrunk": 1385,
  "arrow": 1386,
  "Ġpa": 1387,
  "Ġself": 1388,
  "Ġposes": 1389,
  "Ġpotatoes": 1390,
  "ristm": 1391,
  "ristmas": 1392,
  "Ġrug": 1393,
  "Ġfrien": 1394,
  "Ġprepares": 1395,
  "Ġperforming": 1396,
  "Ġfireplace": 1397,
  "Ġbackpack": 1398,
  "Ġhuge": 1399,
  "Ġrural": 1400,
  "ical": 1401,
  "Ġnarrow": 1402,
  "light": 1403,
  "Ġice": 1404,
  "Ġadvert": 1405,
  "cial": 1406,
  "Ġkitten": 1407,
  "Ġpaddle": 1408,
  "Ġreads": 1409,
  "Ġho": 1410,
  "Ġschool": 1411,
  "Ġwait": 1412,
  "icing": 1413,
  "Ġbef": 1414,
  "zer": 1415,
  "glas": 1416,
  "intage": 1417,
  "Ġbreak": 1418,
  "Ġbefore": 1419,
  "Ġblender": 1420,
  "Ġsofa": 1421,
  "fes": 1422,
  "fession": 1423,
  "stru": 1424,
  "Ġsoup": 1425,
  "Ġhotdog": 1426,
  "Ġstair": 1427,
  "ils": 1428,
  "ortment": 1429,
  "Ġjetl": 1430,
  "Person": 1431,
  "Ġstaring": 1432,
  "ress": 1433,
  "ber": 1434,
  "unch": 1435,
  "cy": 1436,
  "Ġfarm": 1437,
  "Ġsquare": 1438,
  "Ġeyes": 1439,
  "Ġship": 1440,
  "Ġlegs": 1441,
  "ban": 1442,
  "Ġdisc": 1443,
  "Ġoutf": 1444,
  "Ġpots": 1445,
  "fessional": 1446,
  "Ġceiling": 1447,
  "Ġorn": 1448,
  "Ġdoes": 1449,
  "go": 1450,
  "less": 1451,
  "Ġmini": 1452,
  "ique": 1453,
  "Ġear": 1454,
  "glasses": 1455,
  "Ġamon": 1456,
  "Clo": 1457,
  "wn": 1458,
  "Ġaway": 1459,
  "ĠTH": 1460,
  "Ġstraw": 1461,
  "Ġvintage": 1462,
  "Ġleaf": 1463,
  "Ġwalkway": 1464,
  "Ġstruct": 1465,
  "suit": 1466,
  "Ġpasture": 1467,
  "read": 1468,
  "Ġwell": 1469,
  "Ġfrench": 1470,
  "Ġkicking": 1471,
  "OP": 1472,
  "ish": 1473,
  "Ġprod": 1474,
  "fast": 1475,
  "Ġmust": 1476,
  "ercial": 1477,
  "Ġsport": 1478,
  "ital": 1479,
  "Ġleather": 1480,
  "Ġloading": 1481,
  "Ġassortment": 1482,
  "Ġjetliner": 1483,
  "Ġappro": 1484,
  "Ġtoward": 1485,
  "Close": 1486,
  "Ġsays": 1487,
  "LA": 1488,
  "ĠChristmas": 1489,
  "Ġurinals": 1490,
  "Zeb": 1491,
  "Sk": 1492,
  "urban": 1493,
  "Ġleash": 1494,
  "Ġfreezer": 1495,
  "Ġsteps": 1496,
  "nic": 1497,
  "Ġwetsuit": 1498,
  "Ġcarp": 1499,
  "Ġripe": 1500,
  "Ġpalm": 1501,
  "Ġhighway": 1502,
  "Ġroll": 1503,
  "bing": 1504,
  "sh": 1505,
  "Ġbreakfast": 1506,
  "Ġstain": 1507,
  "Ġcoat": 1508,
  "ium": 1509,
  "Ġshade": 1510,
  "Ġincludes": 1511,
  "Ġnap": 1512,
  "Ġdoorway": 1513,
  "Ġsunglasses": 1514,
  "Ġsea": 1515,
  "Ġoverhead": 1516,
  "people": 1517,
  "Ġgraze": 1518,
  "Ġpasta": 1519,
  "Do": 1520,
  "Ġwork": 1521,
  "Ġsmiles": 1522,
  "Ġlays": 1523,
  "te": 1524,
  "Ġclouds": 1525,
  "Ġoutfit": 1526,
  "hite": 1527,
  "ons": 1528,
  "Ġdev": 1529,
  "RO": 1530,
  "Ġharbor": 1531,
  "wing": 1532,
  "Ġselfie": 1533,
  "ĠU": 1534,
  "Ġmessy": 1535,
  "ĠST": 1536,
  "Ġpond": 1537,
  "Ġju": 1538,
  "Ġeggs": 1539,
  "Ġmix": 1540,
  "Ġmultiple": 1541,
  "iness": 1542,
  "cakes": 1543,
  "Ġgold": 1544,
  "kin": 1545,
  "Ġglove": 1546,
  "Ġstructure": 1547,
  "Ġhold": 1548,
  "Ġsubway": 1549,
  "One": 1550,
  "Ġledge": 1551,
  "Ġlawn": 1552,
  "Ġgate": 1553,
  "eroni": 1554,
  "Ġump": 1555,
  "Ġpants": 1556,
  "artment": 1557,
  "Ġstainless": 1558,
  "Ġsupp": 1559,
  "io": 1560,
  "Ġphotos": 1561,
  "urf": 1562,
  "Ġrocky": 1563,
  "Ġmilk": 1564,
  "Ġappe": 1565,
  "Ġgarden": 1566,
  "Ġstacked": 1567,
  "Ġfac": 1568,
  "ley": 1569,
  "Ġturn": 1570,
  "Ġfrosting": 1571,
  "OR": 1572,
  "Ġpicnic": 1573,
  "Ġmit": 1574,
  "stum": 1575,
  "Ġpepperoni": 1576,
  "Ġteam": 1577,
  "Ġexp": 1578,
  "IS": 1579,
  "Ġstack": 1580,
  "Ġroof": 1581,
  "Ġdoll": 1582,
  "Ġfun": 1583,
  "Ġshoul": 1584,
  "Bo": 1585,
  "Ġfancy": 1586,
  "Ġframe": 1587,
  "Ġdecorative": 1588,
  "Ġham": 1589,
  "ape": 1590,
  "Ġblurry": 1591,
  "Ġtoilets": 1592,
  "ĠTHAT": 1593,
  "Ġcostum": 1594,
  "CK": 1595,
  "Ġumpire": 1596,
  "Ġadults": 1597,
  "many": 1598,
  "Ġcommercial": 1599,
  "Ġbending": 1600,
  "Ġbarn": 1601,
  "Ġbusiness": 1602,
  "ĠV": 1603,
  "Ġisland": 1604,
  "az": 1605,
  "Ġsprink": 1606,
  "Ġtransit": 1607,
  "Ġplays": 1608,
  "Ġcarpet": 1609,
  "Ġprofessional": 1610,
  "Ġfriends": 1611,
  "ual": 1612,
  "Ġsmoke": 1613,
  "OM": 1614,
  "Ġtw": 1615,
  "Ġmachine": 1616,
  "LD": 1617,
  "Ġgarage": 1618,
  "ains": 1619,
  "Cat": 1620,
  "Ġstyle": 1621,
  "bs": 1622,
  "Ch": 1623,
  "Ġsignal": 1624,
  "Ġwrapped": 1625,
  "Ġarranged": 1626,
  "Various": 1627,
  "Ġblonde": 1628,
  "Baseball": 1629,
  "Street": 1630,
  "Ġforeground": 1631,
  "Ġmitt": 1632,
  "Ġqu": 1633,
  "Ġgreens": 1634,
  "Ġfried": 1635,
  "utens": 1636,
  "Ġutens": 1637,
  "Ġornate": 1638,
  "Ġlunch": 1639,
  "LL": 1640,
  "Ġtomatoes": 1641,
  "In": 1642,
  "lies": 1643,
  "Ġfacing": 1644,
  "Ġurban": 1645,
  "Ġclass": 1646,
  "Men": 1647,
  "uffin": 1648,
  "Ġdep": 1649,
  "Ġsuits": 1650,
  "Ġracing": 1651,
  "Ġtype": 1652,
  "Ġpower": 1653,
  "key": 1654,
  "ĠAm": 1655,
  "itary": 1656,
  "ns": 1657,
  "ail": 1658,
  "co": 1659,
  "Ġpartially": 1660,
  "Ġegg": 1661,
  "tain": 1662,
  "Ġproduce": 1663,
  "Ġneat": 1664,
  "os": 1665,
  "Ġarrangement": 1666,
  "ĠJ": 1667,
  "Ġfake": 1668,
  "Ġsim": 1669,
  "Ġjuice": 1670,
  "Ġsaus": 1671,
  "Ġducks": 1672,
  "Ġfash": 1673,
  "Ġsemi": 1674,
  "Ġleading": 1675,
  "Ġwide": 1676,
  "ible": 1677,
  "Ġsheets": 1678,
  "Ġbeige": 1679,
  "Ġfeatures": 1680,
  "Ġamong": 1681,
  "sian": 1682,
  "Ġpaw": 1683,
  "Ġoverloo": 1684,
  "Ġused": 1685,
  "Ġmodel": 1686,
  "Ġbottom": 1687,
  "ike": 1688,
  "OPLE": 1689,
  "EOPLE": 1690,
  "Ġmilitary": 1691,
  "Ġstick": 1692,
  "ES": 1693,
  "GE": 1694,
  "Ġrests": 1695,
  "RA": 1696,
  "Ġbroken": 1697,
  "Ġcollection": 1698,
  "Ġpract": 1699,
  "Ġevent": 1700,
  "Ġfallen": 1701,
  "Ġpickup": 1702,
  "ou": 1703,
  "Ġmush": 1704,
  "Ġchef": 1705,
  "Ġmustard": 1706,
  "Ġrear": 1707,
  "Ġconstruction": 1708,
  "ĠAsian": 1709,
  "Ġgar": 1710,
  "Ġmulti": 1711,
  "Ġstairs": 1712,
  "Ġutensils": 1713,
  "Ġtod": 1714,
  "unt": 1715,
  "Ġstrip": 1716,
  "Ġsports": 1717,
  "Ġpetting": 1718,
  "ib": 1719,
  "Ġstreets": 1720,
  "EN": 1721,
  "Ġtomato": 1722,
  "Ġsupplies": 1723,
  "Ġroadway": 1724,
  "Ġgets": 1725,
  "Ġstill": 1726,
  "Ġvanity": 1727,
  "ili": 1728,
  "ĠLon": 1729,
  "Ġstunt": 1730,
  "Ġcir": 1731,
  "ON": 1732,
  "Ġsharing": 1733,
  "Ġhospital": 1734,
  "Ġicing": 1735,
  "Ad": 1736,
  "Ġsprinkles": 1737,
  "Ġglaz": 1738,
  "Ġpass": 1739,
  "Ġbutter": 1740,
  "Ġhum": 1741,
  "Ġpropel": 1742,
  "ld": 1743,
  "Ġselling": 1744,
  "Ġpl": 1745,
  "Ġpatch": 1746,
  "Ġuse": 1747,
  "Ġlett": 1748,
  "Ġballs": 1749,
  "Ġje": 1750,
  "Ġleans": 1751,
  "boat": 1752,
  "Ġcostume": 1753,
  "Ġliqu": 1754,
  "OT": 1755,
  "Ġrackets": 1756,
  "Ġpotted": 1757,
  "Ġjets": 1758,
  "Ġtoddler": 1759,
  "Ġhapp": 1760,
  "Ġshelves": 1761,
  "man": 1762,
  "Ġduck": 1763,
  "Ġdeep": 1764,
  "Ġshallow": 1765,
  "Red": 1766,
  "OW": 1767,
  "Ġprepared": 1768,
  "Ġdevice": 1769,
  "Ġnapkin": 1770,
  "ature": 1771,
  "ivid": 1772,
  "Ġtur": 1773,
  "Ġlettuce": 1774,
  "Ġswe": 1775,
  "Ġloaded": 1776,
  "ĠK": 1777,
  "Ġwriting": 1778,
  "Ġhimself": 1779,
  "Ġlog": 1780,
  "Ġsy": 1781,
  "Ġpurse": 1782,
  "Ġchili": 1783,
  "Ġcompet": 1784,
  "ĠPEOPLE": 1785,
  "ĠLondon": 1786,
  "Ġheadphones": 1787,
  "umin": 1788,
  "Ġapartment": 1789,
  "Bl": 1790,
  "Ġmass": 1791,
  "Ġbuilt": 1792,
  "Ġcig": 1793,
  "Zebras": 1794,
  "ulpt": 1795,
  "tress": 1796,
  "Ġbaskets": 1797,
  "Adult": 1798,
  "inal": 1799,
  "Ġtossing": 1800,
  "Ġonly": 1801,
  "Child": 1802,
  "cing": 1803,
  "ultiple": 1804,
  "Ġgrill": 1805,
  "Ġantique": 1806,
  "Ġtrol": 1807,
  "White": 1808,
  "Ġaslee": 1809,
  "Ġasleep": 1810,
  "Ġitself": 1811,
  "ward": 1812,
  "Ġtank": 1813,
  "cape": 1814,
  "ear": 1815,
  "dling": 1816,
  "Ġmud": 1817,
  "Ġbeverage": 1818,
  "ĠBen": 1819,
  "Ġadvertisement": 1820,
  "Ġstrawber": 1821,
  "Ġtowels": 1822,
  "Ġcookies": 1823,
  "Ġsteam": 1824,
  "Ġrep": 1825,
  "Ġwaits": 1826,
  "Five": 1827,
  "Ġcheckered": 1828,
  "dd": 1829,
  "Ġsculpt": 1830,
  "Ġwinter": 1831,
  "Ġmattress": 1832,
  "ung": 1833,
  "Ġterm": 1834,
  "Com": 1835,
  "Ġspot": 1836,
  "Multiple": 1837,
  "Ġpickle": 1838,
  "Ġattempting": 1839,
  "Ġpipe": 1840,
  "Ġleg": 1841,
  "Ġladies": 1842,
  "IC": 1843,
  "Ġcurled": 1844,
  "Ġspread": 1845,
  "Ġfalling": 1846,
  "Ġrope": 1847,
  "Ġcountryside": 1848,
  "Ġobjects": 1849,
  "Ġrusted": 1850,
  "Ġcommuter": 1851,
  "Ġmissing": 1852,
  "Ġmug": 1853,
  "Ġadj": 1854,
  "Ġstret": 1855,
  "ists": 1856,
  "Ġfocus": 1857,
  "Ġstoplight": 1858,
  "Closeup": 1859,
  "Ġdead": 1860,
  "ows": 1861,
  "Ġassorted": 1862,
  "Ġrainbow": 1863,
  "Ġpatio": 1864,
  "Ġrelax": 1865,
  "Ġcigaret": 1866,
  "Ġwithout": 1867,
  "Ġblankets": 1868,
  "Ġfashioned": 1869,
  "Ġwhat": 1870,
  "Ġtre": 1871,
  "Ġtrays": 1872,
  "Ġindivid": 1873,
  "Ġnewsp": 1874,
  "Ġtravels": 1875,
  "Ġcond": 1876,
  "Ġsep": 1877,
  "OU": 1878,
  "Ġwrit": 1879,
  "Ġapproaching": 1880,
  "Ġmushrooms": 1881,
  "Ġketch": 1882,
  "Ġketchup": 1883,
  "Ġinf": 1884,
  "ls": 1885,
  "Ġpupp": 1886,
  "Ġoverlooking": 1887,
  "ĠAmeric": 1888,
  "LAY": 1889,
  "Ġclim": 1890,
  "Ġcloseup": 1891,
  "ED": 1892,
  "gan": 1893,
  "Ġsausage": 1894,
  "cake": 1895,
  "Ġ3": 1896,
  "Ġmassive": 1897,
  "Ġsliding": 1898,
  "Ġrusty": 1899,
  "Ġtoys": 1900,
  "Ġjar": 1901,
  "Gu": 1902,
  "Ġterminal": 1903,
  "Ġpersonal": 1904,
  "Ġdryer": 1905,
  "Ġmotorb": 1906,
  "Ġneon": 1907,
  "Ġcomf": 1908,
  "gue": 1909,
  "Ġtongue": 1910,
  "Ġreflecting": 1911,
  "Ġgiving": 1912,
  "Cars": 1913,
  "Ġpedestrians": 1914,
  "Ġstad": 1915,
  "Ġstadium": 1916,
  "Ġhall": 1917,
  "Ġsmile": 1918,
  "Ġdishw": 1919,
  "Ġdishwasher": 1920,
  "Ġwritten": 1921,
  "ĠY": 1922,
  "Ġkick": 1923,
  "AB": 1924,
  "Ġcheesy": 1925,
  "Ġpuppy": 1926,
  "Ġshirts": 1927,
  "Ġcub": 1928,
  "ĠAmerican": 1929,
  "Ġcompetition": 1930,
  "avy": 1931,
  "ĠBO": 1932,
  "Dog": 1933,
  "Ġtun": 1934,
  "yard": 1935,
  "Ġplatter": 1936,
  "Ġodd": 1937,
  "Ġelectronics": 1938,
  "Guy": 1939,
  "Ġglazed": 1940,
  "Ġpracticing": 1941,
  "Ġpeppers": 1942,
  "urger": 1943,
  "Ġtax": 1944,
  "Ġnewspaper": 1945,
  "uffy": 1946,
  "SE": 1947,
  "Ġnum": 1948,
  "Ġmus": 1949,
  "Ġeye": 1950,
  "ITT": 1951,
  "now": 1952,
  "View": 1953,
  "Ġchain": 1954,
  "Ġchecking": 1955,
  "Ġtunnel": 1956,
  "Ġtiny": 1957,
  "Ġgoat": 1958,
  "Ġlocated": 1959,
  "uspen": 1960,
  "Ġsuspen": 1961,
  "Ġsized": 1962,
  "Ġelderly": 1963,
  "mer": 1964,
  "Boy": 1965,
  "Ġbrightly": 1966,
  "Ġmixed": 1967,
  "Old": 1968,
  "ond": 1969,
  "Ġfrosted": 1970,
  "Ġbride": 1971,
  "Ġgas": 1972,
  "ĠTO": 1973,
  "Ġenjoy": 1974,
  "Ġvisible": 1975,
  "Ġrange": 1976,
  "'t": 1977,
  "Ġdirections": 1978,
  "Ġname": 1979,
  "Ġpastries": 1980,
  "uck": 1981,
  "Ġresidential": 1982,
  "Ġsiz": 1983,
  "Ġeither": 1984,
  "Ġhits": 1985,
  "Ph": 1986,
  "ĠBig": 1987,
  "Ġleafy": 1988,
  "Ġcigarette": 1989,
  "otive": 1990,
  "Ġboots": 1991,
  "av": 1992,
  "iraffe": 1993,
  "four": 1994,
  "shirt": 1995,
  "Ġhorns": 1996,
  "Ġsimple": 1997,
  "ĠWA": 1998,
  "IR": 1999,
  "Ġpropeller": 2000,
  "Ġ1": 2001,
  "Children": 2002,
  "Ġtrolley": 2003,
  "Ġ2": 2004,
  "Ġbasketball": 2005,
  "Ġmuffin": 2006,
  "ĠSU": 2007,
  "Ġtaxi": 2008,
  "Ġadvertising": 2009,
  "py": 2010,
  "Ġliquid": 2011,
  "Ġsweater": 2012,
  "Ġmask": 2013,
  "Ġflip": 2014,
  "Ġsniff": 2015,
  "ia": 2016,
  "Ġsteak": 2017,
  "Ġaccess": 2018,
  "Ġlandscape": 2019,
  "Ġformation": 2020,
  "Ġchewing": 2021,
  "Ġlibrary": 2022,
  "Ġjeans": 2023,
  "Ġmicrophone": 2024,
  "Ġfro": 2025,
  "Ġstir": 2026,
  "Loo": 2027,
  "Ġif": 2028,
  "Ġcush": 2029,
  "made": 2030,
  "lish": 2031,
  "Ġclimbing": 2032,
  "Ġtin": 2033,
  "Ġshiny": 2034,
  "Ġcargo": 2035,
  "Ġfurry": 2036,
  "bed": 2037,
  "Ele": 2038,
  "Ġunf": 2039,
  "Ġsmoking": 2040,
  "Ġtoast": 2041,
  "da": 2042,
  "Ġ6": 2043,
  "Ġpairs": 2044,
  "Ġhang": 2045,
  "Ġspeakers": 2046,
  "na": 2047,
  "rew": 2048,
  "Yellow": 2049,
  "Ġhamb": 2050,
  ".\"": 2051,
  "ĠBA": 2052,
  "Ġmuseum": 2053,
  "Ġgarbage": 2054,
  "Ġahead": 2055,
  "Ġsculpture": 2056,
  "Ġhugging": 2057,
  "Ġneatly": 2058,
  "Ġtoothp": 2059,
  "Ġfoil": 2060,
  "coh": 2061,
  "Ġalcoh": 2062,
  "Ġtrop": 2063,
  "Ġtropical": 2064,
  "Blue": 2065,
  "Ġtea": 2066,
  "uzz": 2067,
  "Ġcrust": 2068,
  "Ġguitar": 2069,
  "Ġstage": 2070,
  "Ġherself": 2071,
  "LDING": 2072,
  "Looking": 2073,
  "Ġdelicious": 2074,
  "REE": 2075,
  "Ġclutter": 2076,
  "Ġstares": 2077,
  "ganized": 2078,
  "Ġbatting": 2079,
  "Ġlocomotive": 2080,
  "Ġreaches": 2081,
  "Ġpushing": 2082,
  "Ġunrip": 2083,
  "Ġchandel": 2084,
  "Ġcardboard": 2085,
  "Ġstring": 2086,
  "abit": 2087,
  "Ġhabit": 2088,
  "Ġracquets": 2089,
  "Ġgathering": 2090,
  "Ġill": 2091,
  "Ġfather": 2092,
  "Ġrub": 2093,
  "Ġyou": 2094,
  "Ġchasing": 2095,
  "Ġknives": 2096,
  "Ġpedestrian": 2097,
  "ĠMAN": 2098,
  "Ġwords": 2099,
  "Ġturkey": 2100,
  "bile": 2101,
  "Ġlemons": 2102,
  "Ġshoe": 2103,
  "We": 2104,
  "Ġelectric": 2105,
  "Ġkay": 2106,
  "udents": 2107,
  "Ġcrosswalk": 2108,
  "lit": 2109,
  "Ġoppos": 2110,
  "Ġopposite": 2111,
  "Ġcollar": 2112,
  "Ġdesserts": 2113,
  "Ġchips": 2114,
  "Ġindividual": 2115,
  "Brown": 2116,
  "Ġaccessories": 2117,
  "Ġbackyard": 2118,
  "Ġgoes": 2119,
  "Ġbalcony": 2120,
  "Ġgolf": 2121,
  "Ġmotion": 2122,
  "OO": 2123,
  "izza": 2124,
  "ĠWH": 2125,
  "house": 2126,
  "Snow": 2127,
  "Cows": 2128,
  "Ġunmade": 2129,
  "ĠPLAY": 2130,
  "several": 2131,
  "Ġbikini": 2132,
  "ITTING": 2133,
  "Ġgreat": 2134,
  "Shee": 2135,
  "Sheep": 2136,
  "Ġmarried": 2137,
  "Zebra": 2138,
  "Ġsuspended": 2139,
  "Ġcourse": 2140,
  "ugar": 2141,
  "Ġupright": 2142,
  "Ġcupcakes": 2143,
  "Giraffes": 2144,
  "lowers": 2145,
  "Ġgogg": 2146,
  "Ġwrapp": 2147,
  "ways": 2148,
  "Ġsoda": 2149,
  "Ġhabitat": 2150,
  "Six": 2151,
  "Ġtiger": 2152,
  "Ġmotorbike": 2153,
  "\".": 2154,
  "CH": 2155,
  "Ġfriend": 2156,
  "Ġpancakes": 2157,
  "ĠBU": 2158,
  "Ġexh": 2159,
  "Traffic": 2160,
  "gu": 2161,
  "Ġconf": 2162,
  "Ġtries": 2163,
  "Ġtus": 2164,
  "Surf": 2165,
  "Ġcondiment": 2166,
  "Ġcondiments": 2167,
  "Ġtoothpaste": 2168,
  "ients": 2169,
  "redients": 2170,
  "Hot": 2171,
  "Ġcru": 2172,
  "Ġhallway": 2173,
  "Ġtelephone": 2174,
  "Ġalcohol": 2175,
  "Ġfluffy": 2176,
  "Ġwarning": 2177,
  "Ġiron": 2178,
  "Ġaud": 2179,
  "Ġporch": 2180,
  "Ġbamboo": 2181,
  "Ġreturn": 2182,
  "Ġentrance": 2183,
  "Ġapproaches": 2184,
  "Ġevery": 2185,
  "Ġdelivery": 2186,
  "Ġcoach": 2187,
  "Ġnintendo": 2188,
  "KING": 2189,
  "Ġsailboat": 2190,
  "athroom": 2191,
  "Bathroom": 2192,
  "ITE": 2193,
  "ky": 2194,
  "ĠSK": 2195,
  "ĠSITTING": 2196,
  "Motor": 2197,
  "Elephant": 2198,
  "Ġnatural": 2199,
  "Ġalso": 2200,
  "boy": 2201,
  "ware": 2202,
  "Ġsugar": 2203,
  "od": 2204,
  "Giraffe": 2205,
  "Ġposition": 2206,
  "Ġcirc": 2207,
  "Ġshadow": 2208,
  "Ġprepare": 2209,
  "Ġilluminated": 2210,
  "ka": 2211,
  "case": 2212,
  "WO": 2213,
  "Ġdispenser": 2214,
  "Train": 2215,
  "Ġexhib": 2216,
  "Ġexhibit": 2217,
  "Ġfixtures": 2218,
  "Ġalm": 2219,
  "Ġlaid": 2220,
  "ti": 2221,
  "Ġstream": 2222,
  "Ġvendor": 2223,
  "Ġpatter": 2224,
  "Ġingredients": 2225,
  "Ġdesign": 2226,
  "Ġi": 2227,
  "Ġcorn": 2228,
  "Ġfoam": 2229,
  "ew": 2230,
  "Ġfeaturing": 2231,
  "Ġstudents": 2232,
  "ABLE": 2233,
  "ass": 2234,
  "Ġstuck": 2235,
  "Ġsystem": 2236,
  "ience": 2237,
  "Ġjersey": 2238,
  "Ġcalm": 2239,
  "Ġclassroom": 2240,
  "Ġthin": 2241,
  "Ġelev": 2242,
  "TH": 2243,
  "Ġcrane": 2244,
  "ĠWHITE": 2245,
  "Ġdirection": 2246,
  "ĠPLAYING": 2247,
  "my": 2248,
  "Food": 2249,
  "Ġorganized": 2250,
  "Ġwindowsill": 2251,
  "Ġwilderness": 2252,
  "Ġcupcake": 2253,
  "ennis": 2254,
  "urfing": 2255,
  "Ġserv": 2256,
  "Ġchan": 2257,
  "Ġhelping": 2258,
  "Ġcano": 2259,
  "Ġgoggles": 2260,
  "Ġraised": 2261,
  "As": 2262,
  "Ġimp": 2263,
  "Ġfall": 2264,
  "Ġobstacle": 2265,
  "ĠSTAND": 2266,
  "RAS": 2267,
  "Lot": 2268,
  "Ġcree": 2269,
  "ID": 2270,
  "Ġsoap": 2271,
  "Ġbeef": 2272,
  "Ġconnected": 2273,
  "Ġgather": 2274,
  "Ġcliff": 2275,
  "Ġr": 2276,
  "ino": 2277,
  "Ġfa": 2278,
  "Ġcabin": 2279,
  "Ġmobile": 2280,
  "Ġjungle": 2281,
  "Ġunripe": 2282,
  "Ġang": 2283,
  "Ġperforms": 2284,
  "Ġresort": 2285,
  "Ġchandelier": 2286,
  "Ġplaid": 2287,
  "Ġsafety": 2288,
  "Ġadjusting": 2289,
  "Ġorder": 2290,
  "Ġplaque": 2291,
  "uffed": 2292,
  "Ġleaving": 2293,
  "Ġchrome": 2294,
  "zen": 2295,
  "Ġmusic": 2296,
  "Girl": 2297,
  "Ġgl": 2298,
  "Photo": 2299,
  "ARD": 2300,
  "ĠEn": 2301,
  "Ġsix": 2302,
  "Ġfirst": 2303,
  "Lit": 2304,
  "Ġstrawberries": 2305,
  "Ġchopped": 2306,
  "Ġkitty": 2307,
  "fo": 2308,
  "Ġflatbed": 2309,
  "line": 2310,
  "Ġfunny": 2311,
  "uc": 2312,
  "Ġbuggy": 2313,
  "range": 2314,
  "Ġhipster": 2315,
  "Ġgaz": 2316,
  "Ġwrapper": 2317,
  "Couple": 2318,
  "Ġthemselves": 2319,
  "Ġdusk": 2320,
  "Ġmov": 2321,
  "Ġconsisting": 2322,
  "Ġpean": 2323,
  "attered": 2324,
  "Ġtabby": 2325,
  "Ġbouquet": 2326,
  "Ġhamburger": 2327,
  "Ġcurvy": 2328,
  "jam": 2329,
  "Ġpajam": 2330,
  "Ġload": 2331,
  "TS": 2332,
  "EAR": 2333,
  "IE": 2334,
  "Sc": 2335,
  "Ġpiano": 2336,
  "Ġleads": 2337,
  "Women": 2338,
  "gin": 2339,
  "Ġkayak": 2340,
  "Ġadorned": 2341,
  "ux": 2342,
  "Ġpeeking": 2343,
  "ĠTABLE": 2344,
  "Ġmean": 2345,
  "Ġbreast": 2346,
  "Ġparrot": 2347,
  "Ġlemon": 2348,
  "Ġha": 2349,
  "Ġsurfs": 2350,
  "Ġdowntown": 2351,
  "Ġaudience": 2352,
  "Ġleague": 2353,
  "Ġdisplays": 2354,
  "Boats": 2355,
  "Ġfreshly": 2356,
  "Ġbell": 2357,
  "Horses": 2358,
  "Ġpotato": 2359,
  "Ġpaws": 2360,
  "Ġsize": 2361,
  "Ġfry": 2362,
  "Pizza": 2363,
  "Ġcushion": 2364,
  "ĠAir": 2365,
  "AGE": 2366,
  "Ġterrain": 2367,
  "Ġrelaxing": 2368,
  "Ġgives": 2369,
  "arp": 2370,
  "Ġsharp": 2371,
  "Ġkissing": 2372,
  "Ġneigh": 2373,
  "Ġneighbor": 2374,
  "Ġmagaz": 2375,
  "Me": 2376,
  "ipe": 2377,
  "Ġberries": 2378,
  "Ġlaughing": 2379,
  "Ġcanoe": 2380,
  "Ġpump": 2381,
  "Ġtravelling": 2382,
  "thy": 2383,
  "Ġcarts": 2384,
  "Ġsets": 2385,
  "nets": 2386,
  "Ġhus": 2387,
  "Ġpigeons": 2388,
  "LO": 2389,
  "be": 2390,
  "Ġtransport": 2391,
  "Ġpeanut": 2392,
  "Ġtrim": 2393,
  "Ġ4": 2394,
  "Ġcookie": 2395,
  "ĠWI": 2396,
  "Ass": 2397,
  "Ġcowboy": 2398,
  "Ġinj": 2399,
  "ĠPER": 2400,
  "RASS": 2401,
  "ĠGRASS": 2402,
  "Ġchefs": 2403,
  "AM": 2404,
  "Ġcreepy": 2405,
  "Ġwill": 2406,
  "Ġskinny": 2407,
  "Ġhardwood": 2408,
  "xy": 2409,
  "Ġpowdered": 2410,
  "Ġstrawberry": 2411,
  "Ġbalancing": 2412,
  "ggy": 2413,
  "cast": 2414,
  "ĠChinese": 2415,
  "Different": 2416,
  "Ġhelmets": 2417,
  "Ġhorseback": 2418,
  "Ġspectators": 2419,
  "Ġnur": 2420,
  "Skiers": 2421,
  "Adults": 2422,
  "craft": 2423,
  "Ġaircraft": 2424,
  "anta": 2425,
  "Ġwithin": 2426,
  "iking": 2427,
  "Ġ,": 2428,
  "Ġseparate": 2429,
  "Ġsniffing": 2430,
  "Ġshut": 2431,
  "Ġforward": 2432,
  "Ġrecor": 2433,
  "Ġdownh": 2434,
  "Ġdownhill": 2435,
  "Ġshrub": 2436,
  "Ġstar": 2437,
  "Ġfaucet": 2438,
  "Ġvol": 2439,
  "atula": 2440,
  "Ġspatula": 2441,
  "Ġfollowing": 2442,
  "Ġfabric": 2443,
  "Ġbookshelf": 2444,
  "ĠQ": 2445,
  "Ġstrol": 2446,
  "Lots": 2447,
  "Ġslide": 2448,
  "Ġlodge": 2449,
  "It": 2450,
  "Ġquiet": 2451,
  "Ġshaking": 2452,
  "Ġformal": 2453,
  "Ġmuch": 2454,
  "Ġheavy": 2455,
  "REET": 2456,
  "ĠSTREET": 2457,
  "Ġevening": 2458,
  "ĠEng": 2459,
  "ze": 2460,
  "Pair": 2461,
  "uminum": 2462,
  "Ġaluminum": 2463,
  "Ġfootball": 2464,
  "Ġshapes": 2465,
  "Elephants": 2466,
  "Ġcountertop": 2467,
  "Sh": 2468,
  "Birds": 2469,
  "Ġunfinished": 2470,
  "Ġsoldiers": 2471,
  "Ġtrough": 2472,
  "hood": 2473,
  "Ġneighborhood": 2474,
  "Ġmagazine": 2475,
  "Ġscrat": 2476,
  "Ġparachute": 2477,
  "Flowers": 2478,
  "Ġportra": 2479,
  "Ġportrait": 2480,
  "Ġmagnets": 2481,
  "Ġporcelain": 2482,
  "IG": 2483,
  "noon": 2484,
  "Ġcrate": 2485,
  "Ġpineapple": 2486,
  "Ġpolka": 2487,
  "Ġscattered": 2488,
  "med": 2489,
  "ĠWII": 2490,
  "Ġopponent": 2491,
  "Ġportable": 2492,
  "Ġbank": 2493,
  "Ġonloo": 2494,
  "hat": 2495,
  "Ġtwin": 2496,
  "Ġribbon": 2497,
  "Ġfre": 2498,
  "Ġalmost": 2499,
  "Ġsleeps": 2500,
  "Ġavailable": 2501,
  "Ġsexy": 2502,
  "rofessional": 2503,
  "Professional": 2504,
  "Ġunus": 2505,
  "Pict": 2506,
  "Horse": 2507,
  "Ġovercast": 2508,
  "Teddy": 2509,
  "Ġcob": 2510,
  "Ġreach": 2511,
  "Ġsquat": 2512,
  "Ġconvers": 2513,
  "Ġshines": 2514,
  "Ġus": 2515,
  "ĠNew": 2516,
  "Ġcomb": 2517,
  "ĠSanta": 2518,
  "Ġchecks": 2519,
  "Ġblur": 2520,
  "Ġjelly": 2521,
  "Ġcry": 2522,
  "stal": 2523,
  "Ġcrystal": 2524,
  "Signs": 2525,
  "Ġutility": 2526,
  "Ġhiking": 2527,
  "Ġelegant": 2528,
  "Ġlambs": 2529,
  "Laptop": 2530,
  "Ġgaming": 2531,
  "Ġweather": 2532,
  "Ġrubbing": 2533,
  "Ġupon": 2534,
  "Ġcollage": 2535,
  "Ġbutton": 2536,
  "Ġknit": 2537,
  "Ġprocess": 2538,
  "andw": 2539,
  "CE": 2540,
  "Ġreally": 2541,
  "City": 2542,
  "Stuffed": 2543,
  "ĠZebras": 2544,
  "chair": 2545,
  "Little": 2546,
  "Ġwindsurfing": 2547,
  "Kites": 2548,
  "Ġceramic": 2549,
  "Ġhung": 2550,
  "Ġstretching": 2551,
  "Ġinfant": 2552,
  "Ġpeace": 2553,
  "ĠHO": 2554,
  "URE": 2555,
  "ĠEnglish": 2556,
  "Ġgoal": 2557,
  "cending": 2558,
  "Ġmixing": 2559,
  "Ġbillboard": 2560,
  "Ġhooked": 2561,
  "Ġnewly": 2562,
  "ants": 2563,
  "Ġextra": 2564,
  "Ġcafe": 2565,
  "anning": 2566,
  "Ġsilverware": 2567,
  "Meat": 2568,
  "Ġcuc": 2569,
  "bit": 2570,
  "Ġrabbit": 2571,
  "Ġwrap": 2572,
  "Ġhumming": 2573,
  "ĠCLO": 2574,
  "ĠCLOCK": 2575,
  "Ġtech": 2576,
  "Ġthrew": 2577,
  "Ġafternoon": 2578,
  "Skier": 2579,
  "Living": 2580,
  "Ġamount": 2581,
  "Luggage": 2582,
  "Ġdistant": 2583,
  "Ġpajamas": 2584,
  "ĠBOY": 2585,
  "Tennis": 2586,
  "ably": 2587,
  "Ġmostly": 2588,
  "Ġonlookers": 2589,
  "ĠELE": 2590,
  "Ġbunk": 2591,
  "decker": 2592,
  "Ġleave": 2593,
  "Ġrepair": 2594,
  "Ġtusks": 2595,
  "Ġrece": 2596,
  "amp": 2597,
  "Ġleaping": 2598,
  "ov": 2599,
  "Ġbend": 2600,
  "ts": 2601,
  "Ġlamb": 2602,
  "Ġunusual": 2603,
  "Bunches": 2604,
  "arf": 2605,
  "black": 2606,
  "Ġlayer": 2607,
  "sc": 2608,
  "igital": 2609,
  "Ġrh": 2610,
  "Ġcommode": 2611,
  "Ġbusses": 2612,
  "Ġsnugg": 2613,
  "Ġconversation": 2614,
  "ALL": 2615,
  "Ġenv": 2616,
  "Ġlearning": 2617,
  "houet": 2618,
  "Ġdraped": 2619,
  "Ġcereal": 2620,
  "KE": 2621,
  "Ġtrey": 2622,
  "Ġpuddle": 2623,
  "On": 2624,
  "Ġshining": 2625,
  "Ġservice": 2626,
  "Ġphotographs": 2627,
  "Ġobserving": 2628,
  "Ġalarm": 2629,
  "Ġunique": 2630,
  "Ġaerial": 2631,
  "wear": 2632,
  "Al": 2633,
  "Ġindic": 2634,
  "Ġcluster": 2635,
  "Ġdiam": 2636,
  "Ġdiamond": 2637,
  "white": 2638,
  "Plates": 2639,
  "Ġcheck": 2640,
  "lower": 2641,
  "raight": 2642,
  "Ġvolley": 2643,
  "Ġsuch": 2644,
  "Passen": 2645,
  "uzzy": 2646,
  "Ġplaza": 2647,
  "IDE": 2648,
  "Ġcathedral": 2649,
  "pass": 2650,
  "Ġexc": 2651,
  "Ġcutter": 2652,
  "Ġbedspread": 2653,
  "ĠFor": 2654,
  "Ġsteep": 2655,
  "Ġquick": 2656,
  "Ġswans": 2657,
  "Ġgarnish": 2658,
  "Ġmotorcyclists": 2659,
  "Tall": 2660,
  "Ġeas": 2661,
  "Ġshrim": 2662,
  "Ġshrimp": 2663,
  "drop": 2664,
  "Ġbackdrop": 2665,
  "Ġfrozen": 2666,
  "UL": 2667,
  "Ġmonkey": 2668,
  "Ġtoiletries": 2669,
  "ĠPH": 2670,
  "ĠHOLDING": 2671,
  "He": 2672,
  "Ġfog": 2673,
  "ĠUn": 2674,
  "Ġcubicle": 2675,
  "ong": 2676,
  "ĠSp": 2677,
  "Ġcre": 2678,
  "Ġslowly": 2679,
  "Ġvarieties": 2680,
  "Ġhind": 2681,
  "ĠWATER": 2682,
  "Ġpodium": 2683,
  "Ġslightly": 2684,
  "Ġcaptured": 2685,
  "Ġheadboard": 2686,
  "Ġcomplex": 2687,
  "Ġherbs": 2688,
  "Ġdinning": 2689,
  "gnant": 2690,
  "Ġcellular": 2691,
  "althy": 2692,
  "Ġhealthy": 2693,
  "Ġwaffle": 2694,
  "Ġcamou": 2695,
  "Ġcamouf": 2696,
  "Ġmovie": 2697,
  "gie": 2698,
  "Ġcustomers": 2699,
  "Ġjunk": 2700,
  "Ġhiding": 2701,
  "Ġinjured": 2702,
  "Ġgrinding": 2703,
  "ĠPERS": 2704,
  "ĠPERSON": 2705,
  "aw": 2706,
  "Ġexam": 2707,
  "ĠSTANDING": 2708,
  "ĠBUI": 2709,
  "ĠBUILDING": 2710,
  "Ġchristmas": 2711,
  "ĠSH": 2712,
  "Ġdrain": 2713,
  "ĠATV": 2714,
  "Ġfreight": 2715,
  "Ġcircular": 2716,
  "Ġrenov": 2717,
  "Air": 2718,
  "Ġnuts": 2719,
  "To": 2720,
  "Ġtrio": 2721,
  "Ġunlo": 2722,
  "Picture": 2723,
  "Ġdim": 2724,
  "Ġdimly": 2725,
  "Ġprog": 2726,
  "Ġcherry": 2727,
  "Ġblinds": 2728,
  "Ġskysc": 2729,
  "Ġunit": 2730,
  "Ġdigital": 2731,
  "Ġemp": 2732,
  "Ġwre": 2733,
  "Ġjeep": 2734,
  "Ve": 2735,
  "Ġtissue": 2736,
  "Ġcompact": 2737,
  "ĠMOU": 2738,
  "ironment": 2739,
  "Ġenvironment": 2740,
  "olorful": 2741,
  "Colorful": 2742,
  "Ġsilhouet": 2743,
  "trak": 2744,
  "Ġthough": 2745,
  "Ġblurred": 2746,
  "Ġentertain": 2747,
  "Ġsunlight": 2748,
  "Bus": 2749,
  "oad": 2750,
  "Ġspeaking": 2751,
  "erence": 2752,
  "life": 2753,
  "Ġclassic": 2754,
  "Ġlangu": 2755,
  "ĠDIS": 2756,
  "Ġairbor": 2757,
  "Ġairborne": 2758,
  "Ġcrib": 2759,
  "Ġuncoo": 2760,
  "Ġuncooked": 2761,
  "Ġoriental": 2762,
  "Ar": 2763,
  "ulips": 2764,
  "Ġtulips": 2765,
  "Ġoil": 2766,
  "Ġbarrel": 2767,
  "Ġmonument": 2768,
  "Ġbuffalo": 2769,
  "Ġbaggage": 2770,
  "Ġrailway": 2771,
  "Ġviewed": 2772,
  "Ġwindshield": 2773,
  "Female": 2774,
  "Half": 2775,
  "Ġstraight": 2776,
  "Ġinclude": 2777,
  "Ġoperating": 2778,
  "RU": 2779,
  "Car": 2780,
  "Ġrectan": 2781,
  "ĠSUV": 2782,
  "At": 2783,
  "Bananas": 2784,
  "Ġmama": 2785,
  "Ġwaterway": 2786,
  "Ġadm": 2787,
  "Plate": 2788,
  "Ġcurved": 2789,
  "Ġprint": 2790,
  "Ġstroller": 2791,
  "anna": 2792,
  "Ġmelted": 2793,
  "Ġspraying": 2794,
  "UE": 2795,
  "green": 2796,
  "Ġcruise": 2797,
  "box": 2798,
  "ilt": 2799,
  "Ġgarlic": 2800,
  "Ġtug": 2801,
  "Ġeasy": 2802,
  "Ġelevated": 2803,
  "car": 2804,
  "OME": 2805,
  "Ġgliding": 2806,
  "Ġliquor": 2807,
  "LACK": 2808,
  "ĠWOMAN": 2809,
  "UR": 2810,
  "Ġcurve": 2811,
  "Ġflavors": 2812,
  "Ġspray": 2813,
  "Ġproducts": 2814,
  "Ġmustache": 2815,
  "Ġsneakers": 2816,
  "UG": 2817,
  "Ġbeanie": 2818,
  "Ġstable": 2819,
  "Ġdashboard": 2820,
  "ness": 2821,
  "Ġlob": 2822,
  "Ġlobby": 2823,
  "Ġthru": 2824,
  "Ġdrawer": 2825,
  "Ġsuburban": 2826,
  "Ġgive": 2827,
  "Ġsoaked": 2828,
  "Ġpigeon": 2829,
  "Ġsleep": 2830,
  "Ġpregnant": 2831,
  "Ġemo": 2832,
  "Ġspanning": 2833,
  "Ġradishes": 2834,
  "ropolit": 2835,
  "ropolitan": 2836,
  "Ġskyline": 2837,
  "Comm": 2838,
  "Ġcamouflage": 2839,
  "Ġboogie": 2840,
  "Ġrobe": 2841,
  "Ġemb": 2842,
  "Comp": 2843,
  "ĠEAT": 2844,
  "ĠMac": 2845,
  "Assorted": 2846,
  "five": 2847,
  "vey": 2848,
  "Ġbelt": 2849,
  "TI": 2850,
  "Ġaqu": 2851,
  "Ġhuddled": 2852,
  "rief": 2853,
  "Ġbrief": 2854,
  "TWO": 2855,
  "IELD": 2856,
  "Ġbiplane": 2857,
  "NIS": 2858,
  "Ġcarved": 2859,
  "Ġsum": 2860,
  "Ġoverlooks": 2861,
  "Ġcyclist": 2862,
  "Ġpoking": 2863,
  "Ġtrian": 2864,
  "Airp": 2865,
  "Ġvalley": 2866,
  "alian": 2867,
  "Ġpathway": 2868,
  "Ġsplit": 2869,
  "Ġlimb": 2870,
  "Ġflavored": 2871,
  "ĠPIC": 2872,
  "Ġextending": 2873,
  "loy": 2874,
  "Ġapron": 2875,
  "hetti": 2876,
  "aghetti": 2877,
  "Ġspaghetti": 2878,
  "ĠHIS": 2879,
  "ĠCO": 2880,
  "Ġbanner": 2881,
  "Ġnursing": 2882,
  "Pink": 2883,
  "Ġfollow": 2884,
  "Ġreg": 2885,
  "Ben": 2886,
  "ĠCla": 2887,
  "aur": 2888,
  "Ġpowder": 2889,
  "Ġdaughter": 2890,
  "Ġhangar": 2891,
  "Cattle": 2892,
  "Ġwildlife": 2893,
  "Ġlanguage": 2894,
  "Rows": 2895,
  "Ġcharacters": 2896,
  "FF": 2897,
  "Ġmeadow": 2898,
  "Ġcupboard": 2899,
  "LATE": 2900,
  "ĠPLATE": 2901,
  "Sp": 2902,
  "Ġshrubbery": 2903,
  "Ġguiding": 2904,
  "Surfer": 2905,
  "Ġdigging": 2906,
  "Ġvandalized": 2907,
  "Ġscale": 2908,
  "ĠUS": 2909,
  "rofo": 2910,
  "rofoam": 2911,
  "Ġbegin": 2912,
  "ama": 2913,
  "Sandw": 2914,
  "Ġthird": 2915,
  "Ġbuffet": 2916,
  "ĠHORSE": 2917,
  "Ġspotted": 2918,
  "Ġpatterned": 2919,
  "Ġforeign": 2920,
  "De": 2921,
  "Ġvillage": 2922,
  "Ġdepicting": 2923,
  "Ġguard": 2924,
  "Kit": 2925,
  "Kitchen": 2926,
  "Ġcompany": 2927,
  "Ġbasin": 2928,
  "Ġgrabbing": 2929,
  "Ġwheelchair": 2930,
  "Ġrectangular": 2931,
  "Ġshape": 2932,
  "Ġtrashc": 2933,
  "Ġtrashcan": 2934,
  "Ġfuzzy": 2935,
  "ryer": 2936,
  "Ġlevel": 2937,
  "brush": 2938,
  "EL": 2939,
  "Ġoverpass": 2940,
  "Road": 2941,
  "Ġvanilla": 2942,
  "Ġpeas": 2943,
  "annah": 2944,
  "Ġattractive": 2945,
  "Ġhoodie": 2946,
  "Ġwarehouse": 2947,
  "Ġmeas": 2948,
  "Ġmeasuring": 2949,
  "Ġplayed": 2950,
  "Ġlocal": 2951,
  "LUE": 2952,
  "Ġever": 2953,
  "Ġpoised": 2954,
  "atter": 2955,
  "Batter": 2956,
  "Ġquickly": 2957,
  "Ġyo": 2958,
  "Ġshark": 2959,
  "Ġzone": 2960,
  "ĠSOME": 2961,
  "Ġengaged": 2962,
  "ATE": 2963,
  "ĠUnited": 2964,
  "layer": 2965,
  "Ġsword": 2966,
  "THIS": 2967,
  "ST": 2968,
  "inning": 2969,
  "Cl": 2970,
  "psi": 2971,
  "Ġkept": 2972,
  "Ġhappily": 2973,
  "Ġchar": 2974,
  "Ġparasailing": 2975,
  "ĠZebra": 2976,
  "Ġchoppy": 2977,
  "Ġox": 2978,
  "Ġmedium": 2979,
  "Ġcoleslaw": 2980,
  "Ġraising": 2981,
  "namon": 2982,
  "Ġcin": 2983,
  "Ġcinnamon": 2984,
  "Ġsmartphone": 2985,
  "Ġsomewhere": 2986,
  "Ġswung": 2987,
  "Ġdonkey": 2988,
  "Ġstep": 2989,
  "Apples": 2990,
  "Ġlaugh": 2991,
  "Ġtreat": 2992,
  "Ġgazelle": 2993,
  "Ġhusky": 2994,
  "Boys": 2995,
  "Ġapart": 2996,
  "Ġdancing": 2997,
  "Ġvegetation": 2998,
  "Ġrelaxes": 2999,
  "Ġbey": 3000,
  "Ġbeyond": 3001,
  "Ġmushroom": 3002,
  "IZ": 3003,
  "bably": 3004,
  "Ġarchitect": 3005,
  "Be": 3006,
  "ROUND": 3007,
  "Ġprojector": 3008,
  "ĠDO": 3009,
  "AL": 3010,
  "ĠFIELD": 3011,
  "Ġdepot": 3012,
  "ENNIS": 3013,
  "ĠGAM": 3014,
  "Ġspire": 3015,
  "Ġmetropolitan": 3016,
  "Scissors": 3017,
  "Ġroast": 3018,
  "Ġnotebook": 3019,
  "Ġfloat": 3020,
  "Ġcrashing": 3021,
  "Ġplush": 3022,
  "Ġmacaroni": 3023,
  "ixed": 3024,
  "bread": 3025,
  "Animals": 3026,
  "ĠItalian": 3027,
  "Ġcrouching": 3028,
  "Ġprogress": 3029,
  "Ġ7": 3030,
  "Ġostrich": 3031,
  "elling": 3032,
  "ITY": 3033,
  "Ġautom": 3034,
  "ĠPICT": 3035,
  "Ġsoaring": 3036,
  "Ġspinach": 3037,
  "Ġemploy": 3038,
  "park": 3039,
  "Ġyet": 3040,
  "Ġthumbs": 3041,
  "Ġsniffs": 3042,
  "Ġstaircase": 3043,
  "Ġferry": 3044,
  "Ġsnuggling": 3045,
  "Ġelevator": 3046,
  "Modern": 3047,
  "Ġskull": 3048,
  "AD": 3049,
  "Ġaccident": 3050,
  "Ġstrapped": 3051,
  "oy": 3052,
  "Ġpork": 3053,
  "Benches": 3054,
  "where": 3055,
  "Ġkettle": 3056,
  "Ġnearly": 3057,
  "Ġ'": 3058,
  "uxedo": 3059,
  "Kids": 3060,
  "Ġhorned": 3061,
  "Ġsomewhat": 3062,
  "Ġentertainment": 3063,
  "Ġscratching": 3064,
  "Ġconference": 3065,
  "Ġtowed": 3066,
  "INK": 3067,
  "ILE": 3068,
  "Ġbackwards": 3069,
  "ell": 3070,
  "ĠAmtrak": 3071,
  "Ġ&": 3072,
  "tower": 3073,
  "ĠFOO": 3074,
  "ĠFOOD": 3075,
  "agle": 3076,
  "Ġeagle": 3077,
  "Ġsup": 3078,
  "book": 3079,
  "Ġdaytime": 3080,
  "Gre": 3081,
  "Ġmedical": 3082,
  "Ġconsole": 3083,
  "Ġfolks": 3084,
  "Ġmajor": 3085,
  "All": 3086,
  "Ġhitter": 3087,
  "ih": 3088,
  "Ġleaned": 3089,
  "Ġcoconut": 3090,
  "ym": 3091,
  "Ġgym": 3092,
  "Ġmech": 3093,
  "Ġfur": 3094,
  "Ġsoftball": 3095,
  "Ġsimilar": 3096,
  "roiss": 3097,
  "Ġcroiss": 3098,
  "Ġnightstand": 3099,
  "Ġtechn": 3100,
  "Ġwicker": 3101,
  "iflower": 3102,
  "uliflower": 3103,
  "Ġartwork": 3104,
  "Ġchalk": 3105,
  "Ġtablecloth": 3106,
  "alt": 3107,
  "Ġperf": 3108,
  "Ġraspber": 3109,
  "Ġfashion": 3110,
  "Passengers": 3111,
  "Ġloaf": 3112,
  "ĠDES": 3113,
  "ney": 3114,
  "izing": 3115,
  "Ġsecond": 3116,
  "Baby": 3117,
  "Ġspac": 3118,
  "Ġspacious": 3119,
  "Ġtrolly": 3120,
  "ĠVE": 3121,
  "ĠAve": 3122,
  "gy": 3123,
  "Ġcucumbers": 3124,
  "bama": 3125,
  "Ġnecklace": 3126,
  "Ġunderwear": 3127,
  "Ġrodeo": 3128,
  "Ġwedge": 3129,
  "Ġoutstret": 3130,
  "Ġoutstretched": 3131,
  "Big": 3132,
  "Fresh": 3133,
  "Ġexcited": 3134,
  "Ġtransportation": 3135,
  "Ġhandb": 3136,
  "Ġhandbag": 3137,
  "Doorway": 3138,
  "Ġstrange": 3139,
  "PLAY": 3140,
  "ĠDISPLAY": 3141,
  "Ġdepicts": 3142,
  "Ġchopsticks": 3143,
  "Ġpottery": 3144,
  "Ġclearly": 3145,
  "ĠBLUE": 3146,
  "Ġpita": 3147,
  "pen": 3148,
  "Ġevergreen": 3149,
  "Ġashore": 3150,
  "Ġpurch": 3151,
  "Ġsquatting": 3152,
  "Ġhandic": 3153,
  "Ġtraditional": 3154,
  "Ġamid": 3155,
  "Ġyogurt": 3156,
  "Ġwheelie": 3157,
  "Ġrec": 3158,
  "Ġcraw": 3159,
  "Ġchews": 3160,
  "Ġmixture": 3161,
  "Ġbarrier": 3162,
  "Ġnecktie": 3163,
  "Ġtwigs": 3164,
  "OTO": 3165,
  "ĠPHOTO": 3166,
  "view": 3167,
  "like": 3168,
  "ĠJap": 3169,
  "Sliced": 3170,
  "Ġsandwhich": 3171,
  "ĠSKATE": 3172,
  "ĠBOARD": 3173,
  "Ġcarry": 3174,
  "ĠFrench": 3175,
  "GAGE": 3176,
  "ĠBE": 3177,
  "ĠTRA": 3178,
  "Ġtinfo": 3179,
  "Ġtinfoil": 3180,
  "Motorcycle": 3181,
  "ĠSiamese": 3182,
  "Ġhut": 3183,
  "Clut": 3184,
  "Ġ5": 3185,
  "Long": 3186,
  "Ġdiving": 3187,
  "pan": 3188,
  "Ġberry": 3189,
  "Ġsec": 3190,
  "Ġoxen": 3191,
  "Ġtexting": 3192,
  "Eight": 3193,
  "ĠUND": 3194,
  "ĠUNDER": 3195,
  "ippers": 3196,
  "Ġintric": 3197,
  "Ġcurls": 3198,
  "Ġbushy": 3199,
  "mpty": 3200,
  "Empty": 3201,
  "Ġcircus": 3202,
  "Ġdirecting": 3203,
  "Orange": 3204,
  "Ġbutterf": 3205,
  "Ġbob": 3206,
  "idth": 3207,
  "Ġwidth": 3208,
  "merged": 3209,
  "Ġmotorcyclist": 3210,
  "IGH": 3211,
  "Ġcrackers": 3212,
  "Ġexer": 3213,
  "ont": 3214,
  "Ġmedic": 3215,
  "Ġmedicine": 3216,
  "Ġpassan": 3217,
  "Ġnighttime": 3218,
  "Ġsleek": 3219,
  "Vase": 3220,
  "Ġrubber": 3221,
  "ĠNo": 3222,
  "Computer": 3223,
  "Ġprobably": 3224,
  "Ġdemonic": 3225,
  "Ġottoman": 3226,
  "Ġtwenty": 3227,
  "Ġhalves": 3228,
  "Ġchop": 3229,
  "Ġconvey": 3230,
  "MAN": 3231,
  "ĠBY": 3232,
  "Ġcomfortable": 3233,
  "Ġexamines": 3234,
  "CT": 3235,
  "ART": 3236,
  "MEN": 3237,
  "ĠNEAR": 3238,
  "ĠRV": 3239,
  "ĠBACK": 3240,
  "EP": 3241,
  "Ġpushed": 3242,
  "ilapidated": 3243,
  "Ġdilapidated": 3244,
  "ĠSN": 3245,
  "ĠSNOW": 3246,
  "ĠDOWN": 3247,
  "Ġornamental": 3248,
  "Ġconsists": 3249,
  "Ġdip": 3250,
  "au": 3251,
  "airs": 3252,
  "Ġstrewn": 3253,
  "AS": 3254,
  "Ġcelebration": 3255,
  "Ġtrip": 3256,
  "Ġprovide": 3257,
  "Ġpenn": 3258,
  "Ġwhipped": 3259,
  "irgin": 3260,
  "Ġborder": 3261,
  "Ġaquarium": 3262,
  "ashioned": 3263,
  "fashioned": 3264,
  "ĠCITY": 3265,
  "ĠLIN": 3266,
  "Ġjack": 3267,
  "ĠPICTURE": 3268,
  "ĠWay": 3269,
  "Ġpuffy": 3270,
  "Ġlitter": 3271,
  "Ġrhino": 3272,
  "Ġattempts": 3273,
  "Ġemployee": 3274,
  "OARD": 3275,
  "Ġcobblestone": 3276,
  "lege": 3277,
  "Ġcust": 3278,
  "Ġcustard": 3279,
  "Ġcord": 3280,
  "Ġword": 3281,
  "BALL": 3282,
  "ang": 3283,
  "ĠBATHROOM": 3284,
  "Ġwaterf": 3285,
  "PP": 3286,
  "Ġsplashing": 3287,
  "Ġthan": 3288,
  "flowers": 3289,
  "Ġpristine": 3290,
  "Ġspecial": 3291,
  "Ġpenc": 3292,
  "Ind": 3293,
  "ean": 3294,
  "AY": 3295,
  "ĠOUT": 3296,
  "Ġexposed": 3297,
  "Ġthumb": 3298,
  "Ġsparse": 3299,
  "Ġsprinkled": 3300,
  "Ġgranite": 3301,
  "Ġangle": 3302,
  "iffel": 3303,
  "Ġeven": 3304,
  "Ġplunger": 3305,
  "Ġuneaten": 3306,
  "Ġcoast": 3307,
  "pad": 3308,
  "Ġequestrian": 3309,
  "Ġrecord": 3310,
  "Ġfiretruck": 3311,
  "Fast": 3312,
  "Snowboarder": 3313,
  "Ġhedge": 3314,
  "Ġcrab": 3315,
  "Dozens": 3316,
  "Ġstrap": 3317,
  "Ġperches": 3318,
  "Ġcheeseburger": 3319,
  "YING": 3320,
  "MAGE": 3321,
  "ĠIMAGE": 3322,
  "erm": 3323,
  "Ġcredit": 3324,
  "gency": 3325,
  "Ġhyr": 3326,
  "Ġpattern": 3327,
  "Grey": 3328,
  "Ġlead": 3329,
  "IV": 3330,
  "Ġanch": 3331,
  "Ġanchored": 3332,
  "Ġtucked": 3333,
  "Ġburnt": 3334,
  "Ġindicating": 3335,
  "Ġsymbol": 3336,
  "ĠUP": 3337,
  "Ġcabb": 3338,
  "ipating": 3339,
  "Ġsoldier": 3340,
  "li": 3341,
  "Ġbrocolli": 3342,
  "Ġintently": 3343,
  "Ġshaggy": 3344,
  "Ġinflat": 3345,
  "Ġinflatable": 3346,
  "Ġcracker": 3347,
  "ĠTENNIS": 3348,
  "Ġasphalt": 3349,
  "Ġearly": 3350,
  "ĠSTOP": 3351,
  "ĠSP": 3352,
  "Ġshaving": 3353,
  "Ġraspberries": 3354,
  "Ġradio": 3355,
  "Ġarch": 3356,
  "Ġskyscraper": 3357,
  "ĠDESK": 3358,
  "nuts": 3359,
  "Ġtuxedo": 3360,
  "Ġpriv": 3361,
  "Ġplayground": 3362,
  "Ġswan": 3363,
  "Ġtheme": 3364,
  "Ġpokes": 3365,
  "Ġincoming": 3366,
  "Ġstretch": 3367,
  "Ġbrings": 3368,
  "Ġhorn": 3369,
  "Crow": 3370,
  "Ġcrouched": 3371,
  "Ġcombination": 3372,
  "Lone": 3373,
  "Ġ9": 3374,
  "ustrial": 3375,
  "Ġindustrial": 3376,
  "ĠQueen": 3377,
  "Ġscrub": 3378,
  "Ġadmiring": 3379,
  "Ġsilhouette": 3380,
  "Ġhip": 3381,
  "Ġug": 3382,
  "Ġugly": 3383,
  "Ġfrog": 3384,
  "Ġantelope": 3385,
  "Sep": 3386,
  "ĠELEPH": 3387,
  "ĠELEPHAN": 3388,
  "Ġwonderful": 3389,
  "Ġmetro": 3390,
  "Ġroaming": 3391,
  "Ġcheesecake": 3392,
  "Ġsquash": 3393,
  "Ġknitted": 3394,
  "Ġjob": 3395,
  "Ġdoesn": 3396,
  "Ġeverything": 3397,
  "Ġnews": 3398,
  "Ġnuzz": 3399,
  "Ġdisk": 3400,
  "Ġtroop": 3401,
  "Ġflush": 3402,
  "Ġtoilette": 3403,
  "Ġangry": 3404,
  "Ġcurly": 3405,
  "Ġrowboat": 3406,
  "Ġheadband": 3407,
  "Ġsyrup": 3408,
  "tail": 3409,
  "Ġreflected": 3410,
  "Ġpepper": 3411,
  "Lady": 3412,
  "Ġbookshelves": 3413,
  "Ġfollowed": 3414,
  "Ġ-": 3415,
  "Ġstud": 3416,
  "fric": 3417,
  "ĠAfric": 3418,
  "ĠAfrican": 3419,
  "ĠBB": 3420,
  "ĠBBQ": 3421,
  "Ġfixing": 3422,
  "Ġbleachers": 3423,
  "ĠWALKING": 3424,
  "Parking": 3425,
  "ĠRoman": 3426,
  "Ġamerican": 3427,
  "various": 3428,
  "Ġponies": 3429,
  "Ġcrawling": 3430,
  "Ġlizard": 3431,
  "Ġpug": 3432,
  "ĠCAT": 3433,
  "Vintage": 3434,
  "Water": 3435,
  "Ġboardwalk": 3436,
  "Ġgranola": 3437,
  "UGGAGE": 3438,
  "ĠLUGGAGE": 3439,
  "Ġstairway": 3440,
  "Ġperch": 3441,
  "Ġspinning": 3442,
  "Cluttered": 3443,
  "Park": 3444,
  "Ġparasail": 3445,
  "Fans": 3446,
  "sib": 3447,
  "sibly": 3448,
  "Ġpossibly": 3449,
  "Ġraises": 3450,
  "Ġcompartments": 3451,
  "ĠVW": 3452,
  "avily": 3453,
  "Ġpopulated": 3454,
  "tended": 3455,
  "Ġunattended": 3456,
  "Ġrecipe": 3457,
  "Ġloveseat": 3458,
  "Ġsponge": 3459,
  "Ġentree": 3460,
  "Ġswimmer": 3461,
  "Ġsubmerged": 3462,
  "AIR": 3463,
  "Ġexerc": 3464,
  "Ġproudly": 3465,
  "Ġblend": 3466,
  "riends": 3467,
  "Friends": 3468,
  "ĠBENCH": 3469,
  "ĠPIZ": 3470,
  "ĠPIZZ": 3471,
  "ĠPIZZA": 3472,
  "Ġmessage": 3473,
  "Ġhusband": 3474,
  "Banana": 3475,
  "Ġmenu": 3476,
  "ĠSURROUND": 3477,
  "ĠSURROUNDED": 3478,
  "Ġfixes": 3479,
  "cream": 3480,
  "Ġbriefcase": 3481,
  "ĠELECT": 3482,
  "ĠCOMP": 3483,
  "ILL": 3484,
  "ĠDOG": 3485,
  "Ġchannel": 3486,
  "Ġreferee": 3487,
  "ĠGAME": 3488,
  "Ġembracing": 3489,
  "ĠCanad": 3490,
  "RICK": 3491,
  "ĠTOWER": 3492,
  "Ġstay": 3493,
  "Ġgrins": 3494,
  "Ġstriking": 3495,
  "Ġsucking": 3496,
  "Ġtext": 3497,
  "Ġremoved": 3498,
  "Ġrenovation": 3499,
  "Ġfestival": 3500,
  "Ġdental": 3501,
  "Ġathletic": 3502,
  "Their": 3503,
  "Ġfunction": 3504,
  "Bright": 3505,
  "known": 3506,
  "Ġunknown": 3507,
  "iece": 3508,
  "Ġconsumption": 3509,
  "Ġtwilight": 3510,
  "ĠFRON": 3511,
  "ĠFRONT": 3512,
  "Ġsciss": 3513,
  "Ġscissor": 3514,
  "work": 3515,
  "Ġautomatic": 3516,
  "ĠMOTOR": 3517,
  "ĠPAR": 3518,
  "Ġheater": 3519,
  "Ġgigantic": 3520,
  "Ġsitu": 3521,
  "Ġblueberry": 3522,
  "Ġlimit": 3523,
  "Up": 3524,
  "Ġnude": 3525,
  "Ġpreforming": 3526,
  "Vehicles": 3527,
  "pipe": 3528,
  "Ġcloths": 3529,
  "Ġshady": 3530,
  "Ġasparagus": 3531,
  "ĠBASEBALL": 3532,
  "FUL": 3533,
  "ĠLARGE": 3534,
  "graph": 3535,
  "Coo": 3536,
  "Ġwaterfall": 3537,
  "UT": 3538,
  "Ġconv": 3539,
  "Ġcityscape": 3540,
  "Toilet": 3541,
  "00": 3542,
  "uropean": 3543,
  "ĠCHI": 3544,
  "ĠCHILD": 3545,
  "bird": 3546,
  "Ġmp": 3547,
  "Ġmp3": 3548,
  "Ġfuton": 3549,
  "Ġdinosaur": 3550,
  "Ġshack": 3551,
  "assorted": 3552,
  "Ġmakeup": 3553,
  "Ġblueberries": 3554,
  "Ġbarred": 3555,
  "Le": 3556,
  "ĠZ": 3557,
  "cut": 3558,
  "Ġshuttle": 3559,
  "style": 3560,
  "lderly": 3561,
  "Elderly": 3562,
  "Ġdiscus": 3563,
  "Ġnotepad": 3564,
  "Ġutensil": 3565,
  "Ġbuss": 3566,
  "ĠTOILE": 3567,
  "Pedest": 3568,
  "Antique": 3569,
  "Ġengaging": 3570,
  "Ġunp": 3571,
  "Ġdistrict": 3572,
  "amb": 3573,
  "Ġwax": 3574,
  "Ġtattoo": 3575,
  "paper": 3576,
  "Ġwallpaper": 3577,
  "Ġinformation": 3578,
  "ĠJet": 3579,
  "Ġgotten": 3580,
  "Ġwreath": 3581,
  "Light": 3582,
  "Ġamusement": 3583,
  "Ġdummy": 3584,
  "Ġsuperm": 3585,
  "Ġsupermarket": 3586,
  "per": 3587,
  "Ġfocal": 3588,
  "Ġrecently": 3589,
  "Ġspring": 3590,
  "Ġartificial": 3591,
  "Ġupscale": 3592,
  "Ġbookcase": 3593,
  "ĠBUS": 3594,
  "ĠTHEIR": 3595,
  "Ġretrie": 3596,
  "utral": 3597,
  "Ġneutral": 3598,
  "gth": 3599,
  "fruit": 3600,
  "pic": 3601,
  "Ġstereo": 3602,
  "Ġtoll": 3603,
  "Ġmembers": 3604,
  "Im": 3605,
  "Ġexit": 3606,
  "Ġcabbage": 3607,
  "Ġparticipating": 3608,
  "Ġrunner": 3609,
  "me": 3610,
  "Ġalert": 3611,
  "oes": 3612,
  "so": 3613,
  "Smiling": 3614,
  "Ġcroissants": 3615,
  "Plane": 3616,
  "Ġpushes": 3617,
  "Ġalready": 3618,
  "cess": 3619,
  "Col": 3620,
  "Ġrobot": 3621,
  "Ġworkstation": 3622,
  "Ġperfect": 3623,
  "ĠBLACK": 3624,
  "Ġkeys": 3625,
  "Ġreplic": 3626,
  "Ġreplica": 3627,
  "Ġfriz": 3628,
  "Ġdownward": 3629,
  "og": 3630,
  "Wooden": 3631,
  "Commuter": 3632,
  "Ġgrandf": 3633,
  "Ġgrandfather": 3634,
  "NG": 3635,
  "OUNG": 3636,
  "ĠMOUSE": 3637,
  "UCE": 3638,
  "Ġoffering": 3639,
  "Ġdotted": 3640,
  "25": 3641,
  "Ġforehead": 3642,
  "ĠCOURT": 3643,
  "Ġ19": 3644,
  "Sandwich": 3645,
  "Decorated": 3646,
  "Ġprivate": 3647,
  "Ġpeaches": 3648,
  "Ġoncoming": 3649,
  "Ġmeatballs": 3650,
  "Ġreddish": 3651,
  "Ġsustenance": 3652,
  "orn": 3653,
  "Ġlocation": 3654,
  "Ġtusk": 3655,
  "Crowd": 3656,
  "ĠSams": 3657,
  "ĠSamsung": 3658,
  "Ġgrid": 3659,
  "Ġretro": 3660,
  "Ġpumpkins": 3661,
  "ffect": 3662,
  "Ġeffect": 3663,
  "IRT": 3664,
  "ĠSHIRT": 3665,
  "ĠSM": 3666,
  "Ġsmoothie": 3667,
  "Ġclub": 3668,
  "Ġhairdryer": 3669,
  "Ġremodeled": 3670,
  "Ġbronze": 3671,
  "Ġburrito": 3672,
  "PEOPLE": 3673,
  "ĠWAITING": 3674,
  "Ġpush": 3675,
  "porary": 3676,
  "Ġpatriotic": 3677,
  "ĠELEPHANT": 3678,
  "Ġcrouches": 3679,
  "Ġdepartment": 3680,
  "Ġpepsi": 3681,
  "Ġdescribe": 3682,
  "Ġweird": 3683,
  "Blurry": 3684,
  "ONE": 3685,
  "ĠHAND": 3686,
  "Ġprojection": 3687,
  "Ġdebris": 3688,
  "Ġcrops": 3689,
  "ĠSW": 3690,
  "BOARD": 3691,
  "Ġdozen": 3692,
  "Ġinn": 3693,
  "Ġcoke": 3694,
  "Phone": 3695,
  "ĠiPhone": 3696,
  "itcher": 3697,
  "Ġadjacent": 3698,
  "Ġnuzzling": 3699,
  "Ġwaist": 3700,
  "ĠEiffel": 3701,
  "Table": 3702,
  "Ġrenovated": 3703,
  "reak": 3704,
  "Ġchamp": 3705,
  "Ġ13": 3706,
  "Ġmural": 3707,
  "ĠSIDE": 3708,
  "Ġpreparation": 3709,
  "Ġreal": 3710,
  "Ġwheat": 3711,
  "train": 3712,
  "Ġstirring": 3713,
  "Ġreception": 3714,
  "Ġwelcome": 3715,
  "ork": 3716,
  "ĠYork": 3717,
  "Ġsuspenders": 3718,
  "Carrots": 3719,
  "uccino": 3720,
  "Graffiti": 3721,
  "Ġbarefoot": 3722,
  "Ġstyrofoam": 3723,
  "Ġyear": 3724,
  "orld": 3725,
  "Ġexotic": 3726,
  "ACH": 3727,
  "Ġvac": 3728,
  "Ġvacant": 3729,
  "ubby": 3730,
  "ĠForce": 3731,
  "ĠMacbook": 3732,
  "Ġknitting": 3733,
  "Ġstudio": 3734,
  "Ġpartly": 3735,
  "Ġbutt": 3736,
  "Ġcobble": 3737,
  "ĠFord": 3738,
  "Ġcraz": 3739,
  "Ġcrazy": 3740,
  "Ġactivities": 3741,
  "Ġexpired": 3742,
  "Ġgorge": 3743,
  "Ġsavannah": 3744,
  "ĠBritish": 3745,
  "Ġcapital": 3746,
  "Ġeverywhere": 3747,
  "Ġquilt": 3748,
  "Ġspraw": 3749,
  "Ġsprawled": 3750,
  "Ġpeacock": 3751,
  "Ġgummy": 3752,
  "Ġcracked": 3753,
  "Sign": 3754,
  "Ġdef": 3755,
  "ihu": 3756,
  "hu": 3757,
  "hua": 3758,
  "Ġchihua": 3759,
  "Ġchihuahua": 3760,
  "Ġshare": 3761,
  "Ġknocked": 3762,
  "Ġbasil": 3763,
  "Ġswit": 3764,
  "Ġcoin": 3765,
  "alifornia": 3766,
  "ĠCalifornia": 3767,
  "Ġshake": 3768,
  "Ġskatepark": 3769,
  "Ġawa": 3770,
  "Ġjockeys": 3771,
  "coln": 3772,
  "Ġthose": 3773,
  "Ġrelease": 3774,
  "Ġbrus": 3775,
  "Ġbrussel": 3776,
  "water": 3777,
  "Ġsidecar": 3778,
  "Ġshowroom": 3779,
  "ULT": 3780,
  "ĠADULT": 3781,
  "ĠLOOKING": 3782,
  "BLACK": 3783,
  "ĠUM": 3784,
  "ĠUMB": 3785,
  "ĠUMBRELLA": 3786,
  "ĠBar": 3787,
  "ĠLITT": 3788,
  "ĠLITTLE": 3789,
  "Ġoverview": 3790,
  "Ġallowed": 3791,
  "Ġbonnet": 3792,
  "ĠStates": 3793,
  "Player": 3794,
  "Male": 3795,
  "Ġpeak": 3796,
  "Ġgoof": 3797,
  "Ġgoofy": 3798,
  "Ġcurling": 3799,
  "irectly": 3800,
  "Ġdirectly": 3801,
  "ARS": 3802,
  "Ġoversized": 3803,
  "Ġwestern": 3804,
  "ĠBM": 3805,
  "ĠBMW": 3806,
  "Ġobserve": 3807,
  "Ġcharming": 3808,
  "Sil": 3809,
  "Ġbridle": 3810,
  "different": 3811,
  "Ġoutline": 3812,
  "Ġgir": 3813,
  "Ġstrikes": 3814,
  "Ġbusinessman": 3815,
  "Ġbarbeque": 3816,
  "ĠBOAT": 3817,
  "ĠSKY": 3818,
  "Even": 3819,
  "Ġintricate": 3820,
  "Ġheavily": 3821,
  "Ġdrags": 3822,
  "Ġanim": 3823,
  "host": 3824,
  "Ġghost": 3825,
  "Ġdonkeys": 3826,
  "Ġpassage": 3827,
  "Ġbulb": 3828,
  "Ġdiscs": 3829,
  "Ġoutfield": 3830,
  "Soccer": 3831,
  "Ġpumpkin": 3832,
  "Ġcucumber": 3833,
  "Cute": 3834,
  "Ġbutterflies": 3835,
  "urs": 3836,
  "Ġrescue": 3837,
  "Ġpinned": 3838,
  "berry": 3839,
  "ĠCHAIR": 3840,
  "Ġskewers": 3841,
  "Ġdaylight": 3842,
  "Commode": 3843,
  "ik": 3844,
  "Ġupcoming": 3845,
  "Ġguide": 3846,
  "vol": 3847,
  "Ġduffel": 3848,
  "GI": 3849,
  "ĠCGI": 3850,
  "Ġsecurity": 3851,
  "Ġmissh": 3852,
  "Ġcamo": 3853,
  "No": 3854,
  "Ġsetup": 3855,
  "aratus": 3856,
  "Ġapparatus": 3857,
  "Tw": 3858,
  "uke": 3859,
  "ortant": 3860,
  "Ġimportant": 3861,
  "Ġsprouts": 3862,
  "Ġpersonnel": 3863,
  "Ġunw": 3864,
  "fu": 3865,
  "Ġtofu": 3866,
  "YC": 3867,
  "YCLE": 3868,
  "awa": 3869,
  "awaiian": 3870,
  "ĠHawaiian": 3871,
  "Ġinlet": 3872,
  "Ġicecream": 3873,
  "Ġlunges": 3874,
  "ĠRd": 3875,
  "ARTMEN": 3876,
  "ĠSHEEP": 3877,
  "IM": 3878,
  "Ġtook": 3879,
  "Ġboar": 3880,
  "hole": 3881,
  "Broccoli": 3882,
  "Ġviolin": 3883,
  "ĠBRICK": 3884,
  "ummy": 3885,
  "Ġflys": 3886,
  "Ġstarbucks": 3887,
  "obile": 3888,
  "Ġwrist": 3889,
  "etti": 3890,
  "Ġconfetti": 3891,
  "Ġbenef": 3892,
  "Ġbureau": 3893,
  "Ġpacif": 3894,
  "Ġpacifier": 3895,
  "Ġheadlights": 3896,
  "uildings": 3897,
  "Airplanes": 3898,
  "Ġathlete": 3899,
  "Ġinches": 3900,
  "ASA": 3901,
  "Ġupward": 3902,
  "Ġsesame": 3903,
  "Ġgraffitti": 3904,
  "Ġgrizz": 3905,
  "Ġgrizzly": 3906,
  "Ġgrasslands": 3907,
  "onial": 3908,
  "Ġceremonial": 3909,
  "Ġflatbread": 3910,
  "hand": 3911,
  "Ġtripod": 3912,
  "piece": 3913,
  "Ġcenterpiece": 3914,
  "Ġvirgin": 3915,
  "Ġgrind": 3916,
  "Ġupholstered": 3917,
  "Ġowl": 3918,
  "Ġyelling": 3919,
  "Ġsubstance": 3920,
  "Ġpaperwork": 3921,
  "HING": 3922,
  "Ġshelving": 3923,
  "Ġsituated": 3924,
  "Ġnavig": 3925,
  "Ġeyeglasses": 3926,
  "Flat": 3927,
  "Ġwebc": 3928,
  "Ġwebcam": 3929,
  "Mixed": 3930,
  "ramid": 3931,
  "Fire": 3932,
  "IP": 3933,
  "ĠApple": 3934,
  "tree": 3935,
  "Ġcollege": 3936,
  "field": 3937,
  "ĠDI": 3938,
  "Bas": 3939,
  "Ġtending": 3940,
  "LORFUL": 3941,
  "Ġoverh": 3942,
  "Ġlantern": 3943,
  "ĠAPP": 3944,
  "Ġreligious": 3945,
  "Ġtrot": 3946,
  "Ġconvoy": 3947,
  "Ġbunny": 3948,
  "Ġextends": 3949,
  "Ġbrake": 3950,
  "Ġpatrol": 3951,
  "Ġinspecting": 3952,
  "Ġwig": 3953,
  "Ġpencil": 3954,
  "Ġproject": 3955,
  "Ġdiff": 3956,
  "ĠCROW": 3957,
  "UN": 3958,
  "ĠFE": 3959,
  "Airplane": 3960,
  "Ġunderground": 3961,
  "ĠEuropean": 3962,
  "Ġhummingbird": 3963,
  "Ġbackseat": 3964,
  "You": 3965,
  "AKE": 3966,
  "Ġrotten": 3967,
  "Ġlunging": 3968,
  "Ġconductor": 3969,
  "Ġswampy": 3970,
  "Pan": 3971,
  "ooh": 3972,
  "ĠPooh": 3973,
  "Sub": 3974,
  "Ġrugby": 3975,
  "olly": 3976,
  "ĠHolly": 3977,
  "And": 3978,
  "Ġcalc": 3979,
  "Ġgourmet": 3980,
  "Business": 3981,
  "Ġremains": 3982,
  "Wild": 3983,
  "Ġwashroom": 3984,
  "sm": 3985,
  "small": 3986,
  "Ġthermometer": 3987,
  "ĠTOILET": 3988,
  "UB": 3989,
  "Pedestrians": 3990,
  "ĠWEAR": 3991,
  "ĠWEARING": 3992,
  "ĠSUIT": 3993,
  "upcakes": 3994,
  "Cupcakes": 3995,
  "Ġrapids": 3996,
  "Ġrefridgerator": 3997,
  "Nice": 3998,
  "Ġdraft": 3999,
  "Ġarrive": 4000,
  "EE": 4001,
  "Ġdalm": 4002,
  "itting": 4003,
  "Ġfilm": 4004,
  "Ġkiss": 4005,
  "Ġearring": 4006,
  "Electronic": 4007,
  "Ġsigh": 4008,
  "Ġcactus": 4009,
  "Ġswiss": 4010,
  "oid": 4011,
  "ĠCanadian": 4012,
  "cred": 4013,
  "Ġincred": 4014,
  "Ġincredible": 4015,
  "Ġstillness": 4016,
  "Ġavenue": 4017,
  "Ġrd": 4018,
  "Ġwrestling": 4019,
  "Ġsquad": 4020,
  "Ġspeaker": 4021,
  "Ġseven": 4022,
  "drant": 4023,
  "Ġvegetarian": 4024,
  "Ġstarring": 4025,
  "Construction": 4026,
  "Ġbubble": 4027,
  "eaten": 4028,
  "Ġrowers": 4029,
  "IX": 4030,
  "RONIC": 4031,
  "ĠELECTRONIC": 4032,
  "Ġwok": 4033,
  "Ġdiced": 4034,
  "Ġretrieving": 4035,
  "Ġlength": 4036,
  "Wood": 4037,
  "Ġgrapefruit": 4038,
  "ville": 4039,
  "Ġexpensive": 4040,
  "lympic": 4041,
  "ĠOlympic": 4042,
  "ĠAvenue": 4043,
  "hy": 4044,
  "Ġshine": 4045,
  "Ġupdated": 4046,
  "Ġshaved": 4047,
  "agerly": 4048,
  "Ġeagerly": 4049,
  "Partially": 4050,
  "ha": 4051,
  "ĠMain": 4052,
  "jestic": 4053,
  "Ġmajestic": 4054,
  "Ġhumorous": 4055,
  "Ġhammer": 4056,
  "Ġorderly": 4057,
  "Ġbiscuit": 4058,
  "UM": 4059,
  "Ġstylish": 4060,
  "Bird": 4061,
  "Un": 4062,
  "ĠCD": 4063,
  "Ġcontraption": 4064,
  "They": 4065,
  "dining": 4066,
  "Ġfixture": 4067,
  "Ġdifferently": 4068,
  "ĠMr": 4069,
  "Ġmoss": 4070,
  "vil": 4071,
  "Ġevil": 4072,
  "rincess": 4073,
  "Ġwhine": 4074,
  "Ġvolleyball": 4075,
  "ailway": 4076,
  "ĠWATCHING": 4077,
  "Ġgnar": 4078,
  "Qu": 4079,
  "Ġdivided": 4080,
  "Ġescalator": 4081,
  "Ġlandscaping": 4082,
  "UTER": 4083,
  "ĠCOMPUTER": 4084,
  "ĠLINE": 4085,
  "Ġfrizbee": 4086,
  "sized": 4087,
  "trucks": 4088,
  "ĠBABY": 4089,
  "Ġplank": 4090,
  "Veget": 4091,
  "Apple": 4092,
  "ROD": 4093,
  "RODUCE": 4094,
  "ĠPRODUCE": 4095,
  "ĠYOUNG": 4096,
  "Ġlaughs": 4097,
  "Ġgoblet": 4098,
  "we": 4099,
  "Room": 4100,
  "free": 4101,
  "Ġblank": 4102,
  "Ġspeaks": 4103,
  "VD": 4104,
  "ĠDVD": 4105,
  "Ġoctopus": 4106,
  "Ġclaim": 4107,
  "Happy": 4108,
  "Ġspeech": 4109,
  "horn": 4110,
  "xp": 4111,
  "dryer": 4112,
  "Ġblowdryer": 4113,
  "flower": 4114,
  "CO": 4115,
  "ĠVEGE": 4116,
  "ĠVEGET": 4117,
  "Ġarray": 4118,
  "Ġjewelry": 4119,
  "Ġlayed": 4120,
  "ĠSan": 4121,
  "ranc": 4122,
  "ĠFranc": 4123,
  "ĠFrancisco": 4124,
  "flip": 4125,
  "Ġsip": 4126,
  "ĠLa": 4127,
  "bus": 4128,
  "Ġsplash": 4129,
  "Ġautum": 4130,
  "ĠVERY": 4131,
  "Ġdv": 4132,
  "Ġsweatshirt": 4133,
  "Ġgrassland": 4134,
  "ta": 4135,
  "ĠDelta": 4136,
  "ĠFOR": 4137,
  "Night": 4138,
  "Ġbomb": 4139,
  "Ext": 4140,
  "ĠOUTSIDE": 4141,
  "Steak": 4142,
  "ĠObama": 4143,
  "Ġvending": 4144,
  "Ġ8": 4145,
  "Ġguine": 4146,
  "Ġguinea": 4147,
  "Ġinvestig": 4148,
  "ĠGET": 4149,
  "Ġmouths": 4150,
  "Ġbasic": 4151,
  "Ġchinese": 4152,
  "ĠSINK": 4153,
  "cient": 4154,
  "Ġancient": 4155,
  "player": 4156,
  "Ġchess": 4157,
  "WICH": 4158,
  "ANDWICH": 4159,
  "ĠSANDWICH": 4160,
  "Ġwarm": 4161,
  "Ġcanv": 4162,
  "ĠKIT": 4163,
  "ĠKITCHEN": 4164,
  "Roadway": 4165,
  "mit": 4166,
  "nif": 4167,
  "Ġmagnif": 4168,
  "Ġdepart": 4169,
  "Ġapproach": 4170,
  "Ġpudding": 4171,
  "Or": 4172,
  "Ġcontrolled": 4173,
  "Ġinnocent": 4174,
  "Part": 4175,
  "ĠSav": 4176,
  "ĠSavannah": 4177,
  "Ġfriendly": 4178,
  "quare": 4179,
  "Ġkraut": 4180,
  "Ġleaps": 4181,
  "Ġboxing": 4182,
  "Ġharness": 4183,
  "Ġclimbs": 4184,
  "zy": 4185,
  "Ġleafless": 4186,
  "Ġshutters": 4187,
  "back": 4188,
  "ROUP": 4189,
  "ĠGROUP": 4190,
  "Cut": 4191,
  "Ġprominent": 4192,
  "Chocolate": 4193,
  "horses": 4194,
  "oramic": 4195,
  "Ġpanoramic": 4196,
  "Ġradiator": 4197,
  "Ġzom": 4198,
  "Ġbrass": 4199,
  "Ġrollerb": 4200,
  "ĠMOTORC": 4201,
  "Ġsnuggled": 4202,
  "Ġregarding": 4203,
  "Bride": 4204,
  "irk": 4205,
  "Ġsmirk": 4206,
  "ushi": 4207,
  "Ġsushi": 4208,
  "Ġmint": 4209,
  "Ġhidden": 4210,
  "spring": 4211,
  "Ġgauge": 4212,
  "Ġconveyor": 4213,
  "Ġprice": 4214,
  "Passenger": 4215,
  "Ġbadly": 4216,
  "Ġcappuccino": 4217,
  "Ġgarland": 4218,
  "Ġcocktail": 4219,
  "ĠDR": 4220,
  "ĠFer": 4221,
  "nowled": 4222,
  "nowledging": 4223,
  "Ġacknowledging": 4224,
  "ĠTREES": 4225,
  "Shelves": 4226,
  "Ġeight": 4227,
  "Ġcompartment": 4228,
  "frien": 4229,
  "friend": 4230,
  "Ġfamous": 4231,
  "IVING": 4232,
  "Ġpengu": 4233,
  "Ġavoc": 4234,
  "Ġdrapes": 4235,
  "Artistic": 4236,
  "Ġjail": 4237,
  "Ġsafe": 4238,
  "ĠFRU": 4239,
  "Ġyak": 4240,
  "Open": 4241,
  "Ġdragon": 4242,
  "ĠDAY": 4243,
  "ĠBEACH": 4244,
  "Tray": 4245,
  "Ġsupport": 4246,
  "Ġhalfway": 4247,
  "ĠBay": 4248,
  "Sail": 4249,
  "ĠWorld": 4250,
  "Ġgad": 4251,
  "Ġalp": 4252,
  "Ġpamphlet": 4253,
  "Image": 4254,
  "Ġsafari": 4255,
  "iw": 4256,
  "Ġbouncing": 4257,
  "Ġwhis": 4258,
  "IGN": 4259,
  "AIN": 4260,
  "Sepia": 4261,
  "Ġmailbox": 4262,
  "Ġclocktower": 4263,
  "Ġunpeeled": 4264,
  "rep": 4265,
  "ival": 4266,
  "Te": 4267,
  "Outside": 4268,
  "Ġserrated": 4269,
  "Ġbec": 4270,
  "Ġbecause": 4271,
  "Ġbundt": 4272,
  "Ġomelette": 4273,
  "Ġvenue": 4274,
  "Ġmisses": 4275,
  "Ġhook": 4276,
  "agne": 4277,
  "Ġchampagne": 4278,
  "Ġwineglass": 4279,
  "Odd": 4280,
  "Ġgorgeous": 4281,
  "ĠNavy": 4282,
  "Ġhandicapped": 4283,
  "Office": 4284,
  "Ġyacht": 4285,
  "Bedroom": 4286,
  "GETHER": 4287,
  "Fruit": 4288,
  "Ġcho": 4289,
  "Ġregion": 4290,
  "Ġsunshine": 4291,
  "Ġbatch": 4292,
  "Ġreins": 4293,
  "ultimate": 4294,
  "Ġultimate": 4295,
  "ĠVictorian": 4296,
  "Ġteapot": 4297,
  "Ġmagic": 4298,
  "Ġmagician": 4299,
  "Ġtrek": 4300,
  "Spectators": 4301,
  "Lunch": 4302,
  "gate": 4303,
  "Ġplumbing": 4304,
  "OOL": 4305,
  "Far": 4306,
  "Ġeg": 4307,
  "ĠPresident": 4308,
  "Ġexamining": 4309,
  "ĠFR": 4310,
  "royed": 4311,
  "Ġdestroyed": 4312,
  "oise": 4313,
  "Ġswitch": 4314,
  "Ġexpression": 4315,
  "Ġfacade": 4316,
  "Ġbra": 4317,
  "Ġoars": 4318,
  "Ġsoil": 4319,
  "Ġemergency": 4320,
  "knacks": 4321,
  "Ġmixer": 4322,
  "Ġmonoch": 4323,
  "Ġoak": 4324,
  "Ġbattle": 4325,
  "AKING": 4326,
  "ĠTAKING": 4327,
  "Ġambulance": 4328,
  "ĠGerman": 4329,
  "Ġswamp": 4330,
  "Ġyawning": 4331,
  "Ġskylight": 4332,
  "Ġsneaker": 4333,
  "ĠTOY": 4334,
  "Ġcasual": 4335,
  "imsical": 4336,
  "Ġwhimsical": 4337,
  "ruised": 4338,
  "Ġbruised": 4339,
  "Ġindicates": 4340,
  "Ġcuddling": 4341,
  "someone": 4342,
  "Ġwebsite": 4343,
  "Ġcheek": 4344,
  "Bikes": 4345,
  "Ġhandicap": 4346,
  "Ġgarment": 4347,
  "Ġcrashes": 4348,
  "Ġpeacefully": 4349,
  "Ġpub": 4350,
  "Ġhelp": 4351,
  "ĠSOMETHING": 4352,
  "Har": 4353,
  "otter": 4354,
  "ĠPotter": 4355,
  "Ġmonkeys": 4356,
  "Ġudders": 4357,
  "ĠFUR": 4358,
  "ĠFURN": 4359,
  "ĠFURNIT": 4360,
  "ĠFURNITURE": 4361,
  "App": 4362,
  "Snowboard": 4363,
  "vanced": 4364,
  "Ġadvanced": 4365,
  "ĠWonder": 4366,
  "Ġraquet": 4367,
  "FT": 4368,
  "ĠBOX": 4369,
  "CKS": 4370,
  "Ġarticulated": 4371,
  "Ġyellowish": 4372,
  "Variety": 4373,
  "Ġhutch": 4374,
  "Ġinstitutional": 4375,
  "ĠPe": 4376,
  "ĠPepsi": 4377,
  "ĠMarket": 4378,
  "Ġotherw": 4379,
  "Ġotherwise": 4380,
  "bl": 4381,
  "blue": 4382,
  "Silver": 4383,
  "Ġfrisby": 4384,
  "Numerous": 4385,
  "ooky": 4386,
  "Ġspooky": 4387,
  "Ġforrest": 4388,
  "Ġdocuments": 4389,
  "Ġcapture": 4390,
  "viting": 4391,
  "Ġanimated": 4392,
  "ĠChina": 4393,
  "Box": 4394,
  "ĠLego": 4395,
  "ĠVader": 4396,
  "Ġsampling": 4397,
  "ĠFit": 4398,
  "Ġprey": 4399,
  "Racks": 4400,
  "Ġoccurs": 4401,
  "ĠTrans": 4402,
  "ĠTransit": 4403,
  "ĠBIR": 4404,
  "ĠBIRD": 4405,
  "Ġpeach": 4406,
  "Ġcustomized": 4407,
  "Ġcuriously": 4408,
  "Ġblackberry": 4409,
  "Ġalcove": 4410,
  "RIGH": 4411,
  "RIGHT": 4412,
  "ĠTHREE": 4413,
  "ĠHall": 4414,
  "Ġcurrent": 4415,
  "Ġcurrently": 4416,
  "46": 4417,
  "ĠTVs": 4418,
  "Ġinvol": 4419,
  "Ġcuddles": 4420,
  "ĠPolish": 4421,
  "Ġleaking": 4422,
  "Ġexercising": 4423,
  "Ġhorizontal": 4424,
  "Hand": 4425,
  "Ġgently": 4426,
  "Ġnun": 4427,
  "Ġseg": 4428,
  "chandise": 4429,
  "Ġmerchandise": 4430,
  "Ġtrimmed": 4431,
  "pm": 4432,
  "Twin": 4433,
  "Ġplugs": 4434,
  "Ġexpect": 4435,
  "Ġcowboys": 4436,
  "Ġarchitecture": 4437,
  "Sun": 4438,
  "Herd": 4439,
  "Ġunwrapped": 4440,
  "Beautiful": 4441,
  "Ġconveyer": 4442,
  "TRA": 4443,
  "ĠANOTHER": 4444,
  "unk": 4445,
  "Ġpunk": 4446,
  "Ġandroid": 4447,
  "Ġeastern": 4448,
  "ĠSURF": 4449,
  "ĠHILL": 4450,
  "GROUND": 4451,
  "ĠBACKGROUND": 4452,
  "'.": 4453,
  "Ġllama": 4454,
  "ĠANIM": 4455,
  "ĠANIMAL": 4456,
  "alm": 4457,
  "ĠTree": 4458,
  "Ġspending": 4459,
  "CKET": 4460,
  "Ġspeak": 4461,
  "Ġmanhole": 4462,
  "Ġcaptivity": 4463,
  "Ġsummer": 4464,
  "ĠBIG": 4465,
  "IDD": 4466,
  "ĠMIDD": 4467,
  "ĠMIDDLE": 4468,
  "ĠDEP": 4469,
  "ĠSKIER": 4470,
  "ĠGO": 4471,
  "ĠSLOP": 4472,
  "ĠSLOPES": 4473,
  "Ġcalves": 4474,
  "Ġbetter": 4475,
  "Ġsnowm": 4476,
  "Ġsnowmobile": 4477,
  "Ġlifegu": 4478,
  "Ġlifeguard": 4479,
  "Ġpeaceful": 4480,
  "Ġwristband": 4481,
  "Ġbenefit": 4482,
  "Ġadditional": 4483,
  "Ġcropped": 4484,
  "Ġflanked": 4485,
  "Ġbooths": 4486,
  "Ġreceive": 4487,
  "Ġconvex": 4488,
  "Ġcalendar": 4489,
  "Buildings": 4490,
  "Ġtextured": 4491,
  "Ġmerging": 4492,
  "Ġsiamese": 4493,
  "ĠSpace": 4494,
  "ĠNASA": 4495,
  "Ġcelebrate": 4496,
  "Ġmur": 4497,
  "Ġnovelty": 4498,
  "Ġspo": 4499,
  "Ġseeing": 4500,
  "Ġscratches": 4501,
  "off": 4502,
  "ĠVeg": 4503,
  "ĠVegas": 4504,
  "girl": 4505,
  "Ġcowgirl": 4506,
  "Ġdw": 4507,
  "Ġdwarf": 4508,
  "ĠMary": 4509,
  "Ġbreeze": 4510,
  "surf": 4511,
  "Ġdinnerware": 4512,
  "Ġwitches": 4513,
  "ĠBI": 4514,
  "ĠPARKED": 4515,
  "ĠWORKER": 4516,
  "US": 4517,
  "Ġfreez": 4518,
  "Kid": 4519,
  "Ġpatties": 4520,
  "NS": 4521,
  "NSF": 4522,
  "nd": 4523,
  "2nd": 4524,
  "Flatbread": 4525,
  "Ġunhappy": 4526,
  "Ġsenior": 4527,
  "Ġcliffs": 4528,
  "Ġpiercings": 4529,
  "Ġsteal": 4530,
  "bug": 4531,
  "Ġladybug": 4532,
  "Ġrainco": 4533,
  "Ġraincoat": 4534,
  "Ġpyramid": 4535,
  "Pic": 4536,
  "Picnic": 4537,
  "fighters": 4538,
  "Ġassembled": 4539,
  "Ġoversize": 4540,
  "plant": 4541,
  "Ġeggplant": 4542,
  "Hotdogs": 4543,
  "Ġhalfpipe": 4544,
  "ĠDav": 4545,
  "ĠDavidson": 4546,
  "Ġpelican": 4547,
  "Ġuncovered": 4548,
  "Ġairfield": 4549,
  "ĠREAD": 4550,
  "ĠTHROW": 4551,
  "Basket": 4552,
  "Ġheat": 4553,
  "ĠCOLORFUL": 4554,
  "Pod": 4555,
  "ĠiPod": 4556,
  "Run": 4557,
  "URT": 4558,
  "ĠYO": 4559,
  "ĠYOG": 4560,
  "ĠYOGURT": 4561,
  "little": 4562,
  "Ġsunflowers": 4563,
  "wild": 4564,
  "inner": 4565,
  "ĠFEW": 4566,
  "ĠBRAN": 4567,
  "ĠTREE": 4568,
  "Upward": 4569,
  "Ġfeast": 4570,
  "aucasian": 4571,
  "Ġamtrak": 4572,
  "ĠHA": 4573,
  "ĠCHILDREN": 4574,
  "signs": 4575,
  "utting": 4576,
  "Ġcolt": 4577,
  "Line": 4578,
  "Ġanywhere": 4579,
  "ĠCont": 4580,
  "ĠControl": 4581,
  "CAKE": 4582,
  "Bicyclists": 4583,
  "Ġaffixed": 4584,
  "Pancakes": 4585,
  "Ġchillin": 4586,
  "Ġblu": 4587,
  "Ġbluish": 4588,
  "Ġkangaroo": 4589,
  "Ġspare": 4590,
  "file": 4591,
  "Ġprofile": 4592,
  "Ġburgundy": 4593,
  "Ġcalculator": 4594,
  "Ġshoestring": 4595,
  "Ġ(": 4596,
  "Ġhawk": 4597,
  "Public": 4598,
  "Ġmarketplace": 4599,
  "Ġhaircut": 4600,
  "ĠWashing": 4601,
  "ĠWashington": 4602,
  "ĠDC": 4603,
  "Ġleopard": 4604,
  "bank": 4605,
  "Ġdiscussing": 4606,
  "ĠPINK": 4607,
  "Ġsearching": 4608,
  "Athlete": 4609,
  "ĠPaul": 4610,
  "Ġoat": 4611,
  "Ġdalmation": 4612,
  "Human": 4613,
  "Ġbritish": 4614,
  "Ġcakeshop": 4615,
  "Legs": 4616,
  "kka": 4617,
  "ĠPo": 4618,
  "Ġnuclear": 4619,
  "Ducks": 4620,
  "Ġcrossbones": 4621,
  "Ġdeal": 4622,
  "Ġsparkling": 4623,
  "pizza": 4624,
  "Sparse": 4625,
  "Ġdial": 4626,
  "ĠFL": 4627,
  "ĠFLYING": 4628,
  "Dessert": 4629,
  "keeper": 4630,
  "Ġzookeeper": 4631,
  "Ġbarbec": 4632,
  "ĠPC": 4633,
  "Ġ6th": 4634,
  "Out": 4635,
  "Ġwipe": 4636,
  "mergency": 4637,
  "Emergency": 4638,
  "Muffins": 4639,
  "Ġsquadron": 4640,
  "Ġnaval": 4641,
  "ingle": 4642,
  "Single": 4643,
  "Ġshelve": 4644,
  "ĠELECTRONICS": 4645,
  "Ġcelebrating": 4646,
  "Ġ26": 4647,
  "Ġoccupants": 4648,
  "ĠMenswear": 4649,
  "Ġattemping": 4650,
  "brellas": 4651,
  "Ġ10": 4652,
  "Ġwarns": 4653,
  "Intersection": 4654,
  "ĠGames": 4655,
  "female": 4656,
  "Ġwih": 4657,
  "Ġbulldozer": 4658,
  "ĠSony": 4659,
  "Ġsession": 4660,
  "Ġinverted": 4661,
  "ĠStyrofoam": 4662,
  "nequ": 4663,
  "Ġmannequ": 4664,
  "Ġoddly": 4665,
  "Ġexplains": 4666,
  "Ġshinning": 4667,
  "Parents": 4668,
  "Ġpancake": 4669,
  "Ġsalami": 4670,
  "Ġaloft": 4671,
  "Ġdemonst": 4672,
  "Ġteacup": 4673,
  "sailing": 4674,
  "ĠRACE": 4675,
  "PING": 4676,
  "UMPING": 4677,
  "ĠJUMPING": 4678,
  "VER": 4679,
  "Ġchin": 4680,
  "Ġinjury": 4681,
  "speed": 4682,
  "ĠMario": 4683,
  "Ġroam": 4684,
  "Ġmedian": 4685,
  "Ġhyrdant": 4686,
  "venile": 4687,
  "Ġjuvenile": 4688,
  "Ġjoe": 4689,
  "Vib": 4690,
  "Vibrant": 4691,
  "Ġstirred": 4692,
  "afe": 4693,
  "Ġdolph": 4694,
  "ĠBowling": 4695,
  "ĠMrs": 4696,
  "Mother": 4697,
  "Ġprincess": 4698,
  "Dead": 4699,
  "Ġsurvey": 4700,
  "Railway": 4701,
  "ĠCROWD": 4702,
  "ĠLADY": 4703,
  "Ġsprinkle": 4704,
  "stuffed": 4705,
  "Quaint": 4706,
  "Ġcalmly": 4707,
  "Ġlf": 4708,
  "Ġdiapers": 4709,
  "Ġbrownies": 4710,
  "ĠVAN": 4711,
  "ĠFIRE": 4712,
  "ĠTRU": 4713,
  "Ġfencing": 4714,
  "fridge": 4715,
  "Ġmunching": 4716,
  "Ġcentral": 4717,
  "Gray": 4718,
  "Ġwatersk": 4719,
  "Ġarchway": 4720,
  "87": 4721,
  "Ġ787": 4722,
  "Ġexercise": 4723,
  "Ġais": 4724,
  "Ġaisle": 4725,
  "brown": 4726,
  "uary": 4727,
  "ctuary": 4728,
  "Ġsanctuary": 4729,
  "ĠJackson": 4730,
  "Ġsharply": 4731,
  "Ġvia": 4732,
  "Ġcampf": 4733,
  "Ġcampfire": 4734,
  "Ġsunscreen": 4735,
  "THREE": 4736,
  "ĠWAV": 4737,
  "Ms": 4738,
  "Ġalmonds": 4739,
  "Ġwalnuts": 4740,
  "ĠGood": 4741,
  "ĠSchool": 4742,
  "ĠAp": 4743,
  "freezer": 4744,
  "Ġembankment": 4745,
  "Ġattempted": 4746,
  "Ġverdant": 4747,
  "Motorcyclists": 4748,
  "Ġlivingroom": 4749,
  "closeup": 4750,
  "Ġooking": 4751,
  "ĠDVDs": 4752,
  "Ġann": 4753,
  "Ġtask": 4754,
  "Ġreenactment": 4755,
  "53": 4756,
  "Bowls": 4757,
  "Ġreflective": 4758,
  "Ġhitching": 4759,
  "Ġtosses": 4760,
  "Ġcentury": 4761,
  "ĠFed": 4762,
  "Ġuncut": 4763,
  "Ġdrums": 4764,
  "venir": 4765,
  "venirs": 4766,
  "Ġsouvenirs": 4767,
  "Ġarchitectural": 4768,
  "Ġkeep": 4769,
  "ĠChicago": 4770,
  "ciled": 4771,
  "Ġstenciled": 4772,
  "Ġfoal": 4773,
  "Gloves": 4774,
  "Ġhairbrush": 4775,
  "ĠPLA": 4776,
  "Ġblowup": 4777,
  "Ġtrotting": 4778,
  "Ġimpress": 4779,
  "Ġimpressive": 4780,
  "ĠRem": 4781,
  "ĠRemote": 4782,
  "Ġ11": 4783,
  "Ġbarren": 4784,
  "En": 4785,
  "Ġoutdated": 4786,
  "Ġmaybe": 4787,
  "ĠFut": 4788,
  "Ġrecogn": 4789,
  "Ġtourbus": 4790,
  "Ġyummy": 4791,
  "Ġhides": 4792,
  "11": 4793,
  "Ġnewborn": 4794,
  "Eggs": 4795,
  "MO": 4796,
  "Ġexploring": 4797,
  "Ġdvds": 4798,
  "Ġhandrail": 4799,
  "Cake": 4800,
  "Ġairstrip": 4801,
  "Ġconnect": 4802,
  "Ġheadphone": 4803,
  "Ġcolum": 4804,
  "fry": 4805,
  "ĠBOTT": 4806,
  "Ġpaintbrush": 4807,
  "Ġstroll": 4808,
  "Ġaddress": 4809,
  "IL": 4810,
  "Ġlovingly": 4811,
  "iosk": 4812,
  "Ġkiosk": 4813,
  "Ġlieing": 4814,
  "Ġchatting": 4815,
  "Extremely": 4816,
  "Ġsaucepan": 4817,
  "ĠWINDOW": 4818,
  "Obama": 4819,
  "ĠPRE": 4820,
  "ISS": 4821,
  "Ġkickflip": 4822,
  "Separate": 4823,
  "Suit": 4824,
  "Suitcases": 4825,
  "Ġviny": 4826,
  "Ġvinyl": 4827,
  "Ġcramped": 4828,
  "ĠLYING": 4829,
  "ously": 4830,
  "Ġcontemporary": 4831,
  "Ġruins": 4832,
  "Ġballplayer": 4833,
  "Ġcontrast": 4834,
  "Ġamenities": 4835,
  "Ġsquir": 4836,
  "Ġsquirrel": 4837,
  "Urinals": 4838,
  "Ġlavatory": 4839,
  "Full": 4840,
  "Ġscrambled": 4841,
  "FFEREN": 4842,
  "ĠDIFFEREN": 4843,
  "ĠDIFFERENT": 4844,
  "Racers": 4845,
  "Ġcanvas": 4846,
  "009": 4847,
  "ĠWHILE": 4848,
  "ĠSOMEONE": 4849,
  "ĠHANDS": 4850,
  "UY": 4851,
  "GUY": 4852,
  "NER": 4853,
  "ĠBUSY": 4854,
  "ĠRESTA": 4855,
  "ĠRESTAURAN": 4856,
  "ĠRESTAURANT": 4857,
  "Ġedible": 4858,
  "Ġadjusts": 4859,
  "Ġbrownie": 4860,
  "Ġvast": 4861,
  "Ġhoof": 4862,
  "cies": 4863,
  "Ġcreek": 4864,
  "Ġsoaking": 4865,
  "Ġwildflowers": 4866,
  "Dude": 4867,
  "Ġcampground": 4868,
  "ĠKEY": 4869,
  "ĠKEYBOARD": 4870,
  "Cross": 4871,
  "Ġexcitement": 4872,
  "Jet": 4873,
  "Pitcher": 4874,
  "Ġgay": 4875,
  "ĠSouth": 4876,
  "Ġdivider": 4877,
  "Ġfoodstuff": 4878,
  "Ġfoodstuffs": 4879,
  "Ġpretzel": 4880,
  "Square": 4881,
  "Ġpicturesque": 4882,
  "Ġtemporary": 4883,
  "Ġtrinkets": 4884,
  "ĠLabrador": 4885,
  "Ġgifts": 4886,
  "Ġgalore": 4887,
  "Ġimposing": 4888,
  "Ex": 4889,
  "break": 4890,
  "mock": 4891,
  "Ġhammock": 4892,
  "ĠWilliams": 4893,
  "hold": 4894,
  "Ġhousehold": 4895,
  "Ġrandomly": 4896,
  "Ġsubm": 4897,
  "Ġsubmarine": 4898,
  "ĠKorean": 4899,
  "Ġbatman": 4900,
  "Ġpeal": 4901,
  "boys": 4902,
  "Ġtwig": 4903,
  "Ġfootp": 4904,
  "Ġplease": 4905,
  "Ġalmond": 4906,
  "Ġdaffodils": 4907,
  "Ġcrashed": 4908,
  "Ġbobble": 4909,
  "ĠRestaurant": 4910,
  "Dishes": 4911,
  "Ġzomb": 4912,
  "ĠSo": 4913,
  "ĠSox": 4914,
  "pa": 4915,
  "Ġquiche": 4916,
  "Ġcoastline": 4917,
  "Ġwhip": 4918,
  "Pastry": 4919,
  "ĠTex": 4920,
  "Ġfetch": 4921,
  "Ġvat": 4922,
  "val": 4923,
  "ĠYan": 4924,
  "ĠYankees": 4925,
  "ĠAPPLES": 4926,
  "Ġzip": 4927,
  "Ġsumo": 4928,
  "ober": 4929,
  "ĠRober": 4930,
  "icinity": 4931,
  "Ġvicinity": 4932,
  "drawn": 4933,
  "ĠFre": 4934,
  "ĠFreight": 4935,
  "Ġcommun": 4936,
  "Ġcommunity": 4937,
  "Ġattempt": 4938,
  "Shoes": 4939,
  "15": 4940,
  "Mounted": 4941,
  "ARTMENT": 4942,
  "Ġalligator": 4943,
  "Ġunattached": 4944,
  "Ġspindle": 4945,
  "sail": 4946,
  "Ġunconsc": 4947,
  "Ġunconscious": 4948,
  "Ġassembles": 4949,
  "Ġdisorganized": 4950,
  "Ġpowerful": 4951,
  "Ġpatiently": 4952,
  "ĠSam": 4953,
  "po": 4954,
  "point": 4955,
  "Ġbadge": 4956,
  "ĠPHONE": 4957,
  "ĠDONUTS": 4958,
  "ican": 4959,
  "xican": 4960,
  "wiss": 4961,
  "ĠSwiss": 4962,
  "Ġmayo": 4963,
  "ĠTP": 4964,
  "Ġcorridor": 4965,
  "nt": 4966,
  "Slices": 4967,
  "ĠFerris": 4968,
  "Ġsleigh": 4969,
  "RAZ": 4970,
  "RAZING": 4971,
  "ĠGRAZING": 4972,
  "Ġgnarly": 4973,
  "dion": 4974,
  "Ġaccordion": 4975,
  "Ġcozy": 4976,
  "Ġmovig": 4977,
  "Subway": 4978,
  "Ġdrizzle": 4979,
  "Ġcarefully": 4980,
  "ĠPAN": 4981,
  "Individ": 4982,
  "Individuals": 4983,
  "Ġavocado": 4984,
  "Ġscrew": 4985,
  "Ġaccompan": 4986,
  "Ġaccompanied": 4987,
  "Ġcoupe": 4988,
  "Desk": 4989,
  "Ġleast": 4990,
  "Ġplugged": 4991,
  "Ġpoorly": 4992,
  "Ġoverloaded": 4993,
  "Ġheaddress": 4994,
  "Ġturbop": 4995,
  "Ġturboprop": 4996,
  "Mom": 4997,
  "Ġstraddling": 4998,
  "Ġshawl": 4999,
  "Ġgripping": 5000,
  "dic": 5001,
  "ĠFRUITS": 5002,
  "Ġrazor": 5003,
  "Raw": 5004,
  "haki": 5005,
  "Ġkhaki": 5006,
  "Riding": 5007,
  "Ġcherries": 5008,
  "Co": 5009,
  "ĠGIRAFF": 5010,
  "ĠOB": 5011,
  "Ġcram": 5012,
  "Ġcrammed": 5013,
  "Mac": 5014,
  "Ġiwth": 5015,
  "Ġconditioner": 5016,
  "Unique": 5017,
  "Ġeachother": 5018,
  "Ġgirlfriend": 5019,
  "Ġmoobs": 5020,
  "Ġmunic": 5021,
  "Ġmunicipal": 5022,
  "EAN": 5023,
  "ĠJEAN": 5024,
  "ĠSKATEBOARD": 5025,
  "Ġbabies": 5026,
  "ĠGate": 5027,
  "Ġunderpass": 5028,
  "Ġflashlight": 5029,
  "Ġgutter": 5030,
  "ĠSINKS": 5031,
  "Ġdirects": 5032,
  "Ġteddybear": 5033,
  "irror": 5034,
  "Ġestablishment": 5035,
  "Ġeccent": 5036,
  "Ġeccentric": 5037,
  "Ġgadgets": 5038,
  "Ġnerd": 5039,
  "Ġcann": 5040,
  "Ġcannot": 5041,
  "Ġalpaca": 5042,
  "Ġgestures": 5043,
  "Ġofa": 5044,
  "Grapes": 5045,
  "Ġkiw": 5046,
  "Ġkiwi": 5047,
  "ĠMustang": 5048,
  "Ġwiping": 5049,
  "Ġwhisk": 5050,
  "Ġamazing": 5051,
  "ĠParis": 5052,
  "Front": 5053,
  "Ġenthusiastically": 5054,
  "DS": 5055,
  "Ġlightning": 5056,
  "Fuzzy": 5057,
  "Ġmailboxes": 5058,
  "Ġgazing": 5059,
  "ye": 5060,
  "Ġterrier": 5061,
  "Ġdrag": 5062,
  "Ġweaving": 5063,
  "Ġsunhat": 5064,
  "vice": 5065,
  "pherd": 5066,
  "Ġshepherd": 5067,
  "Ġfootlong": 5068,
  "Ġtechnique": 5069,
  "Ġenorm": 5070,
  "Ġenormous": 5071,
  "Ġboxed": 5072,
  "Ġkilt": 5073,
  "through": 5074,
  "Ġank": 5075,
  "Ġcardinal": 5076,
  "Ġflutes": 5077,
  "baseball": 5078,
  "irthday": 5079,
  "Oddly": 5080,
  "atched": 5081,
  "Ġbuckle": 5082,
  "Ġbooze": 5083,
  "nut": 5084,
  "Ġtoiler": 5085,
  "Toothbrush": 5086,
  "Ġpoll": 5087,
  "Ġplanner": 5088,
  "Bunch": 5089,
  "Ġadjust": 5090,
  "Ġinterf": 5091,
  "IOUS": 5092,
  "ĠKEPT": 5093,
  "Ġlaundry": 5094,
  "Ġgoers": 5095,
  "Ġpaperback": 5096,
  "manned": 5097,
  "Ġunmanned": 5098,
  "Ġspirit": 5099,
  "Ġloft": 5100,
  "Ġracetrack": 5101,
  "Ġplethora": 5102,
  "Ġviews": 5103,
  "Ġchoices": 5104,
  "AA": 5105,
  "IING": 5106,
  "ĠSKIING": 5107,
  "ĠSO": 5108,
  "0s": 5109,
  "pitcher": 5110,
  "Ġvisit": 5111,
  "odiac": 5112,
  "Ġgaurs": 5113,
  "Ġwalkie": 5114,
  "After": 5115,
  "Ġcorral": 5116,
  "Ġminor": 5117,
  "Ġslatted": 5118,
  "motor": 5119,
  "Ġstandup": 5120,
  "ma": 5121,
  "Ġassembly": 5122,
  "Ġoar": 5123,
  "Ġprevent": 5124,
  "ĠStarbucks": 5125,
  "BRAS": 5126,
  "ĠLy": 5127,
  "Ġbacksplash": 5128,
  "Ġgift": 5129,
  "ĠVEGETABLE": 5130,
  "eating": 5131,
  "Ġwhit": 5132,
  "sk": 5133,
  "Ġturb": 5134,
  "Ġdeflated": 5135,
  "nival": 5136,
  "Ġcarnival": 5137,
  "Row": 5138,
  "Ġbutcher": 5139,
  "size": 5140,
  "uzzi": 5141,
  "acuzzi": 5142,
  "Ġenjoys": 5143,
  "Ġspeck": 5144,
  "Each": 5145,
  "Ġmonorail": 5146,
  "ĠCARS": 5147,
  "Ġshouldn": 5148,
  "Ġtrekking": 5149,
  "Ġarmchair": 5150,
  "Ġmodif": 5151,
  "Ġmodified": 5152,
  "ĠTOGETHER": 5153,
  "Ġsunning": 5154,
  "Ġaccept": 5155,
  "Ġconcerned": 5156,
  "AP": 5157,
  "ĠPAP": 5158,
  "ĠPAPER": 5159,
  "laza": 5160,
  "ĠPlaza": 5161,
  "Ġshredded": 5162,
  "Ġbutterfly": 5163,
  "Piles": 5164,
  "Ġorgan": 5165,
  "dressed": 5166,
  "Ġscantily": 5167,
  "desdale": 5168,
  "ĠClydesdale": 5169,
  "Ġdemon": 5170,
  "ĠPOOL": 5171,
  "50": 5172,
  "Ġsandbox": 5173,
  "Ġdisgu": 5174,
  "Ġdisguised": 5175,
  "Ġplug": 5176,
  "Miniature": 5177,
  "Ġbirdc": 5178,
  "Ġbirdcage": 5179,
  "Ġdisrepair": 5180,
  "ĠMickey": 5181,
  "Ġhumongous": 5182,
  "TT": 5183,
  "Ġegret": 5184,
  "Thomas": 5185,
  "Ġwelcoming": 5186,
  "looking": 5187,
  "ĠHollywood": 5188,
  "Heavy": 5189,
  "Artwork": 5190,
  "nie": 5191,
  "innie": 5192,
  "ĠWinnie": 5193,
  "Ġlunchbox": 5194,
  "Ġstrike": 5195,
  "Ġadvent": 5196,
  "Ġcollapsed": 5197,
  "ĠFRIS": 5198,
  "ĠFRISB": 5199,
  "ĠFRISBEE": 5200,
  "Baked": 5201,
  "ĠDivision": 5202,
  "Father": 5203,
  "Ġhydrogen": 5204,
  "agna": 5205,
  "Ġlasagna": 5206,
  "ĠYARD": 5207,
  "Ġhazard": 5208,
  "forward": 5209,
  "Ġlux": 5210,
  "Ġluxurious": 5211,
  "Shot": 5212,
  "Ġautumn": 5213,
  "Glasses": 5214,
  "Beach": 5215,
  "ICLES": 5216,
  "ĠVEH": 5217,
  "ĠVEHICLES": 5218,
  "Ġcomfy": 5219,
  "Ġrelaxed": 5220,
  "Ġmosa": 5221,
  "Ġmosaic": 5222,
  "Ġsamsung": 5223,
  "Ġfamilies": 5224,
  "ighs": 5225,
  "Ġthighs": 5226,
  "Ġexplorer": 5227,
  "ĠKing": 5228,
  "ĠAirways": 5229,
  "Ġreact": 5230,
  "ricade": 5231,
  "Ġbarricade": 5232,
  "Ġaggress": 5233,
  "Ġaggressively": 5234,
  "amous": 5235,
  "Ġinfamous": 5236,
  "ĠLIVING": 5237,
  "Ġcruising": 5238,
  "Ornate": 5239,
  "ĠBOWL": 5240,
  "hol": 5241,
  "Ġjoined": 5242,
  "ROWN": 5243,
  "ĠBROWN": 5244,
  "Ġducklings": 5245,
  "Ġmisty": 5246,
  "Ġtemperature": 5247,
  "Ġhike": 5248,
  "Ġmonochrome": 5249,
  "Ġfavorite": 5250,
  "Ġanything": 5251,
  "ĠGLAS": 5252,
  "YD": 5253,
  "YDRAN": 5254,
  "ĠHYDRAN": 5255,
  "ĠHYDRANT": 5256,
  "Ġbullpen": 5257,
  "goers": 5258,
  "Ġpenguins": 5259,
  "ĠHIGH": 5260,
  "Grilled": 5261,
  "Ġstraws": 5262,
  "Ġwhle": 5263,
  "Ġinternational": 5264,
  "ĠDecker": 5265,
  "Ġstoic": 5266,
  "ĠPARK": 5267,
  "usic": 5268,
  "Ġphotoshopped": 5269,
  "ORM": 5270,
  "FORM": 5271,
  "ĠPERFORM": 5272,
  "Ġmember": 5273,
  "ĠZE": 5274,
  "UFF": 5275,
  "ĠSTUFF": 5276,
  "Ġbej": 5277,
  "Ġbejeweled": 5278,
  "ĠArizona": 5279,
  "Ġemerging": 5280,
  "Ġcorpse": 5281,
  "ĠCOUP": 5282,
  "ĠCOUPLE": 5283,
  "ĠBAG": 5284,
  "Ġknights": 5285,
  "Ġmelting": 5286,
  "Ġauditorium": 5287,
  "Ġwrought": 5288,
  "oe": 5289,
  "ĠJoe": 5290,
  "Side": 5291,
  "Ġspeedboat": 5292,
  "Ġsmoky": 5293,
  "Ġsummit": 5294,
  "ĠAIRP": 5295,
  "Ġ63": 5296,
  "Ġ630": 5297,
  "Ġcandies": 5298,
  "Ġvineyard": 5299,
  "Ġextremely": 5300,
  "sandw": 5301,
  "ĠUSA": 5302,
  "Ġplacid": 5303,
  "Ġtheater": 5304,
  "LARGE": 5305,
  "CLO": 5306,
  "Ġferris": 5307,
  "hydrant": 5308,
  "Ġskinned": 5309,
  "Ġ34": 5310,
  "Ġ34th": 5311,
  "ĠMercedes": 5312,
  "Altered": 5313,
  "Ġterritory": 5314,
  "Ġparsley": 5315,
  "ĠIndia": 5316,
  "Ġenglish": 5317,
  "Ġsunflower": 5318,
  "Ġpetted": 5319,
  "anner": 5320,
  "Ġscanner": 5321,
  "Ġhitch": 5322,
  "Ġhitchh": 5323,
  "ĠLin": 5324,
  "ĠLincoln": 5325,
  "Ġeveryone": 5326,
  "UGHING": 5327,
  "ĠLAUGHING": 5328,
  "kia": 5329,
  "ĠNokia": 5330,
  "ĠMOTORCYCLE": 5331,
  "Dark": 5332,
  "Ġcottage": 5333,
  "Ġawaits": 5334,
  "quoise": 5335,
  "Ġturquoise": 5336,
  "Ġenough": 5337,
  "Ġpeeks": 5338,
  "ĠMad": 5339,
  "Ġponytail": 5340,
  "ĠSMALL": 5341,
  "Ġoverturned": 5342,
  "Ġtechnology": 5343,
  "Ġciti": 5344,
  "Ġoffspring": 5345,
  "ĠDEL": 5346,
  "ĠMouse": 5347,
  "Ġcroissant": 5348,
  "Ġhomescreen": 5349,
  "Ġmanuals": 5350,
  "Playing": 5351,
  "Ġdifficult": 5352,
  "Ġdistinctive": 5353,
  "Ġsprout": 5354,
  "Ġfloodwater": 5355,
  "Ġsalutes": 5356,
  "Harry": 5357,
  "ĠBarron": 5358,
  "ĠDINING": 5359,
  "ĠAREA": 5360,
  "Appliance": 5361,
  "arehouse": 5362,
  "ĠWarehouse": 5363,
  "Ġsreen": 5364,
  "Ġwalgreens": 5365,
  "Ġexpress": 5366,
  "Ġexpressway": 5367,
  "Ġunboard": 5368,
  "Ġnotifying": 5369,
  "ĠToky": 5370,
  "ĠTokyo": 5371,
  "Ġreflects": 5372,
  "ĠArmy": 5373,
  "Ġsimulating": 5374,
  "ĠWonderland": 5375,
  "ĠAlgerie": 5376,
  "Ġhandlebar": 5377,
  "Ġeffic": 5378,
  "Ġefficien": 5379,
  "Ġefficiency": 5380,
  "ĠLEFT": 5381,
  "HIND": 5382,
  "ĠBEHIND": 5383,
  "Ġmules": 5384,
  "OLD": 5385,
  "ĠRUSTED": 5386,
  "ĠBOXC": 5387,
  "ĠBOXCARS": 5388,
  "ĠSET": 5389,
  "ĠTRACKS": 5390,
  "Ġpuff": 5391,
  "Ġjoints": 5392,
  "ĠMini": 5393,
  "Short": 5394,
  "Ġcreates": 5395,
  "pancake": 5396,
  "Ġassaulted": 5397,
  "Ġtenns": 5398,
  "Ġtennsi": 5399,
  "Ġpheas": 5400,
  "Ġpheasants": 5401,
  "ni": 5402,
  "Ġsoetihni": 5403,
  "Ġsomeon": 5404,
  "Ġproduct": 5405,
  "Ġrepresentative": 5406,
  "group": 5407,
  "Ġmingling": 5408,
  "Skis": 5409,
  "Snowy": 5410,
  "Ġsecure": 5411,
  "Ġdarkness": 5412,
  "Ġdiagonally": 5413,
  "Ġgirraf": 5414,
  "Ġcyber": 5415,
  "Canning": 5416,
  "Ġfrig": 5417,
  "Ġfrigid": 5418,
  "Ġicebergs": 5419,
  "Ġpics": 5420,
  "coal": 5421,
  "Ġcharcoal": 5422,
  "fifteen": 5423,
  "Ġbustling": 5424,
  "Ġkitboarding": 5425,
  "utto": 5426,
  "iutto": 5427,
  "Ġprosciutto": 5428,
  "Inviting": 5429,
  "Truck": 5430,
  "Ġpeeping": 5431,
  "Ġgallop": 5432,
  "ĠDarth": 5433,
  "Ġscratch": 5434,
  "Workers": 5435,
  "fant": 5436,
  "Ġelefant": 5437,
  "Ġbologna": 5438,
  "Ġsettled": 5439,
  "ilohet": 5440,
  "ilohette": 5441,
  "silohette": 5442,
  "Chives": 5443,
  "Ġollie": 5444,
  "mountain": 5445,
  "ĠSnowmountain": 5446,
  "ppelin": 5447,
  "Ġzeppelin": 5448,
  "ĠMetropolitan": 5449,
  "ĠSy": 5450,
  "ĠSystem": 5451,
  "ERS": 5452,
  "ĠFLOWERS": 5453,
  "Ġredroom": 5454,
  "alea": 5455,
  "Ġazalea": 5456,
  "Mouse": 5457,
  "Ġdubiously": 5458,
  "Ġconcept": 5459,
  "BRIGHT": 5460,
  "ĠCHAIRS": 5461,
  "urdy": 5462,
  "Ġsturdy": 5463,
  "ĠCadogan": 5464,
  "Ġrapid": 5465,
  "Ġunfrosted": 5466,
  "iko": 5467,
  "ĠSeiko": 5468,
  "Ġtechnicians": 5469,
  "Firetruck": 5470,
  "Stormt": 5471,
  "Stormtrooper": 5472,
  "Ġinvolved": 5473,
  "Nan": 5474,
  "Ġdarkly": 5475,
  "ĠTwilight": 5476,
  "ĠEclipse": 5477,
  "Ġsalsa": 5478,
  "Ne": 5479,
  "Neat": 5480,
  "Neatly": 5481,
  "Ġsegway": 5482,
  "Ġfootrest": 5483,
  "Ġcamof": 5484,
  "Ġcamoflague": 5485,
  "Ġfrotn": 5486,
  "Ġembrace": 5487,
  "ĠTrinity": 5488,
  "Ġ4th": 5489,
  "ĠDodge": 5490,
  "Ġenthusiasts": 5491,
  "ĠAway": 5492,
  "Ġ4pm": 5493,
  "Ġ6pm": 5494,
  "Ġ2am": 5495,
  "Ġ6am": 5496,
  "Bart": 5497,
  "ĠBa": 5498,
  "congratulations": 5499,
  "Ġluke": 5500,
  "Ġarrival": 5501,
  "Grown": 5502,
  "thank": 5503,
  "mies": 5504,
  "Ġdummies": 5505,
  "Model": 5506,
  "Ġabstract": 5507,
  "Sunb": 5508,
  "Sunbathers": 5509,
  "Ġbrethren": 5510,
  "Burnt": 5511,
  "ĠCONTRAP": 5512,
  "TION": 5513,
  "ĠCONTRAPTION": 5514,
  "ĠBICYCLE": 5515,
  "Ġaqua": 5516,
  "Ġrucksack": 5517,
  "isy": 5518,
  "Ġdaisy": 5519,
  "ĠMor": 5520,
  "ĠMorgan": 5521,
  "ĠELECTR": 5522,
  "ĠELECTRIC": 5523,
  "ĠCOMPARTMENTS": 5524,
  "ĠHILLS": 5525,
  "'S": 5526,
  "ĠWhat": 5527,
  "ĠDid": 5528,
  "ĠWrong": 5529,
  "?'.": 5530,
  "ĠANIMALS": 5531,
  "ĠGRASSING": 5532,
  "Calm": 5533,
  "Ġberth": 5534,
  "Ġferrets": 5535,
  "Ġenjoyable": 5536,
  "TENNIS": 5537,
  "ĠSHOW": 5538,
  "ĠSHOWING": 5539,
  "ĠRACKET": 5540,
  "mounted": 5541,
  "Ġsurmounted": 5542,
  "Ġminarets": 5543,
  "ĠSecond": 5544,
  "ilm": 5545,
  "ĠFilm": 5546,
  "Ġdetermined": 5547,
  "ĠCanadien": 5548,
  "ĠNike": 5549,
  "Ġmummy": 5550,
  "ARTOON": 5551,
  "CARTOON": 5552,
  "ĠDEPICTION": 5553,
  "ĠGOING": 5554,
  "Ġweaved": 5555,
  "When": 5556,
  "Ġsecluded": 5557,
  "Ġfarmhouse": 5558,
  "Ġketsup": 5559,
  "Ġtownhouses": 5560,
  "Ġmakeover": 5561,
  "Mountain": 5562,
  "racately": 5563,
  "Ġintracately": 5564,
  "Ġtrumpet": 5565,
  "Camera": 5566,
  "Ġhandheld": 5567,
  "ĠShuttle": 5568,
  "gree": 5569,
  "Ġdegree": 5570,
  "Ġability": 5571,
  "Ġreceipt": 5572,
  "Ġmurdered": 5573,
  "Cree": 5574,
  "Creepy": 5575,
  "Ġafixed": 5576,
  "Ġspoil": 5577,
  "Ġgap": 5578,
  "Head": 5579,
  "Ġtakeoff": 5580,
  "ĠMa": 5581,
  "ĠPa": 5582,
  "Ġunderhand": 5583,
  "Ġsprigs": 5584,
  "Ġratchet": 5585,
  "ĠBike": 5586,
  "ietnamese": 5587,
  "ĠVietnamese": 5588,
  "Ġhersl": 5589,
  "Ġherslf": 5590,
  "Students": 5591,
  "reative": 5592,
  "Creative": 5593,
  "reached": 5594,
  "Ġoutreached": 5595,
  "Thin": 5596,
  "striped": 5597,
  "Ġ7th": 5598,
  "Ġdwarfed": 5599,
  "Ġorb": 5600,
  "Earthen": 5601,
  "Ġchives": 5602,
  "Ġtaupe": 5603,
  "Ġduvet": 5604,
  "Ġlatching": 5605,
  "surfers": 5606,
  "Ġcheesin": 5607,
  "Ġgrabbed": 5608,
  "sbee": 5609,
  "Ġfirsbee": 5610,
  "ĠBIKES": 5611,
  "ĠPUS": 5612,
  "ĠPUSHING": 5613,
  "Ġguess": 5614,
  "Ġmine": 5615,
  "BNSF": 5616,
  "Ġplump": 5617,
  "ĠBroad": 5618,
  "ĠBroadway": 5619,
  "Ġ32nd": 5620,
  "ĠKore": 5621,
  "ĠKorea": 5622,
  "Ġvaried": 5623,
  "Ġalternative": 5624,
  "ĠSL": 5625,
  "ĠSLR": 5626,
  "Ġcoord": 5627,
  "Ġcoordinate": 5628,
  "Ġrabies": 5629,
  "Ġtob": 5630,
  "Ġtobacco": 5631,
  "Ġhide": 5632,
  "Ġwreckage": 5633,
  "Ġcrash": 5634,
  "Ġexploded": 5635,
  "Ġwaterslide": 5636,
  "Ġwaterpark": 5637,
  "Ġwatchin": 5638,
  "flaming": 5639,
  "Ġposture": 5640,
  "Firefighters": 5641,
  "sle": 5642,
  "Ġtussle": 5643,
  "ĠHUGE": 5644,
  "ĠSHIP": 5645,
  "Ġtasteful": 5646,
  "Julien": 5647,
  "Julienned": 5648,
  "Ġsepia": 5649,
  "Ġoccupy": 5650,
  "Ġmarley": 5651,
  "ĠCollege": 5652,
  "Ġsmokecloud": 5653,
  "Lower": 5654,
  "HILL": 5655,
  "ĠDOWNHILL": 5656,
  "ĠSHRED": 5657,
  "DING": 5658,
  "ĠSHREDDING": 5659,
  "Ġtriangle": 5660,
  "ASEBALL": 5661,
  "BASEBALL": 5662,
  "ĠDIAMOND": 5663,
  "ĠPIT": 5664,
  "ĠPITCHER": 5665,
  "ĠREADY": 5666,
  "Those": 5667,
  "Basketball": 5668,
  "Ivy": 5669,
  "Hang": 5670,
  "Ġhin": 5671,
  "ĠHITTING": 5672,
  "Ġwarrior": 5673,
  "ippi": 5674,
  "ississ": 5675,
  "Mississ": 5676,
  "Mississippi": 5677,
  "ĠCLEAN": 5678,
  "ĠMIR": 5679,
  "ĠMIRROR": 5680,
  "Cooking": 5681,
  "ĠRights": 5682,
  "Fore": 5683,
  "Foreign": 5684,
  "ĠNUT": 5685,
  "ĠAPPLE": 5686,
  "Washed": 5687,
  "Ġusually": 5688,
  "Hey": 5689,
  "ĠOx": 5690,
  "ja": 5691,
  "inja": 5692,
  "ĠNinja": 5693,
  "ĠTurtle": 5694,
  "alkway": 5695,
  "Walkway": 5696,
  "Ġdreary": 5697,
  "Christmas": 5698,
  "Ġhorror": 5699,
  "Indian": 5700,
  "Ġsatchel": 5701,
  "Ġconsulting": 5702,
  "Dinner": 5703,
  "Ġax": 5704,
  "Ġ600": 5705,
  "ĠNewport": 5706,
  "Ġruffled": 5707,
  "Ġdiffrent": 5708,
  "ĠCROWS": 5709,
  "ĠHUN": 5710,
  "ĠHUNTING": 5711,
  "ĠBRANCHES": 5712,
  "Ġparkland": 5713,
  "ĠCaucasian": 5714,
  "Ġvapor": 5715,
  "Ġregard": 5716,
  "brick": 5717,
  "Ġyack": 5718,
  "Ġinl": 5719,
  "Ġinluding": 5720,
  "ĠHAPPY": 5721,
  "Ġssigns": 5722,
  "Putting": 5723,
  "tainly": 5724,
  "Ġcertainly": 5725,
  "Ġappropriate": 5726,
  "Ġplayign": 5727,
  "ĠControllers": 5728,
  "ĠBIRTHD": 5729,
  "ĠBIRTHDAY": 5730,
  "ĠCU": 5731,
  "ĠCUP": 5732,
  "ĠCUPCAKE": 5733,
  "ĠBLOW": 5734,
  "ĠBLOWING": 5735,
  "ANDLES": 5736,
  "ĠCANDLES": 5737,
  "alext": 5738,
  "Scalext": 5739,
  "Scalextric": 5740,
  "Ġwieners": 5741,
  "direct": 5742,
  "ĠTuxedo": 5743,
  "Ġplume": 5744,
  "Ġscraping": 5745,
  "zebras": 5746,
  "Ġtelegraph": 5747,
  "Ġswiiming": 5748,
  "Digital": 5749,
  "Subaru": 5750,
  "Ġhefty": 5751,
  "Ġpu": 5752,
  "Ġpuking": 5753,
  "Ġeiffel": 5754,
  "ĠBuddy": 5755,
  "ĠCrickets": 5756,
  "Lap": 5757,
  "ĠKitty": 5758,
  "Ġstructuring": 5759,
  "Ġskillfully": 5760,
  "Ġglimmering": 5761,
  "Ġcasino": 5762,
  "Ġincense": 5763,
  "ĠJack": 5764,
  "ĠKerou": 5765,
  "ĠKerouac": 5766,
  "Ġ41": 5767,
  "ĠMt": 5768,
  "ĠWalton": 5769,
  "Dale": 5770,
  "Policemen": 5771,
  "Ġdumpling": 5772,
  "Ġwrong": 5773,
  "baby": 5774,
  "Ġexternal": 5775,
  "ĠPedestrian": 5776,
  "ĠZone": 5777,
  "Ġpinup": 5778,
  "Ġsnowbank": 5779,
  "Slice": 5780,
  "Bullet": 5781,
  "Ġbalconies": 5782,
  "Ġgoodies": 5783,
  "Only": 5784,
  "Ġkitchenette": 5785,
  "Ġnibbling": 5786,
  "Ġfitted": 5787,
  "ĠTUB": 5788,
  "Ġroyal": 5789,
  "ĠOJ": 5790,
  "Ġoverly": 5791,
  "Sim": 5792,
  "Simple": 5793,
  "Ġmakeshift": 5794,
  "ĠSTAR": 5795,
  "ĠSTARING": 5796,
  "Duke": 5797,
  "inb": 5798,
  "urg": 5799,
  "urgh": 5800,
  "ĠEd": 5801,
  "ĠEdinb": 5802,
  "ĠEdinburgh": 5803,
  "ĠRue": 5804,
  "Ġcud": 5805,
  "amily": 5806,
  "Family": 5807,
  "hamburger": 5808,
  "NASA": 5809,
  "Ġwrittien": 5810,
  "Ġpharmacy": 5811,
  "Ġfloodway": 5812,
  "Ġpopular": 5813,
  "ĠChev": 5814,
  "ĠChevrolet": 5815,
  "Ġinhales": 5816,
  "ĠHALF": 5817,
  "FFEE": 5818,
  "ĠCOFFEE": 5819,
  "ĠDISHES": 5820,
  "Ġcider": 5821,
  "Ġvain": 5822,
  "Floral": 5823,
  "fly": 5824,
  "ĠJetairfly": 5825,
  "ĠPokka": 5826,
  "Ġcricket": 5827,
  "urred": 5828,
  "Blurred": 5829,
  "Lamb": 5830,
  "Glass": 5831,
  "Ġscrunched": 5832,
  "ĠAer": 5833,
  "Ġclutching": 5834,
  "Waterway": 5835,
  "Ġhydrand": 5836,
  "Ray": 5837,
  "avern": 5838,
  "ĠTavern": 5839,
  "Ġpodge": 5840,
  "Newlon": 5841,
  "ĠHale": 5842,
  "ĠVillage": 5843,
  "Ġconsult": 5844,
  "ĠPelleg": 5845,
  "ĠPellegrino": 5846,
  "Ġvessels": 5847,
  "iln": 5848,
  "Ġkiln": 5849,
  "Ġroofed": 5850,
  "Ġvivid": 5851,
  "Ġassisting": 5852,
  "ulptures": 5853,
  "Sculptures": 5854,
  "Ġscicors": 5855,
  "Ġdevoid": 5856,
  "ĠManuel": 5857,
  "ĠIdal": 5858,
  "ĠIdalgo": 5859,
  "Ġbarbecue": 5860,
  "ĠEating": 5861,
  "Ġperhaps": 5862,
  "Ġrooom": 5863,
  "Pelicans": 5864,
  "cats": 5865,
  "Ġeps": 5866,
  "Outdoors": 5867,
  "Ġcookbook": 5868,
  "Ġhomemeade": 5869,
  "Arrows": 5870,
  "Ġdartboard": 5871,
  "Bro": 5872,
  "Broken": 5873,
  "Ġarc": 5874,
  "iami": 5875,
  "ĠMiami": 5876,
  "Ġracquetball": 5877,
  "Ġhyrdrant": 5878,
  "Ġdiscussion": 5879,
  "Meatball": 5880,
  "Na": 5881,
  "Naan": 5882,
  "ufflinks": 5883,
  "Ġcufflinks": 5884,
  "Ġmighty": 5885,
  "idwalk": 5886,
  "Ġsidwalk": 5887,
  "SIX": 5888,
  "IVE": 5889,
  "ĠFIVE": 5890,
  "ĠTHEM": 5891,
  "Ġsoars": 5892,
  "Ġvictory": 5893,
  "ustralia": 5894,
  "ĠAustralia": 5895,
  "Ġeave": 5896,
  "Ġbarley": 5897,
  "Aven": 5898,
  "Avengers": 5899,
  "ĠJet2": 5900,
  "Ġtugboat": 5901,
  "Ġpraying": 5902,
  "Slater": 5903,
  "Ġsource": 5904,
  "London": 5905,
  "Ġoffense": 5906,
  "Ġglassware": 5907,
  "Ġpensive": 5908,
  "Ġchilli": 5909,
  "Floor": 5910,
  "Crust": 5911,
  "cd": 5912,
  "Ġlcd": 5913,
  "Pug": 5914,
  "Ġsiding": 5915,
  "Ġhilltop": 5916,
  "Ġunbrellas": 5917,
  "ĠLou": 5918,
  "ĠLouis": 5919,
  "ĠLouisville": 5920,
  "ĠSl": 5921,
  "ĠSlugger": 5922,
  "ĠKY": 5923,
  "ĠFlorida": 5924,
  "Ġ35": 5925,
  "cept": 5926,
  "Ġintercept": 5927,
  "Ġpry": 5928,
  "Ġgoggle": 5929,
  "Ġdisclaimer": 5930,
  "Ġconvor": 5931,
  "Ġconvorbel": 5932,
  "Ġconvorbelt": 5933,
  "Ġwindblown": 5934,
  "Ġstirrer": 5935,
  "rank": 5936,
  "Ġdrank": 5937,
  "Ġrenaiss": 5938,
  "Ġrenaissance": 5939,
  "Ġmannequins": 5940,
  "Why": 5941,
  "Ġanyone": 5942,
  "upied": 5943,
  "Ġoccupied": 5944,
  "Ġcrock": 5945,
  "Munching": 5946,
  "Ġconsumed": 5947,
  "Anolder": 5948,
  "ĠUPS": 5949,
  "SA": 5950,
  "ĠCSA": 5951,
  "Skillet": 5952,
  "amaha": 5953,
  "ĠYamaha": 5954,
  "Ġnobles": 5955,
  "Ġdemonstrating": 5956,
  "Ġigrinding": 5957,
  "Ġcanadien": 5958,
  "Ġweighing": 5959,
  "Ġcreated": 5960,
  "Ġdrown": 5961,
  "Ġdives": 5962,
  "cme": 5963,
  "ĠAcme": 5964,
  "Ġalertly": 5965,
  "ĠBread": 5966,
  "ĠOVER": 5967,
  "ĠFENCE": 5968,
  "pe": 5969,
  "peckers": 5970,
  "Woodpeckers": 5971,
  "Ġlargge": 5972,
  "Ġsnowshoes": 5973,
  "Ġclimb": 5974,
  "Ġscarve": 5975,
  "Ġprayer": 5976,
  "Ġvictim": 5977,
  "ovable": 5978,
  "Ġremovable": 5979,
  "Unp": 5980,
  "Unpl": 5981,
  "Unplugged": 5982,
  "grain": 5983,
  "Ġcocoa": 5984,
  "Ġcrim": 5985,
  "Ġcrimped": 5986,
  "Ġwaxed": 5987,
  "Ġcouole": 5988,
  "Ġpebbles": 5989,
  "Ġinterlocked": 5990,
  "Cooked": 5991,
  "Sesame": 5992,
  "ilantro": 5993,
  "Ġcilantro": 5994,
  "Sugar": 5995,
  "ĠRain": 5996,
  "ĠCafe": 5997,
  "Ġplunging": 5998,
  "Ġdolphin": 5999,
  "Mr": 6000,
  "Ġmossy": 6001,
  "Ġoxygen": 6002,
  "College": 6003,
  "Kneeling": 6004,
  "uddha": 6005,
  "ĠBuddha": 6006,
  "Ġballl": 6007,
  "oriano": 6008,
  "Soriano": 6009,
  "Ġframing": 6010,
  "Ġaddition": 6011,
  "Ġparticular": 6012,
  "bedroom": 6013,
  "Ġwaterfront": 6014,
  "Ġritz": 6015,
  "Morning": 6016,
  "Ship": 6017,
  "Ġguac": 6018,
  "Ġguacam": 6019,
  "Ġguacamole": 6020,
  "Aw": 6021,
  "Awake": 6022,
  "ĠAMX": 6023,
  "Ġshredding": 6024,
  "Conductors": 6025,
  "Ġunlit": 6026,
  "Ġsweaty": 6027,
  "decked": 6028,
  "rinkles": 6029,
  "Ġwrinkles": 6030,
  "legged": 6031,
  "gns": 6032,
  "Ġsgns": 6033,
  "ĠCOCKER": 6034,
  "ANIEL": 6035,
  "ĠSPANIEL": 6036,
  "Ġoreos": 6037,
  "Helmeted": 6038,
  "ĠSEVERAL": 6039,
  "ĠTRUC": 6040,
  "ĠTRUCS": 6041,
  "isitors": 6042,
  "Visitors": 6043,
  "Debris": 6044,
  "Fog": 6045,
  "Ġmeticulous": 6046,
  "Ġengland": 6047,
  "Ġpotaotes": 6048,
  "Ġwaterskiing": 6049,
  "Ġgutted": 6050,
  "Ġclaws": 6051,
  "Ġhighchair": 6052,
  "Ġscisors": 6053,
  "Ġdays": 6054,
  "Ġstting": 6055,
  "ĠMiche": 6056,
  "ĠMicheal": 6057,
  "YOUNG": 6058,
  "ĠHAIRB": 6059,
  "ĠHAIRBRUS": 6060,
  "ĠHAIRBRUSH": 6061,
  "Ġchipping": 6062,
  "Ġanmails": 6063,
  "Blindfolded": 6064,
  "surfboarder": 6065,
  "Ġresturant": 6066,
  "ĠHanggliders": 6067,
  "ĠEurope": 6068,
  "front": 6069,
  "Ġstorefront": 6070,
  "Ġukelele": 6071,
  "flowing": 6072,
  "ĠCOLOR": 6073,
  "Ġcarseat": 6074,
  "Bar": 6075,
  "Barren": 6076,
  "Ġdougnuts": 6077,
  "Ġ12": 6078,
  "PAB": 6079,
  "ĠSUPAB": 6080,
  "ĠSUPABAAD": 6081,
  "Ġbodacious": 6082,
  "Fish": 6083,
  "Ġextinguisher": 6084,
  "ICAL": 6085,
  "USICAL": 6086,
  "ĠMUSICAL": 6087,
  "ĠINSTUR": 6088,
  "ĠINSTURMEN": 6089,
  "ĠINSTURMENTS": 6090,
  "ĠSURFING": 6091,
  "ĠWAVES": 6092,
  "ĠCLEAR": 6093,
  "Ġstrom": 6094,
  "ĠGoodmayes": 6095,
  "ĠApril": 6096,
  "Ġ192": 6097,
  "Ġ1929": 6098,
  "Ġtablwe": 6099,
  "Ġrobust": 6100,
  "Lounge": 6101,
  "Ġhasn": 6102,
  "Ġchutney": 6103,
  "Ġblankly": 6104,
  "Ġantics": 6105,
  "Ġwreck": 6106,
  "ĠCes": 6107,
  "ĠCess": 6108,
  "ĠCessna": 6109,
  "Ġatlas": 6110,
  "Ġannoun": 6111,
  "Ġannouncer": 6112,
  "Puppy": 6113,
  "Ġconfederate": 6114,
  "Ġhurdle": 6115,
  "Ġ18": 6116,
  "Ġ1853": 6117,
  "Ġ198": 6118,
  "Ġ1989": 6119,
  "ai": 6120,
  "Ġbonz": 6121,
  "Ġbonzai": 6122,
  "derek": 6123,
  "Ġbrilliant": 6124,
  "Longhorn": 6125,
  "Streetlights": 6126,
  "Overe": 6127,
  "Overexposed": 6128,
  "Ġgesture": 6129,
  "Ġshielding": 6130,
  "Ġvibe": 6131,
  "SOME": 6132,
  "LLI": 6133,
  "ĠBRO": 6134,
  "COLLI": 6135,
  "ĠBROCOLLI": 6136,
  "ĠMIX": 6137,
  "ĠMIXED": 6138,
  "Atv": 6139,
  "Seven": 6140,
  "Ġcrutches": 6141,
  "Ġscrap": 6142,
  "Ġscrapbook": 6143,
  "ĠDun": 6144,
  "more": 6145,
  "ĠDunmore": 6146,
  "Ġcircuit": 6147,
  "ĠQatar": 6148,
  "Ġgloss": 6149,
  "UD": 6150,
  "ĠTUD": 6151,
  "ĠTUDOR": 6152,
  "ĠPLACE": 6153,
  "Ġ42": 6154,
  "Smoggy": 6155,
  "Ġjuicy": 6156,
  "Ġsurboard": 6157,
  "Ġcrosswor": 6158,
  "Ġcrossword": 6159,
  "ĠController": 6160,
  "ĠBrewers": 6161,
  "Entryway": 6162,
  "Ġbackflip": 6163,
  "Ġengages": 6164,
  "ĠBre": 6165,
  "ĠBrea": 6166,
  "Ġconfined": 6167,
  "ĠFry": 6168,
  "ĠFuturama": 6169,
  "young": 6170,
  "Ġloudly": 6171,
  "houette": 6172,
  "Silhouette": 6173,
  "akeshift": 6174,
  "Makeshift": 6175,
  "seven": 6176,
  "Ġtangled": 6177,
  "Ġindian": 6178,
  "Ġclipboards": 6179,
  "mbrellas": 6180,
  "Umbrellas": 6181,
  "lizbeth": 6182,
  "ĠElizbeth": 6183,
  "Ġcheesesteak": 6184,
  "Ġoffers": 6185,
  "Ġrespite": 6186,
  "Lilies": 6187,
  "look": 6188,
  "ammer": 6189,
  "ĠHammer": 6190,
  "Ġbristles": 6191,
  "passengers": 6192,
  "ĠNICE": 6193,
  "DEL": 6194,
  "MODEL": 6195,
  "ĠREMODEL": 6196,
  "Ġtwinkly": 6197,
  "Ġcalfs": 6198,
  "ĠSchoolhouse": 6199,
  "Center": 6200,
  "Ġstylized": 6201,
  "Ġspiked": 6202,
  "ĠCubs": 6203,
  "ĠFuneral": 6204,
  "ĠHome": 6205,
  "Ġavaitors": 6206,
  "ĠBug": 6207,
  "Ġfeminine": 6208,
  "Ġenergy": 6209,
  "Ġcolumn": 6210,
  "COLORFUL": 6211,
  "ĠEY": 6212,
  "ĠEYED": 6213,
  "ĠBOTTLES": 6214,
  "ĠCANS": 6215,
  "Cups": 6216,
  "Ġpatrons": 6217,
  "ĠScotland": 6218,
  "YP": 6219,
  "ĠNYP": 6220,
  "ĠNYPD": 6221,
  "ĠValley": 6222,
  "Ġ10th": 6223,
  "rving": 6224,
  "ĠIrving": 6225,
  "ILING": 6226,
  "ĠSMILING": 6227,
  "ĠCAM": 6228,
  "ĠCAMERA": 6229,
  "Rice": 6230,
  "Gauges": 6231,
  "Ġcomedian": 6232,
  "ĠDUM": 6233,
  "ĠDUMM": 6234,
  "ĠCASE": 6235,
  "ĠTAB": 6236,
  "Ġbuying": 6237,
  "Ġq": 6238,
  "uasion": 6239,
  "Ġpersuasion": 6240,
  "Ġkindly": 6241,
  "Ġsportswear": 6242,
  "Ġgirraffe": 6243,
  "Ġautomobiles": 6244,
  "Ġexpire": 6245,
  "Ġartsy": 6246,
  "tub": 6247,
  "Vehicle": 6248,
  "Ġuban": 6249,
  "Science": 6250,
  "LOOKING": 6251,
  "ĠArabic": 6252,
  "MOB": 6253,
  "MOBEL": 6254,
  "ĠPREISS": 6255,
  "Ġpuppies": 6256,
  "Ġ8th": 6257,
  "Ġ22": 6258,
  "wildwood": 6259,
  "Ġinvestigating": 6260,
  "Waff": 6261,
  "Waffles": 6262,
  "Ġleap": 6263,
  "Ġswirled": 6264,
  "Ġearbuds": 6265,
  "Ġnerv": 6266,
  "Ġnervously": 6267,
  "ĠMOMM": 6268,
  "ĠMOMMA": 6269,
  "ĠWATERING": 6270,
  "ĠHOLE": 6271,
  "Ġcharm": 6272,
  "Ġhil": 6273,
  "Ġkrispy": 6274,
  "Ġkreme": 6275,
  "Ġmousepad": 6276,
  "inx": 6277,
  "ĠSpinx": 6278,
  "Police": 6279,
  "Ġresembles": 6280,
  "ĠCORN": 6281,
  "ĠPLAE": 6282,
  "Ġrefill": 6283,
  "Ġcivilians": 6284,
  "Is": 6285,
  "Ġitl": 6286,
  "Ġyb": 6287,
  "IECES": 6288,
  "ĠPIECES": 6289,
  "Ġbrioche": 6290,
  "Ġattraction": 6291,
  "ANY": 6292,
  "mANY": 6293,
  "ĠCHEF": 6294,
  "ĠCHEFS": 6295,
  "ĠWORK": 6296,
  "ĠCOOKING": 6297,
  "Ġcroutons": 6298,
  "Ġgladiator": 6299,
  "Ġdvd": 6300,
  "carrots": 6301,
  "Ġtvs": 6302,
  "Ġassociated": 6303,
  "Ġblackboard": 6304,
  "Ġtequ": 6305,
  "Ġtequila": 6306,
  "Array": 6307,
  "Ġtwirling": 6308,
  "Ġmission": 6309,
  "Bicyclist": 6310,
  "Ripe": 6311,
  "Fed": 6312,
  "ummit": 6313,
  "ĠSummit": 6314,
  "Ġ2009": 6315,
  "quis": 6316,
  "quisitively": 6317,
  "Ġinquisitively": 6318,
  "Frisbee": 6319,
  "Ġburiesd": 6320,
  "Straight": 6321,
  "Pete": 6322,
  "ĠRose": 6323,
  "Ġmagnifying": 6324,
  "lling": 6325,
  "ĠElling": 6326,
  "ĠEllington": 6327,
  "Lux": 6328,
  "Luxury": 6329,
  "Ġgrouo": 6330,
  "Ġsisters": 6331,
  "aggle": 6332,
  "Ġgaggle": 6333,
  "Ġsprinting": 6334,
  "Ġscowling": 6335,
  "Ġdid": 6336,
  "Ġdidn": 6337,
  "ĠSTAGE": 6338,
  "ĠSINGING": 6339,
  "ĠHIM": 6340,
  "ME": 6341,
  "Ġswiping": 6342,
  "ĠDAR": 6343,
  "ĠDARK": 6344,
  "Ġteo": 6345,
  "Ġdi": 6346,
  "Clutter": 6347,
  "War": 6348,
  "Warning": 6349,
  "ĠDINNER": 6350,
  "Ġteammate": 6351,
  "Ġdisorder": 6352,
  "Ġdisorderly": 6353,
  "Ġforeclosure": 6354,
  "ĠGarbo": 6355,
  "ĠStraf": 6356,
  "ĠStrafze": 6357,
  "Ġchill": 6358,
  "kids": 6359,
  "Ġlunatic": 6360,
  "Ġeuropean": 6361,
  "TISEMEN": 6362,
  "ĠADVER": 6363,
  "TISEMENT": 6364,
  "ĠADVERTISEMENT": 6365,
  "Ġhoofed": 6366,
  "EA": 6367,
  "UTIFUL": 6368,
  "EAUTIFUL": 6369,
  "BEAUTIFUL": 6370,
  "ANAL": 6371,
  "ĠCANAL": 6372,
  "ĠWALLS": 6373,
  "ASTLE": 6374,
  "ĠCASTLE": 6375,
  "ĠLI": 6376,
  "ĠLIKE": 6377,
  "obstruction": 6378,
  "Tug": 6379,
  "Ġemergen": 6380,
  "Ġemergencies": 6381,
  "Ġnurturing": 6382,
  "adsworth": 6383,
  "ĠWadsworth": 6384,
  "ĠAmherst": 6385,
  "Ġgaining": 6386,
  "Organized": 6387,
  "Ġincom": 6388,
  "Ġincomplete": 6389,
  "Driving": 6390,
  "ĠSpencer": 6391,
  "Ġpeep": 6392,
  "Ġcanopied": 6393,
  "Ġgingersnaps": 6394,
  "Ġtootbrush": 6395,
  "Ġpeeing": 6396,
  "ĠPAD": 6397,
  "ĠShop": 6398,
  "Ġleach": 6399,
  "Posted": 6400,
  "Ġfrit": 6401,
  "Ġfritter": 6402,
  "dward": 6403,
  "Edward": 6404,
  "Ġdiscuss": 6405,
  "Ġfuture": 6406,
  "Ġstomps": 6407,
  "Polar": 6408,
  "Ġcollectible": 6409,
  "Ġclever": 6410,
  "Ġcleverly": 6411,
  "ĠFoot": 6412,
  "ĠWoodb": 6413,
  "ĠWoodbine": 6414,
  "Ġreindeer": 6415,
  "Cherry": 6416,
  "deep": 6417,
  "Decorative": 6418,
  "Ġswats": 6419,
  "Ġnachos": 6420,
  "Ġfox": 6421,
  "Ġplus": 6422,
  "ĠATM": 6423,
  "China": 6424,
  "Ġquesad": 6425,
  "Ġquesadilla": 6426,
  "Ġsquinting": 6427,
  "ĠFedEx": 6428,
  "breakfast": 6429,
  "Ġtreatments": 6430,
  "Ġkitboard": 6431,
  "ionship": 6432,
  "Ġchampionship": 6433,
  "Ġsleezy": 6434,
  "Ġadmirers": 6435,
  "Waves": 6436,
  "bench": 6437,
  "Rust": 6438,
  "Give": 6439,
  "Ġdestroying": 6440,
  "Ġthreatened": 6441,
  "Ġschoolboys": 6442,
  "Pasta": 6443,
  "racquet": 6444,
  "Ġcascading": 6445,
  "Ġdetrit": 6446,
  "Ġdetritus": 6447,
  "Ġinch": 6448,
  "forcement": 6449,
  "Ġenforcement": 6450,
  "adalajara": 6451,
  "Guadalajara": 6452,
  "Ġfootprints": 6453,
  "Bench": 6454,
  "Ġ47": 6455,
  "Ġwingback": 6456,
  "Ġladnscape": 6457,
  "Ġsundresses": 6458,
  "Ġvigorously": 6459,
  "Ġworkhorses": 6460,
  "Ġnecess": 6461,
  "Ġnecessary": 6462,
  "Ġperferms": 6463,
  "Ġhalve": 6464,
  "Ġwise": 6465,
  "Soup": 6466,
  "Peanut": 6467,
  "ĠOil": 6468,
  "Ġcartridges": 6469,
  "ĠUniversity": 6470,
  "ĠGerard": 6471,
  "ĠSchw": 6472,
  "arz": 6473,
  "ĠSchwarz": 6474,
  "ĠPl": 6475,
  "Ġ3r": 6476,
  "Ġ3rd": 6477,
  "orabilia": 6478,
  "Ġmemorabilia": 6479,
  "Ġzombies": 6480,
  "Ġembroidered": 6481,
  "YL": 6482,
  "YLCE": 6483,
  "ĠMOTORCYLCE": 6484,
  "Ġnattily": 6485,
  "Trees": 6486,
  "Ġsimulator": 6487,
  "Ġactual": 6488,
  "Grand": 6489,
  "Grandpa": 6490,
  "French": 6491,
  "ickly": 6492,
  "Ġsickly": 6493,
  "ĠSD": 6494,
  "Rem": 6495,
  "Remnants": 6496,
  "Ġdeftly": 6497,
  "ĠTexas": 6498,
  "Ġoj": 6499,
  "picture": 6500,
  "Ġfrisbe": 6501,
  "ss": 6502,
  "Ġhorsss": 6503,
  "Ġwarmly": 6504,
  "Ġmedie": 6505,
  "Ġmedieval": 6506,
  "Ġpeppeoni": 6507,
  "Ġmelt": 6508,
  "ĠTHINGS": 6509,
  "Ġbannister": 6510,
  "ĠBASKE": 6511,
  "ĠBASKET": 6512,
  "Ġprairie": 6513,
  "Ġunwraping": 6514,
  "ĠFuture": 6515,
  "ĠKut": 6516,
  "ĠKutcher": 6517,
  "next": 6518,
  "Ġcivil": 6519,
  "gtable": 6520,
  "Ġvegtable": 6521,
  "ĠBill": 6522,
  "ĠRobertson": 6523,
  "Ġdraught": 6524,
  "Ġminutes": 6525,
  "Racing": 6526,
  "Ġlabrador": 6527,
  "ĠSanyo": 6528,
  "Cityscape": 6529,
  "ĠBattlestar": 6530,
  "alactica": 6531,
  "ĠGalactica": 6532,
  "ĠFreightliner": 6533,
  "Ġdeejay": 6534,
  "Paddle": 6535,
  "Ġlecture": 6536,
  "Ġgradu": 6537,
  "Ġgraduation": 6538,
  "Ġboiling": 6539,
  "Ġjit": 6540,
  "Ġjitney": 6541,
  "ĠHonda": 6542,
  "Ġshields": 6543,
  "Pige": 6544,
  "Pigeons": 6545,
  "ĠBu": 6546,
  "ĠBuy": 6547,
  "Ġlfying": 6548,
  "ĠHong": 6549,
  "ĠKong": 6550,
  "ishi": 6551,
  "Hirag": 6552,
  "Hiragishi": 6553,
  "GALA": 6554,
  "ĠDEPARTMENT": 6555,
  "ĠAtlas": 6556,
  "ĠPretoria": 6557,
  "Bike": 6558,
  "Ġmottled": 6559,
  "Ġdachshunds": 6560,
  "dgen": 6561,
  "Ġhyrdgen": 6562,
  "Ġfishnet": 6563,
  "Ġexpertise": 6564,
  "Ġconcentrates": 6565,
  "RYING": 6566,
  "ĠTRYING": 6567,
  "ĠRIDE": 6568,
  "ĠWAVE": 6569,
  "55": 6570,
  "Ġdachshund": 6571,
  "Ġavo": 6572,
  "Ġavobe": 6573,
  "Ġbounces": 6574,
  "Ġsimultane": 6575,
  "Ġsimultaneously": 6576,
  "Ġpatron": 6577,
  "ĠClub": 6578,
  "Ġsweatsuit": 6579,
  "iscuits": 6580,
  "ĠBiscuits": 6581,
  "Ġdecals": 6582,
  "Ġshoing": 6583,
  "Ġsquatted": 6584,
  "Ġcheckpoint": 6585,
  "tHERE": 6586,
  "ĠLAYED": 6587,
  "ĠDRY": 6588,
  "RILL": 6589,
  "ĠGRILL": 6590,
  "Ġmexican": 6591,
  "ĠYear": 6592,
  "Ġsignifying": 6593,
  "Aerial": 6594,
  "ĠComcast": 6595,
  "ĠDoesnt": 6596,
  "Ġrepresent": 6597,
  "Ġupclose": 6598,
  "Ġisw": 6599,
  "Ġbrinks": 6600,
  "815": 6601,
  "Ġ3815": 6602,
  "Bagels": 6603,
  "Ġpeck": 6604,
  "HERD": 6605,
  "avenly": 6606,
  "Ġheavenly": 6607,
  "Ġprimed": 6608,
  "Ġconsume": 6609,
  "Ġunz": 6610,
  "Ġunzipped": 6611,
  "34": 6612,
  "Ġbombarded": 6613,
  "Ġmuzz": 6614,
  "Ġmuzzle": 6615,
  "Ġcommuting": 6616,
  "ranod": 6617,
  "ranodm": 6618,
  "GS": 6619,
  "ĠLEGS": 6620,
  "icroso": 6621,
  "icrosoft": 6622,
  "ĠMicrosoft": 6623,
  "Chef": 6624,
  "ĠNikon": 6625,
  "aggage": 6626,
  "Baggage": 6627,
  "Ġrespirator": 6628,
  "World": 6629,
  "ĠBrakey": 6630,
  "Ġnuzzle": 6631,
  "ĠCommons": 6632,
  "Mastering": 6633,
  "Ġprofoundly": 6634,
  "Ġbeneficial": 6635,
  "Girlfriend": 6636,
  "Drawing": 6637,
  "Ġpegs": 6638,
  "HAM": 6639,
  "GG": 6640,
  "ĠEGG": 6641,
  "ĠPANCAKE": 6642,
  "ĠDISH": 6643,
  "Ġilleg": 6644,
  "Ġillegally": 6645,
  "Ġlegally": 6646,
  "Scantily": 6647,
  "ĠDRIVING": 6648,
  "Ġpenguin": 6649,
  "ruway": 6650,
  "ĠThruway": 6651,
  "Ġscrubbing": 6652,
  "ĠSWEATER": 6653,
  "Ġscrews": 6654,
  "Wal": 6655,
  "Walnuts": 6656,
  "Ġtwelve": 6657,
  "Ġtorches": 6658,
  "Ġblazing": 6659,
  "ultures": 6660,
  "Ġvultures": 6661,
  "Ġcaleco": 6662,
  "Ġsurve": 6663,
  "Ġsurveillance": 6664,
  "Ġworkout": 6665,
  "Ġhaystacks": 6666,
  "Ġford": 6667,
  "Ġselfy": 6668,
  "ĠAF": 6669,
  "aerial": 6670,
  "Vol": 6671,
  "Volunteer": 6672,
  "geine": 6673,
  "Ġhygeine": 6674,
  "ĠNordic": 6675,
  "wonderland": 6676,
  "ĠCingular": 6677,
  "worrying": 6678,
  "Styrofoam": 6679,
  "urching": 6680,
  "Ġlurching": 6681,
  "Cauliflower": 6682,
  "Coats": 6683,
  "feeder": 6684,
  "Ġbirdfeeder": 6685,
  "kien": 6686,
  "ĠTolkien": 6687,
  "ĠGIRAFFES": 6688,
  "URING": 6689,
  "ĠDURING": 6690,
  "ENTS": 6691,
  "ĠTENTS": 6692,
  "JE": 6693,
  "JECT": 6694,
  "ĠOBJECT": 6695,
  "Ġwedgies": 6696,
  "Ġjoke": 6697,
  "Ġeffort": 6698,
  "Ġborde": 6699,
  "Ġbordeaux": 6700,
  "Ġdaybreak": 6701,
  "Ġbiilboard": 6702,
  "Ġrailcar": 6703,
  "Furry": 6704,
  "arbage": 6705,
  "Garbage": 6706,
  "Ġcaricature": 6707,
  "Motorcyclist": 6708,
  "ĠOutdoor": 6709,
  "Ġhelm": 6710,
  "Ġhelmut": 6711,
  "ĠWAG": 6712,
  "ĠWAGON": 6713,
  "Ġmyriad": 6714,
  "ĠHat": 6715,
  "Ġskylit": 6716,
  "ĠPANTS": 6717,
  "ĠDOING": 6718,
  "ĠTRICK": 6719,
  "ĠGolden": 6720,
  "ĠBridge": 6721,
  "Ġembellishment": 6722,
  "Ġcatfood": 6723,
  "ĠSouthern": 6724,
  "ific": 6725,
  "ĠPacific": 6726,
  "Ġremodel": 6727,
  "Ġsimilarly": 6728,
  "Ġbroadway": 6729,
  "Ġschoolbus": 6730,
  "ĠMarilyn": 6731,
  "ĠMon": 6732,
  "ĠMonroe": 6733,
  "Ġbouy": 6734,
  "Ġstandint": 6735,
  "Ġsift": 6736,
  "Ġwolf": 6737,
  "ĠWiff": 6738,
  "ĠWiffle": 6739,
  "ĠUTILITY": 6740,
  "GULAR": 6741,
  "ĠREGULAR": 6742,
  "ĠJones": 6743,
  "ĠShirt": 6744,
  "Ġsanctioned": 6745,
  "ĠAmazon": 6746,
  "Bicycle": 6747,
  "Mirror": 6748,
  "Ġonce": 6749,
  "Ġsolution": 6750,
  "ĠQueenslander": 6751,
  "RY": 6752,
  "ĠJERRY": 6753,
  "ĠORB": 6754,
  "ĠORBACH": 6755,
  "Ġhashbrown": 6756,
  "mil": 6757,
  "milk": 6758,
  "Slider": 6759,
  "Ġsyringe": 6760,
  "Try": 6761,
  "Ġgenu": 6762,
  "Ġgenuinely": 6763,
  "sliced": 6764,
  "finished": 6765,
  "ĠCape": 6766,
  "Ġmannequin": 6767,
  "ĠWilson": 6768,
  "Ġcookouts": 6769,
  "Ġwitch": 6770,
  "Ġtsunam": 6771,
  "Ġtsunami": 6772,
  "Ġmotorcy": 6773,
  "lces": 6774,
  "Ġmotorcylces": 6775,
  "Residential": 6776,
  "Ġroundish": 6777,
  "ĠSTANDIGN": 6778,
  "ĠNE": 6779,
  "XT": 6780,
  "ĠNEXT": 6781,
  "lantern": 6782,
  "Ġdiffr": 6783,
  "Ġdiffrr": 6784,
  "Ġdiffrrnt": 6785,
  "ĠApia": 6786,
  "Ġastronauts": 6787,
  "Paved": 6788,
  "Ġdutch": 6789,
  "STOP": 6790,
  "ĠSIGN": 6791,
  "ĠSPRAY": 6792,
  "AINT": 6793,
  "ĠPAINT": 6794,
  "ĠPAINTED": 6795,
  "ĠWORDS": 6796,
  "ĠHilton": 6797,
  "Ġobscuring": 6798,
  "Ġvictorian": 6799,
  "ĠDaily": 6800,
  "Ġcelebrity": 6801,
  "nasium": 6802,
  "Ġgymnasium": 6803,
  "Ġbolt": 6804,
  "Ġparsnips": 6805,
  "Post": 6806,
  "Ġharvest": 6807,
  "Teddybear": 6808,
  "Ġconnectec": 6809,
  "Ġunfath": 6810,
  "Ġunfathomable": 6811,
  "Boxes": 6812,
  "Ġwipeout": 6813,
  "Ġvideogame": 6814,
  "Virgin": 6815,
  "ecor": 6816,
  "ecords": 6817,
  "ĠRecords": 6818,
  "Ġvisibility": 6819,
  "Crepes": 6820,
  "Ġsurv": 6821,
  "Ġsurvival": 6822,
  "vated": 6823,
  "Elevated": 6824,
  "Tea": 6825,
  "Ġdollhouse": 6826,
  "eye": 6827,
  "Ġscanning": 6828,
  "Identical": 6829,
  "ĠCair": 6830,
  "ĠCairn": 6831,
  "Ġwhilst": 6832,
  "Quarter": 6833,
  "Ġstanidg": 6834,
  "Ġbording": 6835,
  "ĠDirt": 6836,
  "ĠCART": 6837,
  "naws": 6838,
  "Ġgnaws": 6839,
  "Ġcrevice": 6840,
  "Ġstreaking": 6841,
  "Ġpersonified": 6842,
  "meat": 6843,
  "Ġwishes": 6844,
  "Ġtrif": 6845,
  "Ġtrifled": 6846,
  "Ġsupply": 6847,
  "Pieces": 6848,
  "Ġhighlighted": 6849,
  "Ġaltitude": 6850,
  "Stainless": 6851,
  "ght": 6852,
  "ieght": 6853,
  "Ġhieght": 6854,
  "Ġzeebra": 6855,
  "Ġfeild": 6856,
  "Shirts": 6857,
  "ĠGarage": 6858,
  "Ġintricacies": 6859,
  "Ġankles": 6860,
  "Ġannoyed": 6861,
  "Ġdelightful": 6862,
  "ĠDad": 6863,
  "Ġselfs": 6864,
  "Ġempire": 6865,
  "Ġsomb": 6866,
  "Ġsombreros": 6867,
  "Ġbuidling": 6868,
  "Ġvaries": 6869,
  "Ġspecies": 6870,
  "kies": 6871,
  "Ġturkies": 6872,
  "Venus": 6873,
  "Ġmanipulated": 6874,
  "Birthday": 6875,
  "Ġcongratulatory": 6876,
  "estroom": 6877,
  "Restroom": 6878,
  "Ġeliminators": 6879,
  "Ġtp": 6880,
  "mopeds": 6881,
  "Ġluch": 6882,
  "Watched": 6883,
  "Ġportly": 6884,
  "ufthans": 6885,
  "Lufthans": 6886,
  "Lufthansa": 6887,
  "Ġrecognizable": 6888,
  "Muddy": 6889,
  "Ġowman": 6890,
  "Ġflickr": 6891,
  "Ġwebpage": 6892,
  "Ġmicrove": 6893,
  "Ġshredder": 6894,
  "Caucasian": 6895,
  "ĠHarley": 6896,
  "Ġ!": 6897,
  "home": 6898,
  "Ġmotorhome": 6899,
  "Potatoes": 6900,
  "Before": 6901,
  "Ġcapitol": 6902,
  "Ġfluted": 6903,
  "Ġwalnut": 6904,
  "ĠATVS": 6905,
  "Balloons": 6906,
  "Ġswift": 6907,
  "Ġswiftly": 6908,
  "Ġgains": 6909,
  "Ġhydr": 6910,
  "Ġhydrgon": 6911,
  "Cream": 6912,
  "Ġholidays": 6913,
  "Ġpanorama": 6914,
  "Ġpopcorn": 6915,
  "Ġgleaming": 6916,
  "Ġdomino": 6917,
  "Ġeightteen": 6918,
  "Heavily": 6919,
  "Ġantennas": 6920,
  "Cafe": 6921,
  "FLAM": 6922,
  "FLAMING": 6923,
  "ĠLIPS": 6924,
  "ĠALLEY": 6925,
  "Ġinterference": 6926,
  "Ġonn": 6927,
  "hile": 6928,
  "While": 6929,
  "ARIOUS": 6930,
  "VARIOUS": 6931,
  "QUE": 6932,
  "TIQUE": 6933,
  "ĠANTIQUE": 6934,
  "ĠCHAIN": 6935,
  "TO": 6936,
  "TOGETHER": 6937,
  "ĠALTOGETHER": 6938,
  "Self": 6939,
  "Ġreadsd": 6940,
  "irv": 6941,
  "irvana": 6942,
  "ĠNirvana": 6943,
  "ĠDr": 6944,
  "Ġbuncch": 6945,
  "Ġcopies": 6946,
  "Ġtoucan": 6947,
  "Ġcandidate": 6948,
  "Ġadmires": 6949,
  "Sailboats": 6950,
  "Mail": 6951,
  "East": 6952,
  "Ġ27": 6953,
  "Ġ278": 6954,
  "ĠBronx": 6955,
  "Ġmemorial": 6956,
  "Ġvoucher": 6957,
  "Ġsuitecases": 6958,
  "questrian": 6959,
  "ĠEquestrian": 6960,
  "Ġdifference": 6961,
  "Ġnutty": 6962,
  "Ġprizes": 6963,
  "Ġbirching": 6964,
  "ockeys": 6965,
  "Jockeys": 6966,
  "Ġblacn": 6967,
  "Ġlitte": 6968,
  "ĠPizzeria": 6969,
  "ĠCresc": 6970,
  "ĠCrescia": 6971,
  "Ġphys": 6972,
  "Ġphysically": 6973,
  "Ġchallenged": 6974,
  "Ġreadies": 6975,
  "',": 6976,
  "abinets": 6977,
  "Cabinets": 6978,
  "Ġunbelie": 6979,
  "Ġunbeliev": 6980,
  "Ġunbelievable": 6981,
  "Ġcrossroads": 6982,
  "ĠAsia": 6983,
  "Utility": 6984,
  "ĠLos": 6985,
  "ĠAngeles": 6986,
  "ĠCt": 6987,
  "Painting": 6988,
  "Ġsnout": 6989,
  "Ġwrote": 6990,
  "Ġhurling": 6991,
  "Ġrunny": 6992,
  "ĠLADIES": 6993,
  "ĠSPENDING": 6994,
  "CCER": 6995,
  "ĠSOCCER": 6996,
  "Ġcarefree": 6997,
  "Ġstreetcar": 6998,
  "Ġcurlers": 6999,
  "final": 7000,
  "Ġ80s": 7001,
  "ovingly": 7002,
  "Lovingly": 7003,
  "Ġtrimmings": 7004,
  "Ġarriving": 7005,
  "Ġforce": 7006,
  "Ġeverg": 7007,
  "Ġeverglade": 7008,
  "Ġzodiac": 7009,
  "Ġbacklit": 7010,
  "Ġtalkie": 7011,
  "ĠF250": 7012,
  "ĠPickup": 7013,
  "Afternoon": 7014,
  "Ġspins": 7015,
  "ĠBuffalo": 7016,
  "Ġgrumpy": 7017,
  "obs": 7018,
  "Ġknobs": 7019,
  "Ġrectangle": 7020,
  "motorcycles": 7021,
  "Ġuphill": 7022,
  "Ġgrandma": 7023,
  "rowth": 7024,
  "growth": 7025,
  "Ġundergrowth": 7026,
  "Ġtomotates": 7027,
  "Ġexerts": 7028,
  "Ġtelev": 7029,
  "Ġtelevsion": 7030,
  "Mush": 7031,
  "Mushrooms": 7032,
  "Ġbarthroom": 7033,
  "ĠRIDING": 7034,
  "Dairy": 7035,
  "Ġdefender": 7036,
  "Ġbunnies": 7037,
  "Ġquote": 7038,
  "cular": 7039,
  "ircular": 7040,
  "circular": 7041,
  "Ġcollect": 7042,
  "Ġinstead": 7043,
  "BRASIL": 7044,
  "attle": 7045,
  "ĠSeattle": 7046,
  "ĠJumbo": 7047,
  "ĠLyn": 7048,
  "ĠLynn": 7049,
  "01": 7050,
  "2009": 7051,
  "Ġ23": 7052,
  "58": 7053,
  "Ġconjo": 7054,
  "Ġconjoined": 7055,
  "Ġvarying": 7056,
  "ĠJames": 7057,
  "Ġmerry": 7058,
  "Ġspiral": 7059,
  "Elegant": 7060,
  "ĠDESIGN": 7061,
  "ĠSHELF": 7062,
  "Siblings": 7063,
  "Ġcue": 7064,
  "Ġdownpour": 7065,
  "Ġjuggling": 7066,
  "Ġglitter": 7067,
  "compassing": 7068,
  "Ġencompassing": 7069,
  "ĠSHEEPS": 7070,
  "vo": 7071,
  "Ġvolvo": 7072,
  "ĠRace": 7073,
  "ski": 7074,
  "idwester": 7075,
  "idwestern": 7076,
  "ĠMidwestern": 7077,
  "Ġturbulent": 7078,
  "ĠDAD": 7079,
  "ĠHAV": 7080,
  "ĠHAVING": 7081,
  "ĠFUN": 7082,
  "Ġclerk": 7083,
  "Military": 7084,
  "Ġroar": 7085,
  "ucational": 7086,
  "Ġeducational": 7087,
  "amotive": 7088,
  "Ġlocamotive": 7089,
  "lsie": 7090,
  "ĠElsie": 7091,
  "Artic": 7092,
  "Articulated": 7093,
  "ĠJacuzzi": 7094,
  "Ġprize": 7095,
  "Ġmight": 7096,
  "Ġwin": 7097,
  "ĠOrleans": 7098,
  "ĠSaints": 7099,
  "Baker": 7100,
  "Ġsewage": 7101,
  "ibrary": 7102,
  "ĠLibrary": 7103,
  "Ġleisurely": 7104,
  "Ġstatute": 7105,
  "ĠDj": 7106,
  "LADY": 7107,
  "Ġspeckles": 7108,
  "Ġcigar": 7109,
  "Ġsquints": 7110,
  "Ġehating": 7111,
  "Ġgrasshopper": 7112,
  "ĠPERCHED": 7113,
  "ĠBRANCH": 7114,
  "Jar": 7115,
  "Macau": 7116,
  "Ġsavanna": 7117,
  "BO": 7118,
  "BOATS": 7119,
  "ĠHARBOR": 7120,
  "ĠSWAT": 7121,
  "Ġspilling": 7122,
  "itte": 7123,
  "ashitte": 7124,
  "Eashitte": 7125,
  "Ġsportsmanship": 7126,
  "Ġuninviting": 7127,
  "Ġmamma": 7128,
  "Ġamd": 7129,
  "Ġblindfold": 7130,
  "Bulls": 7131,
  "Ġtrouble": 7132,
  "buttoned": 7133,
  "Ġunbuttoned": 7134,
  "shore": 7135,
  "Ġoffshore": 7136,
  "Ġportrays": 7137,
  "ĠWill": 7138,
  "Ġbegun": 7139,
  "Ġdirtb": 7140,
  "Ġdirtbike": 7141,
  "Multi": 7142,
  "Ġnetted": 7143,
  "Ġduo": 7144,
  "Ġidly": 7145,
  "Ġcelebratory": 7146,
  "Ġashtray": 7147,
  "Ġachie": 7148,
  "Ġachieving": 7149,
  "Ġbelieving": 7150,
  "Ġriverbank": 7151,
  "Ġastute": 7152,
  "ĠColgate": 7153,
  "multiple": 7154,
  "ĠDOLL": 7155,
  "Ġcubical": 7156,
  "Ġviolet": 7157,
  "ĠAutism": 7158,
  "Ġmosques": 7159,
  "big": 7160,
  "dinary": 7161,
  "Ġordinary": 7162,
  "Ġvirt": 7163,
  "Ġvirtual": 7164,
  "Ġimmature": 7165,
  "Ġairways": 7166,
  "Ġstrides": 7167,
  "ĠFlag": 7168,
  "Ġavatars": 7169,
  "Ġcommandments": 7170,
  "Mopeds": 7171,
  "Ġshelter": 7172,
  "Attendants": 7173,
  "Ġcreased": 7174,
  "Locom": 7175,
  "Locomotive": 7176,
  "ĠRail": 7177,
  "Garden": 7178,
  "ĠMaciel": 7179,
  "ĠLn": 7180,
  "ĠStump": 7181,
  "Ġerrands": 7182,
  "rooks": 7183,
  "Ġcrooks": 7184,
  "ĠRadar": 7185,
  "PARE": 7186,
  "Ġsailboarder": 7187,
  "Ġhookah": 7188,
  "ĠDominoes": 7189,
  "Ġhatchets": 7190,
  "rowds": 7191,
  "crowds": 7192,
  "astro": 7193,
  "ĠCastro": 7194,
  "Ġmotionless": 7195,
  "Ġ1950": 7196,
  "TA": 7197,
  "MTA": 7198,
  "Farmer": 7199,
  "motorcycle": 7200,
  "Ġinfre": 7201,
  "Ġinfrequent": 7202,
  "Ġinfrequently": 7203,
  "Coast": 7204,
  "Ġ30": 7205,
  "Ġbitumen": 7206,
  "Ġchip": 7207,
  "Ġgadget": 7208,
  "Mini": 7209,
  "ĠBologna": 7210,
  "Ġsettee": 7211,
  "Ġcityh": 7212,
  "Ġthread": 7213,
  "Ġoffered": 7214,
  "DSM": 7215,
  "ĠBDSM": 7216,
  "Sever": 7217,
  "Ġvedgies": 7218,
  "striches": 7219,
  "Ostriches": 7220,
  "Ġmig": 7221,
  "Ġmigrating": 7222,
  "Ġinfrastruct": 7223,
  "Ġinfrastructure": 7224,
  "erusalem": 7225,
  "ĠJerusalem": 7226,
  "ĠBUNCH": 7227,
  "ĠPRETT": 7228,
  "ĠPRETTY": 7229,
  "ĠROSES": 7230,
  "ĠBUCKET": 7231,
  "Ġtreys": 7232,
  "Ġsundae": 7233,
  "Ġbridal": 7234,
  "ĠUSING": 7235,
  "ĠGAMING": 7236,
  "ĠCONSO": 7237,
  "ĠCONSOLE": 7238,
  "Ġscience": 7239,
  "ĠMission": 7240,
  "ĠFerry": 7241,
  "Ġboxer": 7242,
  "Ġbackround": 7243,
  "Lamps": 7244,
  "vard": 7245,
  "ĠBoulevard": 7246,
  "Ġhid": 7247,
  "Ġhidrent": 7248,
  "Ġcontentedly": 7249,
  "Ġstudies": 7250,
  "Ġrecoils": 7251,
  "Ġscull": 7252,
  "Ġwhik": 7253,
  "Ġwhikle": 7254,
  "ixon": 7255,
  "ĠNixon": 7256,
  "Ġsawtoothed": 7257,
  "hatever": 7258,
  "Whatever": 7259,
  "Off": 7260,
  "Ġguilt": 7261,
  "Ġtreacherous": 7262,
  "Ġspitting": 7263,
  "Bowl": 7264,
  "Ġdestk": 7265,
  "Ġhouseplants": 7266,
  "Ġhedgeh": 7267,
  "Ġhedgehog": 7268,
  "ho": 7269,
  "daho": 7270,
  "ĠIdaho": 7271,
  "Power": 7272,
  "Ġhundreds": 7273,
  "Ġmob": 7274,
  "Ġstreak": 7275,
  "ĠTv": 7276,
  "Ġgarnishment": 7277,
  "ĠFeed": 7278,
  "ĠBarn": 7279,
  "Ġcountries": 7280,
  "Ġdisposable": 7281,
  "Ġrailhouse": 7282,
  "Ġillusion": 7283,
  "Ġneverending": 7284,
  "Ġadventure": 7285,
  "Ġshelfs": 7286,
  "prised": 7287,
  "Ġsurprised": 7288,
  "Ġcringes": 7289,
  "vestment": 7290,
  "Ġinvestment": 7291,
  "Ġactivity": 7292,
  "Ġappealing": 7293,
  "Ġfirefighters": 7294,
  "IZER": 7295,
  "IZERIE": 7296,
  "RIZERIE": 7297,
  "FRIZERIE": 7298,
  "Ġdrug": 7299,
  "ĠGRASSY": 7300,
  "Ġparkded": 7301,
  "Ġfboard": 7302,
  "quence": 7303,
  "Ġsequence": 7304,
  "ĠBarrack": 7305,
  "ussein": 7306,
  "ĠHussein": 7307,
  "Ġyolk": 7308,
  "Ġlivign": 7309,
  "ĠOlympics": 7310,
  "qoise": 7311,
  "Ġturqoise": 7312,
  "ARNIS": 7313,
  "ĠGARNIS": 7314,
  "ĠGARNISH": 7315,
  "Ġfudge": 7316,
  "PUB": 7317,
  "Ġpicutre": 7318,
  "Ġoverlaid": 7319,
  "Ġmanmade": 7320,
  "Ġpimp": 7321,
  "Ġcompforter": 7322,
  "ĠCorre": 7323,
  "ĠCorreos": 7324,
  "Ġyorkie": 7325,
  "ĠSnapple": 7326,
  "Ġapink": 7327,
  "ĠIke": 7328,
  "ĠIkea": 7329,
  "Ġsheepdog": 7330,
  "Electronics": 7331,
  "Ġelk": 7332,
  "Ġseductively": 7333,
  "ĠTrump": 7334,
  "ĠManhat": 7335,
  "ĠManhattan": 7336,
  "ĠLAW": 7337,
  "ĠYIELD": 7338,
  "RI": 7339,
  "RIANS": 7340,
  "ESTRIANS": 7341,
  "EDESTRIANS": 7342,
  "ĠPEDESTRIANS": 7343,
  "ĠWITHIN": 7344,
  "ĠCRO": 7345,
  "SW": 7346,
  "SWAL": 7347,
  "SWALK": 7348,
  "ĠCROS": 7349,
  "ĠCROSSWALK": 7350,
  "comfortable": 7351,
  "Ġuncomfortable": 7352,
  "Ġdemise": 7353,
  "Othello": 7354,
  "appuccino": 7355,
  "ĠCappuccino": 7356,
  "Break": 7357,
  "Breakfast": 7358,
  "ĠGOAT": 7359,
  "Ġmime": 7360,
  "Ġwispy": 7361,
  "Ġpreserves": 7362,
  "Ġpreserve": 7363,
  "Ġbowtie": 7364,
  "Ġdwarfs": 7365,
  "Ġmutants": 7366,
  "ĠFacebook": 7367,
  "Ġhumanoid": 7368,
  "Ġtoowoomb": 7369,
  "Ġtoowoomba": 7370,
  "Ġorigam": 7371,
  "Ġorigami": 7372,
  "Ġexpressionless": 7373,
  "Ġzombie": 7374,
  "Ġinterlocking": 7375,
  "Saltine": 7376,
  "Ġcloaks": 7377,
  "Zodiac": 7378,
  "sunset": 7379,
  "Ġstrong": 7380,
  "Ġjudged": 7381,
  "Ġmarrying": 7382,
  "Ġsucc": 7383,
  "Ġsucculent": 7384,
  "Ġletharg": 7385,
  "Ġlethargically": 7386,
  "Darth": 7387,
  "Ġlightsaber": 7388,
  "Ġmarshland": 7389,
  "Ġheadb": 7390,
  "Ġheadbutting": 7391,
  "Advertising": 7392,
  "Ġcrispy": 7393,
  "Few": 7394,
  "ĠUl": 7395,
  "ĠUltimate": 7396,
  "Ġexcursion": 7397,
  "Ġmarquee": 7398,
  "Ġpews": 7399,
  "ifix": 7400,
  "Ġcrucifix": 7401,
  "ĠFurnace": 7402,
  "ĠCrapo": 7403,
  "Ġchallenging": 7404,
  "ĠMG": 7405,
  "ĠMGM": 7406,
  "Pe": 7407,
  "Pepperoni": 7408,
  "So": 7409,
  "Ġfanc": 7410,
  "Ġfanciful": 7411,
  "Ġforehand": 7412,
  "ĠKingdom": 7413,
  "floor": 7414,
  "Ġchestnuts": 7415,
  "figured": 7416,
  "Ġdisfigured": 7417,
  "Ġdeployed": 7418,
  "Text": 7419,
  "ĠPetland": 7420,
  "Ġalfredo": 7421,
  "ĠForresto": 7422,
  "Ġmixes": 7423,
  "ĠCOWS": 7424,
  "Ġstride": 7425,
  "ĠHebrew": 7426,
  "ĠFIREPLA": 7427,
  "ĠFIREPLACE": 7428,
  "ĠSCEN": 7429,
  "ĠSCENIC": 7430,
  "Comfortable": 7431,
  "rrim": 7432,
  "hrrim": 7433,
  "Ġbarhrrim": 7434,
  "ĠSamuel": 7435,
  "inosaur": 7436,
  "Dinosaur": 7437,
  "Ġcheap": 7438,
  "Ġspiting": 7439,
  "Ġscrewd": 7440,
  "Ġscrewdriver": 7441,
  "Ġquietly": 7442,
  "Ġmiscellane": 7443,
  "Ġmiscellaneous": 7444,
  "Ġcrochet": 7445,
  "Ġplateau": 7446,
  "Ġscramble": 7447,
  "Plastic": 7448,
  "Ġveil": 7449,
  "Ġcoliseum": 7450,
  "Ġtiki": 7451,
  "Ġmisc": 7452,
  "Ġspilled": 7453,
  "Ġoffloaded": 7454,
  "ĠHT": 7455,
  "Stuff": 7456,
  "IXTURE": 7457,
  "MIXTURE": 7458,
  "Ġsimmering": 7459,
  "Ġgrubby": 7460,
  "Ġtoiled": 7461,
  "yramid": 7462,
  "Pyramid": 7463,
  "Ġvariable": 7464,
  "KS": 7465,
  "ĠBANKS": 7466,
  "kraut": 7467,
  "Ġsauerkraut": 7468,
  "Cook": 7469,
  "Ġsequential": 7470,
  "Ġslamming": 7471,
  "Ġimprovements": 7472,
  "Ġspotty": 7473,
  "Ġhandmade": 7474,
  "ulhol": 7475,
  "ĠMulhol": 7476,
  "ĠMulholland": 7477,
  "turn": 7478,
  "Ġwilted": 7479,
  "Ġpocketk": 7480,
  "Ġpocketknife": 7481,
  "Ġkithchen": 7482,
  "agarding": 7483,
  "Ġreagarding": 7484,
  "Ġunderwater": 7485,
  "Ġbattleship": 7486,
  "Lavish": 7487,
  "Lavishly": 7488,
  "Ġsubjects": 7489,
  "Shredded": 7490,
  "Ġfeces": 7491,
  "ĠGREEN": 7492,
  "ĠSUITC": 7493,
  "ĠSUITCASE": 7494,
  "ĠLEDGE": 7495,
  "ĠMemph": 7496,
  "ĠMemphis": 7497,
  "ĠTennessee": 7498,
  "Tree": 7499,
  "Posed": 7500,
  "Mat": 7501,
  "Mattress": 7502,
  "Running": 7503,
  "Eleven": 7504,
  "Ġsinister": 7505,
  "ĠSOB": 7506,
  "Ġcardigan": 7507,
  "Looks": 7508,
  "Ġcu": 7509,
  "Ġcuis": 7510,
  "Ġcuisine": 7511,
  "Folded": 7512,
  "Ġscrubber": 7513,
  "RUCTION": 7514,
  "ĠCONSTRUCTION": 7515,
  "Ġcrawled": 7516,
  "ĠCarriage": 7517,
  "Ġ99": 7518,
  "Ġfacility": 7519,
  "Ġcreature": 7520,
  "child": 7521,
  "Ġschoolchild": 7522,
  "Ġschoolchildren": 7523,
  "WW": 7524,
  "WWF": 7525,
  "Ġspoked": 7526,
  "broccoli": 7527,
  "Ġobscurely": 7528,
  "ASSENGER": 7529,
  "PASSENGER": 7530,
  "ĠSMOKE": 7531,
  "ĠBILLOWING": 7532,
  "ELING": 7533,
  "VELING": 7534,
  "TRAVELING": 7535,
  "ĠTHROUG": 7536,
  "ĠTHROUGH": 7537,
  "imney": 7538,
  "Ġchimney": 7539,
  "Ġsittin": 7540,
  "Ġdryin": 7541,
  "Ġscaffolding": 7542,
  "Ġbodies": 7543,
  "ĠSC": 7544,
  "ĠSCISS": 7545,
  "ORS": 7546,
  "ĠSCISSORS": 7547,
  "Ġsconce": 7548,
  "Ġviw": 7549,
  "Ġchemical": 7550,
  "Boiled": 7551,
  "ĠGLASSES": 7552,
  "ĠKN": 7553,
  "ĠKNEELING": 7554,
  "Ġperfectly": 7555,
  "Ġcreation": 7556,
  "Ġsomersaulting": 7557,
  "Fair": 7558,
  "Late": 7559,
  "Ġsuggests": 7560,
  "Ġthirty": 7561,
  "Ġwiimote": 7562,
  "RESIDEN": 7563,
  "RESIDENT": 7564,
  "PRESIDENT": 7565,
  "ĠBARACK": 7566,
  "ĠOBAM": 7567,
  "ĠOBAMA": 7568,
  "six": 7569,
  "Ġblemish": 7570,
  "ĠSKIS": 7571,
  "Ġleafs": 7572,
  "Book": 7573,
  "ĠOregon": 7574,
  "Giant": 7575,
  "ĠGhana": 7576,
  "Frisco": 7577,
  "ĠVig": 7578,
  "ĠVigrin": 7579,
  "ĠAtlantic": 7580,
  "ĠResident": 7581,
  "Ġweall": 7582,
  "ĠPLANE": 7583,
  "ĠCLOUDY": 7584,
  "Tub": 7585,
  "cok": 7586,
  "Ġclcok": 7587,
  "Ġadmired": 7588,
  "Ġhorizon": 7589,
  "Pickup": 7590,
  "Ġmerge": 7591,
  "Ġbiek": 7592,
  "Ġprotrude": 7593,
  "ksg": 7594,
  "ksgiving": 7595,
  "ĠThanksgiving": 7596,
  "Ġhurls": 7597,
  "ĠRoberts": 7598,
  "ĠCedar": 7599,
  "Extra": 7600,
  "Rainbow": 7601,
  "Ice": 7602,
  "Ġmonstrous": 7603,
  "ĠBrussels": 7604,
  "mesan": 7605,
  "Ġparmesan": 7606,
  "Ġmanicured": 7607,
  "fresh": 7608,
  "Ġgators": 7609,
  "mother": 7610,
  "Ġgrandmother": 7611,
  "airp": 7612,
  "airplanes": 7613,
  "ĠFA": 7614,
  "CING": 7615,
  "ĠFACING": 7616,
  "ĠCOVERED": 7617,
  "ĠMOUNTAIN": 7618,
  "adio": 7619,
  "ĠRadio": 7620,
  "ĠMusic": 7621,
  "Ġnazi": 7622,
  "Ġsuperimposed": 7623,
  "ĠIran": 7624,
  "ĠVans": 7625,
  "Ġcoarse": 7626,
  "Ġsuggestive": 7627,
  "Screens": 7628,
  "Portion": 7629,
  "Ġbackhand": 7630,
  "Ġminivan": 7631,
  "Ġlearned": 7632,
  "Examples": 7633,
  "Ġmoribilia": 7634,
  "Ġleisure": 7635,
  "Ġsituation": 7636,
  "Ġpurposes": 7637,
  "Ġpropelleor": 7638,
  "Ġsleeve": 7639,
  "jolica": 7640,
  "Ġmajolica": 7641,
  "Ġstreetlamp": 7642,
  "Ġduf": 7643,
  "Ġdufell": 7644,
  "ĠTE": 7645,
  "Princess": 7646,
  "ĠAurora": 7647,
  "Ġpiercing": 7648,
  "Ġdribbles": 7649,
  "Ġgain": 7650,
  "Ġmomentum": 7651,
  "Ġanticipates": 7652,
  "ĠHenry": 7653,
  "ĠLove": 7654,
  "Ġbrisket": 7655,
  "Ġsunlit": 7656,
  "Ġextreme": 7657,
  "ĠTHIGH": 7658,
  "ĠHIGHS": 7659,
  "ĠHEELS": 7660,
  "ABY": 7661,
  "BABY": 7662,
  "ĠOVERALLS": 7663,
  "Twp": 7664,
  "Ġoin": 7665,
  "Ġaudio": 7666,
  "Ġdrooping": 7667,
  "ordan": 7668,
  "ĠJordan": 7669,
  "Mex": 7670,
  "quash": 7671,
  "ĠSquash": 7672,
  "ĠCasserole": 7673,
  "Brand": 7674,
  "Ġdammed": 7675,
  "Ġstreetlight": 7676,
  "dotted": 7677,
  "Ġforklift": 7678,
  "Ġcorg": 7679,
  "Ġcorgi": 7680,
  "Ġreflect": 7681,
  "ECORATED": 7682,
  "ĠDECORATED": 7683,
  "Ġamused": 7684,
  "Ġassign": 7685,
  "Ġassignment": 7686,
  "Oval": 7687,
  "Ġhilll": 7688,
  "Steam": 7689,
  "uever": 7690,
  "Ġmanuever": 7691,
  "eserved": 7692,
  "Reserved": 7693,
  "Ġmonks": 7694,
  "ĠSKATEBOARDER": 7695,
  "ĠSeagulls": 7696,
  "Ġjetblue": 7697,
  "ĠBEING": 7698,
  "Collage": 7699,
  "Ġlarg": 7700,
  "Outdoor": 7701,
  "Ġtransformed": 7702,
  "anon": 7703,
  "ĠCanon": 7704,
  "Nordic": 7705,
  "9s": 7706,
  "Ġ196": 7707,
  "Ġ1969s": 7708,
  "Trays": 7709,
  "Ġemiddle": 7710,
  "Ġlectern": 7711,
  "Ġmatted": 7712,
  "Ġgaloshes": 7713,
  "ĠMouth": 7714,
  "cowboys": 7715,
  "Ġamateur": 7716,
  "Merchants": 7717,
  "Foot": 7718,
  "Parallel": 7719,
  "BRA": 7720,
  "ĠZEBRA": 7721,
  "ĠLog": 7722,
  "abin": 7723,
  "ĠCabin": 7724,
  "ĠOWMAN": 7725,
  "Ġuninspiring": 7726,
  "Ġkim": 7727,
  "ono": 7728,
  "Ġkimono": 7729,
  "Ġpaths": 7730,
  "Sinks": 7731,
  "Toaster": 7732,
  "Leftover": 7733,
  "Ġgraphs": 7734,
  "Ġindesic": 7735,
  "Ġindesicrim": 7736,
  "Ġindesicriminate": 7737,
  "Ġvines": 7738,
  "Ġgroundtrain": 7739,
  "Ġconsuming": 7740,
  "Ġscallops": 7741,
  "Ġswishes": 7742,
  "Ġsheeo": 7743,
  "Ġlincoln": 7744,
  "Ġresidence": 7745,
  "ĠFrito": 7746,
  "Ġdescription": 7747,
  "Ġquarters": 7748,
  "Ġredhead": 7749,
  "Ġinnertube": 7750,
  "idney": 7751,
  "ĠSidney": 7752,
  "ĠSidneyville": 7753,
  "ply": 7754,
  "Ġsimply": 7755,
  "Ġjammed": 7756,
  "utri": 7757,
  "ĠNutri": 7758,
  "Ġmonk": 7759,
  "ĠSri": 7760,
  "ĠLanka": 7761,
  "Ġspin": 7762,
  "ĠCam": 7763,
  "Ġcran": 7764,
  "Ġcranberry": 7765,
  "Ġweights": 7766,
  "Ġpearls": 7767,
  "Ġloafs": 7768,
  "Ġleis": 7769,
  "Ġdemonstration": 7770,
  "Slee": 7771,
  "Sleeping": 7772,
  "cap": 7773,
  "Ġnightcap": 7774,
  "Ġpriest": 7775,
  "Ġpriestly": 7776,
  "ĠIphone": 7777,
  "Ġwreaths": 7778,
  "wall": 7779,
  "Wide": 7780,
  "Ġdangled": 7781,
  "mote": 7782,
  "cab": 7783,
  "non": 7784,
  "nonment": 7785,
  "irnonment": 7786,
  "Ġenvirnonment": 7787,
  "cockleb": 7788,
  "cockleburs": 7789,
  "Desktop": 7790,
  "Ġflatscreen": 7791,
  "gic": 7792,
  "Ġnostalgic": 7793,
  "Ġremnants": 7794,
  "middle": 7795,
  "Factory": 7796,
  "Hamb": 7797,
  "Hamburger": 7798,
  "giant": 7799,
  "Ġcolgate": 7800,
  "Ġadvising": 7801,
  "Ġpasserby": 7802,
  "Ġpasserbys": 7803,
  "Ġconfines": 7804,
  "Ġtucking": 7805,
  "ĠBiden": 7806,
  "Ġlocust": 7807,
  "weight": 7808,
  "Ġoverweight": 7809,
  "ĠPOW": 7810,
  "IA": 7811,
  "ĠMIA": 7812,
  "Ġburly": 7813,
  "Ġleaing": 7814,
  "ĠOscar": 7815,
  "Take": 7816,
  "Takeout": 7817,
  "Stripped": 7818,
  "Ġbullhorn": 7819,
  "Ġnightly": 7820,
  "Ġritual": 7821,
  "Ġgrime": 7822,
  "Ġrequ": 7823,
  "Ġrequiring": 7824,
  "Ġartisan": 7825,
  "Ġlongboards": 7826,
  "Arabic": 7827,
  "Ġcondition": 7828,
  "Ġassociates": 7829,
  "Ġanticipation": 7830,
  "Ġimmac": 7831,
  "Ġimmaculate": 7832,
  "Ġ/": 7833,
  "Ġbeachside": 7834,
  "ĠHum": 7835,
  "ĠHumor": 7836,
  "veal": 7837,
  "Ġreveal": 7838,
  "ĠYELLOW": 7839,
  "LANE": 7840,
  "ĠAIRPLANE": 7841,
  "Ġpf": 7842,
  "ĠLut": 7843,
  "ĠLutz": 7844,
  "Ġsurb": 7845,
  "Ġsurburban": 7846,
  "ĠPOR": 7847,
  "ĠPORCH": 7848,
  "ĠGra": 7849,
  "ĠGraham": 7850,
  "Ġsongbird": 7851,
  "Ġbrook": 7852,
  "Ġindicator": 7853,
  "Ġcotrol": 7854,
  "BS": 7855,
  "ĠSBS": 7856,
  "BM": 7857,
  "BMX": 7858,
  "Ġdisconnected": 7859,
  "Ġautomobile": 7860,
  "regnant": 7861,
  "Pregnant": 7862,
  "Ġgrin": 7863,
  "Ġgrinch": 7864,
  "Ġsoftly": 7865,
  "Ġ6309": 7866,
  "Ġcharging": 7867,
  "ĠCrisco": 7868,
  "Cupped": 7869,
  "Ġunfocused": 7870,
  "INDO": 7871,
  "ĠUSINDO": 7872,
  "Ġluncheon": 7873,
  "Ġdetermining": 7874,
  "Collection": 7875,
  "Ġplaypen": 7876,
  "Trio": 7877,
  "Ġshepard": 7878,
  "Sloppy": 7879,
  "array": 7880,
  "Ġdisarray": 7881,
  "Dull": 7882,
  "Ġ54": 7883,
  "Comical": 7884,
  "Ġshies": 7885,
  "ĠGreat": 7886,
  "ĠBritain": 7887,
  "ĠThird": 7888,
  "retty": 7889,
  "pretty": 7890,
  "hausstrasse": 7891,
  "ĠBauminghausstrasse": 7892,
  "Elaborate": 7893,
  "ĠJay": 7894,
  "ĠJays": 7895,
  "ĠTOPS": 7896,
  "ĠOFFICE": 7897,
  "Ġunm": 7898,
  "Ġunmown": 7899,
  "Ġwindsurfer": 7900,
  "based": 7901,
  "Ġshrugs": 7902,
  "Ġappre": 7903,
  "ciating": 7904,
  "Ġappreciating": 7905,
  "ĠFremont": 7906,
  "ĠDist": 7907,
  "ĠDistrict": 7908,
  "Ġslug": 7909,
  "sandwiches": 7910,
  "Ġlugging": 7911,
  "ATM": 7912,
  "ĠINSIDE": 7913,
  "ĠNippon": 7914,
  "77": 7915,
  "Ġ777": 7916,
  "Ġmircow": 7917,
  "Ġmircowave": 7918,
  "Rue": 7919,
  "urbed": 7920,
  "turbed": 7921,
  "Ġperturbed": 7922,
  "Ġ65": 7923,
  "Ġ65th": 7924,
  "Ġrv": 7925,
  "ĠFries": 7926,
  "Ġglobe": 7927,
  "Classroom": 7928,
  "ĠWeiner": 7929,
  "Ġalpine": 7930,
  "Ġspills": 7931,
  "ĠAmoco": 7932,
  "Ġillust": 7933,
  "Ġillustration": 7934,
  "adies": 7935,
  "Ladies": 7936,
  "Ġgrandpa": 7937,
  "gnan": 7938,
  "Ġpregnan": 7939,
  "Ġpregnancy": 7940,
  "Ġbasebal": 7941,
  "Ġtablr": 7942,
  "ĠNever": 7943,
  "ĠLoving": 7944,
  "ĠPANDA": 7945,
  "SURE": 7946,
  "ĠENCLO": 7947,
  "ĠENCLOSURE": 7948,
  "Which": 7949,
  "ĠGay": 7950,
  "ichigan": 7951,
  "ĠMichigan": 7952,
  "ĠAMOCO": 7953,
  "Eating": 7954,
  "ĠChelsea": 7955,
  "ĠChelseafc": 7956,
  "print": 7957,
  "Ġabundance": 7958,
  "ĠHut": 7959,
  "gyle": 7960,
  "Ġargyle": 7961,
  "Ġwindmill": 7962,
  "Solemn": 7963,
  "Ġproducing": 7964,
  "ĠBenz": 7965,
  "ARC": 7966,
  "ĠMARC": 7967,
  "ĠMARCP": 7968,
  "Ġbatt": 7969,
  "Ġbattling": 7970,
  "Ġfoothills": 7971,
  "High": 7972,
  "avid": 7973,
  "David": 7974,
  "Ġdrum": 7975,
  "rength": 7976,
  "Strength": 7977,
  "Ġsuccessful": 7978,
  "Ġhyb": 7979,
  "Ġhybrid": 7980,
  "electric": 7981,
  "ĠEngland": 7982,
  "Paper": 7983,
  "Ġharley": 7984,
  "Ġterrace": 7985,
  "Ġgallery": 7986,
  "Aoold": 7987,
  "Ġrustc": 7988,
  "Ġtailgate": 7989,
  "Ġpareils": 7990,
  "Ġbitch": 7991,
  "Sunny": 7992,
  "Ġbeachgoers": 7993,
  "Ġprogram": 7994,
  "Ġinterface": 7995,
  "God": 7996,
  "lemons": 7997,
  "RU1": 7998,
  "RU13": 7999,
  "ĠPRU13": 8000,
  "His": 8001,
  "Ġcapboard": 8002,
  "Ġetc": 8003,
  "sandwich": 8004,
  "zzanine": 8005,
  "Ġmezzanine": 8006,
  "outdoor": 8007,
  "Ġjeap": 8008,
  "Ġ811": 8009,
  "Ġwtih": 8010,
  "ĠCardinals": 8011,
  "Ġuseful": 8012,
  "Ġcombined": 8013,
  "ĠFriday": 8014,
  "Ġ13th": 8015,
  "ĠValentine": 8016,
  "ĠDay": 8017,
  "Ġmarvelous": 8018,
  "ĠCave": 8019,
  "Ġhyrdons": 8020,
  "Ġmeatball": 8021,
  "With": 8022,
  "design": 8023,
  "ĠX": 8024,
  "ĠXbox": 8025,
  "ĠCoca": 8026,
  "Ġfoodservice": 8027,
  "Ġchoice": 8028,
  "Get": 8029,
  "Ġhoagie": 8030,
  "Ġdistantly": 8031,
  "Ġhitchhiking": 8032,
  "Ġtundra": 8033,
  "ĠKrispy": 8034,
  "ĠKreme": 8035,
  "Ġ92nd": 8036,
  "ĠBayview": 8037,
  "Ġjesus": 8038,
  "Ġequine": 8039,
  "Santa": 8040,
  "Ġencased": 8041,
  "Ġprominently": 8042,
  "Ġhi": 8043,
  "Ġsurferboarder": 8044,
  "Colum": 8045,
  "Columns": 8046,
  "Ġpref": 8047,
  "Ġprefer": 8048,
  "esus": 8049,
  "ĠJesus": 8050,
  "Ġpinstripe": 8051,
  "Ġspeckled": 8052,
  "Ġdougnut": 8053,
  "ĠSTOPS": 8054,
  "ĠCAR": 8055,
  "ĠROAD": 8056,
  "ĠPlease": 8057,
  "ĠUse": 8058,
  "ĠSorry": 8059,
  "Ġglob": 8060,
  "rge": 8061,
  "Ġlrge": 8062,
  "ĠINNER": 8063,
  "Ġfolk": 8064,
  "Zoo": 8065,
  "Ġsparkler": 8066,
  "ĠJacksonville": 8067,
  "Grevy": 8068,
  "Ġcollaboration": 8069,
  "ĠHouse": 8070,
  "Ġbeech": 8071,
  "Ġsubject": 8072,
  "Ġscreensaver": 8073,
  ".,": 8074,
  "Am": 8075,
  "VY": 8076,
  "ĠHEAVY": 8077,
  "ĠCOATS": 8078,
  "buff": 8079,
  "buffet": 8080,
  "irst": 8081,
  "first": 8082,
  "gyptian": 8083,
  "ĠEgyptian": 8084,
  "ĠBacardi": 8085,
  "ucchini": 8086,
  "Ġzucchini": 8087,
  "SB": 8088,
  "SBC": 8089,
  "ĠHSBC": 8090,
  "Ġabdomen": 8091,
  "Between": 8092,
  "raditional": 8093,
  "Traditional": 8094,
  "moving": 8095,
  "Ġbitty": 8096,
  "Ġmayonnaise": 8097,
  "Ġfreck": 8098,
  "Ġfreckled": 8099,
  "zone": 8100,
  "Ġcalzone": 8101,
  "Ġprivacy": 8102,
  "Flock": 8103,
  "Ġcrisp": 8104,
  "Ġeclectic": 8105,
  "Ġbooklet": 8106,
  "ĠRockaway": 8107,
  "Ġcrack": 8108,
  "Ġediting": 8109,
  "sitting": 8110,
  "Cell": 8111,
  "Ġkernel": 8112,
  "Ġweak": 8113,
  "Ġumbilical": 8114,
  "Ġstraightforward": 8115,
  "awcet": 8116,
  "ĠFawcet": 8117,
  "ĠFawcett": 8118,
  "18": 8119,
  "02": 8120,
  "1802": 8121,
  "Ġdefend": 8122,
  "Ġreigns": 8123,
  "Ġusage": 8124,
  "Ġidentify": 8125,
  "Ġturbines": 8126,
  "Ġonsite": 8127,
  "Ġinvolving": 8128,
  "lboro": 8129,
  "ĠMarlboro": 8130,
  "Ġinjuries": 8131,
  "Ġclump": 8132,
  "Ġvine": 8133,
  "Pur": 8134,
  "Purple": 8135,
  "Ġlilacs": 8136,
  "ĠIKEA": 8137,
  "Ġtechnologies": 8138,
  "volution": 8139,
  "Ġrevolution": 8140,
  "Ġoatme": 8141,
  "Ġoatmeal": 8142,
  "Ġmechanics": 8143,
  "Ġpc": 8144,
  "Ġoscilloscope": 8145,
  "Hosp": 8146,
  "Hospital": 8147,
  "ĠLETT": 8148,
  "ĠLETTUCE": 8149,
  "Ġpleas": 8150,
  "Ġpleasant": 8151,
  "Ġuniversal": 8152,
  "Ġgourds": 8153,
  "BLUE": 8154,
  "CLOSE": 8155,
  "ĠSHOT": 8156,
  "ĠBOTTLE": 8157,
  "ĠWINE": 8158,
  "ĠGLASS": 8159,
  "Ġchomping": 8160,
  "Avery": 8161,
  "fed": 8162,
  "Ġengulfed": 8163,
  "Ġ60": 8164,
  "Ġ70": 8165,
  "Messy": 8166,
  "ĠAngels": 8167,
  "Ġcuckoo": 8168,
  "Ġbrickwork": 8169,
  "Ġmonochromatic": 8170,
  "your": 8171,
  "Ġyoga": 8172,
  "ĠGe": 8173,
  "ĠGeorge": 8174,
  "ĠJr": 8175,
  "Ġ750": 8176,
  "Ġpersonnear": 8177,
  "music": 8178,
  "ĠClocktower": 8179,
  "Harvest": 8180,
  "ĠWhitehouse": 8181,
  "Ġcrop": 8182,
  "Ġmarshmallow": 8183,
  "Horned": 8184,
  "ĠCokes": 8185,
  "Ġloll": 8186,
  "Ġengage": 8187,
  "Ġinterc": 8188,
  "Ġintercity": 8189,
  "Ġcouh": 8190,
  "bino": 8191,
  "Ġalbino": 8192,
  "Ġsunrise": 8193,
  "no": 8194,
  "nob": 8195,
  "Ġdoorknob": 8196,
  "arnished": 8197,
  "Ġvarnished": 8198,
  "rescue": 8199,
  "Ġsplayed": 8200,
  "Guys": 8201,
  "Ġmaneu": 8202,
  "Ġmaneuvers": 8203,
  "Ġdecadent": 8204,
  "ĠHaight": 8205,
  "ĠAshb": 8206,
  "ĠAshbury": 8207,
  "ĠWarhol": 8208,
  "Manual": 8209,
  "Ġparcels": 8210,
  "Ġreduce": 8211,
  "Ġfetlocks": 8212,
  "ĠPERFORMING": 8213,
  "ĠSKATING": 8214,
  "ĠSTUN": 8215,
  "ĠSTUNT": 8216,
  "ĠMULTIP": 8217,
  "ĠMULTIPLE": 8218,
  "BIN": 8219,
  "BINED": 8220,
  "ĠCOMBINED": 8221,
  "Ġsegments": 8222,
  "ĠPhilly": 8223,
  "Ġexpert": 8224,
  "Ġdocument": 8225,
  "Winter": 8226,
  "Ġnook": 8227,
  "exposure": 8228,
  "Delicate": 8229,
  "ĠFRUIT": 8230,
  "Ġsubstituted": 8231,
  "Ġdedication": 8232,
  "Ġfru": 8233,
  "Ġfrui": 8234,
  "Ġsnowboader": 8235,
  "sheep": 8236,
  "gredients": 8237,
  "Ingredients": 8238,
  "ĠGIRAFFE": 8239,
  "URS": 8240,
  "ĠNURS": 8241,
  "ĠNURSING": 8242,
  "ĠZOO": 8243,
  "Ġvegan": 8244,
  "Ġmist": 8245,
  "Beef": 8246,
  "38": 8247,
  "Ġcomic": 8248,
  "Ġdisassem": 8249,
  "Ġdisassembled": 8250,
  "voutsidev": 8251,
  "Ġthevoutsidev": 8252,
  "Ġthevoutsidevif": 8253,
  "Groceries": 8254,
  "Ġmarshmellows": 8255,
  "Ġjoin": 8256,
  "Ġhitchhiker": 8257,
  "Ġhadron": 8258,
  "ĠPenn": 8259,
  "Ġmouthw": 8260,
  "Ġmouthwash": 8261,
  "Ġbackboard": 8262,
  "issan": 8263,
  "ĠNissan": 8264,
  "ĠTitan": 8265,
  "Ġtrophies": 8266,
  "Semi": 8267,
  "Ġoool": 8268,
  "Ġlookign": 8269,
  "Ġmurky": 8270,
  "Ġtwp": 8271,
  "ĠHocken": 8272,
  "Ġluncheonette": 8273,
  "Ġslum": 8274,
  "ĠCambridge": 8275,
  "ĠNorfol": 8276,
  "ĠNorfolk": 8277,
  "Ġmiss": 8278,
  "Protesters": 8279,
  "Lush": 8280,
  "Lushly": 8281,
  "Ġtwist": 8282,
  "Ġcookware": 8283,
  "rinkled": 8284,
  "Ġcrinkled": 8285,
  "venture": 8286,
  "ĠAdventure": 8287,
  "Ġcylinders": 8288,
  "RINKLES": 8289,
  "ĠSPRINKLES": 8290,
  "Meal": 8291,
  "salad": 8292,
  "\",": 8293,
  "Ġparfait": 8294,
  "Ġraisins": 8295,
  "Perhaps": 8296,
  "Ġconfectionery": 8297,
  "graded": 8298,
  "Ġupgraded": 8299,
  "ĠStewart": 8300,
  "Hauling": 8301,
  "Ġeasier": 8302,
  "kites": 8303,
  "ĠAPARTMENT": 8304,
  "IZE": 8305,
  "ĠSIZE": 8306,
  "Sea": 8307,
  "Ġwiener": 8308,
  "TV": 8309,
  "ĠiTV": 8310,
  "Ġrelief": 8311,
  "Ġpokka": 8312,
  "Ġstairwell": 8313,
  "ĠTRAILER": 8314,
  "ĠJO": 8315,
  "ĠJOCKE": 8316,
  "ĠJOCKEY": 8317,
  "Ġplae": 8318,
  "Pedestrian": 8319,
  "Ġsprite": 8320,
  "Ġprimitive": 8321,
  "Ġtrolleys": 8322,
  "Split": 8323,
  "refreshed": 8324,
  "Ġproblem": 8325,
  "Ġmagnification": 8326,
  "Ġabnormal": 8327,
  "ubmerged": 8328,
  "submerged": 8329,
  "Gold": 8330,
  "Snacks": 8331,
  "Ġwondrous": 8332,
  "Ġwiggly": 8333,
  "Flag": 8334,
  "Ġgovern": 8335,
  "Ġgovernment": 8336,
  "Scrambled": 8337,
  "Ġadvises": 8338,
  "Statue": 8339,
  "Ġsplattered": 8340,
  "UCK": 8341,
  "ĠYUCK": 8342,
  "ĠYUCKY": 8343,
  "Ġsherpard": 8344,
  "Ġdarklit": 8345,
  "Ġcontrail": 8346,
  "Ġstucco": 8347,
  "Ġtowling": 8348,
  "crap": 8349,
  "Ġsox": 8350,
  "Ġsweat": 8351,
  "Grape": 8352,
  "Ġ28": 8353,
  "Farm": 8354,
  "quaint": 8355,
  "Ġteh": 8356,
  "ancy": 8357,
  "Fancy": 8358,
  "Numbered": 8359,
  "Ġoysters": 8360,
  "Ġslef": 8361,
  "Ġslefie": 8362,
  "ĠSPEEDING": 8363,
  "ĠRAMP": 8364,
  "actures": 8365,
  "factures": 8366,
  "ufactures": 8367,
  "Ġmanufactures": 8368,
  "ĠUK": 8369,
  "pronged": 8370,
  "Bread": 8371,
  "Ġtypewriter": 8372,
  "Ġcontinue": 8373,
  "Ġdrainpipe": 8374,
  "Wicker": 8375,
  "San": 8376,
  "ĠMiguel": 8377,
  "Ġspider": 8378,
  "ĠReno": 8379,
  "Pot": 8380,
  "Cliffs": 8381,
  "Ġaerop": 8382,
  "Ġaeroplane": 8383,
  "DIP": 8384,
  "Ġmismatched": 8385,
  "ĠHog": 8386,
  "ĠHogw": 8387,
  "ĠHogwarts": 8388,
  "ĠExpress": 8389,
  "Ġstarch": 8390,
  "tainment": 8391,
  "Entertainment": 8392,
  "ĠDalmatian": 8393,
  "ĠSuper": 8394,
  "Pulling": 8395,
  "Ġgeisha": 8396,
  "Ġparch": 8397,
  "Ġparchment": 8398,
  "Ġtrudging": 8399,
  "Ġceramics": 8400,
  "Crackers": 8401,
  "Ġfern": 8402,
  "Ġsidetrack": 8403,
  "ANA": 8404,
  "Ġmunch": 8405,
  "Ġindul": 8406,
  "Ġindulge": 8407,
  "Ġbuddies": 8408,
  "Ġherb": 8409,
  "Ġfaerie": 8410,
  "Ġae": 8411,
  "Ġsittign": 8412,
  "ICIOUS": 8413,
  "ĠDELICIOUS": 8414,
  "ĠTREATS": 8415,
  "ĠDISPLAYED": 8416,
  "ĠDELI": 8417,
  "ĠBrook": 8418,
  "lyn": 8419,
  "ĠBrooklyn": 8420,
  "Ġcradled": 8421,
  "century": 8422,
  "ĠBACKP": 8423,
  "ĠBACKPA": 8424,
  "ĠBACKPACKS": 8425,
  "KW": 8426,
  "ĠWALKW": 8427,
  "ĠWALKWAY": 8428,
  "ĠAdidas": 8429,
  "kemon": 8430,
  "ĠPokemon": 8431,
  "Ġlava": 8432,
  "Ġstemmed": 8433,
  "Ġshutter": 8434,
  "Ġisn": 8435,
  "ĠRAFT": 8436,
  "Ġtarmacs": 8437,
  "ĠCalico": 8438,
  "fredo": 8439,
  "Alfredo": 8440,
  "ĠDut": 8441,
  "ĠDutch": 8442,
  "ĠNederlanse": 8443,
  "wegen": 8444,
  "ĠSpoorwegen": 8445,
  "ĠSpirit": 8446,
  "lincoln": 8447,
  "ĠSCHOOL": 8448,
  "ĠBIKE": 8449,
  "ĠCA": 8450,
  "ĠCAF": 8451,
  "ĠCAFE": 8452,
  "Ġasain": 8453,
  "ĠVolks": 8454,
  "wagon": 8455,
  "ĠVolkswagon": 8456,
  "Ġbrazier": 8457,
  "Ġdelapitated": 8458,
  "Ġexplaining": 8459,
  "ĠWiiF": 8460,
  "ĠWiiFit": 8461,
  "Ġoccasion": 8462,
  "Calico": 8463,
  "Ġonboard": 8464,
  "aphael": 8465,
  "ĠRaphael": 8466,
  "For": 8467,
  "Ġtrindle": 8468,
  "plates": 8469,
  "Ġcontemplates": 8470,
  "historical": 8471,
  "ĠKITTEN": 8472,
  "ĠNAPPING": 8473,
  "ĠLAPTOP": 8474,
  "ĠTime": 8475,
  "azine": 8476,
  "ĠMagazine": 8477,
  "numerous": 8478,
  "Pat": 8479,
  "Patches": 8480,
  "Ġcotton": 8481,
  "Ġhygiene": 8482,
  "reg": 8483,
  "Ġcongreg": 8484,
  "Ġcongregating": 8485,
  "Ġtricolor": 8486,
  "Ġanticipating": 8487,
  "Ġwalkling": 8488,
  "ĠVEGGIES": 8489,
  "Ġchalkboard": 8490,
  "Ġtechnician": 8491,
  "Ġcomplaints": 8492,
  "ĠMemorial": 8493,
  "ĠSunshine": 8494,
  "ĠMil": 8495,
  "ĠMilker": 8496,
  "quarters": 8497,
  "Ġlettce": 8498,
  "Ġtrimming": 8499,
  "ĠLOG": 8500,
  "Ġlucky": 8501,
  "Ġfarmland": 8502,
  "jung": 8503,
  "Ġejung": 8504,
  "Ġejungle": 8505,
  "Can": 8506,
  "ĠDance": 8507,
  "Ball": 8508,
  "Burger": 8509,
  "bridge": 8510,
  "ORT": 8511,
  "ĠAIRPORT": 8512,
  "Ġlamos": 8513,
  "Ġankle": 8514,
  "fighter": 8515,
  "Ġfirefighter": 8516,
  "oyal": 8517,
  "ĠRoyal": 8518,
  "Belg": 8519,
  "Belgium": 8520,
  "Ġplatf": 8521,
  "Ġplatfrom": 8522,
  "Ġcroup": 8523,
  "Ġwilt": 8524,
  "Ġturret": 8525,
  "frul": 8526,
  "Ġcolofrul": 8527,
  "ĠPUG": 8528,
  "Ġiguana": 8529,
  "ĠDuck": 8530,
  "ĠMin": 8531,
  "ĠMinney": 8532,
  "isney": 8533,
  "ĠDisney": 8534,
  "natural": 8535,
  "Ġunnatural": 8536,
  "Ġknickknacks": 8537,
  "Ġextravagant": 8538,
  "Ġcaravan": 8539,
  "Made": 8540,
  "Ġespresso": 8541,
  "Ġgriaff": 8542,
  "Ġgriaffe": 8543,
  "Ġsightseeing": 8544,
  "Ġproh": 8545,
  "Ġprohibiting": 8546,
  "Ġspaceship": 8547,
  "Parachutes": 8548,
  "obama": 8549,
  "Ġussr": 8550,
  "Ġmainly": 8551,
  "ĠTHROWING": 8552,
  "lifier": 8553,
  "Ġamplifier": 8554,
  "Ġconcert": 8555,
  "ĠMcdonald": 8556,
  "ĠPro": 8557,
  "ĠPLAYER": 8558,
  "undreds": 8559,
  "Hundreds": 8560,
  "Ġbackgroundis": 8561,
  "ĠWhole": 8562,
  "Ġsex": 8563,
  "dish": 8564,
  "Ġfirehydrant": 8565,
  "Ġretriever": 8566,
  "bowls": 8567,
  "Ġswat": 8568,
  "Ġswatting": 8569,
  "robably": 8570,
  "Ġimprobably": 8571,
  "Ġmotocross": 8572,
  "students": 8573,
  "Ġapplesauce": 8574,
  "Ġceremony": 8575,
  "ĠSWING": 8576
}